#include "network_data.h"

ai_handle ai_network_data_weights_get(void)
{

  AI_ALIGNED(4)
  static const ai_u8 s_network_weights[ 3980 ] = {
    0xa8, 0x1b, 0x36, 0x3e, 0x2b, 0xc9, 0x82, 0x3e, 0x39, 0xe8,
    0xfd, 0x3d, 0x44, 0x17, 0xcb, 0x3e, 0xb2, 0xfa, 0x28, 0xbe,
    0x16, 0x7f, 0x39, 0x3e, 0x54, 0xd3, 0xb5, 0xbb, 0x2c, 0xed,
    0x4c, 0x3d, 0x2b, 0xb4, 0xdc, 0xbd, 0x87, 0x0e, 0x86, 0xbe,
    0xb4, 0x38, 0xbf, 0xbd, 0xfa, 0x87, 0x95, 0xbd, 0x73, 0x55,
    0x3c, 0x3d, 0x33, 0x4b, 0x08, 0xbf, 0xff, 0xba, 0x14, 0x3f,
    0x4d, 0x71, 0x09, 0xbf, 0x6e, 0xc5, 0xe9, 0x3c, 0x93, 0x12,
    0x84, 0xbe, 0x14, 0xa0, 0xab, 0xbe, 0x7b, 0x34, 0xb2, 0x3e,
    0x5a, 0xa4, 0xea, 0x3d, 0x93, 0x99, 0xe2, 0x3d, 0x28, 0xb7,
    0x83, 0xbe, 0xe0, 0x3f, 0xf6, 0x3c, 0xb2, 0xdc, 0x80, 0x3e,
    0xb6, 0xf5, 0xb7, 0xbe, 0x46, 0x55, 0x9d, 0x3e, 0xe1, 0x2d,
    0xcd, 0xbd, 0x6e, 0x4a, 0xbc, 0x3d, 0x8b, 0x49, 0x05, 0xbf,
    0xbb, 0x19, 0xcd, 0x3e, 0xac, 0x6c, 0xc3, 0xbd, 0xda, 0x50,
    0xdf, 0x3d, 0x3e, 0x70, 0xf9, 0x3e, 0x50, 0x2e, 0x55, 0x3d,
    0x72, 0x04, 0xaa, 0x3c, 0xdd, 0x20, 0xdd, 0x3c, 0x39, 0x98,
    0xd1, 0xbb, 0x53, 0x48, 0xe3, 0x3e, 0x2b, 0x41, 0xdc, 0xbc,
    0xef, 0x96, 0xe3, 0xbd, 0x78, 0x70, 0x57, 0xbe, 0xbd, 0x4a,
    0x9c, 0xbd, 0xfa, 0x22, 0x19, 0xbe, 0x93, 0x97, 0xe1, 0xbd,
    0x41, 0x03, 0x1f, 0xbe, 0x65, 0x64, 0x05, 0xbe, 0xaa, 0x85,
    0x0d, 0xbf, 0x55, 0x12, 0xa5, 0x3e, 0x3c, 0xf4, 0x0f, 0x3e,
    0x12, 0xac, 0x90, 0x3e, 0x79, 0x29, 0x04, 0x3f, 0x3d, 0x01,
    0xd8, 0xbd, 0x14, 0x9a, 0x55, 0x3e, 0xc2, 0xa2, 0x31, 0xbd,
    0xba, 0x9b, 0x2c, 0x3e, 0x07, 0x7c, 0x15, 0x3f, 0x01, 0x58,
    0xc5, 0xbe, 0x06, 0x8c, 0x55, 0xbe, 0xa1, 0x64, 0xb9, 0xbe,
    0x57, 0x0e, 0xe0, 0x3d, 0xe3, 0xf3, 0x4a, 0xbe, 0x95, 0x89,
    0x35, 0x3e, 0xbd, 0x87, 0x81, 0x3e, 0x16, 0xc5, 0xdc, 0x3d,
    0x0c, 0x6c, 0x6c, 0xbe, 0xa8, 0xc6, 0xff, 0xbe, 0xcb, 0x27,
    0xd8, 0x3e, 0xf4, 0xef, 0x00, 0x3e, 0xe1, 0xdf, 0x47, 0xbc,
    0x22, 0x35, 0x8c, 0x3e, 0xcf, 0xe0, 0x27, 0xbe, 0xf2, 0x30,
    0xc8, 0x3e, 0xcd, 0x3a, 0x97, 0x3d, 0xe6, 0x6d, 0x5d, 0x3e,
    0x2c, 0x12, 0xf1, 0xbb, 0x01, 0x91, 0x71, 0x3d, 0x8e, 0x29,
    0x7d, 0xbe, 0xd4, 0x5b, 0x6c, 0x3d, 0x31, 0x97, 0xb8, 0x3e,
    0x87, 0x77, 0x22, 0xbe, 0xfe, 0x2c, 0x13, 0xbe, 0xa9, 0xc1,
    0xa0, 0xbd, 0x37, 0xa2, 0x25, 0xbd, 0x58, 0x6b, 0x51, 0xbe,
    0xc5, 0xc9, 0xed, 0xbd, 0x41, 0xc8, 0xf2, 0x3d, 0x35, 0xdd,
    0x15, 0x3e, 0xc2, 0xd2, 0x66, 0xbe, 0xa2, 0xde, 0xe5, 0x3e,
    0x16, 0xc4, 0x79, 0x3e, 0x8c, 0xe9, 0xb1, 0x3e, 0xe0, 0x1a,
    0xac, 0xba, 0xdd, 0x00, 0x4e, 0x3e, 0xdb, 0xbe, 0x1d, 0x3f,
    0x97, 0xc0, 0x3d, 0xbe, 0x87, 0x97, 0x46, 0x3f, 0x4c, 0x43,
    0x04, 0xbe, 0xde, 0xcb, 0x84, 0xbe, 0xcb, 0xd3, 0x9d, 0x3e,
    0xb3, 0xe3, 0x6a, 0xbf, 0x2c, 0x47, 0xad, 0xbe, 0x9c, 0x3e,
    0xbb, 0x3e, 0xe9, 0x0b, 0x53, 0x3c, 0xaa, 0x81, 0xe4, 0xbe,
    0x24, 0x68, 0x34, 0xbe, 0x17, 0xb6, 0xfe, 0x3d, 0xd9, 0xbc,
    0x8b, 0x3c, 0x46, 0xb6, 0xc9, 0xbd, 0xec, 0x15, 0xd6, 0xbe,
    0x74, 0xec, 0xd8, 0xbe, 0x2f, 0x8a, 0x70, 0xbd, 0x3d, 0x18,
    0x98, 0xbd, 0x17, 0xae, 0x87, 0xbd, 0x46, 0x5e, 0xb4, 0x3d,
    0x63, 0xee, 0x06, 0x3f, 0x2f, 0x8c, 0x3a, 0x3f, 0xe5, 0xac,
    0x34, 0x3e, 0x6e, 0x68, 0x33, 0x3f, 0x8f, 0x95, 0x70, 0x3e,
    0x7c, 0x65, 0xae, 0x3e, 0x81, 0xdb, 0x08, 0x3f, 0xde, 0x05,
    0xbe, 0xbe, 0x22, 0xa5, 0x65, 0x3e, 0xcc, 0x30, 0x9f, 0xbe,
    0xb7, 0x1f, 0x4f, 0xbf, 0xeb, 0x22, 0x13, 0xbf, 0xc6, 0x44,
    0x68, 0xbe, 0x7a, 0x92, 0x2f, 0x3e, 0xda, 0x68, 0x18, 0x3e,
    0xfd, 0x13, 0x19, 0xbe, 0xce, 0x5b, 0xc1, 0xbe, 0xb2, 0x52,
    0x5b, 0xbe, 0x3a, 0xf0, 0xd1, 0xbc, 0x2f, 0x63, 0xf3, 0x3c,
    0x63, 0x1c, 0x44, 0xbe, 0x68, 0xe3, 0x39, 0x3e, 0x3f, 0x49,
    0xb3, 0xbc, 0xcf, 0x71, 0x93, 0xbe, 0x4d, 0xc1, 0x53, 0x3d,
    0x7f, 0x6c, 0x52, 0x3d, 0x81, 0x71, 0x4a, 0xbd, 0xab, 0xae,
    0x18, 0x3e, 0x0e, 0xc3, 0xfc, 0x3d, 0x52, 0xc7, 0x8b, 0xbe,
    0x22, 0xe3, 0x68, 0x3e, 0x94, 0x85, 0x34, 0xbd, 0x3a, 0x07,
    0xa0, 0xbe, 0x92, 0xbd, 0xeb, 0x3c, 0x8e, 0xb6, 0x57, 0x3f,
    0x30, 0x50, 0x66, 0xbc, 0x7f, 0x17, 0x78, 0x3e, 0xfc, 0x97,
    0x54, 0xbd, 0xc6, 0x61, 0x8b, 0xbb, 0x29, 0x31, 0x41, 0x3e,
    0x81, 0xc7, 0xde, 0xbd, 0x7c, 0x6e, 0x11, 0xbf, 0xb0, 0x27,
    0x39, 0x3e, 0xa3, 0x19, 0xb1, 0xbd, 0x00, 0xcd, 0xe6, 0x3c,
    0x33, 0x76, 0xd7, 0x3e, 0x91, 0xa3, 0x69, 0x3d, 0x20, 0x60,
    0x8d, 0xbe, 0xd4, 0xb6, 0x75, 0x3e, 0x9e, 0xef, 0x1b, 0xbd,
    0x5b, 0x59, 0x83, 0xbe, 0x01, 0xe4, 0x70, 0x3e, 0x62, 0x48,
    0xa0, 0xbe, 0x30, 0x72, 0x2d, 0x3e, 0xbf, 0xbf, 0xc9, 0xbe,
    0xae, 0xbf, 0x71, 0x3e, 0xcc, 0x22, 0x67, 0x3e, 0xa4, 0xa0,
    0xc6, 0x3e, 0x55, 0x8a, 0x74, 0xbe, 0x73, 0x96, 0x96, 0x3e,
    0x41, 0xa5, 0xbc, 0x3e, 0xb8, 0xc6, 0xcb, 0xbc, 0xbe, 0xae,
    0xed, 0xbd, 0x9c, 0x4a, 0xfb, 0x3e, 0x75, 0x3c, 0xae, 0xbd,
    0x57, 0x35, 0xc8, 0xbd, 0x4b, 0x49, 0xd8, 0x3d, 0x81, 0xc2,
    0xe8, 0x3e, 0xd6, 0xf1, 0xfa, 0xbc, 0xd6, 0x61, 0x7d, 0xbe,
    0x38, 0x4c, 0xd8, 0xbd, 0x93, 0x22, 0x1d, 0x3e, 0xed, 0xfa,
    0xb2, 0xbe, 0x6c, 0x85, 0xa4, 0xbb, 0xc0, 0x17, 0xbf, 0x3c,
    0xa8, 0x94, 0x10, 0x3d, 0x95, 0x08, 0xfe, 0x3e, 0x83, 0x5c,
    0xae, 0xbe, 0xd1, 0x72, 0x2a, 0xbe, 0xe8, 0x6e, 0x72, 0xbe,
    0x00, 0xd0, 0xb2, 0xbd, 0xac, 0xe7, 0x22, 0xbd, 0x72, 0xfe,
    0xd7, 0x3e, 0x68, 0xd3, 0xc9, 0x3b, 0xff, 0x29, 0xa9, 0x3e,
    0x6e, 0xe4, 0x3a, 0xbe, 0x28, 0x77, 0xa6, 0xbe, 0x58, 0x15,
    0x57, 0x3e, 0x94, 0x40, 0xc4, 0x3e, 0xf0, 0xe4, 0x7d, 0x3e,
    0x05, 0x13, 0xf9, 0x3d, 0x46, 0x75, 0x7f, 0xbe, 0x0e, 0x4c,
    0x3b, 0x3e, 0x31, 0x53, 0x65, 0x3e, 0xa2, 0x6c, 0xde, 0x3e,
    0xe9, 0xd3, 0xb6, 0x3e, 0xa3, 0xe3, 0x8d, 0x3d, 0x75, 0x6c,
    0xc7, 0xbd, 0xbc, 0x94, 0xc0, 0x3b, 0xe1, 0x46, 0x5f, 0x3e,
    0x7c, 0xa7, 0x33, 0xbe, 0x20, 0x4d, 0xbd, 0xbd, 0xad, 0xd2,
    0x0d, 0x3e, 0xc8, 0xfb, 0x82, 0x3e, 0xa7, 0x8c, 0x7a, 0xbe,
    0x4c, 0x45, 0xe5, 0x3d, 0x4e, 0x2f, 0xa4, 0x3d, 0x00, 0xc9,
    0xa2, 0xbe, 0xcf, 0xbf, 0x11, 0xbf, 0x68, 0x8a, 0x1e, 0xbe,
    0x16, 0xf5, 0x52, 0x3e, 0xfc, 0x76, 0xf3, 0xbe, 0x31, 0xbe,
    0xdb, 0xbc, 0xd7, 0x1d, 0xb3, 0xbd, 0xc9, 0x13, 0x21, 0x3f,
    0x66, 0x68, 0x71, 0xbd, 0xcc, 0xc4, 0xb7, 0x3e, 0xfb, 0xb0,
    0x51, 0x3e, 0x84, 0xc0, 0x76, 0x3e, 0xd2, 0x72, 0xb3, 0x3e,
    0x6a, 0xb8, 0x93, 0x3e, 0xba, 0x6f, 0xd3, 0xbe, 0xcd, 0xce,
    0xf3, 0x3d, 0x2f, 0x5d, 0xab, 0x3b, 0x32, 0x71, 0xaf, 0xbe,
    0xd7, 0x88, 0x8f, 0xbe, 0x5d, 0xbf, 0xfb, 0x3d, 0xd2, 0x66,
    0x14, 0xbe, 0x18, 0x1f, 0x51, 0xbd, 0x31, 0xb1, 0x16, 0xbd,
    0x80, 0xaf, 0x02, 0xbe, 0x12, 0xdb, 0x4a, 0xbd, 0x41, 0x9b,
    0x06, 0x3d, 0x8c, 0x1b, 0x0b, 0x3e, 0xc0, 0x9e, 0x45, 0xbc,
    0xb0, 0xc9, 0x83, 0xbe, 0x94, 0xd9, 0x09, 0xbf, 0x4d, 0x3b,
    0xe0, 0x3e, 0x32, 0x33, 0x1a, 0xbe, 0x0e, 0xc1, 0xaa, 0x3e,
    0x8c, 0x72, 0xfc, 0xbc, 0xde, 0xe5, 0xcd, 0x3d, 0x29, 0xb7,
    0x9a, 0xbe, 0x4b, 0x54, 0x9f, 0x3e, 0x11, 0xcf, 0x03, 0xbe,
    0xd4, 0xc9, 0xc6, 0x3e, 0xc8, 0x98, 0x00, 0x3e, 0x65, 0xac,
    0x3d, 0xbf, 0x33, 0xe0, 0xdb, 0xbd, 0xf5, 0x7f, 0xfd, 0x3e,
    0xea, 0xad, 0xa2, 0xbe, 0x63, 0x3b, 0x65, 0xbe, 0xe0, 0x6b,
    0x39, 0xbe, 0x30, 0x1c, 0x09, 0xbe, 0x20, 0x4b, 0xd0, 0xbe,
    0x71, 0x8c, 0x00, 0x3c, 0xf5, 0xd5, 0x38, 0x3e, 0x97, 0xc3,
    0xc5, 0x3d, 0x9f, 0xc7, 0x86, 0x3d, 0x8b, 0x7d, 0x36, 0xbe,
    0x3b, 0xfe, 0xe2, 0x3c, 0x7e, 0xd2, 0x0d, 0xbe, 0x1b, 0xd5,
    0x7f, 0xbe, 0x97, 0x6f, 0x70, 0x3e, 0x0a, 0xa8, 0x07, 0x3e,
    0x13, 0x8d, 0x06, 0x3e, 0xb5, 0x05, 0x7f, 0xbe, 0x41, 0x33,
    0x95, 0xbe, 0x00, 0xc5, 0x5a, 0xbe, 0x89, 0xa0, 0xba, 0x3e,
    0xc9, 0x23, 0xe8, 0xbe, 0x6e, 0x4a, 0x85, 0xbe, 0xa3, 0x5e,
    0x6e, 0xbe, 0xcf, 0x29, 0x23, 0xbe, 0x33, 0x11, 0xff, 0x3e,
    0x2d, 0xe1, 0x18, 0x3f, 0x98, 0x5f, 0xea, 0xbd, 0x1d, 0x39,
    0x9a, 0xbd, 0x85, 0x25, 0x68, 0xbd, 0x94, 0xf7, 0x9e, 0xbe,
    0xd0, 0x3d, 0xc2, 0xbe, 0xc8, 0x8a, 0x1f, 0xbe, 0x87, 0x39,
    0x03, 0x3e, 0x17, 0xaa, 0x7b, 0x3e, 0x93, 0xdd, 0xa6, 0x3e,
    0xcb, 0x14, 0xb9, 0xbe, 0x08, 0xbb, 0x12, 0xbe, 0x2e, 0xf4,
    0x5e, 0xbe, 0x43, 0xe4, 0xf8, 0x3c, 0x7a, 0xcc, 0x75, 0x3d,
    0xf3, 0xc9, 0xe7, 0x3e, 0x1c, 0xfc, 0x1f, 0x3d, 0xeb, 0x22,
    0x75, 0x3e, 0xb1, 0xb5, 0xea, 0xbe, 0x93, 0x8b, 0x05, 0x3e,
    0x46, 0x37, 0x43, 0x3d, 0x59, 0x41, 0xbd, 0x3d, 0x50, 0x0a,
    0x05, 0xbf, 0xca, 0x03, 0x0e, 0xbe, 0xa6, 0xb6, 0x26, 0xbe,
    0x29, 0xb2, 0x05, 0xbe, 0x67, 0x53, 0xa1, 0xbd, 0xff, 0x39,
    0x0d, 0x3f, 0x97, 0xc8, 0xf4, 0xbe, 0xc7, 0x7e, 0x88, 0xbe,
    0x4b, 0x72, 0x7d, 0x3e, 0x82, 0xc1, 0x29, 0x3e, 0xae, 0x4b,
    0x7f, 0x3e, 0xca, 0x3a, 0xa8, 0xbe, 0x36, 0x03, 0x6a, 0x3e,
    0x1d, 0x3c, 0x42, 0xbc, 0x13, 0x60, 0x1f, 0xbf, 0x74, 0xf9,
    0x56, 0x3d, 0xda, 0xee, 0x09, 0xbe, 0x6d, 0x7e, 0x90, 0x3e,
    0xe1, 0x41, 0x7e, 0x3d, 0xed, 0x0a, 0xa0, 0x3e, 0x67, 0x90,
    0xe8, 0xbe, 0x69, 0x22, 0x0e, 0xbc, 0x5b, 0x86, 0x8b, 0xbe,
    0x66, 0xad, 0x9c, 0x3e, 0xe2, 0xad, 0x71, 0x3e, 0x2d, 0x49,
    0x12, 0x3e, 0x00, 0xa6, 0xd5, 0xbd, 0x4f, 0x56, 0x53, 0x3d,
    0x45, 0x0b, 0xc9, 0xbe, 0x1f, 0x0c, 0x9b, 0x3e, 0xd8, 0xa3,
    0x22, 0x3c, 0xbd, 0xa6, 0x36, 0xbe, 0x16, 0x1f, 0x15, 0xbf,
    0x20, 0xe5, 0xe1, 0x3e, 0x9d, 0xfb, 0xc8, 0x3e, 0xe7, 0x76,
    0x5b, 0xbd, 0x91, 0xd1, 0xe8, 0xbd, 0x5a, 0x62, 0xc7, 0x3c,
    0x56, 0x47, 0xba, 0xbd, 0x12, 0xb0, 0x3e, 0xbb, 0x4d, 0xa7,
    0x86, 0x3e, 0x26, 0x4a, 0x9c, 0xbd, 0xac, 0x89, 0x5e, 0xbe,
    0x6c, 0x6c, 0xa1, 0x3d, 0xb1, 0x3d, 0x04, 0xbe, 0xe7, 0x36,
    0xa3, 0xbe, 0x4e, 0xac, 0x90, 0x3e, 0x52, 0xcd, 0xa4, 0x3e,
    0xd2, 0x6e, 0x09, 0xbf, 0x28, 0x42, 0x03, 0x3f, 0x9e, 0x7a,
    0xb9, 0xbe, 0x30, 0x2c, 0x61, 0xbe, 0x7a, 0x04, 0x5b, 0xbe,
    0xdc, 0x88, 0x01, 0x3e, 0xb0, 0x7f, 0x8f, 0xbe, 0x1f, 0xea,
    0x0c, 0x3d, 0xb0, 0xe4, 0xa1, 0xbd, 0x73, 0x71, 0x03, 0xbf,
    0x13, 0xed, 0x36, 0xbd, 0xaf, 0xa2, 0x5e, 0x3e, 0x23, 0x43,
    0x50, 0xbf, 0xca, 0x47, 0x8c, 0xbe, 0x0e, 0x4b, 0x91, 0xbc,
    0xe3, 0x15, 0x68, 0xbe, 0xc2, 0x2a, 0x01, 0x3e, 0x02, 0x1b,
    0xe5, 0xbd, 0x7e, 0x88, 0x74, 0x3e, 0x35, 0xdd, 0x00, 0xbe,
    0x0f, 0x61, 0x12, 0x3e, 0xeb, 0x4c, 0x28, 0x3f, 0x63, 0xb6,
    0x8f, 0x3d, 0x0b, 0xc4, 0x45, 0xbd, 0x88, 0x8f, 0x8e, 0xbe,
    0xf4, 0x1b, 0x7d, 0x3e, 0x92, 0xf7, 0x0f, 0xbe, 0x97, 0x86,
    0x10, 0x3e, 0x48, 0x99, 0x5e, 0xbe, 0x7f, 0x74, 0x9c, 0x3d,
    0x47, 0x4f, 0x43, 0xbe, 0xe5, 0x6f, 0x56, 0xbe, 0x92, 0x4e,
    0x8d, 0xbe, 0x78, 0x48, 0x0a, 0xbf, 0x7a, 0x94, 0x8f, 0xbe,
    0x07, 0xa0, 0x66, 0xbe, 0x6e, 0x64, 0x6e, 0xbd, 0xa4, 0x4e,
    0xc0, 0x3d, 0x7e, 0xf3, 0x2d, 0xbd, 0xef, 0x88, 0x2e, 0x3e,
    0x4e, 0x6e, 0x68, 0x3e, 0x8e, 0xe7, 0x18, 0xbe, 0x23, 0x62,
    0xa3, 0xbc, 0xd5, 0x74, 0x44, 0xbe, 0xa7, 0x76, 0x51, 0xbe,
    0x2b, 0x1b, 0x7e, 0x3e, 0x75, 0x1b, 0x4c, 0x3e, 0xd5, 0x0c,
    0xac, 0xbe, 0x2b, 0x6e, 0xa6, 0x3c, 0xdd, 0x85, 0x96, 0x3e,
    0x26, 0xb1, 0x71, 0x3e, 0xcf, 0x8d, 0xc1, 0x3e, 0xad, 0xf6,
    0xe1, 0xbe, 0x9f, 0x11, 0x87, 0xbe, 0xff, 0xa3, 0x91, 0x3e,
    0xf0, 0x25, 0xb0, 0x3d, 0x3a, 0x37, 0x8f, 0x3e, 0x25, 0xb0,
    0x0f, 0xbe, 0xb8, 0xa7, 0xfd, 0xbd, 0xe4, 0xe8, 0x90, 0xbe,
    0xa7, 0x2d, 0x87, 0x3b, 0xfb, 0xf6, 0x95, 0xbd, 0xdb, 0xf9,
    0x5b, 0xbd, 0xcc, 0xa6, 0x03, 0x3e, 0xbe, 0xc7, 0x0a, 0xbf,
    0x7a, 0x22, 0x31, 0xbf, 0xa9, 0x9f, 0x9e, 0xbb, 0x56, 0x1f,
    0xc0, 0xbe, 0x31, 0xa3, 0x0e, 0x3d, 0xf6, 0x67, 0x35, 0x3e,
    0xd8, 0x99, 0x14, 0xbe, 0x6e, 0x0f, 0x89, 0x3d, 0x01, 0x29,
    0x29, 0x3d, 0xf3, 0x99, 0xbf, 0x3e, 0x2b, 0x4b, 0xd4, 0x3e,
    0xfc, 0x77, 0x23, 0xbe, 0x13, 0xb0, 0x54, 0xbe, 0xd8, 0x28,
    0x1b, 0xbe, 0x2a, 0x2b, 0x81, 0x3e, 0x96, 0xb1, 0x4c, 0xbe,
    0x7a, 0x12, 0x03, 0x3f, 0xf4, 0xc3, 0xb0, 0x3d, 0xaf, 0x83,
    0xee, 0xbd, 0x0f, 0x35, 0x83, 0xbe, 0x55, 0x56, 0x5e, 0x3d,
    0x99, 0x88, 0x02, 0xbe, 0xda, 0xac, 0x73, 0x3d, 0x3d, 0x8a,
    0x0e, 0xbf, 0xb8, 0x77, 0x85, 0xbc, 0xa0, 0x1c, 0x7b, 0xbe,
    0x36, 0xf0, 0x5d, 0xbe, 0x38, 0x84, 0x85, 0x3e, 0xaf, 0x90,
    0x02, 0x3f, 0xaf, 0x8b, 0x9b, 0xbe, 0x1f, 0xda, 0x24, 0xbd,
    0xa4, 0x1e, 0x37, 0x3d, 0xda, 0x59, 0x86, 0x3e, 0x16, 0x85,
    0xf7, 0xbd, 0x2a, 0x6a, 0xb5, 0x3d, 0x90, 0xb6, 0x9e, 0x3d,
    0xbe, 0xa1, 0x4d, 0xbe, 0x30, 0x7e, 0xd5, 0x3e, 0x8f, 0x2e,
    0x4d, 0x3c, 0x6e, 0x8c, 0x9c, 0xbd, 0x82, 0x0d, 0xda, 0xbe,
    0xc6, 0x90, 0xe9, 0xbe, 0xa2, 0x78, 0x43, 0xbd, 0x94, 0x87,
    0xe2, 0xbe, 0x49, 0x6a, 0x22, 0xbe, 0x56, 0x9a, 0xfa, 0x3d,
    0x44, 0x64, 0x7e, 0xbe, 0x14, 0xf8, 0x95, 0x3d, 0x94, 0x11,
    0x09, 0x3f, 0x64, 0xa3, 0xcb, 0x3d, 0x64, 0xee, 0xc8, 0x3e,
    0xbb, 0x3e, 0xd9, 0x3e, 0x27, 0xdc, 0x1f, 0x3f, 0x3f, 0xec,
    0x3b, 0x3e, 0xf9, 0x75, 0x31, 0xbe, 0x7b, 0x5f, 0xdf, 0xbe,
    0xd8, 0xad, 0x10, 0x3e, 0x6e, 0x1d, 0x4a, 0x3e, 0x31, 0x3b,
    0x45, 0x3e, 0x17, 0x7d, 0x82, 0xbe, 0x0a, 0x6c, 0x1d, 0x3f,
    0x04, 0x9a, 0xa7, 0x3c, 0xdf, 0xf6, 0x9a, 0x3e, 0xa9, 0xa1,
    0x74, 0xbe, 0x9a, 0x3b, 0x2f, 0xbe, 0x18, 0xa6, 0xda, 0x3d,
    0x5f, 0x68, 0xc4, 0xbd, 0x96, 0xd2, 0x78, 0x3e, 0xaf, 0x85,
    0x96, 0x3e, 0xe3, 0x25, 0x9f, 0xbe, 0x02, 0xfd, 0xbc, 0xbd,
    0xa4, 0x63, 0xed, 0x3e, 0x35, 0x83, 0x96, 0xbe, 0x9a, 0x2f,
    0x9a, 0xbd, 0xba, 0xb9, 0x38, 0xbe, 0xe1, 0x0f, 0xc1, 0x3d,
    0x7d, 0xfc, 0x46, 0x3d, 0x51, 0x52, 0x00, 0xbf, 0xfe, 0x31,
    0xfd, 0xbe, 0xec, 0x9f, 0x7f, 0x3c, 0x48, 0x30, 0x6b, 0x3e,
    0xef, 0xcf, 0xaa, 0x3e, 0x28, 0xcb, 0x3b, 0x3e, 0xb7, 0xe2,
    0xa0, 0x3d, 0xf1, 0x0b, 0x9d, 0xbe, 0x0e, 0xde, 0x7f, 0xbb,
    0xe0, 0xe6, 0xa8, 0x3e, 0xed, 0x43, 0x8f, 0xbe, 0x75, 0xd3,
    0xb4, 0xbe, 0xb1, 0xb4, 0xc1, 0xba, 0x82, 0x63, 0xb1, 0xbd,
    0xeb, 0x0a, 0xc2, 0x3e, 0x0a, 0x31, 0xfd, 0xbe, 0x5d, 0xed,
    0xfb, 0xbd, 0x3a, 0x76, 0xb7, 0x3e, 0x56, 0xd0, 0x24, 0xbe,
    0x29, 0x11, 0xb3, 0xbd, 0xa1, 0x90, 0x19, 0x3f, 0x14, 0xc0,
    0xf5, 0x3e, 0x1a, 0x16, 0x3c, 0x3e, 0x22, 0x3d, 0xc6, 0x3e,
    0x08, 0xb2, 0x22, 0xbe, 0xb5, 0xa6, 0xdd, 0xbd, 0xff, 0x20,
    0x61, 0xbe, 0x09, 0x5e, 0x17, 0x3d, 0xde, 0x5f, 0x1b, 0x3e,
    0xf0, 0x72, 0xae, 0xbe, 0xee, 0xd0, 0x63, 0x3e, 0x6b, 0x0e,
    0xde, 0xbd, 0x9d, 0xd4, 0xb9, 0x3e, 0xd7, 0x65, 0xe0, 0xbd,
    0x6d, 0x6e, 0xd0, 0xbd, 0xeb, 0x6f, 0xc4, 0xbe, 0xd9, 0xcc,
    0x6f, 0x3e, 0xc2, 0x96, 0x56, 0xbe, 0x7a, 0xad, 0xed, 0xbc,
    0x9e, 0x62, 0xf1, 0xbd, 0x8d, 0xc6, 0x69, 0x3e, 0xf9, 0x40,
    0xad, 0x3e, 0x8e, 0x38, 0xbd, 0xbe, 0x35, 0x12, 0xc6, 0x3e,
    0xe1, 0x3c, 0x8d, 0x3e, 0x04, 0xa7, 0xf7, 0x3d, 0x76, 0xfc,
    0x24, 0xbe, 0x19, 0x30, 0x42, 0xbe, 0x59, 0x66, 0xbc, 0x3d,
    0x5d, 0xa3, 0x5c, 0x3e, 0xe4, 0x8e, 0xba, 0xbd, 0xbe, 0xa5,
    0x35, 0xbd, 0xf4, 0xb2, 0x97, 0xbe, 0xa4, 0xa0, 0x3e, 0xbb,
    0x58, 0x30, 0xe0, 0xbc, 0x26, 0x05, 0xd3, 0x3b, 0x26, 0xbc,
    0x90, 0x3e, 0xe6, 0x75, 0xa2, 0xbd, 0x62, 0x69, 0x2f, 0xbe,
    0x62, 0x8b, 0xac, 0x3e, 0x3c, 0x7f, 0x6f, 0x3e, 0xdf, 0xa6,
    0x07, 0x3d, 0x95, 0xc2, 0x19, 0xbf, 0x96, 0xec, 0x10, 0x3f,
    0x75, 0xcb, 0xc5, 0x3e, 0x37, 0x43, 0x24, 0xbf, 0xed, 0x51,
    0x9e, 0x3d, 0x47, 0xf3, 0x80, 0xbd, 0xf6, 0x99, 0x24, 0xbf,
    0xa5, 0x48, 0x9d, 0x3e, 0x30, 0x43, 0x9d, 0xbd, 0x65, 0xb7,
    0x2a, 0x3e, 0xe6, 0xfb, 0x7c, 0x3e, 0x51, 0xb1, 0xd1, 0x3d,
    0xd0, 0x50, 0x13, 0xbe, 0xf9, 0xb3, 0x9b, 0x3d, 0x0c, 0xd2,
    0x30, 0xbe, 0x59, 0xc7, 0x23, 0xbc, 0x41, 0x13, 0x17, 0x3e,
    0xa3, 0x43, 0xfd, 0xbe, 0x5b, 0x8d, 0xea, 0xbe, 0x1b, 0xa8,
    0x13, 0x3f, 0x56, 0x98, 0x5e, 0xbe, 0xa9, 0xe5, 0xa5, 0x3e,
    0xfb, 0xe8, 0xac, 0x3c, 0x38, 0x47, 0x85, 0xbd, 0x28, 0x3e,
    0x08, 0x3d, 0xbe, 0x2e, 0xa2, 0x3d, 0x5a, 0x60, 0x45, 0xbe,
    0x57, 0x37, 0xd2, 0x3d, 0xcf, 0x92, 0xf6, 0x3c, 0xc6, 0x39,
    0xab, 0xbe, 0x4e, 0x6e, 0x90, 0x3e, 0x10, 0x41, 0x97, 0x3e,
    0xec, 0x81, 0x27, 0xbe, 0x49, 0x30, 0x04, 0xbe, 0x40, 0x1e,
    0xef, 0x3d, 0x8c, 0x9d, 0x02, 0xbe, 0xa1, 0x4f, 0x98, 0x3e,
    0x1b, 0x1e, 0x8b, 0x3d, 0x6d, 0x84, 0x5e, 0xbe, 0x0b, 0xd1,
    0xa1, 0xbe, 0xff, 0x5b, 0x12, 0xbe, 0xcd, 0x4a, 0x33, 0xbf,
    0x5c, 0x31, 0x50, 0x3e, 0x0c, 0x8d, 0xda, 0x3d, 0x65, 0x27,
    0x07, 0xbe, 0xa0, 0x54, 0xbd, 0xbe, 0x7d, 0x66, 0xc7, 0xbe,
    0x1c, 0x4f, 0x49, 0xbe, 0x8b, 0xdf, 0x78, 0x3a, 0x5f, 0x55,
    0xa8, 0xbe, 0xff, 0xb6, 0x93, 0x3e, 0x11, 0xa4, 0x17, 0x3f,
    0xc7, 0x6a, 0xff, 0xb8, 0x54, 0xc7, 0xf3, 0xbe, 0x0b, 0xe3,
    0x58, 0x3e, 0xba, 0x1c, 0xaa, 0x3e, 0x33, 0xb1, 0x08, 0xbf,
    0x17, 0x0d, 0xff, 0x3d, 0xee, 0x9f, 0xb7, 0x3e, 0xc2, 0xed,
    0x3b, 0xbe, 0xb9, 0x3e, 0xa3, 0xbe, 0x67, 0xa5, 0xac, 0x3d,
    0xf0, 0xd1, 0xb5, 0xbd, 0xb1, 0x83, 0xdf, 0x3e, 0xaf, 0x4b,
    0x94, 0x3e, 0x97, 0xf0, 0x26, 0xbe, 0x57, 0x5b, 0x41, 0xbe,
    0xc2, 0x94, 0xb4, 0xbc, 0x27, 0xee, 0xc8, 0xbd, 0x36, 0xa3,
    0x82, 0xbc, 0x40, 0xa4, 0xbf, 0xbe, 0xcd, 0x9c, 0x09, 0xbe,
    0x2a, 0x24, 0xb0, 0xbe, 0xa5, 0xd7, 0xda, 0xbe, 0xb4, 0x34,
    0x62, 0x3d, 0xa2, 0x36, 0x1e, 0xbe, 0xc3, 0xca, 0x30, 0xbe,
    0xdf, 0x14, 0xc3, 0x3e, 0x06, 0x6c, 0xc3, 0x3e, 0x7e, 0xc3,
    0x55, 0xbd, 0x91, 0x3c, 0x08, 0xbe, 0xa7, 0x02, 0x21, 0xbe,
    0x24, 0x92, 0xaa, 0x3e, 0x23, 0x0b, 0xa7, 0xbd, 0x7f, 0x9a,
    0xe9, 0xbe, 0x70, 0xe3, 0xd8, 0x3d, 0x34, 0xf5, 0xf8, 0x3d,
    0x6f, 0x82, 0x80, 0xbd, 0xd3, 0xbd, 0x15, 0x3e, 0x4b, 0x24,
    0xc2, 0xbd, 0xe3, 0x95, 0x1f, 0xbd, 0xc5, 0x97, 0x90, 0xbe,
    0x1c, 0xc6, 0xa0, 0x3e, 0xf1, 0xf5, 0x6a, 0xbd, 0x77, 0x49,
    0x33, 0xbe, 0x55, 0xac, 0x17, 0xbe, 0x5b, 0x34, 0x78, 0xbe,
    0x13, 0xec, 0x8b, 0xbd, 0xe2, 0xf1, 0xe4, 0xbe, 0xc1, 0xb9,
    0xd4, 0x3e, 0x8d, 0x89, 0xe0, 0xbe, 0x78, 0x45, 0xa5, 0x3d,
    0x6f, 0x5c, 0xa4, 0xbe, 0x89, 0x01, 0x51, 0xbe, 0x25, 0x71,
    0x2e, 0x3f, 0x28, 0x93, 0x33, 0x3f, 0x67, 0xaf, 0x50, 0xbe,
    0x3b, 0xeb, 0xa8, 0xbd, 0x88, 0x89, 0x3c, 0x3d, 0x7c, 0xcc,
    0x0d, 0x3e, 0x33, 0x79, 0x22, 0xbe, 0x75, 0xbc, 0x3b, 0x3e,
    0xd2, 0x2d, 0x5b, 0x3d, 0x46, 0x50, 0x36, 0x3e, 0x26, 0xef,
    0x43, 0xbe, 0xea, 0xd8, 0xa1, 0x3e, 0x43, 0xfd, 0x3d, 0xbe,
    0xc9, 0xc7, 0xc8, 0x3c, 0xf4, 0x27, 0x96, 0x3e, 0xff, 0xc9,
    0xd7, 0x3d, 0x6e, 0x37, 0x86, 0xbe, 0xc2, 0x5e, 0xc6, 0xbe,
    0x41, 0xc5, 0xb3, 0xbe, 0x2a, 0xf8, 0x1c, 0x3b, 0x57, 0xd3,
    0x52, 0xbc, 0x87, 0x1a, 0x1f, 0xbf, 0x79, 0xf5, 0x99, 0x3e,
    0x4c, 0xba, 0xc0, 0xbd, 0xcd, 0x15, 0x05, 0xbf, 0x0a, 0x03,
    0xb4, 0x3e, 0xf6, 0xd9, 0xbf, 0x3c, 0x32, 0xe3, 0x21, 0x3f,
    0xe5, 0x35, 0xbc, 0x3e, 0x8b, 0x0a, 0x52, 0xbd, 0x32, 0x61,
    0x68, 0xbe, 0xbf, 0xa1, 0x85, 0x3d, 0x82, 0x84, 0x96, 0x3e,
    0x54, 0x95, 0xd4, 0xbe, 0xd8, 0xdd, 0x02, 0x3e, 0x6e, 0x55,
    0x54, 0xbe, 0xd3, 0x3f, 0xec, 0xbd, 0x9e, 0x72, 0x3e, 0xbf,
    0x6e, 0x1e, 0x25, 0x3e, 0xb0, 0x34, 0x34, 0xbe, 0x77, 0x7a,
    0x65, 0xbe, 0xda, 0x7a, 0xf0, 0x3e, 0xf4, 0xfe, 0xa8, 0x3e,
    0xea, 0x06, 0x5a, 0xbe, 0xea, 0xe7, 0xb7, 0x3e, 0x2e, 0x6f,
    0xee, 0x3e, 0x24, 0xf3, 0x33, 0x3e, 0xc3, 0x8e, 0x18, 0xbe,
    0x78, 0xbf, 0xde, 0xbd, 0x6f, 0x89, 0xe2, 0xbe, 0xcf, 0x9a,
    0x34, 0x3e, 0xf9, 0xc6, 0xc0, 0xbe, 0xcb, 0x7f, 0xf0, 0xbe,
    0x9e, 0xfd, 0xde, 0x3d, 0x6f, 0x3a, 0x43, 0xbf, 0xf5, 0xee,
    0xf3, 0xbe, 0x48, 0xd7, 0xa1, 0xbc, 0x30, 0x4c, 0x45, 0x3c,
    0x0d, 0x98, 0x1a, 0x3e, 0xdb, 0x81, 0xb4, 0x3e, 0xff, 0xab,
    0x9f, 0x3c, 0xa3, 0x22, 0xeb, 0xbd, 0x32, 0x88, 0x10, 0x3e,
    0x66, 0x7b, 0x85, 0xbe, 0x73, 0xf7, 0x00, 0xbe, 0xba, 0xe8,
    0xcc, 0xbd, 0xf8, 0x0e, 0xd7, 0x3d, 0xc7, 0x3d, 0xdc, 0xbe,
    0xe4, 0x62, 0x85, 0xbe, 0x0b, 0x37, 0x53, 0xbe, 0x67, 0xd8,
    0x2d, 0xbf, 0xc6, 0x9c, 0x41, 0x3d, 0x0c, 0xd9, 0x4b, 0x3e,
    0x46, 0xc0, 0x8d, 0x3c, 0x69, 0xb8, 0x02, 0x3f, 0xb9, 0x23,
    0xee, 0x3e, 0x96, 0xe0, 0x9e, 0x3e, 0x10, 0x17, 0x7b, 0x3e,
    0x13, 0x6f, 0x34, 0x3f, 0x5b, 0x82, 0x30, 0x3f, 0xd8, 0xcc,
    0xf9, 0x3c, 0x0a, 0x9f, 0xe9, 0xbe, 0x47, 0xb2, 0x60, 0xbe,
    0x37, 0xfc, 0x55, 0xbe, 0x5a, 0x0e, 0xb1, 0x3e, 0x7d, 0x37,
    0xd6, 0xbc, 0x8d, 0x51, 0x15, 0x3e, 0x47, 0x5d, 0xe5, 0x3e,
    0x16, 0x62, 0x59, 0x3e, 0x13, 0x8d, 0x75, 0x3e, 0xec, 0x99,
    0x42, 0xbe, 0xbf, 0x89, 0xf9, 0xbe, 0x5b, 0x72, 0x3d, 0xbd,
    0xd8, 0xb8, 0x55, 0xbe, 0xbe, 0x9c, 0xea, 0x3d, 0x92, 0xed,
    0xad, 0x3e, 0xab, 0x25, 0x7a, 0x3e, 0x7d, 0x64, 0xba, 0xbb,
    0xf8, 0xf3, 0x96, 0x3e, 0xed, 0x6c, 0x71, 0xbe, 0x66, 0xe0,
    0xc0, 0x3e, 0x07, 0x81, 0x20, 0x3e, 0xcd, 0xb0, 0x8c, 0xbe,
    0x9e, 0x40, 0x0f, 0xbe, 0xed, 0x7c, 0x22, 0x3e, 0xee, 0xdd,
    0xc6, 0xbd, 0x98, 0xf1, 0xbc, 0x3b, 0x51, 0x56, 0x84, 0x3e,
    0x3d, 0x22, 0xca, 0xbe, 0xf6, 0x87, 0xc0, 0xbd, 0x02, 0x76,
    0x05, 0x3e, 0xf6, 0x3f, 0xdf, 0xbe, 0x9d, 0xf7, 0x01, 0xbe,
    0x40, 0xdc, 0xcc, 0xbd, 0x17, 0xc5, 0xa1, 0x3d, 0xbf, 0xdc,
    0x8f, 0xbe, 0xe1, 0x29, 0x09, 0x3d, 0x36, 0x01, 0xc9, 0xbd,
    0xa7, 0xee, 0x3c, 0xbe, 0x3a, 0x72, 0x0c, 0xbe, 0x9b, 0x89,
    0x1c, 0x3e, 0xa7, 0x85, 0x38, 0x3e, 0x0c, 0x2b, 0x09, 0x3e,
    0x1d, 0xa2, 0x9a, 0x3d, 0xd4, 0x87, 0x66, 0xbe, 0x71, 0x9d,
    0x45, 0xbe, 0x7a, 0x3b, 0x10, 0xbf, 0x00, 0x46, 0x1e, 0x3e,
    0xd6, 0x76, 0xba, 0x3e, 0x3c, 0xac, 0xf9, 0xbe, 0xba, 0x15,
    0x34, 0x3f, 0xa1, 0x26, 0x95, 0x3e, 0x14, 0x8c, 0xdb, 0xbd,
    0x35, 0x10, 0x1e, 0x3f, 0x03, 0x3c, 0xd6, 0x3d, 0x03, 0x0e,
    0x49, 0x3e, 0x7a, 0x65, 0x11, 0xbd, 0xf7, 0x54, 0x73, 0xbe,
    0x47, 0x3d, 0xb6, 0x3e, 0x0c, 0x61, 0xd5, 0x3e, 0x2d, 0x8f,
    0x71, 0x3e, 0x30, 0x71, 0x64, 0xbe, 0xeb, 0x02, 0x07, 0x3f,
    0xf0, 0x6f, 0xa3, 0xbe, 0x45, 0xa6, 0xa2, 0xbd, 0x83, 0x09,
    0xb7, 0xbd, 0x97, 0xac, 0xd9, 0xbd, 0x19, 0xea, 0x97, 0x3d,
    0x0a, 0x9f, 0xea, 0xbc, 0xa0, 0x79, 0xd0, 0x3d, 0x2b, 0x14,
    0xeb, 0x3e, 0x2b, 0x71, 0x1d, 0x3f, 0xca, 0x62, 0x22, 0x3e,
    0xa9, 0x00, 0xbc, 0x3e, 0x54, 0x96, 0x87, 0xbe, 0x54, 0xd8,
    0x98, 0xbc, 0xa7, 0x3c, 0x37, 0xbe, 0xdb, 0x39, 0x0b, 0xbf,
    0x80, 0x1e, 0x42, 0x3d, 0x93, 0x9a, 0xa2, 0xbe, 0x26, 0x96,
    0xdf, 0xbe, 0x3e, 0x6a, 0x39, 0x3e, 0xc1, 0x60, 0x80, 0xbe,
    0x60, 0x6f, 0xc4, 0x3e, 0x0c, 0xcf, 0x9a, 0x3e, 0x6f, 0x40,
    0x14, 0x3e, 0xe1, 0xf5, 0xaa, 0xbe, 0x1c, 0xb8, 0x94, 0xbe,
    0x65, 0x90, 0xef, 0xbe, 0x79, 0xe0, 0xf6, 0x3e, 0x8d, 0x01,
    0x24, 0xbd, 0x33, 0xda, 0x8d, 0xbd, 0x48, 0x63, 0x02, 0x3f,
    0x6c, 0x01, 0xab, 0xbe, 0xa0, 0xd1, 0x8e, 0xbe, 0xa7, 0x21,
    0x56, 0xbe, 0x7a, 0xdf, 0x65, 0xbe, 0xb5, 0xe4, 0xad, 0xbe,
    0x50, 0xf3, 0xdf, 0x3e, 0x66, 0xff, 0x80, 0x3e, 0xf6, 0xd9,
    0xca, 0x3c, 0xe2, 0x40, 0x66, 0xbe, 0x6e, 0xef, 0x8d, 0xbe,
    0x8a, 0x6f, 0x1f, 0x3e, 0xb5, 0x96, 0xa8, 0x3e, 0x41, 0xee,
    0x8e, 0xbe, 0xe4, 0xcd, 0xb2, 0x3d, 0x78, 0xe3, 0x84, 0xbe,
    0x74, 0xd4, 0x71, 0xbd, 0xac, 0xfd, 0x23, 0xbd, 0xf4, 0x01,
    0xb1, 0xbb, 0x25, 0x2d, 0x88, 0x3d, 0xf6, 0x37, 0xd9, 0x3c,
    0x01, 0xbf, 0x06, 0x3e, 0xee, 0x4b, 0x7b, 0xbe, 0xa6, 0x80,
    0xa6, 0x3e, 0xfb, 0x5d, 0x46, 0xbe, 0xa0, 0x06, 0x4f, 0xbe,
    0x15, 0xb7, 0x1e, 0xbe, 0xed, 0x7d, 0xec, 0xbb, 0x87, 0x79,
    0xbe, 0xbc, 0xe6, 0xb9, 0xab, 0x3d, 0xdb, 0x13, 0x28, 0xbe,
    0x6c, 0xc5, 0x1d, 0xbc, 0x03, 0x89, 0xe5, 0x3b, 0xca, 0xf6,
    0x5b, 0x3d, 0x03, 0x26, 0xae, 0xbd, 0xd5, 0x1f, 0x0e, 0xbe,
    0xff, 0x14, 0xb9, 0xbb, 0x86, 0xe5, 0xce, 0xbd, 0xe0, 0x1d,
    0x24, 0xbd, 0x45, 0x30, 0x07, 0x3d, 0x2c, 0x53, 0xde, 0x3c,
    0x2a, 0x1c, 0xa8, 0xbd, 0x29, 0xfd, 0x90, 0x3d, 0xd1, 0x1d,
    0x81, 0xbd, 0x25, 0xa4, 0x99, 0x3d, 0x73, 0xd2, 0xef, 0x3b,
    0xf2, 0xb1, 0x0b, 0xbd, 0xb1, 0x8f, 0x19, 0xbe, 0x1c, 0x54,
    0x09, 0xbe, 0x2d, 0xe9, 0x91, 0xbc, 0x84, 0xe5, 0x3c, 0xbe,
    0xd4, 0x30, 0xb7, 0x3d, 0xb3, 0x54, 0x46, 0x3d, 0x2c, 0x81,
    0xd2, 0x3c, 0xcb, 0xe7, 0xc6, 0xbd, 0xa7, 0x3e, 0xb5, 0x3c,
    0xb6, 0x24, 0xff, 0xbc, 0x53, 0x51, 0x4c, 0x3e, 0x0b, 0x92,
    0xb3, 0x3e, 0xb5, 0x8b, 0x1c, 0xbf, 0x5d, 0x94, 0x23, 0xbe,
    0x61, 0x44, 0x87, 0xbd, 0x50, 0xf4, 0x85, 0x3d, 0x47, 0xfc,
    0x14, 0xbf, 0x2c, 0xaf, 0x72, 0xbf, 0x65, 0x97, 0x38, 0xbf,
    0xa8, 0x78, 0x02, 0xbf, 0x8a, 0x42, 0x39, 0x3e, 0x4b, 0x43,
    0xe4, 0x3d, 0xb3, 0x8f, 0x19, 0xbe, 0x08, 0xe4, 0xa4, 0x3e,
    0x80, 0xf9, 0x00, 0x3e, 0xa4, 0xfd, 0x3a, 0x3e, 0xba, 0x59,
    0x20, 0x3e, 0xa0, 0xee, 0x2c, 0xbf, 0x03, 0x49, 0x16, 0x3f,
    0x41, 0x26, 0x88, 0xbf, 0x1f, 0x14, 0x14, 0xbf, 0xee, 0x39,
    0x65, 0x3d, 0xcc, 0x0c, 0x23, 0x3f, 0x67, 0x73, 0x07, 0x3f,
    0xb1, 0x96, 0x5c, 0x3d, 0xbd, 0xf2, 0xb3, 0x3d, 0x30, 0x99,
    0xa8, 0x3e, 0xa8, 0x50, 0x3e, 0xbf, 0x0a, 0xbb, 0xa7, 0x3d,
    0x38, 0xfd, 0xfb, 0x3e, 0x55, 0x39, 0x18, 0xbf, 0xeb, 0x99,
    0x8a, 0xbf, 0x7e, 0x52, 0x28, 0xbf, 0xc1, 0x12, 0xa9, 0x3e,
    0x81, 0x0d, 0x64, 0xbe, 0x97, 0x53, 0x07, 0x3f, 0xc7, 0x94,
    0x6a, 0x3f, 0x7e, 0x12, 0x07, 0xbf, 0x4e, 0xb3, 0xa8, 0xbe,
    0x87, 0x03, 0x56, 0xbe, 0x51, 0x8c, 0x9f, 0x3e, 0xf0, 0x31,
    0x16, 0x3f, 0xac, 0x1e, 0x46, 0xbf, 0x88, 0x05, 0x1c, 0xbf,
    0x55, 0xe2, 0xf9, 0xbd, 0x96, 0xe7, 0x92, 0xbe, 0x43, 0x52,
    0x86, 0xbf, 0xfa, 0x3c, 0xbd, 0x3e, 0xd6, 0x2a, 0x37, 0xbf,
    0x16, 0x7a, 0x1d, 0x3f, 0xf6, 0x8b, 0x07, 0xbf, 0x09, 0xd5,
    0xc7, 0x3d, 0x98, 0xbe, 0x20, 0xbf, 0xb9, 0xd0, 0xe1, 0xbd,
    0xf4, 0x0f, 0xd1, 0xbe, 0x8a, 0x2a, 0x20, 0xbf, 0xff, 0x42,
    0x36, 0xbf, 0x3f, 0x84, 0xec, 0xbe, 0x7c, 0xc4, 0xfc, 0x3e,
    0x72, 0x51, 0x4c, 0x3e, 0x19, 0x66, 0x9c, 0x3e, 0xe8, 0x97,
    0x18, 0xbf, 0x26, 0x58, 0x0d, 0x3e, 0xb5, 0xb3, 0x08, 0xbe,
    0x80, 0xe2, 0x49, 0x3d, 0x29, 0x9a, 0x40, 0xbf, 0xd5, 0xb7,
    0x58, 0x3e, 0xf4, 0xe8, 0xcf, 0x3e, 0xb5, 0xc9, 0xf3, 0xbe,
    0x84, 0x05, 0x09, 0xbe, 0x31, 0x90, 0x17, 0x3f, 0xe2, 0xfd,
    0xad, 0x3e, 0x83, 0x6f, 0x91, 0x3e, 0x22, 0x25, 0x26, 0xbe,
    0x10, 0x6c, 0xa1, 0x3e, 0x51, 0xd7, 0xd3, 0x3e, 0xb3, 0x73,
    0x0d, 0xbf, 0xee, 0x06, 0x8b, 0x3e, 0x57, 0x75, 0xcc, 0x3e,
    0xdd, 0x87, 0x49, 0xbf, 0xc4, 0xfa, 0xba, 0x3e, 0xea, 0x68,
    0xe6, 0x3e, 0x3d, 0xc8, 0xa2, 0xbe, 0xa5, 0x42, 0x01, 0x3f,
    0x47, 0x38, 0x0c, 0x3f, 0xd4, 0xd8, 0x96, 0xbf, 0xe7, 0x2b,
    0xe5, 0xbe, 0xd9, 0x7f, 0xb3, 0x3d, 0x52, 0xc9, 0xc3, 0xb9,
    0x37, 0xe7, 0xbe, 0xbe, 0x6a, 0xbd, 0x37, 0xbf, 0x2a, 0xf5,
    0xe1, 0xbd, 0x94, 0x9b, 0x8c, 0xbf, 0x36, 0x7f, 0xdd, 0xbe,
    0x6a, 0x30, 0xa3, 0xbd, 0x3d, 0xd9, 0x25, 0x3f, 0xfd, 0x11,
    0xd9, 0xbc, 0x17, 0x7b, 0x12, 0x3e, 0x2b, 0x17, 0x0e, 0xbe
  };

  return AI_HANDLE_PTR(s_network_weights);
}

