#include "network_data.h"

ai_handle ai_network_data_weights_get(void)
{

  AI_ALIGNED(4)
  static const ai_u8 s_network_weights[ 20532 ] = {
    0x25, 0x11, 0xdc, 0x3c, 0x1a, 0x8d, 0x15, 0x3e, 0xe7, 0x69,
    0x52, 0xbe, 0xf7, 0x98, 0xc7, 0x3c, 0xbc, 0x08, 0x29, 0x3e,
    0x82, 0xd0, 0x50, 0xbe, 0x95, 0x7a, 0x90, 0xbe, 0xbc, 0x0a,
    0x92, 0xbe, 0x4a, 0x21, 0x40, 0x3d, 0xde, 0xf0, 0x4d, 0xbe,
    0x2f, 0xce, 0x5d, 0x3e, 0x8b, 0x53, 0xb1, 0xbd, 0xd5, 0xf0,
    0x9a, 0xbc, 0x80, 0xe6, 0xe1, 0xbb, 0x51, 0x1f, 0x26, 0x3b,
    0x6f, 0xcc, 0x60, 0x3e, 0xbc, 0xbb, 0x89, 0x3e, 0x86, 0x05,
    0x17, 0x3e, 0xf2, 0x49, 0x1a, 0xbe, 0xf0, 0x27, 0x00, 0x3c,
    0x53, 0x0e, 0x57, 0xbd, 0x78, 0x7c, 0xcc, 0xbd, 0xdc, 0x22,
    0x7b, 0xbd, 0x53, 0x36, 0xde, 0x3d, 0x40, 0x2c, 0x78, 0x3e,
    0x33, 0xc9, 0x9e, 0x3d, 0x02, 0x75, 0x82, 0xbe, 0x33, 0xfe,
    0x68, 0xbd, 0x3c, 0x5b, 0x8b, 0xbe, 0xc6, 0xc7, 0x2a, 0xbe,
    0x72, 0x0d, 0x0a, 0xbe, 0x8c, 0xd2, 0x01, 0x3e, 0x63, 0x5c,
    0x65, 0x3e, 0xe5, 0x1e, 0x04, 0x3e, 0x7a, 0x7c, 0xa4, 0xbe,
    0xa1, 0xd4, 0x50, 0x3d, 0xb7, 0x26, 0x5d, 0x3e, 0xf9, 0x3b,
    0x1b, 0xbe, 0x2a, 0x34, 0x8e, 0x3d, 0xb0, 0xeb, 0x6d, 0xbe,
    0x5f, 0x46, 0x94, 0xbc, 0x58, 0x67, 0xe4, 0xbd, 0x70, 0xe1,
    0xed, 0x3d, 0x1b, 0x24, 0x8c, 0x3e, 0x12, 0xdc, 0xca, 0x3d,
    0xc7, 0x29, 0x40, 0x3e, 0x42, 0x21, 0x5f, 0xbe, 0x91, 0xe9,
    0x4f, 0xbe, 0x5f, 0x16, 0x22, 0xbe, 0xe7, 0x16, 0xf0, 0x3d,
    0xe3, 0x04, 0xf2, 0x3d, 0xad, 0x5a, 0xb3, 0xbd, 0xe9, 0x62,
    0x4c, 0xbd, 0x23, 0x66, 0x44, 0x3e, 0xe5, 0x5e, 0x83, 0xbd,
    0x7e, 0xab, 0xb5, 0xbd, 0xa9, 0x7e, 0x19, 0xbe, 0x95, 0xc1,
    0x9c, 0x3d, 0x28, 0x2f, 0x0e, 0x3d, 0xf0, 0xe0, 0xb4, 0x3d,
    0x3a, 0xa3, 0x27, 0xbe, 0xe9, 0xa4, 0xee, 0x3c, 0x9f, 0xeb,
    0x08, 0x3e, 0xb5, 0x31, 0x6e, 0x3d, 0x83, 0x49, 0x58, 0x3e,
    0x79, 0x7e, 0xf4, 0x3d, 0x63, 0x34, 0x40, 0x3e, 0x0e, 0x02,
    0x50, 0xbe, 0x7d, 0xaf, 0x0e, 0xbe, 0x84, 0x7a, 0xb5, 0x3e,
    0x5b, 0xba, 0xd9, 0x3d, 0x51, 0xe8, 0x37, 0x3b, 0x0c, 0x37,
    0x12, 0xbc, 0x61, 0xa1, 0x74, 0x3e, 0xf4, 0xc7, 0xdf, 0x3c,
    0x83, 0xc6, 0x52, 0xbe, 0xc5, 0xde, 0x8b, 0x3e, 0xd4, 0x72,
    0x10, 0x3d, 0x96, 0x5d, 0x1e, 0xbe, 0x73, 0x62, 0x36, 0xbe,
    0x56, 0x7d, 0x2e, 0x3e, 0xea, 0x46, 0x8c, 0x3d, 0x3c, 0x61,
    0x97, 0xbd, 0x21, 0xa1, 0x1b, 0x3e, 0xe8, 0x5e, 0x1c, 0xbd,
    0xdd, 0xb4, 0x9e, 0x3e, 0x1f, 0x16, 0xf2, 0x3d, 0xdd, 0xb2,
    0xda, 0x3d, 0x6b, 0xb7, 0xfc, 0xbd, 0x49, 0xf7, 0x58, 0xbe,
    0x32, 0x63, 0xca, 0x3a, 0xbd, 0x12, 0xbf, 0x3c, 0x40, 0x07,
    0x86, 0xbd, 0x05, 0xa3, 0x19, 0xbe, 0x1a, 0x66, 0x5a, 0xbd,
    0x32, 0xf9, 0x1b, 0xbe, 0xc4, 0xec, 0x3c, 0xbe, 0x22, 0xad,
    0xa1, 0xbe, 0x25, 0x76, 0x28, 0x3e, 0x27, 0xb9, 0xec, 0x3c,
    0x6b, 0xa0, 0x06, 0x3e, 0x89, 0x2f, 0x7b, 0xbd, 0xa2, 0xfd,
    0xc0, 0x3c, 0x6b, 0xda, 0xf7, 0x3d, 0x96, 0x6b, 0xa6, 0x3c,
    0x5b, 0x77, 0x1e, 0xbe, 0xea, 0x9e, 0xf2, 0x3d, 0x69, 0xa3,
    0x24, 0x3e, 0x36, 0xb0, 0x8f, 0x3d, 0x7c, 0x3c, 0x37, 0xbe,
    0x0d, 0x62, 0x7d, 0x3e, 0x73, 0x71, 0x42, 0xbe, 0x72, 0x0a,
    0xf7, 0xbd, 0x72, 0x8e, 0x67, 0xbd, 0x55, 0x01, 0x4f, 0x3e,
    0x22, 0xbd, 0x10, 0x3d, 0x6f, 0xd6, 0x35, 0xbe, 0x97, 0x44,
    0x73, 0x3e, 0x50, 0xf3, 0x94, 0xbe, 0xf3, 0xe1, 0xfc, 0x3c,
    0x82, 0x0b, 0x85, 0x3e, 0xfe, 0x34, 0x95, 0x3d, 0x3f, 0x1e,
    0x0a, 0x3c, 0x83, 0xd5, 0x8f, 0x3d, 0x00, 0x85, 0x94, 0xbd,
    0x80, 0x47, 0x21, 0x3e, 0x44, 0xae, 0xe0, 0xbd, 0x20, 0xe6,
    0x2c, 0xbe, 0xba, 0xf4, 0x27, 0x3e, 0xf0, 0xcb, 0xe1, 0x3d,
    0xe3, 0x42, 0x99, 0x3e, 0x76, 0xbc, 0x9b, 0x3d, 0xb0, 0x11,
    0x1a, 0xbe, 0x34, 0xe0, 0x32, 0x3e, 0x9e, 0xf7, 0x13, 0x3e,
    0x79, 0x21, 0x8d, 0x3e, 0xff, 0x14, 0x06, 0xbe, 0x0f, 0xad,
    0x61, 0x3e, 0x58, 0xb6, 0x18, 0x3e, 0x3a, 0x0a, 0x15, 0x3e,
    0x9f, 0xa8, 0x3a, 0x3e, 0x7e, 0x2b, 0x2c, 0x3e, 0x03, 0x77,
    0x66, 0xbe, 0x85, 0x53, 0x3e, 0xbd, 0x56, 0x13, 0x0c, 0xbe,
    0x8b, 0x8f, 0x4a, 0xbe, 0x4e, 0x18, 0x74, 0x3e, 0x26, 0x54,
    0x67, 0x3e, 0x18, 0x82, 0xa0, 0x3e, 0x0a, 0xd1, 0x9a, 0xbe,
    0x90, 0xcd, 0x95, 0xbe, 0xfc, 0x29, 0xe2, 0x3c, 0x41, 0xeb,
    0x07, 0xbe, 0x33, 0x30, 0x03, 0x3e, 0x53, 0xdf, 0x74, 0xbe,
    0x2d, 0xfa, 0x11, 0xbe, 0xea, 0xc0, 0x86, 0xbe, 0xcb, 0x34,
    0x4c, 0x3e, 0xc4, 0x26, 0x0d, 0xba, 0x22, 0xed, 0x81, 0x3d,
    0x9d, 0xf4, 0x1a, 0xbe, 0xb7, 0x6d, 0xa2, 0xbe, 0xab, 0xe6,
    0x21, 0xbd, 0x98, 0xd5, 0x0d, 0x3e, 0x8d, 0x07, 0xb5, 0xbe,
    0x44, 0x16, 0x40, 0xbe, 0x65, 0xa3, 0x44, 0x3e, 0xfc, 0x74,
    0x29, 0xbd, 0xe0, 0x59, 0xcb, 0xbc, 0x81, 0x7b, 0xab, 0x3c,
    0x98, 0xe8, 0xa3, 0x3d, 0x8e, 0x74, 0x2f, 0xbe, 0x5d, 0xe5,
    0x80, 0x3d, 0x48, 0x6a, 0x33, 0x3d, 0x3f, 0x50, 0x21, 0xbe,
    0x93, 0x47, 0xc8, 0xbd, 0x5f, 0xd3, 0x72, 0x3d, 0x21, 0xb3,
    0x01, 0xbe, 0x38, 0x31, 0x99, 0x3e, 0xa5, 0x36, 0xf7, 0x3d,
    0x30, 0x9c, 0x98, 0xbc, 0x00, 0x8e, 0xed, 0x3b, 0xe0, 0x95,
    0x32, 0x3e, 0x88, 0xa1, 0x15, 0x3e, 0x88, 0x85, 0x9c, 0x3d,
    0x2c, 0xd3, 0x0d, 0x3e, 0xf6, 0x1a, 0x52, 0xbe, 0xd2, 0xd2,
    0x22, 0xbe, 0x28, 0x33, 0x76, 0x3e, 0x2c, 0x84, 0xd9, 0xbd,
    0xa0, 0x71, 0x12, 0xbe, 0xc4, 0x38, 0xa1, 0xbd, 0x94, 0xfe,
    0x8a, 0x3d, 0x8c, 0x9c, 0xbb, 0xbd, 0xd0, 0xb4, 0xae, 0xbc,
    0x32, 0x0e, 0x19, 0xbe, 0xb0, 0x67, 0x7f, 0xbe, 0x98, 0x8e,
    0xb0, 0x3d, 0x80, 0x1d, 0x18, 0xbb, 0x7e, 0xe8, 0xdc, 0xbd,
    0x08, 0xe6, 0x97, 0xbc, 0x82, 0x92, 0x4f, 0xbe, 0x5d, 0xf4,
    0x4e, 0xbe, 0x62, 0xc1, 0x3f, 0x3e, 0x80, 0x75, 0xb5, 0x3b,
    0xfc, 0x58, 0xf7, 0xbd, 0xb4, 0x57, 0x47, 0xbe, 0x28, 0x9f,
    0xa3, 0xbd, 0x44, 0xbe, 0x04, 0xbd, 0xce, 0x87, 0x65, 0x3e,
    0xa8, 0xef, 0x28, 0x3d, 0x4e, 0x9c, 0x43, 0x3e, 0xcc, 0xc0,
    0x39, 0xbe, 0x28, 0x82, 0x42, 0x3e, 0xa0, 0x78, 0x66, 0xbe,
    0x98, 0x65, 0x9f, 0x3d, 0xec, 0x55, 0xdf, 0xbd, 0xa2, 0x36,
    0xe6, 0xbc, 0x46, 0xbb, 0xaf, 0xbd, 0x2d, 0x9c, 0x13, 0xbe,
    0x13, 0xc3, 0x93, 0xbe, 0x5d, 0x94, 0x3e, 0xbe, 0x9c, 0x9b,
    0xda, 0xbd, 0x0b, 0xa8, 0x21, 0x3e, 0x1e, 0x7d, 0xa3, 0x3d,
    0x97, 0x9d, 0x0c, 0x3e, 0x54, 0x9b, 0x43, 0xbe, 0x06, 0x3f,
    0x71, 0xbe, 0x7e, 0xd0, 0x91, 0xbe, 0x7d, 0x2a, 0x02, 0xbe,
    0xe9, 0x7f, 0x8b, 0xbc, 0xab, 0x3b, 0x3d, 0x3e, 0xc8, 0x2a,
    0x40, 0xbe, 0xea, 0x7f, 0xe2, 0x3c, 0x3c, 0x03, 0xc4, 0x3d,
    0x24, 0xa4, 0xb1, 0xbe, 0xc8, 0x22, 0x83, 0x3d, 0x7b, 0x55,
    0x01, 0xbd, 0xd1, 0xcd, 0xf9, 0x3b, 0xe7, 0x96, 0x56, 0xbb,
    0xe1, 0x6c, 0x8c, 0xbd, 0xa1, 0x43, 0x82, 0xbe, 0x32, 0xab,
    0x6c, 0xbe, 0x67, 0xc3, 0x04, 0xbe, 0x06, 0x4c, 0x91, 0x3c,
    0x40, 0x02, 0xd2, 0x3d, 0xfc, 0x90, 0x2b, 0x3e, 0xc8, 0x31,
    0x6d, 0x3e, 0x12, 0x10, 0x22, 0xbe, 0x3f, 0x7f, 0x1d, 0x3e,
    0xdc, 0x27, 0x27, 0xbd, 0x7c, 0x61, 0xc7, 0x3c, 0x1c, 0x31,
    0xd4, 0x3d, 0x9e, 0x17, 0x07, 0x3e, 0xbe, 0xef, 0x19, 0x3c,
    0x47, 0x37, 0xc7, 0xbd, 0xb9, 0x3d, 0x56, 0x3e, 0xcd, 0x96,
    0x45, 0x3d, 0x4e, 0x85, 0x5e, 0xbe, 0xd1, 0x53, 0x23, 0xbe,
    0xfe, 0xd1, 0xa7, 0xbb, 0xfd, 0x36, 0x86, 0x3e, 0xbc, 0xac,
    0xd0, 0x3b, 0xb9, 0x90, 0x43, 0xbe, 0x05, 0x80, 0xdc, 0xbd,
    0xa4, 0x88, 0x73, 0x3e, 0x75, 0x4f, 0xd5, 0x3e, 0x51, 0xc0,
    0x64, 0x3d, 0xa5, 0x91, 0x6c, 0xbe, 0x24, 0xf5, 0xdc, 0xbc,
    0xae, 0xf8, 0x01, 0x3e, 0xe3, 0xbb, 0xbb, 0x3e, 0xdf, 0x71,
    0x12, 0xbd, 0x5e, 0x71, 0x36, 0xbc, 0xa5, 0xa7, 0xfb, 0x3d,
    0x43, 0xaf, 0x3b, 0x3d, 0xdc, 0x08, 0xa9, 0xbd, 0x31, 0x03,
    0x0d, 0xbe, 0xd9, 0xeb, 0x8c, 0xbd, 0x0d, 0xaa, 0x58, 0x3d,
    0x5a, 0xaa, 0xc6, 0xbe, 0x50, 0x0a, 0x20, 0x3e, 0xa3, 0x62,
    0x0b, 0xbd, 0xe8, 0x51, 0xf0, 0x3d, 0x1b, 0x66, 0xaf, 0xbb,
    0xac, 0x31, 0x85, 0xbe, 0x5c, 0xb6, 0x93, 0xbb, 0x5e, 0x65,
    0x65, 0x3e, 0x12, 0x92, 0x33, 0xbe, 0xad, 0xd8, 0xc4, 0xbc,
    0xa3, 0xf3, 0x56, 0xbd, 0x30, 0xea, 0x49, 0x3b, 0x9e, 0x9c,
    0xe0, 0xbe, 0x49, 0xe9, 0x47, 0x3c, 0x19, 0x38, 0x14, 0x3e,
    0x74, 0x42, 0xa3, 0x3e, 0xf6, 0xa0, 0x30, 0x3e, 0x5c, 0xd0,
    0xd8, 0x3d, 0x78, 0xb9, 0x80, 0x3d, 0x4e, 0x01, 0x77, 0xbe,
    0x8a, 0x9a, 0xce, 0xbd, 0x4e, 0xc2, 0xea, 0x3d, 0xa3, 0x78,
    0x4b, 0x3c, 0xa0, 0xb3, 0x1a, 0xbe, 0x46, 0xe2, 0x60, 0x3e,
    0x6e, 0xdf, 0xfc, 0x3d, 0xcf, 0x1b, 0x6a, 0x3d, 0xe6, 0x05,
    0xd0, 0xbd, 0x81, 0x20, 0xa9, 0x3e, 0x43, 0x98, 0xeb, 0xbd,
    0x7a, 0x52, 0x6b, 0x3e, 0xe1, 0xf0, 0x1f, 0xbe, 0xbc, 0xa3,
    0xba, 0x3d, 0xed, 0x05, 0x8e, 0xbe, 0x1d, 0x64, 0x70, 0x3e,
    0xa3, 0xe6, 0x9e, 0x3e, 0xb5, 0xb9, 0xb4, 0x3e, 0xfa, 0xe5,
    0x0e, 0x3e, 0x72, 0x52, 0x4b, 0x3e, 0x8f, 0x0f, 0x85, 0xbe,
    0xd3, 0x66, 0xae, 0x3d, 0xf4, 0xaa, 0x8b, 0x3c, 0x84, 0x16,
    0xea, 0x3a, 0x0b, 0x9d, 0x16, 0x3e, 0xe7, 0x9e, 0xf6, 0x3d,
    0xd7, 0x43, 0x26, 0xbc, 0x1b, 0x50, 0xcf, 0x3d, 0xde, 0xcb,
    0x17, 0x3e, 0xbd, 0xcd, 0x9f, 0x3e, 0x73, 0x8a, 0x00, 0x3e,
    0xea, 0xae, 0x21, 0x3b, 0xe2, 0x0d, 0xae, 0xbe, 0x26, 0xc2,
    0x6c, 0xbe, 0x0f, 0xe8, 0x93, 0x3d, 0x26, 0x26, 0x2a, 0x3e,
    0x49, 0x87, 0x2e, 0xbe, 0x14, 0x9e, 0xdf, 0xbd, 0x69, 0x2f,
    0x8e, 0xbe, 0xf0, 0xf2, 0x82, 0xbe, 0xc5, 0x7c, 0xa8, 0x3d,
    0xe4, 0xad, 0x41, 0xbe, 0xa6, 0x64, 0x11, 0xbe, 0x06, 0x4b,
    0xa4, 0x3e, 0xe5, 0xf0, 0x82, 0x3c, 0x08, 0x67, 0x85, 0xbd,
    0xba, 0xe8, 0x3b, 0x3d, 0xe8, 0xcc, 0xab, 0xbd, 0xac, 0x40,
    0x6c, 0xbe, 0xa1, 0x95, 0xc2, 0x3d, 0xd4, 0xeb, 0x06, 0x3e,
    0x2b, 0x15, 0x28, 0x3e, 0xb0, 0xff, 0x54, 0xbd, 0x9e, 0xfa,
    0x4c, 0xbe, 0x86, 0x5a, 0x19, 0xbe, 0x03, 0x80, 0x16, 0x3d,
    0xee, 0x10, 0xc9, 0xbd, 0x0b, 0x99, 0x1e, 0x3e, 0x59, 0x95,
    0xaa, 0x3d, 0x3d, 0x76, 0x52, 0x3d, 0xe3, 0x21, 0x02, 0xbe,
    0xd5, 0xa2, 0x40, 0x3c, 0x2f, 0x4b, 0xbe, 0xbd, 0xd8, 0x82,
    0x25, 0xbe, 0x7e, 0xfe, 0x18, 0xbe, 0x99, 0x72, 0x6d, 0xbe,
    0x4c, 0x31, 0x1d, 0x3e, 0xf7, 0xef, 0x30, 0xbd, 0x87, 0xb3,
    0x88, 0x3e, 0xe7, 0x7e, 0x9c, 0x3d, 0x13, 0x81, 0xbd, 0x3d,
    0xcd, 0x9c, 0x30, 0xbe, 0x31, 0xa4, 0x30, 0x3b, 0x4a, 0xf5,
    0x47, 0xbe, 0xb5, 0x25, 0xb0, 0xbc, 0xff, 0x9c, 0x41, 0x3e,
    0x8f, 0x3b, 0xd0, 0x3c, 0x58, 0x7e, 0x12, 0xbe, 0x32, 0x03,
    0x78, 0xbd, 0x7d, 0x8a, 0x0c, 0x3d, 0x2d, 0x1c, 0x03, 0xbe,
    0xb9, 0xef, 0xca, 0x3d, 0x23, 0x1b, 0x4a, 0x3e, 0x37, 0xa1,
    0x02, 0x3e, 0x1c, 0xde, 0xd9, 0xbd, 0xb2, 0x10, 0x7b, 0xbe,
    0x90, 0x7c, 0x42, 0xbe, 0x07, 0x27, 0x24, 0xbd, 0x5a, 0xd9,
    0xa0, 0xbd, 0xcf, 0x22, 0xd7, 0xbd, 0x76, 0x45, 0xdc, 0xbb,
    0x61, 0x3d, 0xab, 0x3d, 0x06, 0x96, 0xb8, 0xbd, 0x01, 0xd4,
    0xa9, 0xbd, 0xfa, 0xb9, 0x18, 0xbd, 0x9a, 0xd0, 0x07, 0xbe,
    0xa7, 0xf7, 0xb6, 0x3d, 0xdb, 0x2c, 0x66, 0x3c, 0x49, 0xc3,
    0x1f, 0xbd, 0x98, 0xd3, 0x78, 0x3e, 0x2e, 0xfb, 0x02, 0xbe,
    0x87, 0xef, 0x06, 0x3d, 0x5a, 0xe3, 0x5b, 0x3d, 0x6e, 0xcd,
    0xce, 0x3c, 0x0a, 0x5b, 0x0d, 0xbe, 0xa0, 0x38, 0xec, 0xbd,
    0xf4, 0xdd, 0xf1, 0xbd, 0x0f, 0x8e, 0x54, 0x3e, 0xd5, 0xcb,
    0xe0, 0xbd, 0x76, 0x00, 0x6d, 0xbe, 0x9e, 0xf1, 0x95, 0xbe,
    0x89, 0xba, 0xa3, 0x3e, 0xf1, 0x02, 0xb6, 0xbc, 0x2f, 0x07,
    0x5c, 0x3b, 0x9a, 0x73, 0x29, 0x3d, 0xc2, 0xa9, 0x16, 0xbd,
    0xa9, 0x58, 0xeb, 0xbd, 0xeb, 0x9f, 0xae, 0x3e, 0xed, 0x41,
    0x56, 0xbe, 0xfd, 0x35, 0x88, 0x3d, 0x08, 0x35, 0xc1, 0x3d,
    0x5d, 0xba, 0x74, 0x3d, 0xf2, 0x4d, 0xf7, 0x3d, 0x0d, 0x6d,
    0x99, 0xbe, 0xed, 0x6e, 0x40, 0xbe, 0x1e, 0x26, 0x45, 0xbe,
    0x6e, 0x91, 0x41, 0x3e, 0x9f, 0xe8, 0xbf, 0xbd, 0x73, 0x84,
    0xe7, 0x3d, 0xc9, 0xc0, 0x81, 0x3e, 0x71, 0xa7, 0x03, 0x3e,
    0xe9, 0x89, 0xb9, 0xbe, 0x6f, 0xba, 0xa1, 0x3d, 0x79, 0xcb,
    0xa6, 0xbd, 0x32, 0x58, 0x1e, 0xbe, 0xe2, 0x58, 0x0f, 0xbe,
    0xd3, 0xda, 0x32, 0x3d, 0x9a, 0x4d, 0xaa, 0xbe, 0xd0, 0x6e,
    0x4d, 0xbd, 0x36, 0xb3, 0xe9, 0xbc, 0xdc, 0xb0, 0xa1, 0x3e,
    0xe8, 0x8c, 0xd3, 0x3c, 0xdd, 0xc3, 0x7c, 0xbd, 0x1a, 0x7e,
    0x09, 0xbe, 0x5f, 0xbb, 0x6b, 0xbc, 0x15, 0xe6, 0x53, 0xbe,
    0x3c, 0x30, 0x06, 0xbe, 0x75, 0xce, 0xa3, 0x3d, 0xa0, 0x04,
    0x33, 0xbd, 0xd6, 0x90, 0x1e, 0x3d, 0xd9, 0x74, 0x1f, 0xbd,
    0xbd, 0x53, 0x93, 0xbe, 0xe6, 0x53, 0xd3, 0xbd, 0x2e, 0x46,
    0xb4, 0x3c, 0x2a, 0xb7, 0x88, 0xbe, 0xec, 0x18, 0xf5, 0x3c,
    0x34, 0xee, 0x25, 0x3e, 0x93, 0xfd, 0xb8, 0xbd, 0x08, 0xa3,
    0xcb, 0xbd, 0xe2, 0xb2, 0x33, 0x3e, 0xed, 0xe2, 0x82, 0x3d,
    0xd9, 0xce, 0x12, 0x3d, 0x77, 0xba, 0x14, 0xbe, 0xcd, 0x73,
    0x3a, 0x3e, 0xcd, 0xc3, 0x2f, 0xbd, 0xe1, 0xf9, 0x94, 0x3d,
    0x6c, 0x5c, 0xe7, 0x3d, 0x95, 0x41, 0xaa, 0x3d, 0x5f, 0x4a,
    0x25, 0xbd, 0x85, 0xe0, 0x7d, 0x3d, 0x71, 0x82, 0x57, 0x3e,
    0x72, 0x2a, 0x46, 0x3d, 0x62, 0x7f, 0xe3, 0x3c, 0x07, 0xfb,
    0xea, 0xbd, 0x5d, 0x70, 0x4d, 0xbd, 0x54, 0x14, 0xfd, 0x3d,
    0x18, 0xf3, 0x0a, 0x3e, 0xb8, 0xfc, 0x39, 0x3e, 0xa9, 0x06,
    0x88, 0x3c, 0xc8, 0x98, 0x5f, 0xbe, 0x68, 0x60, 0x81, 0xbd,
    0x69, 0x81, 0x50, 0x3e, 0x35, 0x10, 0x78, 0xbc, 0x4d, 0x55,
    0xc2, 0xbe, 0x52, 0x7a, 0x08, 0x3e, 0x41, 0x66, 0x39, 0xbe,
    0x0a, 0x98, 0x7c, 0x3e, 0x88, 0x63, 0xad, 0xbd, 0x0d, 0x54,
    0xbc, 0x3d, 0x0a, 0xb2, 0x1b, 0x3e, 0xc4, 0x89, 0x31, 0x3e,
    0x87, 0x7d, 0x31, 0x3e, 0x5c, 0xb5, 0x5b, 0xbe, 0xd6, 0x14,
    0x4f, 0xbe, 0x10, 0x5e, 0xbf, 0x3d, 0x1b, 0xd8, 0x2b, 0xbe,
    0x4b, 0xdc, 0x7b, 0xbe, 0xed, 0x2d, 0xaf, 0xbd, 0xb8, 0xdc,
    0x51, 0xbd, 0xf7, 0x30, 0x74, 0x3e, 0x15, 0x94, 0x60, 0xbe,
    0x66, 0x88, 0xc3, 0x3d, 0x10, 0x01, 0xe9, 0xbd, 0x7a, 0x2a,
    0xd3, 0x3c, 0xf2, 0xc4, 0x2a, 0x3e, 0xa0, 0x56, 0x82, 0x3d,
    0x7b, 0x24, 0x28, 0xbe, 0xef, 0xf0, 0x58, 0x3e, 0x07, 0xc4,
    0x7a, 0x3d, 0x43, 0x56, 0x3d, 0xbe, 0x05, 0x8a, 0x14, 0xbe,
    0x55, 0x24, 0xcd, 0xbb, 0x77, 0xfb, 0x27, 0xbe, 0xb2, 0x5c,
    0x63, 0x3c, 0x6e, 0x11, 0x85, 0x3e, 0x14, 0xf3, 0x5f, 0xbe,
    0x30, 0xdd, 0x02, 0xbd, 0x0a, 0x73, 0x6c, 0x3e, 0x35, 0xeb,
    0xae, 0x3c, 0xcc, 0x22, 0xc0, 0x3e, 0xc5, 0x7d, 0x7a, 0x3e,
    0x02, 0xc7, 0xf6, 0xbd, 0x92, 0x8f, 0x35, 0x3d, 0x3f, 0xf4,
    0x5b, 0xbd, 0x0a, 0x86, 0x2d, 0x3c, 0x89, 0x60, 0x00, 0x3e,
    0xfe, 0x40, 0xb0, 0x3d, 0x3e, 0x0c, 0x53, 0xbe, 0x0c, 0xa8,
    0x86, 0xbc, 0x93, 0xc0, 0xd7, 0xbd, 0x2f, 0xf8, 0x90, 0x3e,
    0xdd, 0xa8, 0x34, 0x3e, 0xd0, 0x76, 0x12, 0x3e, 0xc8, 0xd9,
    0x82, 0x3e, 0x46, 0x38, 0x30, 0xbe, 0xa5, 0x55, 0xe6, 0x3d,
    0x24, 0x6a, 0xf0, 0xbd, 0x81, 0x31, 0x78, 0x3d, 0xad, 0xf4,
    0x90, 0x3e, 0x29, 0xa4, 0x4b, 0xbe, 0x05, 0xfc, 0x89, 0xbe,
    0xaa, 0xeb, 0x67, 0xbe, 0xe0, 0xc2, 0xf3, 0xbd, 0xbe, 0xf6,
    0x0d, 0x3e, 0xe6, 0xa0, 0x0a, 0xbd, 0x4f, 0xed, 0x7c, 0x3e,
    0xab, 0x35, 0x3c, 0x3e, 0xf5, 0x6c, 0x49, 0x3e, 0x08, 0x57,
    0x41, 0xbe, 0xb2, 0x52, 0x10, 0x3e, 0x2d, 0x03, 0xbf, 0xbd,
    0x87, 0xea, 0x5e, 0x3e, 0x12, 0x20, 0x26, 0x3e, 0xf2, 0xb2,
    0xcc, 0x3d, 0xf6, 0x32, 0xaf, 0xbd, 0x56, 0x0a, 0x31, 0x3e,
    0xc5, 0xb4, 0xc1, 0x3e, 0x87, 0x47, 0xaa, 0x3c, 0xf3, 0x31,
    0x2e, 0xbe, 0x8c, 0xbb, 0xfa, 0x3d, 0xbe, 0x50, 0xa4, 0xbd,
    0x94, 0x92, 0x32, 0xbe, 0xdd, 0xee, 0x80, 0x3e, 0x91, 0xb8,
    0x7d, 0xbe, 0x8f, 0x31, 0x2c, 0x3e, 0xa7, 0xb1, 0xe9, 0x3d,
    0xba, 0x99, 0x09, 0x3e, 0x90, 0x39, 0xca, 0xbd, 0x65, 0x4c,
    0x9f, 0x3d, 0x38, 0xb8, 0x32, 0xbe, 0xbd, 0x9c, 0xf8, 0x3d,
    0xdf, 0x00, 0x2e, 0x3e, 0xcd, 0xe5, 0x5c, 0x3e, 0x20, 0x19,
    0x17, 0xbe, 0x1a, 0x1a, 0x6b, 0xbe, 0x56, 0xfd, 0xbc, 0xbd,
    0x47, 0xa5, 0x48, 0x3d, 0x39, 0x48, 0x64, 0x3e, 0x2f, 0x75,
    0x01, 0x3e, 0x27, 0xa2, 0xec, 0x3d, 0xeb, 0xa2, 0x69, 0xbe,
    0xda, 0xd4, 0xd9, 0x3d, 0xdb, 0x5b, 0x5c, 0x3e, 0x70, 0x4c,
    0x6e, 0xbe, 0xfc, 0x35, 0x7b, 0xbe, 0x6e, 0x87, 0x68, 0x3d,
    0xf5, 0x32, 0x7c, 0x3e, 0x2f, 0x93, 0x80, 0xbd, 0x10, 0x30,
    0xe0, 0x3d, 0xf8, 0xca, 0x27, 0xbe, 0x88, 0x96, 0x14, 0x3e,
    0x81, 0xa0, 0x77, 0xbe, 0x96, 0x72, 0x16, 0xbd, 0x86, 0xa8,
    0x91, 0xbc, 0x2b, 0x78, 0xcf, 0x3d, 0x46, 0xfd, 0x3f, 0xbd,
    0x0b, 0x66, 0x15, 0x3e, 0x7c, 0xa8, 0x8c, 0x3c, 0x29, 0x1d,
    0x74, 0xbe, 0x46, 0xc0, 0xd7, 0xbd, 0xd1, 0x78, 0x80, 0xbd,
    0x42, 0x1e, 0xd2, 0x3d, 0x8d, 0x1c, 0x80, 0xbd, 0x32, 0x6d,
    0x4b, 0xbe, 0x0e, 0xa2, 0x92, 0xbb, 0x51, 0x00, 0x43, 0xbd,
    0x16, 0xf7, 0x49, 0xbe, 0xba, 0x53, 0x3e, 0xbe, 0x0a, 0xd3,
    0x51, 0xbe, 0x26, 0x25, 0x50, 0x3d, 0xdc, 0x74, 0x8a, 0x3b,
    0x78, 0x17, 0x39, 0xbe, 0x20, 0x81, 0x8a, 0x3d, 0xc3, 0xc0,
    0xcf, 0xbc, 0xa6, 0x60, 0x5e, 0x3e, 0x40, 0x1d, 0x42, 0x3e,
    0x6f, 0xc6, 0x31, 0x3e, 0x27, 0x22, 0xeb, 0x3c, 0xea, 0xe9,
    0x2b, 0xbe, 0xc4, 0x9a, 0x9a, 0x3c, 0xd7, 0x4c, 0x0a, 0xbe,
    0x2a, 0xbf, 0xf4, 0xbd, 0x88, 0xaf, 0xe7, 0xbd, 0x00, 0xd0,
    0x8a, 0xbc, 0x16, 0x31, 0xb9, 0x3d, 0x0a, 0x1d, 0x34, 0xbe,
    0xc3, 0xe6, 0xde, 0x3c, 0x85, 0x35, 0x93, 0x3e, 0xb0, 0x8a,
    0xb5, 0xbc, 0xe3, 0x97, 0x88, 0x3e, 0x9a, 0x29, 0x26, 0xbe,
    0xde, 0x0e, 0xa7, 0xbe, 0xfa, 0x74, 0x50, 0x3d, 0xc5, 0x08,
    0xe1, 0xbd, 0x71, 0x73, 0xa1, 0xbd, 0x00, 0x81, 0x46, 0x3e,
    0x81, 0x0d, 0x11, 0x3e, 0x29, 0xa5, 0xd0, 0x3e, 0x9e, 0xc5,
    0x69, 0x3e, 0x2a, 0x95, 0xa0, 0x3d, 0x05, 0x48, 0x3e, 0xbe,
    0x76, 0xb1, 0xec, 0xbd, 0x0d, 0x3b, 0xae, 0x3d, 0x95, 0xfd,
    0x26, 0xbe, 0x45, 0x6b, 0xe7, 0x3c, 0x5e, 0xf7, 0x3d, 0x3e,
    0x73, 0xbb, 0xbc, 0x3d, 0xe0, 0x62, 0x5f, 0xbe, 0xe3, 0x1f,
    0x35, 0xbe, 0xc5, 0x33, 0xb6, 0xbe, 0x30, 0x79, 0x4d, 0xbe,
    0xe9, 0xf6, 0x7c, 0xbd, 0x87, 0x8c, 0x2c, 0x3e, 0x0b, 0xaf,
    0x28, 0x3e, 0x6b, 0x82, 0x03, 0x3e, 0x38, 0x44, 0xb2, 0x3d,
    0x7f, 0x44, 0xb2, 0xbc, 0x7a, 0x48, 0xfe, 0xbd, 0x96, 0x31,
    0x42, 0x3e, 0x44, 0xd6, 0x51, 0xbc, 0x24, 0x6e, 0x1a, 0x3e,
    0x42, 0xa8, 0x6a, 0x3e, 0xd6, 0x26, 0xf4, 0x3d, 0x1d, 0x7f,
    0x42, 0xbe, 0x20, 0xa1, 0xfc, 0xbd, 0xe3, 0xa8, 0xe5, 0x3c,
    0x04, 0x5f, 0x6f, 0xbd, 0xc9, 0xed, 0xb4, 0x3d, 0xd1, 0xc6,
    0xe1, 0x3d, 0xfd, 0x54, 0xff, 0xbd, 0x1e, 0xf1, 0x53, 0xbd,
    0x80, 0x89, 0xba, 0xbe, 0x1c, 0x59, 0xdd, 0x3d, 0x42, 0x17,
    0xa5, 0xbd, 0x73, 0x77, 0xb7, 0xbd, 0x88, 0x79, 0xab, 0x3d,
    0x45, 0x2f, 0xa5, 0xbd, 0x66, 0x81, 0x86, 0xbe, 0x90, 0x33,
    0xa3, 0x3d, 0x87, 0x6b, 0x25, 0x3e, 0xe6, 0x35, 0x2b, 0xbe,
    0xee, 0x34, 0xa0, 0xbd, 0xe3, 0xe1, 0x28, 0x3e, 0xd5, 0x8e,
    0xd3, 0xbc, 0x68, 0x10, 0x7e, 0xbe, 0x34, 0x3d, 0x86, 0x3d,
    0x68, 0x6f, 0x8a, 0x3d, 0xbc, 0x39, 0x6e, 0x3e, 0x20, 0x67,
    0x12, 0xbd, 0xa8, 0xa7, 0x49, 0x3e, 0x65, 0x8c, 0x25, 0xbe,
    0x92, 0x09, 0x31, 0xbe, 0x78, 0x23, 0xaa, 0x3d, 0x44, 0x9b,
    0x04, 0x3e, 0xe8, 0x6c, 0xe1, 0x3d, 0x75, 0xcc, 0x79, 0xbe,
    0x10, 0x99, 0x8d, 0x3d, 0x70, 0x77, 0x50, 0x3d, 0x90, 0x9a,
    0xa9, 0xbd, 0x3c, 0x4d, 0x4f, 0x3e, 0x1e, 0xd8, 0x7b, 0x3e,
    0x80, 0x63, 0xf5, 0x3c, 0xb2, 0xb1, 0x0b, 0x3e, 0xb0, 0x90,
    0xcd, 0x3c, 0xfe, 0x5c, 0x28, 0xbe, 0x66, 0x47, 0x4d, 0xbe,
    0x62, 0xe8, 0x64, 0x3e, 0xe8, 0xd2, 0x7b, 0xbe, 0x28, 0xa2,
    0x32, 0xbe, 0xd2, 0xc5, 0xa4, 0xbd, 0xe6, 0x65, 0x10, 0xbe,
    0xcc, 0x08, 0x2a, 0x3e, 0x00, 0x6e, 0x6a, 0x3d, 0x00, 0x31,
    0x18, 0x3e, 0x74, 0xff, 0x57, 0x3e, 0x00, 0x3b, 0xa3, 0xba,
    0xd2, 0xda, 0x79, 0xbe, 0x40, 0x72, 0xbf, 0x3c, 0x64, 0x8c,
    0x09, 0x3e, 0x2c, 0x8e, 0xb1, 0x3d, 0x20, 0x37, 0x1e, 0x3e,
    0x64, 0x1b, 0x04, 0x3d, 0x69, 0x76, 0xcc, 0xbd, 0x93, 0x55,
    0x5b, 0xbd, 0xb3, 0x6e, 0x63, 0xbd, 0xa3, 0x61, 0xea, 0x3d,
    0x10, 0xf6, 0x5e, 0x3e, 0x27, 0x67, 0x3a, 0x3e, 0x0d, 0x14,
    0x86, 0xbd, 0x57, 0xc2, 0x6f, 0xbc, 0x2a, 0x1b, 0x0d, 0xbd,
    0x5e, 0x6f, 0x5f, 0xbe, 0x21, 0x99, 0x3a, 0xbd, 0xca, 0x43,
    0xb1, 0x3e, 0xdc, 0x08, 0x9a, 0xbe, 0x26, 0xca, 0x11, 0x3d,
    0x01, 0x2d, 0x45, 0x3c, 0x50, 0x90, 0x2a, 0xbe, 0xb9, 0x46,
    0xb0, 0x3d, 0xa9, 0x42, 0x60, 0x3e, 0xa8, 0xad, 0x0a, 0x3c,
    0x41, 0x0e, 0xa3, 0xbe, 0xa6, 0x08, 0xdf, 0x3c, 0xc4, 0x92,
    0x82, 0x3d, 0x3e, 0x0f, 0x05, 0xbe, 0x92, 0xb8, 0x44, 0x3d,
    0xc4, 0xe9, 0x21, 0xbe, 0x95, 0x95, 0x02, 0xbe, 0x7e, 0xa5,
    0x19, 0xbe, 0x1c, 0x5f, 0x6e, 0xbe, 0xde, 0xb8, 0x29, 0xbe,
    0xa4, 0xf0, 0xe8, 0x3d, 0xb9, 0xc9, 0x9c, 0x3d, 0x53, 0xdf,
    0x57, 0xbe, 0x68, 0x0a, 0x21, 0x3d, 0x31, 0x06, 0x57, 0x3c,
    0xb0, 0xb6, 0x11, 0x3e, 0xf2, 0xaf, 0x41, 0xbe, 0xa5, 0x78,
    0x75, 0xbb, 0x34, 0x53, 0x2f, 0x3e, 0xf9, 0x16, 0x53, 0xbe,
    0x77, 0x06, 0x58, 0x3e, 0xe5, 0xb6, 0x5a, 0x3e, 0xcd, 0x0b,
    0x5d, 0x3e, 0x5c, 0x46, 0x69, 0x3d, 0x02, 0x1c, 0x2d, 0xbe,
    0x64, 0x73, 0x53, 0x3e, 0x5e, 0xe0, 0xda, 0xbd, 0xc5, 0x87,
    0x25, 0x3d, 0x8d, 0x14, 0x8f, 0x3e, 0xf3, 0x6b, 0x6c, 0x3d,
    0xbc, 0x4d, 0xa3, 0xbd, 0x8a, 0x16, 0xfb, 0x3d, 0xe5, 0x9f,
    0x40, 0xbd, 0x9a, 0xe7, 0x83, 0xbd, 0x86, 0x7e, 0xab, 0xbc,
    0x51, 0xc1, 0x69, 0x3e, 0xe6, 0x0a, 0xb6, 0xbd, 0x59, 0x0a,
    0x31, 0xbe, 0x24, 0x1c, 0x0d, 0xbe, 0x46, 0x1d, 0x91, 0x3d,
    0x2c, 0xe3, 0xe3, 0xbc, 0x3a, 0x49, 0x88, 0xbd, 0x71, 0x5e,
    0xcc, 0x3d, 0xb3, 0x42, 0xec, 0xbd, 0x13, 0x7f, 0x32, 0xbe,
    0x6e, 0xc1, 0x89, 0x3e, 0x32, 0xf3, 0x07, 0x3d, 0x78, 0x41,
    0x86, 0x3c, 0x9e, 0xa4, 0x5f, 0xbe, 0x62, 0x60, 0xc1, 0x3d,
    0x84, 0x5e, 0x9e, 0xbd, 0x3f, 0x5a, 0x5a, 0x3e, 0xab, 0x3b,
    0x19, 0x3e, 0x03, 0x20, 0x3c, 0x3e, 0xbc, 0x9a, 0x8a, 0x3d,
    0x78, 0x6c, 0x19, 0x3e, 0x06, 0x27, 0x80, 0x3c, 0xfd, 0xb3,
    0x1c, 0x3c, 0x70, 0xf1, 0x4f, 0x3d, 0x21, 0x47, 0x87, 0x3d,
    0x13, 0x68, 0xa6, 0xbd, 0xaa, 0x2f, 0x27, 0xbe, 0x6d, 0x8a,
    0xfb, 0x3d, 0x1c, 0x85, 0x40, 0x3d, 0xf2, 0x23, 0x8a, 0x3e,
    0xdb, 0x4e, 0x4a, 0xbd, 0x8f, 0xfc, 0xb2, 0xbe, 0x82, 0x3d,
    0xb0, 0xbd, 0x9e, 0xc4, 0x04, 0x3e, 0x94, 0xd4, 0x27, 0xbe,
    0x86, 0x36, 0x35, 0x3e, 0x30, 0xf9, 0x0a, 0x3e, 0x78, 0x7b,
    0xf1, 0xbd, 0x09, 0x9c, 0x73, 0x3e, 0x9e, 0x3a, 0x88, 0x3d,
    0xf2, 0xb8, 0x8b, 0xbe, 0xb1, 0xd0, 0xca, 0xbc, 0x9d, 0x30,
    0x4d, 0xbe, 0x4c, 0x24, 0x6f, 0x3d, 0x67, 0x00, 0x7b, 0x3e,
    0x73, 0x7c, 0x40, 0xbe, 0x86, 0x83, 0xec, 0x3c, 0xc5, 0xc3,
    0xa5, 0x3e, 0x4a, 0x20, 0xe4, 0x3d, 0x34, 0xec, 0xd0, 0xbc,
    0x28, 0x50, 0x36, 0x3e, 0x82, 0x30, 0x9b, 0xbe, 0xac, 0x81,
    0x81, 0x3d, 0xf3, 0x66, 0x91, 0x3d, 0x34, 0xf0, 0x32, 0xbc,
    0xbe, 0x83, 0x12, 0xbb, 0xd4, 0xc2, 0x91, 0xbb, 0x1e, 0x29,
    0x06, 0x3e, 0x88, 0xe7, 0x2d, 0xbe, 0x44, 0xe6, 0xe9, 0xbd,
    0xd2, 0xbd, 0xa6, 0xbe, 0x0c, 0x56, 0x64, 0xbe, 0xd3, 0x4c,
    0x67, 0x3d, 0xc5, 0x65, 0x04, 0x3d, 0xfb, 0x77, 0x42, 0x3c,
    0x6d, 0x6f, 0xbb, 0xbb, 0x6e, 0x20, 0xfd, 0x3a, 0x8d, 0x0c,
    0x0e, 0x3e, 0xba, 0x4d, 0x7c, 0x3e, 0x4f, 0x75, 0x58, 0x3e,
    0x01, 0xba, 0x89, 0x3c, 0x1e, 0x1f, 0x9d, 0x3d, 0xd8, 0xa6,
    0x3b, 0x3e, 0x95, 0xa8, 0x10, 0xbc, 0x0b, 0xe7, 0x89, 0xbd,
    0x64, 0x27, 0x8c, 0x3e, 0x26, 0xfb, 0x70, 0x3e, 0xf2, 0x09,
    0xb7, 0x3e, 0xc7, 0xcd, 0x15, 0x3e, 0x7e, 0x4a, 0x29, 0x3d,
    0x9b, 0x7b, 0x39, 0xbe, 0x19, 0x8d, 0x4f, 0xbd, 0x5c, 0x98,
    0xaa, 0x3d, 0x6b, 0x32, 0x4f, 0xbe, 0xf6, 0x9a, 0x75, 0xbd,
    0x2a, 0x3c, 0xb8, 0x3d, 0xee, 0x68, 0xac, 0xbe, 0x59, 0x28,
    0xd9, 0x3d, 0x3c, 0x31, 0xc2, 0xbd, 0xdd, 0xb8, 0x0d, 0xbe,
    0x98, 0xb4, 0x64, 0x3d, 0x0f, 0x46, 0xca, 0x3d, 0xc6, 0xe7,
    0x3f, 0x3e, 0x9f, 0xfd, 0x34, 0x3e, 0xd0, 0x9e, 0x5a, 0xbe,
    0xb9, 0x6c, 0x2b, 0xbe, 0x7a, 0x7f, 0x89, 0x3d, 0x5b, 0xf5,
    0xff, 0xbd, 0xf9, 0xbe, 0xb9, 0x3d, 0xbf, 0x8b, 0x31, 0xbe,
    0x34, 0x47, 0x7a, 0x3c, 0x2f, 0x71, 0x15, 0x3e, 0xa8, 0x9c,
    0x29, 0xbe, 0xc6, 0xf8, 0xaa, 0x3d, 0x13, 0x1e, 0x16, 0x3d,
    0xa9, 0xf0, 0x1b, 0xbd, 0xb8, 0x40, 0x24, 0xbe, 0xdf, 0x6c,
    0xcf, 0x3c, 0xee, 0x58, 0xaf, 0xbc, 0x01, 0xa0, 0x57, 0xbb,
    0x6d, 0x3e, 0x29, 0x3d, 0x88, 0xf4, 0xf4, 0x3d, 0xe6, 0xa6,
    0x19, 0xbe, 0xe3, 0x59, 0x07, 0x3e, 0x15, 0x3c, 0x1c, 0xbe,
    0x25, 0xb6, 0x30, 0xbe, 0x77, 0x2d, 0x37, 0x3d, 0xfd, 0x2e,
    0x57, 0xbe, 0xe3, 0x0b, 0x56, 0xbe, 0x87, 0x08, 0x04, 0x3d,
    0x8c, 0x41, 0x3d, 0x3e, 0x5c, 0xc1, 0xcf, 0xbd, 0xad, 0xad,
    0xc2, 0xbd, 0xd1, 0xa6, 0x65, 0xbd, 0x96, 0xe7, 0x56, 0x3d,
    0xa2, 0xe2, 0x31, 0x3d, 0x9e, 0x45, 0x4f, 0x3e, 0x47, 0xed,
    0xd5, 0xbd, 0xdf, 0x35, 0x36, 0xbe, 0xc6, 0x9f, 0x50, 0x3d,
    0xa1, 0xef, 0x6b, 0xbd, 0x82, 0x5b, 0x70, 0xbe, 0x27, 0x95,
    0x0b, 0x3e, 0x08, 0x54, 0xc3, 0xbc, 0x1a, 0x4a, 0x9f, 0x3e,
    0x68, 0x59, 0x31, 0x3e, 0xb4, 0x0c, 0x45, 0x3d, 0xf3, 0xc1,
    0x5c, 0xbe, 0x04, 0x94, 0xe2, 0x3d, 0xd1, 0xe4, 0x88, 0x3d,
    0x25, 0x64, 0xa8, 0xbd, 0x13, 0x46, 0xd3, 0xbd, 0x7e, 0x0d,
    0x76, 0xbe, 0xd8, 0xda, 0xa4, 0xbe, 0xed, 0x18, 0x29, 0xbc,
    0x24, 0x5d, 0x88, 0x3b, 0x2c, 0x40, 0x35, 0x3e, 0x78, 0x2a,
    0xfd, 0xbd, 0x8b, 0x48, 0xef, 0x3c, 0x74, 0x13, 0x1b, 0x3e,
    0x11, 0x7d, 0x92, 0x3d, 0x58, 0xd4, 0xb6, 0xbd, 0x68, 0x98,
    0x8b, 0x3d, 0x1e, 0xb2, 0xa1, 0xbd, 0x9f, 0x1e, 0x70, 0xbe,
    0x61, 0x6a, 0x17, 0xbe, 0x56, 0x72, 0x58, 0x3d, 0xe8, 0xe4,
    0x61, 0x3e, 0x68, 0x21, 0x42, 0xbc, 0x59, 0x23, 0x39, 0xbe,
    0x1b, 0xa1, 0x0a, 0xbe, 0xee, 0xf3, 0xd9, 0xbd, 0xa4, 0xf1,
    0x83, 0xbd, 0x04, 0x9d, 0x24, 0xbc, 0x9e, 0xc1, 0x89, 0xbe,
    0xba, 0xb7, 0xb5, 0xbd, 0x96, 0x56, 0x87, 0xbd, 0x1f, 0xfb,
    0x58, 0xbd, 0x51, 0x2c, 0x83, 0xbd, 0x4f, 0x35, 0x33, 0xbe,
    0xf9, 0xdb, 0x19, 0xbe, 0xf8, 0xa1, 0x02, 0x3e, 0x60, 0x99,
    0x19, 0x3e, 0x51, 0x1f, 0xa2, 0x3c, 0x2b, 0x3c, 0x0b, 0xbe,
    0x40, 0xb1, 0x1d, 0x3e, 0x09, 0x6f, 0xd2, 0x3d, 0x21, 0x97,
    0x61, 0xbe, 0xf6, 0xfa, 0x4e, 0x3e, 0x47, 0x7a, 0xa0, 0x3d,
    0xfb, 0x53, 0x42, 0x3e, 0x81, 0x1a, 0xd5, 0x3d, 0x9c, 0xf8,
    0x51, 0xbe, 0x0c, 0x2d, 0x31, 0xbd, 0xc7, 0x39, 0x97, 0xbe,
    0xec, 0x03, 0x77, 0xbd, 0xcf, 0x1b, 0xc1, 0x3d, 0xcb, 0x3b,
    0x0e, 0x3e, 0x5d, 0x48, 0x7d, 0x3d, 0xb7, 0x48, 0xb1, 0xbe,
    0xa9, 0x39, 0x26, 0x3e, 0x43, 0xa2, 0x78, 0xbe, 0x39, 0x45,
    0x4e, 0xbe, 0xf1, 0x0c, 0x85, 0xbd, 0xee, 0xb9, 0x76, 0x3d,
    0x23, 0x64, 0x91, 0xbd, 0x17, 0x62, 0xde, 0x3c, 0x8e, 0x5f,
    0x71, 0xbd, 0x73, 0x91, 0x54, 0xbe, 0x87, 0xbb, 0xa9, 0xbc,
    0xfe, 0x40, 0x6c, 0xbe, 0xfe, 0x2a, 0x98, 0xbd, 0xf2, 0xb9,
    0x13, 0x3d, 0xbf, 0xf1, 0xb7, 0xbd, 0x77, 0xbf, 0x02, 0x3e,
    0x94, 0x2b, 0x85, 0xbe, 0x41, 0x4a, 0x78, 0x3e, 0x89, 0x79,
    0x43, 0xbe, 0xcd, 0x74, 0x35, 0xbe, 0xbe, 0xfc, 0x7e, 0xbc,
    0xc0, 0x94, 0x69, 0xbe, 0x99, 0xf1, 0xb6, 0xbe, 0xe4, 0x54,
    0xe2, 0x3d, 0xf9, 0xb7, 0x70, 0x3e, 0xae, 0xa7, 0x9c, 0x3d,
    0xc0, 0x77, 0x81, 0x3d, 0xcf, 0x21, 0xd7, 0xbc, 0x7c, 0xfb,
    0x35, 0xbe, 0x04, 0x14, 0x20, 0xbe, 0x54, 0x9f, 0x3b, 0x3e,
    0xb3, 0x03, 0x2a, 0xbe, 0xfc, 0x16, 0xfe, 0xbc, 0x95, 0x82,
    0xbd, 0xbc, 0x06, 0x35, 0x48, 0xbe, 0xad, 0xdd, 0xa5, 0xbd,
    0xc6, 0x0e, 0xa8, 0x3d, 0x86, 0xae, 0x1e, 0x3e, 0x9c, 0xf3,
    0x68, 0xbe, 0x21, 0xf9, 0x50, 0xbd, 0x1d, 0x5d, 0x7b, 0xbe,
    0x5d, 0x25, 0x80, 0xbe, 0xda, 0x2f, 0x88, 0xbe, 0x3b, 0x10,
    0x92, 0x3d, 0x1f, 0xb2, 0xdc, 0x3a, 0x76, 0x5e, 0x2b, 0xbe,
    0xa7, 0x70, 0x88, 0x3e, 0x24, 0xe5, 0x8a, 0xbe, 0x18, 0x35,
    0x53, 0x3e, 0xed, 0x82, 0x75, 0xbc, 0x93, 0xee, 0xdf, 0x3d,
    0x3e, 0x0b, 0x77, 0xbe, 0xda, 0x50, 0x4b, 0xbe, 0xe4, 0x77,
    0xb1, 0x3c, 0x2b, 0x24, 0xd9, 0xbd, 0xb9, 0xae, 0x44, 0xbe,
    0x2f, 0xfb, 0x08, 0x3e, 0x21, 0xe2, 0x3e, 0x3e, 0x36, 0x65,
    0x1c, 0x3e, 0x79, 0x2f, 0xac, 0xb9, 0x55, 0x4a, 0xe0, 0xbd,
    0xc0, 0x42, 0xc8, 0x3d, 0x40, 0x01, 0x8d, 0x3d, 0x8e, 0x49,
    0x13, 0x3c, 0x2b, 0x77, 0xd4, 0xbd, 0x62, 0x36, 0x41, 0xbd,
    0x8f, 0x93, 0xb7, 0xbd, 0xb5, 0x5b, 0x8f, 0xbd, 0x9d, 0x3c,
    0x27, 0x3e, 0x7d, 0xb9, 0xd2, 0x3d, 0xe8, 0x10, 0x3f, 0x3d,
    0x52, 0xdd, 0xde, 0xbd, 0xcb, 0x64, 0xf4, 0x3c, 0x90, 0x18,
    0x0c, 0xbe, 0x00, 0x1d, 0x4b, 0xbd, 0x7c, 0x0c, 0x0e, 0xbd,
    0xc0, 0x12, 0xfb, 0xbd, 0x20, 0x3e, 0x24, 0xbe, 0xc7, 0x5d,
    0x80, 0x3d, 0xd2, 0x26, 0xb3, 0x3d, 0x1c, 0xc9, 0x26, 0xbe,
    0x20, 0x3f, 0x12, 0xbe, 0x74, 0xbc, 0x9f, 0x3d, 0x0d, 0x73,
    0x5c, 0xbe, 0xbc, 0x60, 0xb8, 0x3e, 0x49, 0x58, 0x84, 0x3e,
    0x43, 0x91, 0x48, 0x3e, 0x8b, 0xa3, 0x00, 0x3e, 0x16, 0x71,
    0x28, 0x3d, 0x08, 0x0b, 0x05, 0x3e, 0x61, 0xe3, 0x61, 0x3e,
    0xf6, 0xb0, 0xa8, 0x3d, 0x38, 0x0e, 0x44, 0x3e, 0x16, 0x88,
    0xad, 0xbe, 0x61, 0xce, 0x36, 0xbe, 0x16, 0x11, 0xc1, 0x3d,
    0x0c, 0xc0, 0x71, 0xbc, 0x48, 0x77, 0x1a, 0x3e, 0x9f, 0x83,
    0x04, 0xbc, 0x32, 0x4a, 0x84, 0x3e, 0x3c, 0x56, 0x6e, 0xbe,
    0x5e, 0x93, 0x5a, 0xbd, 0xf9, 0x77, 0xa2, 0xbd, 0x10, 0xbd,
    0xc6, 0xbb, 0xc1, 0xd8, 0xc0, 0x3e, 0x18, 0x3b, 0x40, 0xbd,
    0x5c, 0x7b, 0xd4, 0xbd, 0x8a, 0x5b, 0xb0, 0xbc, 0xe1, 0x38,
    0xe9, 0x3d, 0x60, 0x2a, 0xb2, 0xbc, 0x69, 0xbe, 0x2a, 0x3d,
    0xd5, 0x12, 0xb2, 0x3e, 0x80, 0x2e, 0x1f, 0x3e, 0xb9, 0x5a,
    0xed, 0xbc, 0x01, 0x74, 0x29, 0xbe, 0x77, 0x6d, 0x31, 0xbd,
    0xfd, 0xe4, 0xe3, 0xbd, 0xa2, 0x12, 0x0d, 0xbe, 0xe8, 0x20,
    0xfc, 0x3d, 0x04, 0xa7, 0x43, 0x3e, 0x20, 0x8b, 0x67, 0xbe,
    0x75, 0x99, 0x41, 0xbe, 0xbb, 0xa0, 0x80, 0xbd, 0x54, 0x9b,
    0x42, 0xbe, 0x68, 0xc4, 0x5f, 0xbd, 0x18, 0xa9, 0x90, 0x3d,
    0xc8, 0xc4, 0x86, 0xbd, 0x31, 0x28, 0x78, 0xbe, 0x07, 0xb8,
    0x11, 0x3d, 0x41, 0xb7, 0xd0, 0xbc, 0xd5, 0x17, 0xa2, 0x3e,
    0x42, 0x14, 0x73, 0xbd, 0x4b, 0xdf, 0x1b, 0x3e, 0x73, 0x52,
    0x0d, 0xbc, 0xff, 0xd3, 0x23, 0xbe, 0x72, 0x9f, 0xd6, 0x3d,
    0x09, 0x11, 0x18, 0xbe, 0xad, 0xc9, 0x8a, 0x3d, 0xa4, 0x8d,
    0xfc, 0x3d, 0x82, 0x05, 0x64, 0xbe, 0x7d, 0x32, 0x65, 0x3e,
    0x17, 0x0b, 0x41, 0xbe, 0x2f, 0xe7, 0xaa, 0x3d, 0x33, 0x12,
    0x0f, 0x3e, 0x4f, 0xd0, 0x19, 0xbe, 0xd9, 0x40, 0x85, 0x3e,
    0x0e, 0xe1, 0x2e, 0xbe, 0xb2, 0xc5, 0x26, 0xbe, 0x18, 0x97,
    0x41, 0xbe, 0x68, 0xcb, 0xf1, 0xbd, 0xd1, 0x91, 0x92, 0x3e,
    0x80, 0x74, 0x3c, 0xbe, 0x9b, 0x67, 0x1e, 0x3e, 0xb2, 0xc5,
    0x83, 0xbd, 0x73, 0xfc, 0x9c, 0xbb, 0x0c, 0x34, 0xc8, 0x3c,
    0x80, 0xe5, 0x47, 0x3b, 0x9c, 0xda, 0xb3, 0xbc, 0x89, 0x8c,
    0xbd, 0x3d, 0x2f, 0x22, 0x77, 0x3e, 0xff, 0x39, 0x24, 0x3e,
    0x0e, 0x3c, 0xbe, 0xbb, 0xa9, 0xb3, 0xc4, 0xbc, 0x77, 0x1d,
    0xa6, 0xbe, 0xd2, 0x02, 0x83, 0xbe, 0x49, 0xf1, 0xc5, 0x3d,
    0xa5, 0x5e, 0x77, 0xbd, 0x1e, 0xcd, 0x80, 0x3d, 0x49, 0xe5,
    0x55, 0x3e, 0xa3, 0x1a, 0x5c, 0x3e, 0x80, 0x55, 0x01, 0xbe,
    0xb0, 0xa8, 0x97, 0x3d, 0xb7, 0x2f, 0x84, 0x3e, 0xea, 0xf2,
    0x3a, 0xbd, 0x5b, 0x11, 0x84, 0xbd, 0x9f, 0x62, 0x93, 0x3d,
    0xa9, 0x5f, 0xb2, 0xbd, 0x7a, 0xcb, 0x2b, 0x3e, 0xe6, 0xe7,
    0x0d, 0xbc, 0xb4, 0xb9, 0x6b, 0xbd, 0x26, 0x53, 0x0d, 0x3e,
    0x1b, 0x86, 0x2e, 0xbe, 0xd0, 0x95, 0x3e, 0x3d, 0x22, 0xf7,
    0xf3, 0xbd, 0x32, 0x71, 0x53, 0x3e, 0xb9, 0xf2, 0xfa, 0xbb,
    0x26, 0x04, 0x02, 0xbe, 0x8b, 0x47, 0x41, 0x3e, 0x86, 0x3d,
    0x1b, 0x3e, 0x58, 0xa0, 0x57, 0x3e, 0x43, 0x44, 0x81, 0x3e,
    0x90, 0x33, 0x8e, 0x3c, 0x5e, 0x83, 0x70, 0xbe, 0xc4, 0xeb,
    0xa9, 0xbd, 0x40, 0x1d, 0xee, 0x3c, 0x3a, 0x91, 0x2b, 0xbe,
    0x0c, 0x70, 0xcd, 0x3d, 0x50, 0x27, 0x8b, 0xbd, 0x68, 0x6f,
    0xb6, 0xbc, 0x18, 0x1e, 0x06, 0x3e, 0xa0, 0xb6, 0x31, 0x3e,
    0x24, 0xb0, 0x62, 0xbd, 0x3c, 0xad, 0x2d, 0xbe, 0xa8, 0x83,
    0x9b, 0xbd, 0x44, 0xc3, 0x4a, 0xbd, 0x2e, 0xed, 0x6d, 0x3e,
    0xc0, 0xe0, 0x58, 0x3e, 0x04, 0xde, 0x31, 0x3e, 0x62, 0xe5,
    0xa3, 0xbd, 0x70, 0x97, 0xd5, 0x3c, 0xd0, 0x7f, 0x4c, 0x3e,
    0xe2, 0xfd, 0x2f, 0xbe, 0x86, 0xf2, 0x94, 0xbd, 0xdc, 0xb3,
    0xf5, 0xbd, 0x38, 0x32, 0xf9, 0xbc, 0x24, 0x9e, 0x89, 0xbd,
    0xe0, 0x06, 0xc5, 0x3c, 0xc1, 0x80, 0x33, 0xbe, 0x6c, 0x1a,
    0xdc, 0x3d, 0x90, 0x9e, 0x02, 0x3d, 0x1b, 0x9b, 0x46, 0xbe,
    0xe0, 0x08, 0xb0, 0x3d, 0xc4, 0x08, 0x9f, 0x3d, 0xf8, 0xaa,
    0x16, 0xbd, 0x5d, 0xb3, 0x08, 0x3e, 0xec, 0x34, 0x2f, 0xbe,
    0x30, 0xb0, 0x03, 0xbe, 0xe2, 0x29, 0x45, 0xbd, 0xc3, 0x33,
    0x31, 0x3c, 0xb3, 0x6c, 0x18, 0xbd, 0x74, 0x7d, 0x26, 0x3e,
    0xa7, 0x2a, 0x2c, 0x3e, 0xc6, 0xe0, 0x2a, 0x3d, 0x21, 0x0f,
    0x25, 0xbe, 0xa6, 0xfa, 0xc9, 0xbd, 0xe8, 0x57, 0x04, 0xbd,
    0xfd, 0x20, 0x8c, 0x3e, 0x5a, 0xd0, 0x2c, 0x3e, 0x9b, 0x54,
    0xfe, 0x3d, 0x2a, 0x83, 0x86, 0x3e, 0xad, 0x27, 0x8b, 0x3c,
    0x16, 0xff, 0x5d, 0xbe, 0xb3, 0xbc, 0x61, 0x3e, 0x3e, 0xe8,
    0x5a, 0xbe, 0x36, 0x59, 0xe6, 0xbd, 0x4c, 0x25, 0x67, 0x3e,
    0xa7, 0xfc, 0xcb, 0x3d, 0x15, 0xfa, 0x0e, 0xbd, 0xab, 0x10,
    0x37, 0xbe, 0x09, 0xc6, 0x01, 0x3e, 0xe9, 0x7c, 0x44, 0xbe,
    0x0f, 0xf8, 0x5f, 0xbd, 0x80, 0x12, 0x21, 0xbd, 0x17, 0xc1,
    0x39, 0x3e, 0x10, 0x45, 0x76, 0x3d, 0x0a, 0x56, 0xf7, 0x3d,
    0x2d, 0x79, 0xac, 0x3d, 0xfe, 0xdb, 0xa9, 0x3e, 0x48, 0x82,
    0x01, 0x3e, 0xb6, 0x94, 0x91, 0xbd, 0xc3, 0xe6, 0xd3, 0xbd,
    0xac, 0xe0, 0x77, 0xbe, 0x6e, 0xb7, 0x9b, 0x3d, 0x1e, 0x53,
    0x27, 0xbe, 0x3c, 0x44, 0x27, 0x3d, 0x57, 0xd7, 0xc6, 0x3d,
    0x69, 0xbb, 0x82, 0xbe, 0xda, 0xe5, 0x24, 0x3e, 0xaa, 0x95,
    0x53, 0xbe, 0x99, 0x36, 0x0a, 0xbe, 0x3d, 0x9d, 0xdf, 0x3d,
    0xe9, 0xb1, 0x73, 0x3e, 0xed, 0xf4, 0xfd, 0xbd, 0x95, 0x77,
    0xab, 0x3d, 0xba, 0x1c, 0x45, 0xbd, 0xe9, 0x53, 0x14, 0x3d,
    0x73, 0x8b, 0x68, 0x3e, 0xbf, 0xb6, 0x51, 0x3e, 0xc1, 0xaf,
    0x1c, 0x3c, 0x48, 0xca, 0x7a, 0xbe, 0x97, 0x69, 0xf6, 0xbd,
    0x9c, 0xe8, 0x13, 0x3e, 0x15, 0x81, 0xe0, 0xbc, 0xe4, 0x45,
    0x85, 0x3d, 0x80, 0xe8, 0x42, 0x3e, 0xaf, 0x85, 0x85, 0x3e,
    0x82, 0xa0, 0x76, 0x3e, 0x1c, 0x56, 0x3d, 0x3d, 0x84, 0x66,
    0x1a, 0x3e, 0x90, 0x13, 0x13, 0x3c, 0xb6, 0xea, 0x68, 0x3e,
    0xac, 0x45, 0x6c, 0x3e, 0x05, 0x49, 0xf3, 0xbd, 0x06, 0x38,
    0x41, 0xbe, 0xb2, 0xdd, 0x80, 0xbd, 0x6b, 0xf9, 0x40, 0x3c,
    0x65, 0xb2, 0xd0, 0x3d, 0x14, 0x5e, 0x17, 0xbe, 0x75, 0x87,
    0xda, 0x3c, 0x2a, 0x75, 0x5e, 0xbe, 0x02, 0x10, 0x73, 0xbe,
    0xd0, 0x1c, 0xa2, 0xbc, 0x00, 0x44, 0xf1, 0x3d, 0x2b, 0x3d,
    0xad, 0x3c, 0x0e, 0x69, 0x17, 0xbe, 0x75, 0xec, 0xef, 0x3c,
    0x0b, 0x3f, 0xa4, 0xbe, 0x4b, 0xd6, 0x2b, 0xbe, 0x07, 0x85,
    0x35, 0xbe, 0xc0, 0xed, 0xe8, 0xbd, 0x14, 0xcb, 0xb8, 0xbd,
    0xea, 0xbd, 0x7f, 0xbe, 0x96, 0x62, 0x1d, 0x3e, 0xb1, 0x26,
    0x3c, 0xbd, 0x43, 0x15, 0x89, 0x3d, 0x5d, 0xaf, 0x82, 0xbe,
    0xb2, 0x24, 0x89, 0x3d, 0x83, 0xd5, 0x07, 0x3e, 0xfd, 0xb9,
    0xbb, 0x3d, 0xa1, 0x05, 0x64, 0xbc, 0x0b, 0x03, 0xb4, 0xbe,
    0xe8, 0x93, 0x8b, 0xbe, 0xe5, 0xf7, 0x22, 0x3e, 0x2b, 0xf2,
    0xed, 0x3d, 0xab, 0xeb, 0x5b, 0x3e, 0x27, 0x0f, 0xe1, 0x3d,
    0x3d, 0xd7, 0xa4, 0x3d, 0xf8, 0x52, 0xcf, 0xbd, 0xc8, 0x54,
    0x3c, 0xbd, 0xd2, 0x81, 0x25, 0x3e, 0x7b, 0xc5, 0xc0, 0x3c,
    0x85, 0x57, 0xb2, 0x3d, 0x91, 0x85, 0x20, 0x3e, 0x2c, 0x55,
    0xc1, 0x3d, 0xaf, 0x82, 0x89, 0x3b, 0xda, 0x63, 0x8b, 0xbd,
    0xa9, 0x0b, 0x39, 0x3e, 0x5a, 0xfd, 0xe2, 0xbd, 0xa9, 0x87,
    0x74, 0x3e, 0x48, 0xdb, 0x23, 0xbe, 0x15, 0x91, 0x04, 0x3e,
    0x40, 0x87, 0x2f, 0x3d, 0xa4, 0x1a, 0x9c, 0xbd, 0x11, 0xf4,
    0x72, 0xbe, 0x49, 0x70, 0x75, 0x3e, 0x12, 0x83, 0x36, 0x3d,
    0x0b, 0x05, 0x50, 0xbe, 0x7e, 0xa1, 0xa6, 0xbd, 0x1f, 0x6d,
    0x40, 0xbe, 0x9d, 0x4b, 0xf7, 0xbd, 0x10, 0x71, 0x97, 0x3e,
    0xd3, 0xf4, 0x34, 0x3e, 0x50, 0xcd, 0xf5, 0xbd, 0x5a, 0x01,
    0x0c, 0xbe, 0x87, 0x16, 0x2e, 0xbe, 0xbe, 0x4f, 0x1d, 0xbe,
    0x89, 0x94, 0x9e, 0x3d, 0x04, 0x2c, 0xa6, 0x3d, 0x0b, 0x08,
    0x02, 0xbe, 0xc5, 0x37, 0x6e, 0x3e, 0x08, 0xd8, 0x99, 0xbd,
    0x1d, 0x9a, 0x83, 0x3e, 0x72, 0x4a, 0xfb, 0xbd, 0x4e, 0x4b,
    0x47, 0xbd, 0x33, 0x9a, 0x33, 0xbe, 0xc5, 0xab, 0x3a, 0xbe,
    0x8f, 0xc4, 0x40, 0x3e, 0x47, 0x46, 0x60, 0xbe, 0x9b, 0xb3,
    0x72, 0xbe, 0xab, 0x93, 0x58, 0xbe, 0xa1, 0x88, 0x84, 0x3e,
    0xb6, 0xa6, 0x1b, 0x3e, 0x09, 0x00, 0x41, 0xbe, 0x06, 0x78,
    0xb4, 0x3c, 0x22, 0x45, 0xea, 0x3c, 0x4f, 0x94, 0x37, 0x3e,
    0x48, 0x13, 0x3e, 0xbe, 0xfa, 0xb5, 0xb4, 0xbc, 0xed, 0x96,
    0x80, 0xbe, 0x9b, 0xd4, 0x82, 0x3c, 0x13, 0xf0, 0xcb, 0x3b,
    0x8a, 0xba, 0x27, 0xbe, 0x60, 0x2e, 0x79, 0x3d, 0x22, 0x91,
    0x57, 0xbe, 0xe8, 0x2b, 0x09, 0x3e, 0x44, 0xd8, 0x67, 0x3d,
    0xfb, 0x6f, 0x9c, 0x3e, 0xf9, 0x4a, 0x7e, 0x3e, 0xa4, 0xc0,
    0x6d, 0x3d, 0x8a, 0xf1, 0x56, 0xbe, 0x56, 0xd3, 0x19, 0xbe,
    0xe6, 0xe7, 0xef, 0x3c, 0xf0, 0xc3, 0x7b, 0xbc, 0x99, 0xdd,
    0x13, 0x3e, 0x63, 0xae, 0x43, 0x3e, 0xd0, 0x7f, 0x95, 0x3d,
    0xb6, 0x8b, 0xf3, 0xbd, 0x1b, 0x53, 0xd1, 0x3d, 0xab, 0x7a,
    0x38, 0xbe, 0xa3, 0x39, 0x8f, 0x3d, 0xf0, 0xd8, 0x63, 0x3e,
    0x05, 0xaa, 0x1d, 0x3e, 0x70, 0x6c, 0x5f, 0x3e, 0x44, 0xf3,
    0x5d, 0xbd, 0x7d, 0x94, 0xe9, 0x3d, 0xb3, 0x72, 0x1b, 0xbe,
    0x18, 0x63, 0x44, 0xbe, 0x0d, 0xfa, 0x79, 0xbd, 0x7c, 0xf2,
    0x64, 0x3e, 0xe3, 0x85, 0xb8, 0x3d, 0x52, 0xd2, 0x49, 0xbd,
    0x8f, 0xaa, 0xbe, 0xbd, 0xc3, 0x12, 0xa3, 0x3e, 0x76, 0xef,
    0x71, 0xbe, 0xa5, 0x11, 0x93, 0x3e, 0x30, 0xeb, 0x34, 0x3e,
    0xa8, 0x10, 0x12, 0x3d, 0xf1, 0x2d, 0x54, 0x3e, 0x2c, 0xdf,
    0x0d, 0x3d, 0xb7, 0x03, 0x76, 0xbe, 0xb4, 0xb8, 0x1e, 0x3e,
    0xf3, 0x8b, 0x68, 0xbe, 0xd0, 0x7d, 0xec, 0x3d, 0xbf, 0xa5,
    0x96, 0xbc, 0x65, 0x77, 0x10, 0x3e, 0x28, 0x57, 0xb6, 0xbe,
    0xaf, 0x4a, 0xf4, 0xbd, 0x13, 0xe9, 0x27, 0xbe, 0x40, 0xdb,
    0x2b, 0x3e, 0xdf, 0x05, 0x3e, 0xbe, 0x2b, 0x58, 0x46, 0x3d,
    0x63, 0x0a, 0x0e, 0x3e, 0xdd, 0x57, 0xa7, 0x3d, 0x38, 0x3c,
    0xea, 0xbd, 0xcc, 0x97, 0xb5, 0xbe, 0x53, 0x58, 0x73, 0xbe,
    0xee, 0xd4, 0x73, 0x3e, 0x37, 0x68, 0xb5, 0x3d, 0x99, 0x78,
    0xdd, 0xbd, 0xa6, 0x46, 0x86, 0xbc, 0x9d, 0x1a, 0x7f, 0x3d,
    0xe7, 0x96, 0x8c, 0x3d, 0x73, 0x1d, 0x67, 0xbe, 0x71, 0x87,
    0x76, 0xbe, 0x53, 0xaf, 0x99, 0xbc, 0x94, 0xa8, 0xad, 0x3e,
    0x61, 0xad, 0xf9, 0xbc, 0xde, 0xd8, 0xfb, 0xbd, 0x68, 0x6f,
    0x55, 0x3e, 0x42, 0x7d, 0xbe, 0x3d, 0x9b, 0xaf, 0x0e, 0x3d,
    0x77, 0x59, 0x3a, 0x3e, 0xce, 0x3a, 0xcd, 0x3d, 0xc3, 0x8a,
    0x55, 0xbd, 0xd6, 0xf7, 0xa8, 0xbd, 0x4f, 0x10, 0x64, 0x3e,
    0xfc, 0x25, 0x95, 0x3c, 0x6c, 0x5c, 0x17, 0xbd, 0xb5, 0x6b,
    0x96, 0x3e, 0x20, 0x4d, 0x82, 0x3e, 0xb9, 0xee, 0x60, 0x3e,
    0x98, 0x97, 0xb0, 0xbd, 0x84, 0x6c, 0x8c, 0x3c, 0x56, 0x61,
    0x56, 0xbe, 0x6b, 0x94, 0x54, 0xbc, 0x04, 0x0d, 0xee, 0x3d,
    0x70, 0x5f, 0x3e, 0xbe, 0xec, 0x01, 0xaa, 0xbe, 0xb0, 0x8b,
    0x6a, 0xbd, 0xde, 0x61, 0xc6, 0xbd, 0x89, 0xb1, 0x57, 0xbe,
    0x41, 0xa8, 0x6d, 0x3e, 0x17, 0x23, 0x08, 0xbd, 0xf2, 0x34,
    0x8f, 0xbb, 0x69, 0x81, 0xb4, 0xbc, 0x8c, 0x4b, 0x39, 0x3e,
    0xc5, 0x4f, 0x15, 0x3c, 0x29, 0x63, 0x2d, 0xbd, 0x65, 0x1b,
    0xcf, 0x3d, 0x01, 0xb3, 0x2f, 0xbe, 0xe2, 0xe7, 0xd0, 0x3d,
    0xe7, 0xea, 0xaa, 0x3c, 0x2c, 0x1b, 0x30, 0xbe, 0xb7, 0x01,
    0x86, 0x3e, 0xd6, 0xaf, 0x51, 0x3e, 0xaa, 0xb8, 0x42, 0xbe,
    0x50, 0xd3, 0x09, 0xbe, 0x8a, 0x59, 0xb6, 0x3d, 0xb8, 0xd2,
    0x58, 0xbe, 0x4a, 0x82, 0xa6, 0xbc, 0x15, 0x53, 0x04, 0xbe,
    0x51, 0x55, 0x85, 0xbe, 0xec, 0x1a, 0xea, 0x3d, 0x78, 0x85,
    0x01, 0x3e, 0x29, 0x48, 0x1b, 0x3e, 0x68, 0x16, 0x50, 0xbe,
    0x36, 0x50, 0xa4, 0x3d, 0x7a, 0x5c, 0x4d, 0xbe, 0x53, 0x33,
    0x1b, 0xbd, 0x21, 0x48, 0xaf, 0x3e, 0x79, 0x92, 0xe6, 0xbb,
    0x4f, 0xcb, 0x03, 0x3e, 0xca, 0x92, 0x14, 0xbe, 0x3a, 0x05,
    0x08, 0x3d, 0x5a, 0xbc, 0x60, 0xbd, 0x65, 0x70, 0x12, 0xbe,
    0x21, 0x73, 0x2a, 0xbe, 0xeb, 0x74, 0x09, 0xbd, 0xd7, 0x69,
    0x6f, 0xbd, 0x5e, 0x22, 0x0c, 0xbe, 0xd4, 0x47, 0xfb, 0xbd,
    0x38, 0x83, 0xb8, 0x3c, 0xce, 0xf6, 0x27, 0x3e, 0xc6, 0x9f,
    0x8b, 0x3e, 0x83, 0x50, 0xd9, 0x3d, 0x7d, 0x9f, 0x69, 0x3e,
    0x0a, 0x5c, 0x2d, 0x3d, 0x15, 0x45, 0xfd, 0x3d, 0x44, 0x62,
    0x23, 0x3e, 0xc8, 0x5b, 0x87, 0x3e, 0x96, 0x4f, 0x1d, 0xbc,
    0xec, 0xcd, 0x55, 0xbe, 0xbc, 0xc1, 0x29, 0xbe, 0xda, 0x89,
    0xee, 0xbd, 0x81, 0xfc, 0x38, 0x3d, 0x3d, 0xea, 0x73, 0x3e,
    0x97, 0xec, 0x7a, 0xbd, 0x79, 0x74, 0x83, 0x3d, 0x3b, 0x30,
    0x9a, 0x3d, 0xb0, 0x85, 0x57, 0xbd, 0xa2, 0xf5, 0x98, 0x3d,
    0x9e, 0x67, 0x45, 0xbe, 0x2c, 0x91, 0xcb, 0xbd, 0x60, 0x75,
    0x80, 0xbe, 0xa7, 0xed, 0xe1, 0xbd, 0x1a, 0xdf, 0x7c, 0x3e,
    0x69, 0xff, 0x63, 0x3d, 0xb5, 0x2d, 0x27, 0x3d, 0x5b, 0x8b,
    0x47, 0x3e, 0xe2, 0x08, 0x2b, 0x3d, 0x77, 0xcf, 0x34, 0x3c,
    0xba, 0x6f, 0x81, 0x3e, 0xe8, 0x13, 0xd8, 0xbd, 0xd7, 0xb7,
    0x43, 0x3e, 0x4f, 0xdb, 0xda, 0xbd, 0x31, 0x20, 0xc7, 0x3b,
    0x57, 0x1f, 0xc7, 0xbc, 0x1f, 0x9c, 0x80, 0x3e, 0x1c, 0x19,
    0xcd, 0x3b, 0xd9, 0xec, 0xeb, 0xbd, 0xb7, 0x5c, 0x63, 0x3c,
    0x1c, 0xff, 0x63, 0xbc, 0xf6, 0xcf, 0x6c, 0xbe, 0x88, 0x07,
    0x84, 0xbd, 0xc1, 0x32, 0x15, 0x3e, 0xff, 0xac, 0x07, 0x3e,
    0xc5, 0x01, 0xdc, 0xbd, 0x02, 0x05, 0x84, 0xbe, 0x0d, 0x20,
    0x41, 0xbe, 0x20, 0xa5, 0x72, 0x39, 0xef, 0x42, 0x0d, 0xbe,
    0x4d, 0xbe, 0xb6, 0xbd, 0xe1, 0x53, 0xff, 0x3b, 0x52, 0xbb,
    0x9d, 0xbc, 0x18, 0x8e, 0xa5, 0x3d, 0xd6, 0xc9, 0xde, 0x3d,
    0x7d, 0x39, 0xeb, 0x3d, 0xcf, 0xce, 0x4d, 0xbe, 0xc0, 0xeb,
    0x2b, 0xbe, 0x47, 0x0c, 0xe3, 0x3c, 0xe8, 0x34, 0x33, 0x3e,
    0x3c, 0xcf, 0xed, 0x3d, 0x93, 0x7d, 0x84, 0xbe, 0x82, 0x69,
    0x95, 0xbe, 0xec, 0x86, 0x0f, 0xbe, 0xbd, 0x78, 0x56, 0x3e,
    0xce, 0x2a, 0x69, 0x3e, 0xec, 0x4e, 0x24, 0x3e, 0x55, 0x26,
    0x8a, 0x3e, 0xee, 0xd2, 0xaa, 0x3d, 0x89, 0x81, 0xbd, 0x3d,
    0x75, 0x6f, 0x2e, 0x3d, 0xc4, 0xc6, 0x01, 0x3d, 0x59, 0x1e,
    0xc1, 0xbd, 0xfd, 0xf0, 0x3a, 0xbc, 0xfd, 0x3f, 0x68, 0x3e,
    0xda, 0x61, 0xbb, 0xbc, 0x72, 0x3d, 0x5b, 0x3e, 0x51, 0xda,
    0xd2, 0x3d, 0x5f, 0x58, 0x16, 0xbe, 0xf9, 0x3e, 0xe8, 0xbd,
    0xe1, 0x2e, 0x8f, 0x3e, 0x42, 0x21, 0xe7, 0xbd, 0x3f, 0x04,
    0x6a, 0xbe, 0x3e, 0xd5, 0x90, 0xbe, 0x99, 0xc1, 0x9f, 0xbd,
    0xa7, 0x96, 0x18, 0xbe, 0xa6, 0x27, 0x3b, 0xbc, 0x2b, 0x9c,
    0x6a, 0xbe, 0x7b, 0x6a, 0xe6, 0xbd, 0xf1, 0x91, 0x16, 0xbe,
    0x10, 0x9d, 0xa8, 0x3a, 0xc3, 0x81, 0x39, 0xbd, 0x3e, 0x75,
    0x0a, 0xbe, 0xc4, 0x18, 0x16, 0x3e, 0x13, 0xe5, 0x5f, 0xbe,
    0x57, 0x99, 0x2b, 0xbe, 0xa3, 0x2b, 0x72, 0x3e, 0x0b, 0x01,
    0x2a, 0xbd, 0x3f, 0xa0, 0x87, 0xbe, 0xdc, 0x3f, 0x70, 0xbe,
    0xe4, 0xc2, 0x48, 0xbe, 0x8b, 0x85, 0xac, 0xbd, 0x0b, 0x70,
    0x8e, 0x3e, 0x83, 0x19, 0x04, 0x3b, 0x66, 0xfa, 0x63, 0xbe,
    0x0b, 0x7c, 0x99, 0xbe, 0x77, 0xf9, 0xe6, 0xbc, 0x8f, 0xf2,
    0xae, 0x3e, 0xd5, 0xa3, 0x4b, 0x3e, 0x8b, 0xcd, 0xf2, 0x3c,
    0x3b, 0x1d, 0xa0, 0x3d, 0xd2, 0x22, 0x2b, 0x3b, 0x29, 0x36,
    0xd3, 0xbd, 0x12, 0x0b, 0x20, 0x3e, 0xf4, 0x20, 0x3c, 0x3e,
    0xf5, 0x91, 0x07, 0xbc, 0x90, 0xab, 0xbf, 0xbd, 0xac, 0x1a,
    0x6b, 0xbc, 0x58, 0x65, 0x33, 0xbe, 0xe5, 0xb7, 0x1a, 0xbe,
    0xaa, 0xed, 0x6c, 0x3d, 0xf5, 0x11, 0x21, 0xbe, 0xd9, 0x84,
    0x43, 0xbb, 0xcc, 0x74, 0x37, 0xbc, 0xb2, 0x71, 0x19, 0x3d,
    0x77, 0x26, 0x38, 0x3e, 0xc5, 0xe8, 0x5b, 0xbe, 0xae, 0x0c,
    0xd4, 0x3d, 0x6d, 0x1f, 0xaa, 0x3d, 0x1d, 0x60, 0xb0, 0x3c,
    0x91, 0x60, 0xa5, 0x3d, 0x4b, 0xe7, 0x82, 0xbd, 0xfa, 0xbf,
    0x7c, 0xbd, 0x0e, 0x98, 0x03, 0xbd, 0x8e, 0x1e, 0x96, 0xbd,
    0x2e, 0xc7, 0x5f, 0x3e, 0x04, 0x89, 0x5b, 0xbe, 0xbf, 0x71,
    0x94, 0x3c, 0x57, 0xd6, 0x34, 0x3e, 0x0f, 0x8f, 0x10, 0xbd,
    0xec, 0x33, 0x7f, 0xbe, 0x47, 0x24, 0xdb, 0xbc, 0xcb, 0x1d,
    0x59, 0xbd, 0x35, 0x2c, 0x02, 0xbd, 0x25, 0x8e, 0x47, 0x3d,
    0xf0, 0x9b, 0xa8, 0x3e, 0xd7, 0xd0, 0x46, 0x3d, 0x70, 0xff,
    0xc4, 0xbd, 0x11, 0x34, 0xc4, 0xbc, 0x1e, 0x1d, 0x37, 0xbe,
    0x29, 0x53, 0x96, 0xbd, 0xe5, 0x58, 0x21, 0x3d, 0x4c, 0xe5,
    0x44, 0x3e, 0xc7, 0x60, 0xca, 0x3d, 0xa6, 0x37, 0x4d, 0x3d,
    0x1c, 0xa5, 0x51, 0xbe, 0x34, 0x6e, 0x2e, 0xbd, 0x4c, 0x1b,
    0x42, 0x3d, 0x79, 0xf5, 0x69, 0x3e, 0xd7, 0xb8, 0x73, 0x3d,
    0x4b, 0xf7, 0x7d, 0xbe, 0x2c, 0x39, 0xbb, 0x3d, 0xdc, 0x06,
    0x33, 0xbd, 0xeb, 0x0e, 0x38, 0xbe, 0x98, 0xbd, 0xe7, 0xbd,
    0xa0, 0x5a, 0x85, 0x3e, 0xb4, 0x19, 0x35, 0x3e, 0x92, 0xf9,
    0xf3, 0x3d, 0x97, 0xf1, 0xac, 0x3e, 0x0b, 0xcf, 0x2d, 0xbb,
    0xd6, 0x81, 0xb7, 0xbd, 0x61, 0xf8, 0xdc, 0x3d, 0x60, 0x62,
    0x47, 0x3e, 0xb1, 0x30, 0x29, 0x3e, 0x5a, 0xb5, 0x58, 0x3e,
    0x12, 0x33, 0x2e, 0x3e, 0x02, 0x57, 0x81, 0xbe, 0xd7, 0xfe,
    0xd0, 0xbd, 0xeb, 0x0b, 0xfb, 0x3e, 0xb9, 0xbe, 0xb4, 0xbd,
    0x89, 0x75, 0x2d, 0xbd, 0xf1, 0x96, 0xf4, 0x3d, 0x84, 0xf8,
    0x34, 0xbe, 0x9e, 0xf0, 0x09, 0x3d, 0xf9, 0x3a, 0x60, 0x3e,
    0x70, 0x28, 0x0c, 0xbc, 0x34, 0xd7, 0x2b, 0xbe, 0x20, 0x1b,
    0x8c, 0xbe, 0x49, 0xbc, 0x64, 0x3e, 0xf6, 0x8d, 0x5e, 0x3e,
    0xba, 0xc4, 0x36, 0x3e, 0x9a, 0xe8, 0xe7, 0x3d, 0x0a, 0x84,
    0x02, 0xbe, 0xed, 0x30, 0xe8, 0xbd, 0x42, 0x3d, 0x2c, 0x3e,
    0x9d, 0x3f, 0x6a, 0x3e, 0xcf, 0x74, 0x90, 0x3d, 0x62, 0x23,
    0x8b, 0xbd, 0x1b, 0x6e, 0xa7, 0x3d, 0x49, 0x1e, 0x6e, 0x3e,
    0x00, 0xa5, 0x2a, 0xbe, 0xe5, 0x9d, 0x9f, 0xbe, 0x1d, 0x3c,
    0x48, 0x3e, 0x2e, 0x35, 0x96, 0xbd, 0x6a, 0xf7, 0x29, 0x3e,
    0x22, 0x6b, 0x5f, 0x3e, 0x77, 0xc6, 0xb5, 0xbd, 0x1c, 0x18,
    0x5f, 0xbb, 0x6b, 0xa6, 0xb3, 0xbd, 0x61, 0x61, 0xd4, 0x3d,
    0x0b, 0x44, 0xb5, 0x3e, 0x2b, 0x0c, 0x5b, 0xbc, 0x46, 0x02,
    0x42, 0x3e, 0xd4, 0x30, 0x4a, 0x3e, 0x28, 0x60, 0x45, 0xbd,
    0x34, 0xd3, 0x92, 0x3d, 0x60, 0xec, 0x7f, 0x3d, 0x30, 0x65,
    0x08, 0xbe, 0x75, 0xec, 0x09, 0xbe, 0x5f, 0x3b, 0xba, 0x3d,
    0x5d, 0xdd, 0x7b, 0xbe, 0x1d, 0xae, 0xad, 0x3e, 0x01, 0x82,
    0x24, 0x3d, 0x39, 0x8c, 0xef, 0x3d, 0x6c, 0x8d, 0xf7, 0xbb,
    0x04, 0x0d, 0x5c, 0xbe, 0x15, 0x90, 0xf2, 0xbc, 0x75, 0xbe,
    0xcc, 0x3d, 0xad, 0x8c, 0x50, 0xbd, 0x5f, 0x38, 0x76, 0x3e,
    0xc8, 0x33, 0x57, 0xbc, 0xc9, 0x8f, 0xad, 0xbe, 0x4b, 0xc5,
    0x0e, 0x3d, 0x50, 0x74, 0x1d, 0xbe, 0x78, 0xcb, 0x03, 0x3e,
    0x7a, 0xc3, 0xd4, 0x3e, 0xad, 0xd7, 0x5a, 0xbe, 0x6b, 0x7f,
    0xce, 0x3c, 0xad, 0x76, 0xb9, 0x3b, 0x40, 0x06, 0x64, 0x3e,
    0xa4, 0x66, 0xde, 0xbc, 0x08, 0x8f, 0xe4, 0x3d, 0xc5, 0x4e,
    0x9e, 0xbd, 0x92, 0x43, 0x7c, 0x3d, 0x9b, 0x6d, 0x35, 0xbe,
    0x7a, 0x58, 0x55, 0xbe, 0x83, 0xe0, 0xda, 0x3b, 0x83, 0x0c,
    0x72, 0x3d, 0xfb, 0x39, 0xff, 0xbd, 0xb0, 0xda, 0x46, 0x3b,
    0xd4, 0xd8, 0x96, 0xbe, 0x02, 0x74, 0x1e, 0x3d, 0xcb, 0x35,
    0x65, 0x3d, 0xa4, 0x58, 0xac, 0xbe, 0xbc, 0x5f, 0x65, 0x3e,
    0x75, 0x5f, 0xec, 0xbd, 0x54, 0xde, 0xa5, 0x3c, 0x96, 0x91,
    0x3f, 0x3d, 0x0a, 0x61, 0x86, 0xbe, 0x8a, 0xc0, 0xa2, 0xbd,
    0x10, 0x14, 0xed, 0xbd, 0x13, 0x40, 0x5f, 0x3e, 0x7f, 0x6e,
    0xf3, 0x3d, 0x7a, 0xb9, 0xd7, 0xbc, 0x2e, 0xc4, 0xdf, 0x3d,
    0x6e, 0x2a, 0x31, 0xbe, 0xfd, 0x7e, 0xcc, 0xbd, 0xc3, 0xb2,
    0x0d, 0x3e, 0xce, 0x07, 0x8c, 0xbe, 0x55, 0x8b, 0x85, 0x3e,
    0xb3, 0x19, 0xe8, 0x3d, 0x8e, 0x4f, 0x5e, 0xbe, 0xa7, 0xa5,
    0x49, 0x3e, 0x47, 0x6c, 0x42, 0x3e, 0xc7, 0x0a, 0xb7, 0x3d,
    0x82, 0x6d, 0xaa, 0xbd, 0x52, 0x86, 0xff, 0x3c, 0xbd, 0x73,
    0x30, 0x3e, 0x78, 0x2e, 0x6c, 0x3e, 0x8a, 0x61, 0xbf, 0xbe,
    0x2f, 0x14, 0x85, 0xbe, 0x1c, 0xa6, 0x64, 0xbe, 0xb7, 0xec,
    0x6f, 0x3d, 0x88, 0x12, 0x64, 0xbe, 0xd3, 0x4b, 0x91, 0x3d,
    0x2b, 0x5b, 0xa9, 0x3e, 0xff, 0x7f, 0xb0, 0x3d, 0x9d, 0xe7,
    0x42, 0xbe, 0xb4, 0x79, 0x0e, 0x3e, 0x2e, 0x41, 0x32, 0xbe,
    0xfe, 0x49, 0x15, 0x3c, 0xd1, 0xab, 0x45, 0xbd, 0x07, 0x3b,
    0x3c, 0x3e, 0xc6, 0x11, 0xa2, 0xbd, 0x88, 0x1c, 0x14, 0xbe,
    0x38, 0xdd, 0xef, 0xbd, 0x3f, 0x4d, 0x42, 0x3e, 0xa1, 0x4d,
    0x0c, 0xbe, 0x7f, 0xe6, 0x05, 0xbe, 0x34, 0x10, 0xbf, 0x3d,
    0x04, 0x42, 0xac, 0xbd, 0xff, 0xdf, 0x99, 0x3e, 0xeb, 0xbf,
    0xd9, 0xbb, 0x87, 0x49, 0x54, 0xbe, 0x46, 0x76, 0xb8, 0x3d,
    0x7c, 0x28, 0x10, 0x3e, 0x03, 0x2b, 0x05, 0x3d, 0x3b, 0xa1,
    0xc3, 0xbd, 0xd1, 0x53, 0x29, 0xbe, 0xdc, 0x1f, 0x34, 0x3e,
    0x20, 0xab, 0xd6, 0x3d, 0x8a, 0xd0, 0x85, 0xbe, 0xb3, 0x4b,
    0x27, 0xbd, 0x51, 0x26, 0xed, 0x3d, 0x20, 0xee, 0x55, 0x3e,
    0x7f, 0x7b, 0xad, 0x3c, 0xbe, 0x68, 0x8d, 0xbc, 0x85, 0x17,
    0x61, 0xbe, 0xdb, 0x7f, 0x80, 0x3e, 0x1b, 0x46, 0x29, 0xbc,
    0x81, 0xba, 0x22, 0x3e, 0xe8, 0xbb, 0x90, 0xbe, 0x40, 0xb6,
    0xaa, 0xbc, 0x8d, 0xbe, 0x9a, 0x3e, 0x6a, 0xb8, 0x9b, 0xbd,
    0xd0, 0x1a, 0x70, 0x3e, 0xf4, 0xe2, 0x01, 0x3e, 0x5d, 0x66,
    0xa5, 0xbd, 0x12, 0x52, 0x8c, 0xbd, 0x8d, 0xae, 0x25, 0x3e,
    0x0d, 0x0e, 0x41, 0x3d, 0xa0, 0x36, 0xe0, 0xbb, 0xb9, 0x1a,
    0x04, 0xbe, 0xcf, 0xd8, 0x8f, 0x3e, 0xfc, 0xf6, 0x3b, 0x3d,
    0x73, 0x0c, 0x7b, 0x3e, 0xd1, 0x09, 0x80, 0xbe, 0x78, 0xdd,
    0x30, 0xbd, 0x20, 0x54, 0xac, 0xbb, 0xe4, 0x54, 0xe6, 0xbd,
    0x74, 0xde, 0x88, 0xbe, 0x3c, 0x7c, 0x60, 0x3e, 0x8f, 0x18,
    0x7d, 0x3e, 0x49, 0x5a, 0xf9, 0xbd, 0x54, 0xc0, 0x06, 0x3e,
    0x3e, 0x63, 0x88, 0xbe, 0x12, 0xa5, 0x84, 0xbd, 0xf7, 0xfb,
    0xc1, 0xba, 0x73, 0xc8, 0xb7, 0x3d, 0x9b, 0x32, 0xe3, 0xbc,
    0x7a, 0x40, 0x5c, 0xbe, 0xe0, 0x3a, 0x02, 0xbd, 0xc8, 0xc8,
    0x82, 0x3e, 0x1a, 0xad, 0x80, 0x3a, 0xb4, 0x0b, 0xb8, 0x3e,
    0xd7, 0xcd, 0xd5, 0xbd, 0xd6, 0xfc, 0xd6, 0x3d, 0xe8, 0x64,
    0x1f, 0x3e, 0x0a, 0xf8, 0x0e, 0xbd, 0xa3, 0x58, 0x08, 0xbe,
    0xba, 0x94, 0x25, 0x3d, 0x94, 0x94, 0xb0, 0xbd, 0x7b, 0xb6,
    0xfc, 0xbb, 0xd2, 0xc9, 0x57, 0x3e, 0x28, 0xb0, 0x62, 0x3e,
    0x85, 0xff, 0x49, 0x3e, 0xfe, 0xfb, 0xc3, 0xbd, 0xcb, 0x0f,
    0x7d, 0x3e, 0xfc, 0xeb, 0x34, 0x3e, 0x3f, 0x54, 0x83, 0x3e,
    0x5c, 0xfe, 0x41, 0x3d, 0xe8, 0x58, 0xa5, 0xbd, 0xdc, 0xcf,
    0x11, 0x3d, 0xe8, 0x74, 0x5b, 0x3e, 0x5d, 0x4f, 0x03, 0x3e,
    0x80, 0x3f, 0x89, 0xbe, 0x34, 0xe4, 0x18, 0xbe, 0x1e, 0x10,
    0x8b, 0x3c, 0x28, 0x4c, 0xa9, 0xbd, 0xbc, 0x16, 0xcf, 0xbd,
    0x9d, 0x17, 0xa2, 0xbe, 0x64, 0xe1, 0x14, 0x3e, 0x59, 0x62,
    0x44, 0x3c, 0xc2, 0x4c, 0x04, 0xbe, 0x5b, 0xdc, 0x63, 0xbd,
    0xc2, 0x9c, 0x6b, 0x3e, 0x72, 0x00, 0xf4, 0xbd, 0x71, 0x53,
    0x3c, 0x3d, 0xae, 0x2e, 0xf4, 0xbc, 0x2c, 0xeb, 0x25, 0xbe,
    0xe8, 0x80, 0x55, 0xbc, 0x59, 0x06, 0xe8, 0xbb, 0xb9, 0xf6,
    0x75, 0xbe, 0x70, 0xc4, 0x86, 0x3e, 0x04, 0xd0, 0x5c, 0x3e,
    0x0b, 0xdc, 0x62, 0xbe, 0xde, 0x22, 0x8c, 0x3e, 0x19, 0x64,
    0x83, 0x3d, 0x4f, 0x63, 0xec, 0xbd, 0x55, 0xc9, 0x01, 0x3d,
    0x6f, 0x9c, 0x83, 0x3d, 0xf6, 0x25, 0x98, 0x3d, 0x90, 0xbc,
    0x13, 0x3e, 0x8f, 0xc3, 0xb8, 0xbd, 0xa7, 0xbd, 0x18, 0x3e,
    0x2c, 0x7c, 0xe4, 0x3b, 0xd1, 0x96, 0x62, 0xbe, 0x58, 0x95,
    0x01, 0x3e, 0x9a, 0x7f, 0x40, 0x3e, 0xed, 0x43, 0x9f, 0xbe,
    0xc5, 0x1c, 0x67, 0x3e, 0xa3, 0x59, 0x73, 0x3e, 0xbe, 0x81,
    0x2d, 0x3e, 0x4b, 0x3c, 0x5f, 0xbd, 0xeb, 0x91, 0x91, 0x3e,
    0xaf, 0xd4, 0x4c, 0xbe, 0x0b, 0xc0, 0xcc, 0xbd, 0x43, 0x0b,
    0x0d, 0x3e, 0x78, 0x29, 0x3f, 0x3e, 0xa1, 0xfc, 0x11, 0xbe,
    0x77, 0x04, 0xb4, 0x3d, 0xcb, 0xf1, 0x1a, 0x3e, 0x21, 0x15,
    0xee, 0xbd, 0x35, 0x6e, 0x13, 0x3e, 0x1c, 0x7d, 0x2a, 0xbe,
    0x6b, 0xcf, 0x80, 0x3d, 0xe1, 0x2a, 0x1a, 0x3e, 0xeb, 0x95,
    0x45, 0xbe, 0x92, 0x34, 0x71, 0xbe, 0xb4, 0x8c, 0x31, 0xbe,
    0xc9, 0x38, 0x1f, 0xbe, 0xd9, 0xa8, 0xc9, 0x3c, 0xa0, 0xa2,
    0xb4, 0xbd, 0xa3, 0xcb, 0xf0, 0x3d, 0x38, 0x4f, 0xeb, 0x3d,
    0x9b, 0xc8, 0x21, 0xbe, 0xe7, 0x64, 0x48, 0x3d, 0x0a, 0x02,
    0x5d, 0x3e, 0x7e, 0x1f, 0x4a, 0xbd, 0xe9, 0x78, 0x74, 0xbe,
    0xe2, 0x5d, 0x70, 0x3d, 0xfb, 0xf1, 0x1b, 0x3e, 0xb9, 0xe9,
    0x03, 0x3e, 0x96, 0x05, 0x5b, 0x3e, 0x8c, 0x6b, 0x88, 0xbd,
    0x20, 0xc7, 0x22, 0x3d, 0x67, 0x1e, 0x50, 0x3a, 0x7f, 0x42,
    0xdc, 0x3d, 0xf7, 0x2e, 0x90, 0xbd, 0x73, 0x4c, 0x7b, 0x3e,
    0x4d, 0x94, 0x26, 0xbe, 0xa5, 0xf3, 0x1a, 0x3e, 0xf8, 0x6e,
    0xfc, 0x3d, 0xd8, 0xc9, 0x17, 0xbe, 0xec, 0x68, 0xaf, 0xbe,
    0xfb, 0xd4, 0x5f, 0x3d, 0x58, 0x8a, 0x36, 0xbe, 0x3b, 0x45,
    0xdb, 0x3c, 0x35, 0x0b, 0xe5, 0x3d, 0xb1, 0xb3, 0x0d, 0xbe,
    0x0b, 0x43, 0x98, 0x3d, 0x04, 0xe1, 0x03, 0xbe, 0x7c, 0x1c,
    0x9c, 0x3d, 0x22, 0x82, 0x8e, 0xbb, 0x93, 0x18, 0x06, 0xbe,
    0x76, 0xe1, 0x05, 0x3e, 0x18, 0xd1, 0x66, 0xbe, 0x3c, 0x8d,
    0xff, 0x3d, 0x29, 0xf7, 0x8e, 0xbd, 0x17, 0x6b, 0x6f, 0xbc,
    0x6b, 0x78, 0x00, 0xbd, 0x79, 0x12, 0x3e, 0x3d, 0x6e, 0x0d,
    0x23, 0xbd, 0x07, 0x13, 0xf9, 0xbc, 0x00, 0x00, 0x00, 0x00,
    0xf1, 0x14, 0x1e, 0x3d, 0x82, 0x2c, 0xb7, 0x3d, 0x46, 0x83,
    0xbf, 0xbd, 0x67, 0x2a, 0x8d, 0xbb, 0xc5, 0x93, 0x87, 0xbd,
    0x12, 0xab, 0x0f, 0xbd, 0xd1, 0x3d, 0xe3, 0xbd, 0x71, 0x2c,
    0x6a, 0xbd, 0x07, 0x42, 0xea, 0x3c, 0xb0, 0xa5, 0x40, 0x3d,
    0x15, 0x3d, 0x4f, 0xbb, 0xa6, 0x19, 0x6d, 0x3c, 0xdb, 0x40,
    0x04, 0xbe, 0x00, 0x00, 0x00, 0x00, 0x46, 0x3f, 0xba, 0xbc,
    0x1b, 0xf9, 0x68, 0xb9, 0xdf, 0x6d, 0x24, 0x3d, 0x77, 0x72,
    0x4c, 0x3d, 0xd4, 0xa2, 0xcc, 0xbc, 0x94, 0xc8, 0x3e, 0xbc,
    0x57, 0xfe, 0xb6, 0xbd, 0x7e, 0x6c, 0xe2, 0x3b, 0x28, 0x82,
    0xc6, 0xbc, 0xeb, 0x46, 0x3c, 0x3d, 0xee, 0x0b, 0x44, 0xbc,
    0x05, 0x3c, 0x90, 0xbd, 0x00, 0x00, 0x00, 0x00, 0x82, 0xa4,
    0xde, 0xbd, 0x21, 0x2e, 0xb8, 0x3b, 0x03, 0x21, 0xc0, 0xbc,
    0xd7, 0xcd, 0x08, 0xbb, 0x06, 0x25, 0x3e, 0xbd, 0xbc, 0xc2,
    0x89, 0xbd, 0x4e, 0x80, 0xd4, 0xbc, 0x18, 0xcc, 0x1b, 0x3c,
    0xf9, 0x2b, 0xbe, 0x3c, 0x57, 0xf8, 0x08, 0xbe, 0xfa, 0xde,
    0x71, 0xbc, 0xf9, 0x6a, 0x70, 0xbd, 0x39, 0x86, 0x9c, 0xbc,
    0xf4, 0xe2, 0xe2, 0x3c, 0xbf, 0x4b, 0x7f, 0x3c, 0x03, 0x28,
    0x30, 0xbd, 0x33, 0x5c, 0x9a, 0x3c, 0x18, 0x0c, 0xe6, 0xbb,
    0xf7, 0x39, 0x47, 0xbc, 0xcf, 0x69, 0x3e, 0x3d, 0xe4, 0x74,
    0x47, 0xbd, 0xf5, 0xc0, 0x6c, 0xbd, 0x9d, 0x5d, 0x93, 0xbe,
    0xa7, 0xf6, 0x6b, 0xbe, 0x07, 0x79, 0x1a, 0xbe, 0x40, 0x18,
    0xa3, 0x3d, 0x98, 0xb5, 0x8b, 0x3c, 0x16, 0xb6, 0xaa, 0x3d,
    0x0b, 0x3a, 0xdd, 0xbd, 0x65, 0x8f, 0xd5, 0xbd, 0xb0, 0x55,
    0x33, 0x3e, 0xb9, 0x98, 0xa5, 0x3d, 0x79, 0x10, 0x08, 0xbe,
    0x09, 0x51, 0x04, 0x3e, 0xbc, 0xd5, 0x0a, 0xbd, 0xf4, 0xd7,
    0x56, 0x3e, 0x5e, 0x3c, 0x8a, 0x3e, 0x9c, 0xf3, 0x81, 0xbd,
    0x7b, 0xdd, 0xac, 0xbe, 0x13, 0xb0, 0xb0, 0xbd, 0x61, 0xd3,
    0x03, 0xbe, 0xf5, 0x8b, 0x94, 0x3e, 0x36, 0xd8, 0x0f, 0x3d,
    0x8a, 0xe0, 0x73, 0x3d, 0xb5, 0x41, 0xba, 0xbc, 0x61, 0x5e,
    0x48, 0xbe, 0xef, 0x3f, 0x5e, 0xbd, 0x29, 0x91, 0xfe, 0xbd,
    0xad, 0x6a, 0xb9, 0x3d, 0x0d, 0xfd, 0x0c, 0x3e, 0xf8, 0x9f,
    0x28, 0x3e, 0xc9, 0xe9, 0x23, 0xbd, 0x73, 0x4c, 0xff, 0xbd,
    0xf8, 0xc4, 0xde, 0x3c, 0x3e, 0xf3, 0x68, 0x3e, 0xb9, 0xdd,
    0x0b, 0xbe, 0x56, 0xf6, 0x8e, 0xbc, 0x6a, 0xb4, 0x77, 0x3c,
    0xd1, 0x8c, 0xad, 0x3c, 0x66, 0x49, 0xbd, 0x3d, 0x12, 0xa1,
    0x23, 0x3e, 0x62, 0x99, 0x72, 0xbe, 0x72, 0x48, 0x45, 0x3d,
    0xd8, 0x85, 0x5b, 0xbd, 0x96, 0xe2, 0x1c, 0x3e, 0x1c, 0xbf,
    0xed, 0x3c, 0x9c, 0x69, 0x31, 0xbe, 0x34, 0x19, 0xd5, 0x3d,
    0xb6, 0x9d, 0x3f, 0x3e, 0xc2, 0x6c, 0x38, 0xbe, 0xee, 0xcc,
    0x0b, 0x3e, 0xf5, 0xd6, 0x92, 0xbc, 0x1f, 0xcd, 0x0c, 0xbe,
    0x94, 0xe5, 0x0a, 0xbe, 0x0c, 0x94, 0xc8, 0xbc, 0x41, 0x26,
    0xd3, 0x3b, 0x34, 0xff, 0x28, 0xbe, 0x02, 0xdd, 0x38, 0x3d,
    0x9e, 0x6b, 0xfe, 0x3d, 0x91, 0xba, 0x43, 0xbd, 0x90, 0xee,
    0xed, 0xbd, 0x59, 0x85, 0x87, 0xbd, 0xc1, 0xe9, 0xa3, 0x3d,
    0x4d, 0x3d, 0xd7, 0xbd, 0x43, 0xdd, 0x66, 0x3c, 0x20, 0xe3,
    0x8d, 0xbd, 0xeb, 0xde, 0x2e, 0xbe, 0xb0, 0xc5, 0x8e, 0x3d,
    0x39, 0x00, 0x9f, 0x3d, 0xfe, 0xa7, 0xab, 0xbd, 0x80, 0x09,
    0xf6, 0x3d, 0xe3, 0x29, 0x3f, 0x3e, 0x9e, 0x60, 0x33, 0xbe,
    0x61, 0x35, 0xa1, 0xbc, 0x48, 0xae, 0x82, 0xbd, 0x71, 0x2d,
    0x01, 0xbe, 0xfd, 0xa9, 0x4d, 0x3e, 0xcc, 0x88, 0xed, 0x3d,
    0xf3, 0xe2, 0x79, 0xbd, 0xba, 0xbb, 0x9a, 0x3a, 0x43, 0xeb,
    0x80, 0xbd, 0x95, 0x55, 0xc3, 0xbd, 0xc8, 0xc4, 0x99, 0xbc,
    0xba, 0x4d, 0x31, 0x3e, 0x40, 0xd8, 0x17, 0x3d, 0xd1, 0x4d,
    0xf9, 0xbd, 0x41, 0x9f, 0x6b, 0x3c, 0xaf, 0x21, 0x39, 0xbe,
    0x9d, 0xb7, 0x9c, 0x3e, 0x3c, 0xa5, 0x6a, 0xbe, 0x82, 0x1d,
    0x36, 0x3e, 0x66, 0x34, 0xa7, 0xbd, 0x4b, 0x0e, 0xd3, 0x3d,
    0x28, 0x1f, 0x5e, 0x3e, 0x64, 0x5a, 0xeb, 0xbd, 0xf6, 0x9e,
    0x65, 0x3e, 0x89, 0xbc, 0x19, 0xbe, 0x02, 0xbd, 0x5b, 0xbd,
    0xa5, 0x74, 0x7f, 0x3e, 0x7d, 0xe0, 0x9d, 0xbd, 0xc2, 0x84,
    0x21, 0xbc, 0xe0, 0x3c, 0xd2, 0xbd, 0x61, 0xce, 0x62, 0x3e,
    0x3f, 0x12, 0xe4, 0x3b, 0x64, 0x18, 0x70, 0xbe, 0xe6, 0x8e,
    0xa1, 0xbd, 0x9d, 0xb4, 0x80, 0xbd, 0x6d, 0x86, 0xe7, 0x3c,
    0xde, 0x34, 0xed, 0xbd, 0xba, 0x5e, 0x60, 0x3d, 0x7a, 0xa0,
    0x76, 0x3e, 0xda, 0xec, 0x83, 0x3a, 0x79, 0x46, 0x44, 0x3e,
    0x2f, 0xee, 0x2b, 0xbe, 0x6c, 0x51, 0x3d, 0xbe, 0xde, 0x02,
    0xb1, 0x3e, 0x45, 0x33, 0xe8, 0xba, 0xa3, 0xa4, 0x8b, 0x3e,
    0xd7, 0x25, 0x9c, 0xba, 0x34, 0x02, 0xd3, 0xbd, 0x05, 0xc3,
    0x36, 0xbe, 0xca, 0xd1, 0x69, 0x3c, 0x22, 0xdd, 0xbf, 0xbb,
    0xfa, 0x7b, 0x5b, 0xbe, 0x4e, 0x98, 0x87, 0xbd, 0x9a, 0x3e,
    0x58, 0xbc, 0x07, 0xd9, 0x0f, 0x3e, 0xed, 0xfa, 0xee, 0x3d,
    0xe0, 0x85, 0x88, 0x3b, 0x26, 0x5c, 0x7d, 0xbe, 0x92, 0xcf,
    0x15, 0x3e, 0x5c, 0xc2, 0x26, 0xbe, 0x99, 0x7b, 0x3b, 0x3d,
    0xee, 0xdc, 0xd5, 0xbc, 0x5c, 0x8e, 0xd0, 0x3c, 0x69, 0x88,
    0xdf, 0x3d, 0x4e, 0x71, 0x34, 0xbe, 0xb2, 0x32, 0x91, 0xbe,
    0x37, 0x66, 0x96, 0xbe, 0xd7, 0x61, 0xb4, 0x3d, 0xc5, 0x7b,
    0x58, 0xbd, 0x22, 0xe1, 0xb9, 0xbd, 0x42, 0xe8, 0x92, 0x3c,
    0xd5, 0xae, 0x3b, 0x3e, 0x85, 0x5e, 0x45, 0x3e, 0x47, 0x50,
    0x02, 0xbe, 0x30, 0x1a, 0x1e, 0xbe, 0xcc, 0xc1, 0x1f, 0xbe,
    0xdd, 0xb3, 0xf5, 0x3d, 0xe4, 0xab, 0x98, 0xbd, 0x8b, 0x15,
    0x2b, 0x3c, 0x41, 0xd6, 0x00, 0x3c, 0x26, 0x93, 0x65, 0x3d,
    0xae, 0xbb, 0xd8, 0x3d, 0xec, 0xad, 0x38, 0x3e, 0xd1, 0xe3,
    0x0e, 0xbe, 0xed, 0xb1, 0x9a, 0xb9, 0xa3, 0x5a, 0x8d, 0x3e,
    0xe0, 0x41, 0xc3, 0xbd, 0x8f, 0x3c, 0x66, 0x3d, 0xdb, 0x91,
    0xb1, 0xbd, 0xcc, 0xa1, 0x7d, 0x3e, 0x10, 0xd9, 0x75, 0x3e,
    0x03, 0x13, 0xd1, 0x3d, 0xa5, 0x94, 0x9f, 0xbd, 0x9a, 0xd0,
    0x02, 0xbd, 0xb0, 0x45, 0xcf, 0x3d, 0x7c, 0xc9, 0x02, 0xbe,
    0xed, 0xde, 0x02, 0x3e, 0x5a, 0xb6, 0x07, 0x3e, 0xbd, 0xbb,
    0x3a, 0xbe, 0x3f, 0x01, 0x22, 0xbe, 0xd5, 0x37, 0x08, 0xbd,
    0x46, 0x96, 0x93, 0x3e, 0x11, 0x5d, 0x21, 0x3e, 0xc7, 0xb2,
    0x19, 0x3e, 0x98, 0x73, 0x67, 0xbc, 0x37, 0xef, 0xd5, 0x3d,
    0xa9, 0x23, 0xd6, 0x3d, 0xf7, 0x66, 0x5c, 0x3e, 0x3e, 0x3a,
    0x83, 0xbd, 0x3c, 0x5b, 0x08, 0xbe, 0x7e, 0xb2, 0x07, 0xbe,
    0x68, 0xed, 0x00, 0xbe, 0xf3, 0x10, 0x31, 0xbe, 0x08, 0x6b,
    0x60, 0xbe, 0x58, 0x90, 0x4d, 0xbe, 0xfc, 0x24, 0x33, 0xbe,
    0x9b, 0x97, 0xb3, 0x3e, 0x63, 0x2a, 0x5b, 0xbd, 0x8a, 0x4e,
    0x17, 0x3e, 0x34, 0x27, 0xe0, 0x3b, 0x54, 0x7f, 0xf6, 0x3b,
    0x88, 0xe1, 0x03, 0xbe, 0x55, 0x7c, 0x8c, 0x3e, 0xf8, 0x18,
    0x4f, 0xbe, 0x6c, 0x4b, 0x8f, 0x3d, 0x5a, 0xd4, 0x75, 0x3e,
    0xb5, 0xff, 0x0e, 0xbe, 0x69, 0xab, 0xeb, 0x3d, 0xd7, 0xba,
    0x92, 0x3d, 0x69, 0x86, 0x46, 0x3e, 0x4e, 0x3f, 0xf3, 0x3d,
    0x0c, 0x04, 0xae, 0xbd, 0xf8, 0xf3, 0xf1, 0xbd, 0xee, 0x6a,
    0x6c, 0x3c, 0xae, 0x15, 0x4a, 0x3e, 0xb2, 0xf4, 0x0b, 0x3d,
    0x6e, 0xe7, 0xbe, 0x3d, 0x9a, 0xe8, 0x53, 0x3e, 0xb6, 0x4c,
    0x38, 0xbe, 0xbc, 0x88, 0x89, 0x3e, 0x37, 0xd8, 0x41, 0x3e,
    0x02, 0xc1, 0x58, 0x3d, 0xb0, 0x2d, 0x8b, 0xbd, 0x85, 0xc0,
    0xb3, 0x3d, 0xb3, 0xbf, 0xb8, 0xbc, 0xb5, 0x27, 0x0d, 0x3e,
    0x31, 0x74, 0x27, 0x3d, 0xcd, 0x93, 0xe7, 0x3d, 0x98, 0x0a,
    0x48, 0xbd, 0x3a, 0xf1, 0x91, 0x3c, 0x7c, 0xd8, 0x5a, 0x3d,
    0xf9, 0x93, 0x49, 0x3e, 0xa5, 0xc5, 0xad, 0x3e, 0x27, 0xd2,
    0xa5, 0xbd, 0xa3, 0x00, 0x19, 0xbd, 0xf7, 0x5e, 0x8b, 0xbc,
    0xb4, 0x06, 0x88, 0x3e, 0x69, 0x9f, 0xa4, 0x3d, 0x10, 0x0e,
    0x14, 0x3e, 0xf8, 0x61, 0xaa, 0x3d, 0xd9, 0x20, 0x79, 0xbd,
    0xde, 0x58, 0x52, 0x3e, 0xec, 0x16, 0x2b, 0x3e, 0xa9, 0xb6,
    0x4f, 0xbe, 0xc6, 0x93, 0xc9, 0x3d, 0x5a, 0x07, 0xac, 0xbe,
    0xb8, 0x0d, 0x59, 0xbe, 0xaa, 0xc5, 0x07, 0x3d, 0x30, 0x34,
    0x5b, 0x3e, 0x2a, 0x34, 0x8d, 0xbd, 0xd2, 0x7a, 0x59, 0x3e,
    0x91, 0xcd, 0x29, 0x3e, 0xaf, 0x62, 0x89, 0xbd, 0xb2, 0x30,
    0x76, 0xbe, 0x79, 0xb3, 0xda, 0x3d, 0x77, 0xe5, 0x3b, 0x3e,
    0x1b, 0xb9, 0x69, 0x3c, 0xee, 0x06, 0x0d, 0xbe, 0x70, 0x9f,
    0x49, 0x3d, 0x3d, 0xff, 0x7e, 0xbe, 0xe7, 0x5a, 0xcd, 0x3d,
    0xd7, 0x17, 0x80, 0xbe, 0x3e, 0x16, 0x1e, 0xbe, 0xcd, 0x5d,
    0x39, 0xbd, 0x60, 0xcd, 0xe5, 0x3d, 0xf6, 0x6d, 0x6b, 0xbe,
    0xeb, 0x45, 0x14, 0xbe, 0x03, 0x82, 0x95, 0xbd, 0xd5, 0xf9,
    0x21, 0xbe, 0xcc, 0x53, 0x83, 0x3d, 0x0e, 0x77, 0x84, 0xbd,
    0x69, 0x37, 0x8d, 0x3c, 0xdd, 0x56, 0x53, 0xbe, 0x91, 0x22,
    0x6c, 0x3e, 0x1a, 0x77, 0x28, 0x3e, 0x43, 0x5b, 0x25, 0xbe,
    0xea, 0x39, 0xa9, 0x3d, 0x39, 0xb0, 0x9a, 0x3e, 0x89, 0x5e,
    0x89, 0x3e, 0xfe, 0xef, 0x47, 0xbe, 0x16, 0xe5, 0x30, 0x3e,
    0x1b, 0x40, 0xa8, 0xbc, 0x7b, 0x79, 0x57, 0x3e, 0x74, 0xa6,
    0x15, 0xbe, 0x30, 0x97, 0xa0, 0xbd, 0x94, 0x64, 0xc4, 0xbc,
    0xe6, 0x41, 0xcd, 0xbd, 0xe0, 0x72, 0xb8, 0x3e, 0x35, 0x89,
    0x9d, 0x3d, 0xec, 0xa3, 0x14, 0x3d, 0xbb, 0xcb, 0xc9, 0xbd,
    0x07, 0x80, 0x0f, 0xbe, 0x1c, 0xa8, 0xc0, 0xbd, 0xca, 0x39,
    0x78, 0xbe, 0xf7, 0xbb, 0x60, 0xbe, 0x6b, 0x0d, 0x65, 0x3e,
    0x20, 0xa7, 0xe2, 0xbc, 0xd9, 0x20, 0x01, 0x3d, 0x80, 0xd7,
    0x16, 0x3b, 0x19, 0x00, 0x0f, 0xbe, 0xee, 0xe4, 0x05, 0x3e,
    0xa0, 0xbe, 0xb1, 0x3d, 0x74, 0xbd, 0x92, 0xbe, 0x05, 0x7b,
    0x41, 0x3e, 0x94, 0x65, 0x1f, 0xbd, 0x1d, 0x8c, 0xf0, 0xbd,
    0x6b, 0x42, 0xd3, 0xbd, 0x38, 0x1c, 0x65, 0xbe, 0x10, 0x57,
    0xc6, 0xba, 0x67, 0x48, 0x87, 0xbe, 0x0e, 0xbc, 0xe2, 0x3d,
    0x2e, 0x4d, 0x67, 0xbe, 0x22, 0x6c, 0x9a, 0xbd, 0x54, 0xe3,
    0x54, 0x3d, 0xb0, 0xc6, 0x38, 0x3d, 0x16, 0x3e, 0x61, 0x3e,
    0xa7, 0x98, 0x2b, 0xbe, 0x37, 0x81, 0x43, 0x3d, 0xa9, 0xbd,
    0xce, 0x3d, 0x83, 0xb9, 0xa0, 0xbd, 0x31, 0x9c, 0x9c, 0x3d,
    0xfe, 0x17, 0x0e, 0x3d, 0x3c, 0xa5, 0x54, 0x3d, 0xa2, 0xa6,
    0x54, 0x3d, 0xd9, 0xa5, 0x20, 0x3e, 0x94, 0xb8, 0xc5, 0xbb,
    0xaa, 0x31, 0x06, 0x3d, 0x46, 0xe3, 0x21, 0x3e, 0x2f, 0xfd,
    0x0a, 0xbe, 0x97, 0x8f, 0x26, 0xbd, 0xef, 0x01, 0x60, 0xbe,
    0xea, 0x2d, 0xaf, 0x3d, 0xab, 0x2e, 0xe2, 0xbd, 0x89, 0x53,
    0x44, 0x3e, 0x21, 0x72, 0x02, 0xbd, 0x41, 0x9d, 0x19, 0xbd,
    0x2e, 0x52, 0x9d, 0x3d, 0x35, 0xfc, 0x1d, 0x3e, 0xaa, 0x71,
    0x8a, 0x3d, 0xaa, 0x6a, 0x1a, 0xbd, 0x3e, 0x90, 0x0c, 0x3e,
    0xca, 0x14, 0x4f, 0x3d, 0x67, 0xb1, 0x02, 0x3e, 0xd5, 0x57,
    0xbc, 0xbd, 0xe9, 0x0d, 0x39, 0x3e, 0x72, 0x9f, 0xf1, 0x3d,
    0xb8, 0xca, 0x2a, 0x3e, 0x58, 0x8c, 0xa3, 0x3e, 0x9b, 0x11,
    0x31, 0x3c, 0xc6, 0x03, 0x36, 0xbe, 0x62, 0x37, 0xb0, 0xbc,
    0x51, 0x6c, 0xce, 0xbd, 0x6a, 0x53, 0xfd, 0x3d, 0xc5, 0xf0,
    0x20, 0x3e, 0xa4, 0xa7, 0xc2, 0x3d, 0xd1, 0xd6, 0x9c, 0xbb,
    0xa4, 0xec, 0x7e, 0x3e, 0xc9, 0xc6, 0x11, 0x3d, 0x51, 0xe2,
    0xe5, 0x3d, 0x3f, 0xaf, 0xde, 0xbd, 0x51, 0x8b, 0xc7, 0xbd,
    0xba, 0x55, 0xc3, 0xbd, 0x25, 0xf6, 0xb2, 0x3e, 0x8d, 0xb9,
    0x86, 0x3e, 0x2a, 0x03, 0xa2, 0xbd, 0xb9, 0xc8, 0x40, 0x3e,
    0x9f, 0x13, 0xac, 0x3d, 0xd0, 0xa6, 0x6f, 0xbc, 0x88, 0x63,
    0x8f, 0xbd, 0x9e, 0x48, 0xa0, 0x3d, 0x5f, 0xdd, 0x6b, 0xbd,
    0x78, 0x29, 0x84, 0x3e, 0xbc, 0x03, 0x9b, 0x3e, 0x93, 0x77,
    0x0d, 0xbe, 0x6d, 0x4f, 0x2c, 0xbe, 0x12, 0x84, 0x09, 0x3d,
    0x99, 0x42, 0x00, 0xbe, 0x08, 0xcf, 0xf1, 0xbd, 0x44, 0xb4,
    0x87, 0xbe, 0x4c, 0x11, 0x9e, 0x3d, 0xac, 0x2c, 0x98, 0x3e,
    0xa0, 0x57, 0x92, 0x3c, 0xcd, 0x38, 0x3a, 0xbd, 0xe3, 0x28,
    0xc3, 0xbd, 0xe1, 0xc6, 0x21, 0x3e, 0xa8, 0xae, 0x89, 0xbd,
    0x2c, 0xbb, 0x7d, 0x3e, 0xc1, 0xc2, 0xc9, 0x3d, 0x50, 0xdf,
    0x5e, 0x3d, 0xb6, 0x29, 0xa5, 0xbc, 0x80, 0x27, 0xe7, 0x3d,
    0x56, 0xda, 0x17, 0xbe, 0xbe, 0x7b, 0xcd, 0x3d, 0xdc, 0xe6,
    0x6f, 0x3e, 0xec, 0x1b, 0xbc, 0xbd, 0xae, 0x31, 0xdc, 0xbd,
    0xfc, 0xd0, 0x9c, 0xbe, 0xc2, 0x75, 0x56, 0x3e, 0x7e, 0x61,
    0x69, 0xbd, 0x94, 0xc6, 0x36, 0x3c, 0x14, 0xb9, 0xb8, 0xbc,
    0x11, 0x20, 0xaf, 0x3b, 0x05, 0x93, 0x96, 0xbe, 0xb1, 0x90,
    0x66, 0x3e, 0x0b, 0x4a, 0x85, 0x3e, 0x01, 0x8f, 0x72, 0x3d,
    0x5e, 0xe5, 0xc1, 0x3d, 0xd9, 0x5a, 0x35, 0xbd, 0x83, 0x53,
    0x00, 0x3d, 0x70, 0x9e, 0x46, 0xbd, 0x18, 0x8d, 0x44, 0xbe,
    0x3e, 0x73, 0xc7, 0xbd, 0xe9, 0xbf, 0x10, 0x3e, 0xc5, 0xfb,
    0xd5, 0xbd, 0x45, 0x66, 0x3c, 0xbc, 0x8c, 0x8c, 0x54, 0xbe,
    0xa1, 0x79, 0xa1, 0xbe, 0x4e, 0x25, 0x87, 0xbd, 0x32, 0xbe,
    0x3a, 0x3e, 0x80, 0xe8, 0x2d, 0xbd, 0x11, 0x1c, 0x00, 0x3a,
    0x52, 0x63, 0x2a, 0x3e, 0x4d, 0xb6, 0x26, 0xbe, 0xe9, 0x47,
    0x18, 0x3e, 0x09, 0x4f, 0x6f, 0xbe, 0xe2, 0x34, 0xd1, 0xbd,
    0x18, 0x4d, 0xc8, 0xbd, 0xce, 0x83, 0x59, 0x3e, 0x7e, 0x2b,
    0x07, 0x3e, 0x82, 0xc1, 0x47, 0x3e, 0xb2, 0xe4, 0x4b, 0x3e,
    0xd5, 0x5a, 0x9c, 0xbd, 0x11, 0x2a, 0xfc, 0xbd, 0x15, 0xd4,
    0x77, 0xbe, 0x20, 0x78, 0x96, 0xbc, 0x68, 0x75, 0xac, 0x3d,
    0x44, 0x9f, 0xa6, 0xbe, 0xce, 0x67, 0x6a, 0xbd, 0x60, 0x3d,
    0x84, 0xbd, 0xb4, 0x19, 0x6f, 0x3e, 0x25, 0x40, 0x82, 0x3d,
    0x09, 0x7c, 0xfd, 0xbd, 0xec, 0x85, 0x46, 0xbe, 0x74, 0xd0,
    0x28, 0x3d, 0xed, 0x59, 0x14, 0x3d, 0x97, 0x31, 0x79, 0xbe,
    0x37, 0xc3, 0x16, 0x3e, 0x80, 0x57, 0x86, 0xbe, 0xd8, 0x85,
    0xcd, 0x3d, 0x7a, 0x10, 0x96, 0x3d, 0xf2, 0x01, 0x43, 0xbd,
    0x5c, 0xcd, 0x07, 0xbe, 0x04, 0x11, 0xe1, 0xbd, 0x36, 0x2b,
    0x22, 0xbe, 0xba, 0xc9, 0x0f, 0x3e, 0x39, 0x8e, 0x6c, 0x3e,
    0xae, 0x9c, 0xe7, 0x3d, 0xf4, 0x35, 0x6a, 0x3d, 0xfe, 0x2a,
    0x8b, 0xbe, 0x40, 0xaf, 0x4f, 0x3e, 0x00, 0xcd, 0x1e, 0xbc,
    0xab, 0x09, 0xa1, 0x3c, 0x8b, 0xf0, 0x7a, 0xbc, 0x75, 0xdf,
    0xad, 0x3d, 0x8e, 0x23, 0x23, 0xbe, 0x00, 0x02, 0x5a, 0xbe,
    0x87, 0x72, 0x12, 0xbe, 0x68, 0xb7, 0x2d, 0x3e, 0xa6, 0xc3,
    0x84, 0x3e, 0xff, 0xde, 0x0e, 0xbd, 0xf8, 0xd1, 0x63, 0x3e,
    0x6c, 0x16, 0xf4, 0x3d, 0xde, 0x8e, 0xe1, 0x3d, 0xc8, 0x88,
    0x99, 0x3c, 0xb0, 0x91, 0xd1, 0x3d, 0x31, 0xd3, 0x18, 0x3e,
    0x3b, 0xa4, 0x19, 0x3e, 0x05, 0xbf, 0x0f, 0x3e, 0x14, 0x6d,
    0x6c, 0x3d, 0xe0, 0x88, 0x61, 0xbe, 0xd0, 0xd6, 0x09, 0x3e,
    0xb6, 0x07, 0xb2, 0x3d, 0xea, 0xd1, 0xb4, 0xbd, 0x91, 0xfc,
    0x9b, 0x3d, 0x4e, 0xa8, 0x98, 0x3c, 0x18, 0xc3, 0x2a, 0x3e,
    0xea, 0xf0, 0x93, 0xbd, 0x01, 0x9d, 0x92, 0x3d, 0x08, 0x11,
    0xe1, 0x3d, 0x69, 0xac, 0xfd, 0xbd, 0x69, 0x04, 0x4e, 0xbe,
    0xb2, 0x7b, 0x85, 0xbd, 0x7d, 0xd7, 0x4d, 0xbd, 0xd8, 0x06,
    0xfa, 0xbd, 0xfb, 0x2f, 0x71, 0x3d, 0xe4, 0x0b, 0x4b, 0xbd,
    0x47, 0x71, 0x1a, 0xbc, 0x49, 0x7c, 0xf7, 0x3d, 0xc3, 0xab,
    0x69, 0xbc, 0xe8, 0x98, 0x13, 0x3e, 0xe1, 0x3e, 0x4d, 0x3e,
    0x4a, 0xde, 0x15, 0xbe, 0x58, 0x87, 0x6a, 0x3d, 0x22, 0x89,
    0x16, 0x3e, 0xc5, 0xa5, 0xea, 0xbb, 0xe3, 0x95, 0x11, 0x3c,
    0x17, 0xda, 0xc7, 0x3c, 0x9c, 0xd9, 0x21, 0xbe, 0xdc, 0xcf,
    0x25, 0xbe, 0x7e, 0x24, 0x9b, 0x3c, 0xf4, 0xf9, 0x13, 0xbe,
    0x1f, 0x4b, 0x69, 0x3e, 0x6c, 0x48, 0xf8, 0xbd, 0x62, 0xde,
    0xb6, 0xbc, 0x5a, 0xeb, 0x06, 0xbe, 0xad, 0xcb, 0x7a, 0xbe,
    0x8e, 0x22, 0x5b, 0xbd, 0xa8, 0x53, 0xad, 0x3c, 0xea, 0xee,
    0x2f, 0xbe, 0x28, 0xa5, 0x87, 0xbd, 0xa9, 0x1c, 0x8a, 0x3c,
    0x74, 0x7c, 0xc0, 0x3d, 0xb9, 0xc4, 0x03, 0x3e, 0xa5, 0xfb,
    0x5e, 0xbd, 0x0c, 0x75, 0x7c, 0xbd, 0x52, 0x2f, 0x07, 0xbe,
    0x8e, 0xa3, 0x36, 0xbe, 0x79, 0xaf, 0x0e, 0xbe, 0xff, 0x60,
    0x04, 0xbd, 0xbc, 0xa9, 0xa7, 0x3d, 0xfd, 0x91, 0x72, 0xbe,
    0x49, 0x7a, 0xdf, 0x3d, 0xba, 0x41, 0x23, 0x3e, 0x8c, 0xae,
    0x79, 0xbd, 0xe2, 0x0c, 0xee, 0x3d, 0x72, 0x67, 0x19, 0x3e,
    0x17, 0xc8, 0x18, 0xbe, 0x36, 0xa5, 0xfa, 0xbd, 0x7e, 0x34,
    0x0f, 0xbe, 0xb5, 0x91, 0x2e, 0xbb, 0xda, 0x60, 0x80, 0x3d,
    0xb1, 0xd6, 0xd4, 0x3d, 0xee, 0xa7, 0xdb, 0xbd, 0x29, 0x9b,
    0xfc, 0x3c, 0xd7, 0x2e, 0x99, 0xbd, 0x59, 0x51, 0x22, 0x3e,
    0x8e, 0x25, 0xdc, 0xbd, 0x9b, 0xd7, 0xc8, 0xbc, 0x61, 0x77,
    0x37, 0x3e, 0x90, 0x29, 0x63, 0xbd, 0xc5, 0x5b, 0x58, 0x3c,
    0xdc, 0x03, 0x19, 0x3d, 0xcc, 0xc7, 0x5a, 0xbe, 0xf8, 0x22,
    0xa6, 0xbd, 0xc8, 0xc9, 0xc1, 0x3c, 0x6c, 0x8a, 0x77, 0x3e,
    0xe4, 0xb4, 0xd6, 0x3c, 0xc3, 0x4d, 0xfd, 0x3d, 0x83, 0x46,
    0xe5, 0x3c, 0xc4, 0x64, 0x5a, 0xbd, 0xc4, 0xda, 0x33, 0xbe,
    0xca, 0x15, 0x00, 0x3e, 0x62, 0x0a, 0xfc, 0xbd, 0x6d, 0xde,
    0x30, 0xbd, 0x86, 0x1c, 0x41, 0xbe, 0x04, 0x9a, 0x31, 0x3d,
    0x37, 0x3b, 0xb8, 0xbd, 0xea, 0xa5, 0x2a, 0xbe, 0x02, 0x12,
    0xe1, 0xbd, 0xe4, 0xb2, 0xae, 0x3d, 0x7e, 0x6b, 0x35, 0x3e,
    0x64, 0x2b, 0xb4, 0xbd, 0xe1, 0xa3, 0xd2, 0x3d, 0xff, 0x42,
    0x5e, 0x3e, 0x0f, 0xff, 0x41, 0xbd, 0x14, 0x32, 0x4f, 0xbe,
    0x99, 0x6b, 0xcc, 0xbd, 0x0f, 0xd5, 0x72, 0x3e, 0x4e, 0x48,
    0x3b, 0x3e, 0x04, 0x6e, 0x1f, 0x3e, 0x1d, 0xbb, 0x63, 0x3d,
    0x9e, 0xc4, 0xcb, 0x3d, 0x84, 0x41, 0x4b, 0xbe, 0xf1, 0xb5,
    0x87, 0x3e, 0x22, 0x6f, 0xa1, 0x3d, 0x5f, 0xf6, 0xbe, 0xbd,
    0x52, 0x8e, 0x15, 0x3e, 0x6e, 0xe4, 0xe2, 0x3c, 0x0a, 0x77,
    0x6a, 0x3d, 0x41, 0x64, 0x24, 0xbe, 0xab, 0x98, 0x53, 0x3d,
    0x1f, 0xde, 0x2e, 0xbe, 0xac, 0xd5, 0xc7, 0x3d, 0xea, 0xc2,
    0x11, 0x3e, 0x18, 0x98, 0xa9, 0x3d, 0xa6, 0x28, 0xc7, 0xbc,
    0xe0, 0x35, 0x32, 0x3e, 0xf5, 0x8f, 0x70, 0xbe, 0x87, 0xf0,
    0x2e, 0x3d, 0x89, 0x83, 0x00, 0xbe, 0x72, 0x55, 0x09, 0x3e,
    0xcf, 0x7b, 0xda, 0x3d, 0x5b, 0x1c, 0x49, 0xbe, 0xc1, 0x21,
    0x8b, 0x3e, 0xa0, 0x4c, 0x39, 0xbd, 0x48, 0x62, 0xee, 0xbd,
    0x06, 0x00, 0xe4, 0xbd, 0xe9, 0x39, 0xba, 0xbd, 0x3a, 0xe7,
    0xb6, 0x3d, 0x1f, 0x71, 0x1d, 0x3e, 0xdc, 0xb9, 0x29, 0x3e,
    0x75, 0x65, 0x88, 0x3d, 0xa1, 0x10, 0x34, 0xbe, 0x9d, 0xad,
    0xa8, 0x3d, 0xf7, 0xd9, 0x5c, 0x3d, 0x61, 0x55, 0x97, 0x3e,
    0xfc, 0x09, 0xb6, 0xbd, 0xf0, 0x4a, 0xb8, 0x3c, 0x93, 0xdd,
    0xae, 0xbd, 0x18, 0x27, 0x1f, 0xbe, 0xe9, 0x66, 0x95, 0x3e,
    0x49, 0x80, 0x81, 0xbd, 0x71, 0xa2, 0x3a, 0x3e, 0xc3, 0x9c,
    0xb0, 0xbc, 0xd9, 0x9b, 0x41, 0xbd, 0x34, 0x75, 0x97, 0x3b,
    0x1f, 0x8e, 0x9c, 0xbd, 0x57, 0xe6, 0x60, 0x3d, 0x1d, 0x74,
    0xb8, 0x3c, 0xa4, 0x22, 0x3e, 0xbe, 0x6e, 0x02, 0x0d, 0x3d,
    0xca, 0x97, 0x07, 0xbe, 0x64, 0x40, 0x1e, 0xbe, 0xa5, 0x06,
    0x56, 0xbe, 0xfe, 0x35, 0xe4, 0x3d, 0x28, 0x0e, 0xd6, 0x3c,
    0x88, 0x3d, 0x12, 0x3e, 0x73, 0xeb, 0x22, 0x3e, 0xc5, 0x5e,
    0x29, 0x3e, 0x63, 0x42, 0x6b, 0xbe, 0xe7, 0x4b, 0x0c, 0x3e,
    0x8f, 0x59, 0x38, 0xbb, 0x68, 0x09, 0x17, 0x3e, 0xa4, 0x67,
    0x99, 0xbd, 0x6b, 0xde, 0x73, 0xbb, 0xee, 0xe5, 0xef, 0x3d,
    0xf9, 0x4c, 0x6c, 0x3d, 0x0c, 0x24, 0xce, 0xbd, 0xa1, 0x35,
    0x7f, 0x3e, 0x17, 0x1b, 0x1c, 0x3e, 0x85, 0x8a, 0xc5, 0x3d,
    0x16, 0x0a, 0x42, 0x3e, 0x4d, 0xe2, 0x8e, 0xbe, 0x57, 0x55,
    0x6d, 0x3e, 0xee, 0x7c, 0x33, 0x3e, 0xb8, 0x43, 0xc4, 0x3e,
    0x96, 0x9d, 0x48, 0x3e, 0x2c, 0x8f, 0x9d, 0xbd, 0x73, 0x0f,
    0x33, 0x3e, 0x16, 0x02, 0x69, 0x3e, 0x61, 0x6b, 0x00, 0x3e,
    0x3a, 0xae, 0x7d, 0x3e, 0x99, 0x68, 0x29, 0x3e, 0x50, 0xe1,
    0x5b, 0x3e, 0x8d, 0x6d, 0x7b, 0xbd, 0x34, 0xea, 0x85, 0x3d,
    0x4d, 0x3c, 0x5b, 0xbd, 0xf0, 0xc2, 0xc3, 0x3c, 0x2d, 0x9b,
    0x2e, 0x3e, 0xbf, 0xba, 0x45, 0x3e, 0x52, 0x73, 0x18, 0xbd,
    0xb0, 0x30, 0x1c, 0x3d, 0xf4, 0x42, 0x57, 0xbe, 0xce, 0xd1,
    0xa8, 0xbd, 0x72, 0xb7, 0xc3, 0x3e, 0x0b, 0xdc, 0xed, 0xbd,
    0x67, 0xd4, 0x14, 0x3e, 0xbf, 0x1a, 0xc0, 0xbb, 0xe0, 0x85,
    0xac, 0xbd, 0xf2, 0xfc, 0x69, 0x3d, 0xe2, 0xd9, 0x15, 0xbd,
    0x1d, 0x96, 0x38, 0xbd, 0x92, 0xe3, 0x2e, 0x3e, 0xf1, 0x9e,
    0x0a, 0x3e, 0x11, 0xe0, 0x64, 0xbd, 0x92, 0x6f, 0x25, 0xbc,
    0xc8, 0xb1, 0x1a, 0xbe, 0xd2, 0x0d, 0xbd, 0xbd, 0x8c, 0x58,
    0x02, 0x3e, 0x8d, 0x57, 0x6d, 0x3e, 0x73, 0xa4, 0xcd, 0x3d,
    0x03, 0xe6, 0xdf, 0xbd, 0x0e, 0x55, 0xa8, 0x3d, 0xd0, 0x08,
    0x98, 0x3c, 0x27, 0x55, 0x55, 0xbd, 0x5c, 0xe8, 0x7a, 0x3e,
    0x12, 0xc3, 0xa0, 0x3d, 0x2a, 0xe8, 0x65, 0xbe, 0x2d, 0xdd,
    0x67, 0xbe, 0x9e, 0x3c, 0x0b, 0x3e, 0x3a, 0x23, 0x8e, 0xbd,
    0x01, 0xf5, 0xe0, 0xbc, 0x5e, 0x91, 0x86, 0x3e, 0xe6, 0x22,
    0xc4, 0xbd, 0xeb, 0xd4, 0xfb, 0xbd, 0x46, 0x57, 0x9f, 0x3e,
    0xb4, 0x41, 0x3f, 0xbd, 0x53, 0xc0, 0x8a, 0x3d, 0x43, 0x58,
    0xa6, 0xbb, 0x94, 0x96, 0xff, 0x3d, 0x73, 0xa2, 0xaa, 0x3d,
    0x75, 0x6b, 0xe4, 0xbd, 0xe5, 0x4f, 0x35, 0xbe, 0xa2, 0x6f,
    0x92, 0xbd, 0x04, 0x0e, 0x20, 0x3d, 0xaa, 0x44, 0x42, 0x3e,
    0x05, 0xf1, 0x34, 0xbe, 0x1e, 0xba, 0xe8, 0xbd, 0x58, 0x4a,
    0x14, 0xbd, 0xe2, 0x2e, 0x35, 0xbe, 0x05, 0x41, 0x86, 0x3d,
    0x6f, 0xc1, 0x3d, 0x3e, 0xb5, 0x9e, 0x8d, 0x3e, 0x10, 0x2f,
    0x67, 0x3c, 0xae, 0x4f, 0xfe, 0xbd, 0x16, 0x9b, 0xde, 0x3b,
    0xd6, 0x4d, 0x1b, 0x3c, 0x10, 0xac, 0x8a, 0xbc, 0x53, 0xac,
    0xc2, 0x3e, 0x72, 0xa9, 0x3d, 0x3e, 0x82, 0x64, 0x26, 0xbe,
    0x16, 0xc3, 0xd4, 0xbc, 0x5a, 0xaa, 0x0c, 0x3e, 0x7e, 0xea,
    0x1c, 0xbe, 0x2c, 0x95, 0x72, 0x3d, 0xc1, 0xff, 0x62, 0xbe,
    0x8f, 0x53, 0x8e, 0x3e, 0x09, 0x0d, 0x18, 0x3d, 0x6a, 0xbe,
    0xd7, 0xbd, 0x04, 0x55, 0xe4, 0x3c, 0xb1, 0x06, 0xd6, 0x3d,
    0x3f, 0x63, 0x46, 0xbd, 0x4d, 0x07, 0x42, 0xbe, 0x84, 0x11,
    0x0e, 0x3d, 0xb5, 0x2f, 0xb5, 0xbd, 0x51, 0xcc, 0x59, 0xbc,
    0xc9, 0x74, 0x07, 0xbe, 0x86, 0x6a, 0x39, 0xbe, 0xf7, 0xa4,
    0x8d, 0x3c, 0x6a, 0x9e, 0x2a, 0xbd, 0x52, 0x42, 0xd6, 0x3c,
    0x35, 0x83, 0x68, 0x3d, 0x57, 0x05, 0x88, 0xba, 0xa2, 0xfa,
    0x56, 0xbd, 0xa6, 0x94, 0x24, 0x3d, 0xcb, 0x34, 0x6e, 0xbd,
    0x7a, 0x0f, 0x96, 0xbd, 0xd7, 0xf6, 0x8b, 0x3e, 0x72, 0x05,
    0x0b, 0x3e, 0x0e, 0xdd, 0x0e, 0x3e, 0xba, 0x1f, 0x5b, 0x3d,
    0xd4, 0xd7, 0x13, 0x3e, 0xde, 0x1e, 0x79, 0x3d, 0xa5, 0xcf,
    0x97, 0x3e, 0xe6, 0x50, 0x85, 0xbc, 0x8e, 0x82, 0x79, 0x3e,
    0x5a, 0x78, 0x09, 0xbe, 0x8c, 0x6d, 0x3d, 0xbd, 0x77, 0xf7,
    0xa5, 0x3d, 0x3d, 0xd9, 0x25, 0xbe, 0x78, 0xed, 0xa3, 0x3c,
    0x41, 0x9c, 0x80, 0x3d, 0x54, 0xa1, 0x35, 0x3e, 0x6a, 0x18,
    0x5a, 0xbe, 0x38, 0x89, 0x8d, 0x3b, 0xae, 0x97, 0x3e, 0x3e,
    0x16, 0x54, 0xc2, 0xbd, 0x5a, 0xe7, 0x3c, 0xbb, 0x17, 0xe5,
    0xe3, 0x3d, 0x88, 0x19, 0x17, 0x3e, 0x6b, 0x22, 0xe3, 0x3d,
    0x24, 0xc9, 0x17, 0xbe, 0xfa, 0x47, 0x5d, 0xbd, 0x3f, 0xc6,
    0xce, 0xbd, 0xba, 0x16, 0xba, 0x3d, 0x6d, 0xb4, 0x6c, 0xbe,
    0x45, 0xa4, 0x13, 0xbe, 0xfd, 0xb9, 0x73, 0xbc, 0x3c, 0x74,
    0xe3, 0xbb, 0xd5, 0xb5, 0x96, 0x3d, 0x83, 0x0f, 0x5a, 0x3e,
    0xb3, 0xcb, 0x49, 0x3e, 0xcb, 0x65, 0x77, 0x3d, 0x53, 0xd4,
    0x7d, 0xbd, 0xf8, 0x94, 0xac, 0x3c, 0xb8, 0x80, 0x4b, 0x3d,
    0x80, 0x48, 0x23, 0xbe, 0xbb, 0x18, 0x0f, 0x3e, 0xa3, 0x94,
    0x87, 0xbc, 0x04, 0x32, 0x94, 0x3d, 0x16, 0xcc, 0x27, 0x3d,
    0x85, 0x20, 0x93, 0xbe, 0xc8, 0xb2, 0x5a, 0x3d, 0x3c, 0x34,
    0x73, 0x3e, 0x20, 0x84, 0x92, 0x3d, 0xb5, 0xdc, 0x73, 0xbd,
    0x0d, 0xb5, 0x5a, 0x3d, 0x57, 0xee, 0x93, 0xbd, 0x6c, 0x09,
    0x72, 0xbe, 0x9c, 0x5d, 0xbb, 0x3d, 0x77, 0xba, 0x67, 0xbd,
    0x91, 0x2e, 0x82, 0x3e, 0x65, 0xb3, 0xd3, 0xbd, 0x79, 0xed,
    0x78, 0xbd, 0xfb, 0xc5, 0xf6, 0x3d, 0xf8, 0xa7, 0x41, 0x3c,
    0xc0, 0x75, 0x53, 0xbe, 0x8d, 0x5c, 0x85, 0x3e, 0x4d, 0xea,
    0x9c, 0x3c, 0x4f, 0x42, 0xea, 0xbb, 0xda, 0xfe, 0x34, 0xbd,
    0x24, 0x50, 0x08, 0x3e, 0xab, 0x5c, 0x37, 0xbe, 0x15, 0xb5,
    0x17, 0x3c, 0x13, 0xbf, 0x10, 0x3e, 0xd6, 0x0b, 0xb6, 0x3b,
    0x5c, 0x41, 0x69, 0x3e, 0x64, 0x16, 0xbe, 0xbb, 0x54, 0x16,
    0x87, 0xbc, 0x0d, 0x39, 0x22, 0xbe, 0xe4, 0xb1, 0x9f, 0x3c,
    0x94, 0xd0, 0x12, 0x3e, 0x16, 0x8a, 0xd0, 0xbd, 0xd4, 0x09,
    0x54, 0xbe, 0x2c, 0x5d, 0xd6, 0x3d, 0x32, 0x71, 0xd0, 0xbd,
    0x73, 0xcd, 0x57, 0x3e, 0x28, 0xe7, 0xb7, 0x3d, 0xe2, 0xf1,
    0xe9, 0xbd, 0x92, 0xfd, 0xc5, 0xba, 0xb5, 0xda, 0xdb, 0xbc,
    0xfd, 0xdb, 0x6d, 0xbe, 0x79, 0xbe, 0xd6, 0xbd, 0x1f, 0x40,
    0x4b, 0xbd, 0x82, 0xc4, 0x7e, 0x3e, 0x6a, 0x31, 0x76, 0x3e,
    0xff, 0x91, 0xb4, 0x3d, 0xc0, 0xb9, 0x26, 0xbd, 0x85, 0x8c,
    0x36, 0xbe, 0xdc, 0x46, 0x75, 0x3b, 0x87, 0xd3, 0x55, 0xbe,
    0xf2, 0x3d, 0xbe, 0x3d, 0x2f, 0xec, 0x03, 0x3e, 0xbc, 0x97,
    0x99, 0x3d, 0xaa, 0xcf, 0x5a, 0x3d, 0xd5, 0x04, 0x53, 0xbe,
    0xc4, 0x94, 0x58, 0xbb, 0xaf, 0x2c, 0x18, 0x3e, 0x5e, 0xb9,
    0x1d, 0x3e, 0x65, 0xc1, 0x9b, 0xbe, 0x1e, 0x77, 0x57, 0xbd,
    0xb8, 0xbb, 0x64, 0x3d, 0xbd, 0xa6, 0x63, 0xbe, 0x0e, 0x7c,
    0x93, 0xbd, 0x9c, 0x57, 0xb6, 0xbd, 0x89, 0x79, 0xac, 0x3e,
    0xbf, 0xe8, 0x22, 0x3e, 0xfc, 0xf8, 0xad, 0x3d, 0x7e, 0x12,
    0x0a, 0xbe, 0x66, 0xea, 0x6b, 0x3e, 0x64, 0xb2, 0x30, 0x3e,
    0xb5, 0x31, 0x2c, 0x3e, 0xb7, 0x76, 0x00, 0x3e, 0x19, 0x4e,
    0x5e, 0x3e, 0x8a, 0xed, 0x0e, 0xbe, 0x42, 0x8f, 0xa4, 0x3d,
    0x61, 0x1c, 0x23, 0x3d, 0x13, 0x87, 0x1d, 0x3d, 0xe7, 0x5e,
    0x5e, 0x3e, 0x36, 0xa2, 0xb3, 0x3d, 0x98, 0xb1, 0x37, 0x3e,
    0x11, 0x6d, 0x1f, 0xbe, 0xb4, 0x45, 0xba, 0x3e, 0x84, 0xd2,
    0x1a, 0x3d, 0x48, 0x55, 0xb7, 0x3c, 0x7b, 0x32, 0x9a, 0xbd,
    0xde, 0xca, 0x45, 0x3b, 0x6f, 0x65, 0xc1, 0xbc, 0x6d, 0x2f,
    0x20, 0x3e, 0x7d, 0x0b, 0x0e, 0xbe, 0x2f, 0xaf, 0xf8, 0x3c,
    0xb6, 0x71, 0x2b, 0x3e, 0x4a, 0xd6, 0xc7, 0xbd, 0x1c, 0x66,
    0xa8, 0x3d, 0xe8, 0x0a, 0x8c, 0x3e, 0xbb, 0xab, 0x32, 0xbe,
    0x6b, 0x7e, 0xad, 0x3e, 0xb8, 0x7f, 0xc8, 0xbd, 0xd2, 0xc4,
    0x5c, 0x3e, 0x4a, 0xb3, 0xce, 0x3d, 0x34, 0x26, 0x53, 0x3e,
    0xac, 0x6c, 0xbb, 0x3d, 0x84, 0x0a, 0xf6, 0xbc, 0x93, 0x5d,
    0xa4, 0x3e, 0xa5, 0x1d, 0x7c, 0x3d, 0x96, 0x22, 0xda, 0x3d,
    0xdd, 0x73, 0xf7, 0xbd, 0xd6, 0x10, 0x3a, 0xbc, 0x70, 0x96,
    0x83, 0xbd, 0x12, 0x62, 0x1b, 0xbd, 0x26, 0x12, 0xf7, 0x3d,
    0x03, 0x77, 0x23, 0x3e, 0x12, 0xc6, 0xe4, 0xbd, 0xb9, 0x3f,
    0x98, 0x3c, 0x7f, 0x01, 0xc9, 0xbd, 0xca, 0x76, 0x23, 0xbe,
    0x87, 0x6b, 0x23, 0xbe, 0x25, 0x4b, 0x9e, 0x3d, 0x15, 0xcc,
    0x72, 0xbe, 0x31, 0x82, 0xa7, 0x3e, 0x09, 0xb7, 0xd3, 0x3c,
    0xc1, 0x3c, 0x4e, 0x3e, 0xc9, 0x48, 0x0a, 0x3e, 0x97, 0x47,
    0x16, 0x3e, 0x64, 0x3f, 0x9f, 0x3e, 0x79, 0x68, 0xed, 0x3d,
    0x8b, 0xff, 0x26, 0x3e, 0xaa, 0x05, 0x14, 0xbc, 0x4d, 0xcd,
    0x8e, 0x3e, 0xf7, 0x4b, 0x9c, 0xbd, 0x92, 0x9d, 0x9a, 0xbd,
    0x46, 0x99, 0xf9, 0x3d, 0x74, 0x30, 0x1f, 0xbd, 0x1b, 0x37,
    0xa2, 0x3e, 0xf1, 0x13, 0x69, 0xbd, 0xe6, 0xc3, 0xb1, 0x3d,
    0x88, 0x3c, 0x52, 0xbe, 0xf2, 0xf7, 0xde, 0x3a, 0x6e, 0x62,
    0x81, 0xbc, 0xd9, 0x63, 0x2a, 0xbe, 0x3a, 0x4d, 0xa5, 0x3c,
    0x3d, 0xf1, 0x03, 0xbc, 0x94, 0xea, 0x06, 0xbd, 0x6e, 0x0e,
    0x06, 0x3e, 0xc9, 0xb8, 0x45, 0xbe, 0xe0, 0xed, 0x67, 0xbe,
    0xd6, 0x2a, 0xa2, 0x3d, 0xcf, 0x35, 0x63, 0xbe, 0x79, 0xba,
    0x0f, 0x3c, 0x65, 0xc9, 0x22, 0xbe, 0x40, 0x20, 0x4b, 0xbe,
    0x0e, 0xb5, 0xb7, 0xbd, 0xc9, 0xfc, 0x0c, 0xbe, 0x03, 0xd7,
    0x1b, 0x3e, 0x6b, 0x21, 0x6c, 0xbd, 0xec, 0x94, 0x0e, 0x3e,
    0x6a, 0x42, 0x7d, 0xbe, 0x2a, 0x0c, 0xe5, 0xbc, 0x50, 0xa0,
    0xa2, 0xbd, 0xaf, 0xf2, 0x66, 0x3e, 0xf1, 0x2f, 0x09, 0x3e,
    0x80, 0xd6, 0x80, 0xbd, 0xae, 0x0e, 0x03, 0xbd, 0xd8, 0x89,
    0xff, 0x3d, 0x95, 0x1d, 0x1c, 0x3e, 0x43, 0xd0, 0xb4, 0xbd,
    0x11, 0xb2, 0x3b, 0x3d, 0xa3, 0x99, 0x58, 0xbe, 0x14, 0xe8,
    0x11, 0xbe, 0x4d, 0x8d, 0xd3, 0x3d, 0x1d, 0x4c, 0xe4, 0x3d,
    0x48, 0x9d, 0x00, 0xbe, 0xba, 0xf8, 0x1b, 0xbe, 0xed, 0xe1,
    0x50, 0xbe, 0xf2, 0xf4, 0xaf, 0x3a, 0xaf, 0xc8, 0x7d, 0x3e,
    0x3a, 0x60, 0x60, 0x3c, 0x41, 0xab, 0x05, 0x3c, 0x50, 0x44,
    0x09, 0x3e, 0xd1, 0xf4, 0xb2, 0x3d, 0x9c, 0xcf, 0x53, 0x3b,
    0x1e, 0x0f, 0x45, 0xbc, 0x2f, 0x0b, 0x0e, 0x3d, 0x7d, 0x78,
    0x0b, 0x3e, 0xcb, 0x93, 0x3f, 0xbe, 0xa0, 0xab, 0xbe, 0xbc,
    0x11, 0x7a, 0x34, 0x3e, 0x29, 0xa0, 0x96, 0x3d, 0x8a, 0x09,
    0xcb, 0x3e, 0x07, 0xdf, 0x3e, 0xbd, 0xec, 0xbc, 0x4e, 0x3e,
    0xa9, 0x85, 0x0f, 0x3e, 0x9b, 0xbd, 0x53, 0x3e, 0x9c, 0x1f,
    0x02, 0x3e, 0xb8, 0x93, 0xc3, 0x3d, 0xf4, 0xac, 0x07, 0x3e,
    0x45, 0x89, 0x07, 0x3e, 0x85, 0xb8, 0x1d, 0x3e, 0x90, 0x2c,
    0x8e, 0x3e, 0x1b, 0xa7, 0x9b, 0xbd, 0x3a, 0x42, 0x89, 0x3d,
    0x58, 0x7e, 0xbd, 0xbd, 0x6f, 0x0a, 0xfb, 0x3b, 0x1d, 0x75,
    0x70, 0xbe, 0xd0, 0xdd, 0xa4, 0x3e, 0xed, 0xa2, 0x61, 0x3e,
    0xd0, 0x43, 0xad, 0xbd, 0x75, 0x3d, 0x10, 0xbe, 0x36, 0xd8,
    0x23, 0xbe, 0xe5, 0xef, 0x21, 0xbe, 0x05, 0xaf, 0x6a, 0xbc,
    0xcf, 0x2d, 0xd5, 0xbd, 0xb8, 0xab, 0xb8, 0x3d, 0x9e, 0x37,
    0xb1, 0x3d, 0xd9, 0xf8, 0x41, 0x3d, 0x7d, 0xe2, 0xe3, 0x3c,
    0x0d, 0x4d, 0x05, 0xbd, 0xf3, 0x56, 0x4d, 0xbe, 0xe8, 0xe2,
    0x09, 0x3e, 0x20, 0x93, 0x3c, 0xbe, 0xe6, 0x8c, 0x80, 0x3e,
    0xce, 0x22, 0x91, 0xbe, 0x6e, 0xd0, 0xea, 0xbd, 0x84, 0x28,
    0xda, 0xbd, 0xb3, 0x67, 0x1b, 0x3d, 0xdf, 0x7b, 0x02, 0x3e,
    0xa4, 0xe9, 0x2e, 0xbe, 0x9b, 0xac, 0xce, 0x3c, 0x65, 0x01,
    0x87, 0x3e, 0xa5, 0xa3, 0x38, 0x3c, 0x96, 0x34, 0x99, 0x3e,
    0x90, 0xbf, 0x11, 0xbe, 0x4b, 0xcf, 0xa0, 0xbd, 0x84, 0x08,
    0x2d, 0xbc, 0xe3, 0x73, 0x0b, 0x3e, 0x9e, 0x92, 0x56, 0xbe,
    0xa1, 0xda, 0x08, 0xbe, 0x1d, 0x62, 0x91, 0xbe, 0xdf, 0xff,
    0xd3, 0x3d, 0xd4, 0xce, 0x87, 0xbe, 0x5a, 0xb3, 0xbb, 0xbd,
    0x7e, 0x30, 0x87, 0x3e, 0x5c, 0xa3, 0x55, 0x3b, 0xcb, 0x3e,
    0xac, 0x3c, 0xab, 0x71, 0x04, 0xbe, 0xb6, 0x9e, 0x06, 0xbe,
    0x91, 0x38, 0x7a, 0xbe, 0xa1, 0xc8, 0x87, 0x3e, 0x26, 0x5e,
    0x60, 0x3e, 0xa7, 0x37, 0x4a, 0xbc, 0x28, 0x39, 0x7a, 0xbe,
    0x69, 0x40, 0xca, 0xbd, 0xcf, 0x31, 0x43, 0xbe, 0x68, 0x53,
    0x23, 0xbe, 0xf2, 0x1d, 0xd7, 0xbd, 0x64, 0xff, 0x38, 0xbe,
    0x6c, 0xcf, 0x60, 0xbe, 0xb1, 0x46, 0x0d, 0x3e, 0x06, 0x65,
    0x0d, 0x3d, 0xed, 0x34, 0xa1, 0x3d, 0xf4, 0x7d, 0x6a, 0x3d,
    0x0e, 0x1e, 0xae, 0x3c, 0xb4, 0xe8, 0x95, 0x3d, 0x41, 0xb7,
    0x10, 0xbd, 0x36, 0xdb, 0xc3, 0x3c, 0x79, 0x04, 0x5e, 0xbe,
    0xd9, 0x8d, 0x5b, 0x3e, 0x10, 0x12, 0xe8, 0xbc, 0x76, 0xc8,
    0x22, 0x3e, 0x0e, 0x66, 0x7d, 0xbd, 0xfd, 0x84, 0xf4, 0x3c,
    0xc5, 0xe7, 0x47, 0xbe, 0xbc, 0x2c, 0x2a, 0x3e, 0xf3, 0x85,
    0x03, 0xbe, 0xd0, 0x71, 0x39, 0xbd, 0xf7, 0x8e, 0x9e, 0x3e,
    0x1a, 0xb0, 0x27, 0xbe, 0x21, 0xbb, 0xfd, 0x3c, 0xe8, 0xfa,
    0x83, 0x3d, 0xbb, 0x36, 0x04, 0x3c, 0x5e, 0x51, 0x98, 0x3e,
    0x23, 0x3e, 0xa6, 0x3d, 0xaa, 0x6b, 0x02, 0xbe, 0x79, 0xaa,
    0x86, 0x3d, 0x90, 0x39, 0xa6, 0x3d, 0x78, 0xa2, 0x30, 0x3e,
    0xf9, 0x8d, 0x17, 0x3e, 0x2d, 0x05, 0x56, 0x3e, 0x5f, 0x46,
    0x8f, 0x3d, 0x63, 0x7a, 0x84, 0xbe, 0xe6, 0xfa, 0xb1, 0xbd,
    0xbb, 0xcf, 0x14, 0xbe, 0x00, 0x03, 0xbd, 0xbc, 0x8d, 0xe0,
    0x28, 0xbe, 0xea, 0x4b, 0x05, 0xbe, 0xe9, 0x92, 0x87, 0xbe,
    0x86, 0x88, 0x36, 0xbe, 0x4a, 0x87, 0xb9, 0x3d, 0x86, 0xd7,
    0x87, 0x3c, 0x1a, 0xab, 0x24, 0xbe, 0x9c, 0xd6, 0x0e, 0x3d,
    0x03, 0x81, 0x21, 0xbe, 0x32, 0xa6, 0x35, 0xbe, 0x41, 0x15,
    0x85, 0x3e, 0xe4, 0x41, 0x83, 0x3e, 0xa3, 0xbf, 0x08, 0x3e,
    0xc6, 0x4f, 0x5b, 0x3b, 0x42, 0xba, 0x50, 0x3d, 0x3a, 0x7e,
    0xa0, 0x3d, 0x8b, 0x65, 0xe8, 0xbd, 0x35, 0x92, 0xc9, 0x3d,
    0x39, 0x4e, 0x7e, 0x3e, 0xd3, 0xf4, 0x4a, 0x3e, 0x3a, 0xec,
    0xca, 0xbd, 0x30, 0x8f, 0x84, 0xbe, 0x36, 0x5f, 0xb3, 0x3d,
    0x01, 0x59, 0x5f, 0x3e, 0x25, 0x38, 0x1a, 0x3c, 0x9d, 0xf0,
    0x69, 0x3e, 0x06, 0x6b, 0x1b, 0xbd, 0x3c, 0xc6, 0x57, 0xbe,
    0x54, 0x38, 0x97, 0xbd, 0x86, 0x56, 0x42, 0xbe, 0x69, 0xf9,
    0x02, 0xbe, 0xfe, 0xb1, 0x1c, 0x3e, 0x1e, 0x1c, 0xb9, 0x3d,
    0x4a, 0x10, 0x87, 0x3e, 0x5b, 0xf3, 0x48, 0x3e, 0x02, 0xfc,
    0x69, 0x3e, 0x68, 0xeb, 0x07, 0xbd, 0x3f, 0xfe, 0x56, 0x3e,
    0x94, 0x5d, 0x45, 0xbe, 0x30, 0x63, 0x3c, 0xbe, 0x4b, 0x8c,
    0xb4, 0x3c, 0x55, 0x6d, 0xcf, 0xbd, 0xdc, 0x94, 0x71, 0xbd,
    0x9b, 0xd9, 0x05, 0xbd, 0x9e, 0x42, 0x4a, 0xbc, 0x50, 0xa5,
    0xb6, 0xbd, 0x77, 0x3d, 0xa4, 0xbd, 0x46, 0x56, 0x6e, 0x3e,
    0x25, 0xd1, 0xa5, 0x3c, 0xe2, 0xa6, 0xd6, 0x3d, 0x70, 0xd5,
    0xfe, 0x3d, 0x17, 0x38, 0x71, 0x3d, 0xdc, 0x46, 0x8b, 0x3d,
    0x5e, 0x13, 0x1d, 0xbe, 0xda, 0x45, 0x7b, 0x3e, 0x7e, 0x55,
    0xa4, 0x3d, 0xb4, 0x4b, 0xfb, 0xbd, 0x1c, 0x01, 0xc0, 0x3c,
    0x86, 0x28, 0xbe, 0xbd, 0x5e, 0x3e, 0x67, 0xbe, 0xf9, 0xd2,
    0xa4, 0x3d, 0xdb, 0xd3, 0x1f, 0x3e, 0xc3, 0x35, 0x87, 0x3d,
    0xf4, 0x4e, 0x30, 0x3d, 0xaf, 0xfa, 0xb8, 0xbc, 0xa9, 0xcb,
    0xc2, 0x3d, 0x80, 0x90, 0xf9, 0xbc, 0xe8, 0xeb, 0x6d, 0x3d,
    0x78, 0x4f, 0x31, 0x3e, 0x3c, 0x05, 0x20, 0x3d, 0xf1, 0x42,
    0x37, 0x3d, 0x9f, 0xbb, 0x86, 0x3d, 0x67, 0x1c, 0x5f, 0x3d,
    0xf8, 0xb2, 0x49, 0x3e, 0x9b, 0x02, 0x66, 0xbd, 0xed, 0x73,
    0x59, 0x3e, 0xab, 0xf8, 0x60, 0x3b, 0xc5, 0x63, 0x6d, 0x3d,
    0xaa, 0xfa, 0x93, 0xbd, 0x74, 0xe1, 0xc1, 0x3d, 0x03, 0x45,
    0x5b, 0x3e, 0xc6, 0x52, 0x8b, 0x3d, 0xf0, 0x2f, 0xff, 0xbc,
    0x43, 0x2c, 0x12, 0x3e, 0xb5, 0x1e, 0x45, 0xbe, 0x15, 0x5b,
    0xa7, 0xbe, 0xe8, 0x97, 0xa3, 0xbb, 0xc9, 0xc1, 0x30, 0xbe,
    0x48, 0x83, 0xd1, 0x3c, 0x55, 0xc9, 0x4c, 0xbe, 0x86, 0x60,
    0xda, 0xbd, 0x42, 0xa5, 0xaa, 0xbe, 0xcf, 0xd5, 0x16, 0xbe,
    0x05, 0x1c, 0x73, 0x3d, 0x82, 0xeb, 0xab, 0x3d, 0x77, 0x87,
    0x1c, 0xbd, 0x34, 0xc3, 0x25, 0x3e, 0xe8, 0x14, 0xba, 0xbd,
    0xe8, 0x94, 0x1f, 0x3e, 0xad, 0x29, 0x79, 0xbe, 0x6d, 0x5d,
    0x11, 0xbe, 0x8e, 0xfa, 0x54, 0xbd, 0xd9, 0x30, 0x35, 0x3e,
    0x39, 0x94, 0xe8, 0x3d, 0xfb, 0xcd, 0x97, 0x3e, 0xa9, 0xb0,
    0x92, 0x3e, 0x90, 0x7c, 0xe8, 0xbd, 0xd1, 0x08, 0xb7, 0xbb,
    0xeb, 0x20, 0xcd, 0x3b, 0xfb, 0x74, 0xf2, 0xbd, 0xb0, 0x38,
    0x6e, 0x3d, 0xb4, 0x35, 0xd4, 0xbd, 0x02, 0x01, 0xdc, 0xbc,
    0x68, 0xe9, 0xd3, 0xbd, 0x8a, 0xb7, 0x5d, 0x3e, 0x17, 0x20,
    0x5b, 0x3e, 0xa4, 0x30, 0x85, 0x3e, 0x54, 0xf7, 0xd0, 0xbc,
    0x13, 0xd3, 0x02, 0x3e, 0x9e, 0xd6, 0x40, 0xbd, 0xbd, 0xb8,
    0xa2, 0xbd, 0x42, 0x05, 0xba, 0xbc, 0x89, 0xcd, 0xf3, 0xbd,
    0x38, 0x5d, 0x9f, 0xbc, 0xb3, 0x4b, 0x2b, 0xbe, 0x8b, 0x4c,
    0xcd, 0x3b, 0x63, 0xcb, 0xf2, 0x3c, 0x6f, 0xf2, 0xb7, 0xbd,
    0xee, 0xfa, 0x2e, 0x3e, 0xee, 0x72, 0xc1, 0x3e, 0xc7, 0xb8,
    0x19, 0x3e, 0x68, 0x22, 0xe1, 0x3c, 0x4c, 0x44, 0x30, 0xbe,
    0x63, 0x82, 0x12, 0xbd, 0xde, 0xf5, 0x0d, 0x3d, 0x09, 0x80,
    0x96, 0x3d, 0xe2, 0xd0, 0xcd, 0xbd, 0x6b, 0x47, 0x6d, 0xbd,
    0x0c, 0xd7, 0x7a, 0x3e, 0x33, 0x84, 0xbf, 0xbd, 0x82, 0x27,
    0xfa, 0x3a, 0xf3, 0xb4, 0x39, 0x3e, 0x86, 0x3f, 0x67, 0x3e,
    0xd7, 0xd6, 0x3a, 0x3e, 0x2e, 0xb3, 0x1a, 0x3e, 0xbb, 0x5c,
    0xf5, 0xbc, 0x94, 0xfc, 0x8d, 0x3d, 0x35, 0xff, 0x9b, 0xbb,
    0xf7, 0x34, 0xd6, 0xbb, 0xa9, 0xd9, 0x1f, 0x3d, 0x30, 0xb7,
    0x9d, 0x3e, 0xa1, 0xb8, 0x8a, 0xbe, 0xce, 0x72, 0x4d, 0xbd,
    0xf2, 0x54, 0xe2, 0x3c, 0x3a, 0x17, 0xa7, 0x3d, 0x99, 0x1a,
    0xcd, 0xbc, 0xbe, 0x22, 0xc2, 0x3e, 0x44, 0x9b, 0x3d, 0x3e,
    0xab, 0x5b, 0x26, 0xbe, 0x99, 0xbf, 0xa3, 0xbd, 0xc2, 0x2e,
    0x11, 0x3d, 0x6e, 0xb0, 0xe4, 0x3d, 0x0c, 0x1b, 0x96, 0x3d,
    0xf2, 0x16, 0xfa, 0x3d, 0x04, 0x8d, 0x0b, 0x3e, 0x9c, 0x7e,
    0xa5, 0xbe, 0x3b, 0x4a, 0xdb, 0x3d, 0x10, 0x00, 0x73, 0xbe,
    0x3b, 0xf7, 0xc0, 0xbc, 0x56, 0xb3, 0x08, 0xbe, 0xbd, 0xbe,
    0x84, 0x3e, 0x8e, 0xbe, 0x73, 0x3e, 0x06, 0x2e, 0xb3, 0xbd,
    0x1a, 0x7b, 0x8c, 0xbe, 0x18, 0x2a, 0x50, 0xbd, 0x3a, 0xb6,
    0xb4, 0x3d, 0x37, 0x9d, 0x19, 0xbe, 0xa4, 0xff, 0x0f, 0xbe,
    0xac, 0xf0, 0x5f, 0x3e, 0xae, 0x87, 0x6e, 0x3d, 0x8e, 0x58,
    0x04, 0x3e, 0xd9, 0x1f, 0x03, 0xbc, 0xc2, 0x5d, 0x0d, 0x3e,
    0xce, 0xc6, 0x32, 0x3e, 0x49, 0xd7, 0x6d, 0xbe, 0x3f, 0x32,
    0x61, 0x3e, 0xd3, 0x0f, 0x21, 0x3e, 0x72, 0xad, 0x9c, 0xbe,
    0x6d, 0xe6, 0xd7, 0xbd, 0x51, 0xb2, 0x8f, 0x3e, 0xef, 0xa6,
    0x19, 0x3e, 0xfa, 0xc4, 0xa8, 0xba, 0x93, 0x06, 0x08, 0xbe,
    0xc6, 0x48, 0x34, 0x3c, 0xf7, 0x8c, 0x36, 0xbd, 0x71, 0x80,
    0x21, 0xbd, 0x15, 0xf5, 0xb2, 0x3b, 0xdb, 0x3d, 0x26, 0xbe,
    0x76, 0x73, 0x12, 0x3d, 0x1c, 0xec, 0x6d, 0x3d, 0x10, 0xf3,
    0x43, 0x3e, 0xca, 0x7a, 0xee, 0x3d, 0x8b, 0x4f, 0x2d, 0x3e,
    0x5f, 0x58, 0xa7, 0x3e, 0x56, 0xcb, 0x35, 0xbe, 0xa2, 0x01,
    0x08, 0xbe, 0x25, 0x07, 0x35, 0xbe, 0xfe, 0x18, 0x0e, 0x3e,
    0x45, 0xf1, 0xe1, 0xbc, 0x48, 0xff, 0x35, 0x3e, 0x80, 0xbd,
    0x3b, 0x3e, 0x35, 0x79, 0x82, 0xbc, 0xaa, 0x4b, 0xcd, 0x3d,
    0xab, 0x0e, 0xbf, 0x3d, 0x4e, 0xb6, 0x2b, 0xbe, 0xd0, 0x8e,
    0x06, 0x3e, 0xa6, 0xb6, 0x7c, 0xbc, 0xc8, 0xb0, 0x92, 0x3c,
    0x2f, 0x80, 0xf7, 0xbb, 0x70, 0x19, 0xa9, 0xbe, 0xca, 0x46,
    0x75, 0x3e, 0xe6, 0xf2, 0x1e, 0x3d, 0x9b, 0x0f, 0x62, 0x3e,
    0xd4, 0xf5, 0x18, 0x3d, 0x04, 0x7e, 0x02, 0x3e, 0x29, 0x17,
    0x58, 0xbe, 0xb4, 0x7a, 0x6e, 0xbe, 0x28, 0xbb, 0x1e, 0xbe,
    0xc9, 0x81, 0xb6, 0x3d, 0x20, 0x6a, 0x87, 0xbb, 0xe9, 0x36,
    0x95, 0xbd, 0x60, 0xdc, 0x3f, 0x3c, 0x9f, 0xba, 0x2d, 0xbe,
    0xbf, 0x80, 0x48, 0xbe, 0xe9, 0x82, 0x1c, 0xbe, 0x08, 0xc8,
    0x0b, 0x3d, 0x58, 0x78, 0x1a, 0x3d, 0x0f, 0xec, 0x3e, 0x3e,
    0x4c, 0xca, 0x9d, 0x3c, 0xb2, 0xee, 0xe1, 0xbc, 0xbb, 0xfa,
    0x1c, 0xbd, 0x28, 0x16, 0x24, 0xbe, 0xc7, 0x3a, 0x61, 0xbe,
    0x5b, 0x7a, 0x80, 0x3d, 0x40, 0x53, 0x77, 0x3b, 0x26, 0x85,
    0xd1, 0xbd, 0x90, 0xee, 0x6b, 0x3e, 0x60, 0xf0, 0x68, 0x3e,
    0x3f, 0x46, 0x39, 0xbc, 0xf0, 0xc7, 0x3e, 0xbe, 0xe8, 0xaa,
    0x65, 0xbe, 0xf1, 0xdd, 0x09, 0x3d, 0xee, 0xe4, 0x62, 0xbd,
    0xf8, 0x73, 0xc6, 0x3c, 0x72, 0xca, 0x72, 0xbc, 0x27, 0x5d,
    0x70, 0x3e, 0x43, 0xb5, 0x1f, 0xbe, 0xdc, 0x99, 0x89, 0x3e,
    0x95, 0xe9, 0x69, 0xbe, 0x9c, 0x96, 0x5c, 0xbe, 0x19, 0xb0,
    0x9a, 0x3d, 0x98, 0xdb, 0xde, 0xbd, 0x6a, 0x19, 0xa5, 0xbd,
    0x47, 0x39, 0x28, 0xbe, 0x48, 0x3c, 0x44, 0x3e, 0x0c, 0xc4,
    0x46, 0xb9, 0x38, 0x19, 0x73, 0xbd, 0x6b, 0x56, 0x7d, 0x3e,
    0x36, 0x0c, 0x63, 0xbe, 0x55, 0x5d, 0x0a, 0xbe, 0x1a, 0xb0,
    0x81, 0xbe, 0x8e, 0x21, 0x33, 0xbe, 0x8c, 0x1e, 0x1d, 0xbd,
    0x04, 0x1f, 0x8e, 0xbd, 0xf3, 0xdf, 0xe3, 0x3d, 0x40, 0x83,
    0x11, 0x3c, 0x0c, 0x5c, 0x78, 0x3e, 0x5e, 0xdf, 0xf4, 0xbd,
    0x41, 0x62, 0x00, 0x3e, 0x30, 0xf7, 0xa7, 0x3d, 0x0c, 0x92,
    0xb4, 0xbb, 0xb7, 0x96, 0xab, 0xbe, 0xba, 0x5a, 0x00, 0x3d,
    0x96, 0x0a, 0x21, 0xbe, 0x57, 0x40, 0x02, 0xbd, 0x4a, 0x3a,
    0x84, 0x3d, 0x87, 0x6a, 0x07, 0xbe, 0xf0, 0x9f, 0x04, 0xbe,
    0x23, 0x7a, 0x2b, 0xbe, 0xab, 0x77, 0x8b, 0xbe, 0xa4, 0x4a,
    0x13, 0x3e, 0x16, 0xe4, 0x06, 0xbe, 0x4c, 0xd6, 0x49, 0xbe,
    0x9b, 0xfa, 0x2d, 0xbe, 0x8b, 0xbc, 0xd5, 0xbd, 0x26, 0x2a,
    0x9d, 0xbe, 0x53, 0x72, 0x79, 0xbd, 0x40, 0xf9, 0x1e, 0x3e,
    0x30, 0xa4, 0x39, 0xbc, 0x56, 0x03, 0x44, 0x3e, 0x5d, 0x09,
    0x9d, 0x3d, 0x57, 0xb3, 0x69, 0x3e, 0xc1, 0x09, 0xdc, 0x3d,
    0x48, 0x46, 0x10, 0xbe, 0xe4, 0x56, 0x34, 0x3e, 0x5d, 0x12,
    0x57, 0xbe, 0xdb, 0x48, 0x24, 0xbd, 0x0a, 0xb5, 0x60, 0xbd,
    0x06, 0xfc, 0x02, 0x3d, 0x41, 0xda, 0x09, 0xbe, 0xb7, 0x74,
    0xa6, 0x3d, 0x81, 0x7a, 0xcb, 0x3d, 0x2a, 0x10, 0xc9, 0xbd,
    0x80, 0x2e, 0x83, 0xbd, 0x0a, 0xb0, 0x08, 0x3e, 0x89, 0x1d,
    0x62, 0xbd, 0x0d, 0x35, 0x81, 0x3d, 0x80, 0x44, 0x30, 0x3e,
    0x94, 0x3e, 0x6f, 0x3e, 0x27, 0x9b, 0xf3, 0x3d, 0x64, 0xb4,
    0xbf, 0xbd, 0xb5, 0x04, 0x95, 0xbd, 0x9f, 0x0a, 0x8d, 0x3d,
    0x06, 0xae, 0xd2, 0x3d, 0x6f, 0x21, 0x95, 0x3e, 0x52, 0x00,
    0xfb, 0x3d, 0x79, 0x05, 0x1a, 0x3d, 0x86, 0xd3, 0x74, 0x3e,
    0xa6, 0x48, 0xc6, 0xbc, 0xbd, 0xc0, 0x5d, 0x3e, 0xce, 0xbc,
    0x3e, 0x3b, 0x55, 0x98, 0x9f, 0x3e, 0xee, 0x99, 0x08, 0x3d,
    0x99, 0xde, 0xca, 0xbc, 0xbb, 0x94, 0x79, 0xbe, 0x18, 0xf8,
    0x03, 0x3e, 0x46, 0x0d, 0xba, 0x3d, 0x8d, 0xd3, 0x8a, 0x3e,
    0x39, 0x01, 0x94, 0xbd, 0x14, 0x73, 0x11, 0x3d, 0x13, 0x95,
    0x71, 0xbe, 0x5a, 0xb6, 0x68, 0xbe, 0x0c, 0xce, 0x58, 0xbd,
    0xce, 0x01, 0x5e, 0x3e, 0xb0, 0xe4, 0xd8, 0xbd, 0xed, 0x31,
    0xe4, 0xbd, 0x02, 0x8b, 0xba, 0x3d, 0x67, 0x1b, 0x41, 0x3d,
    0x39, 0xf7, 0x96, 0xbd, 0xff, 0x4b, 0x50, 0x3e, 0xa4, 0x9d,
    0xc3, 0xbd, 0x18, 0x87, 0x88, 0x3d, 0xa0, 0x57, 0xcf, 0xbb,
    0xb7, 0x6c, 0x2f, 0x3c, 0xa6, 0x60, 0xaf, 0x3d, 0x5b, 0x92,
    0x63, 0xbe, 0x8d, 0xc2, 0x8a, 0xbe, 0xe2, 0xc3, 0x33, 0x3e,
    0x32, 0x51, 0x7c, 0xbe, 0xf8, 0x64, 0xc2, 0xbc, 0x6d, 0x49,
    0x0f, 0xbe, 0x03, 0xd4, 0xb6, 0xbd, 0xc8, 0xad, 0xe7, 0x3d,
    0x22, 0xc8, 0x0e, 0x3d, 0x14, 0xc5, 0x17, 0x3d, 0x16, 0x4c,
    0x42, 0xbe, 0x00, 0x15, 0x91, 0x3e, 0x08, 0x27, 0x14, 0xbd,
    0x50, 0x73, 0x1f, 0x3e, 0xa8, 0x30, 0x58, 0x3c, 0x33, 0xc7,
    0x91, 0x3c, 0xe3, 0x7c, 0x36, 0x3e, 0x52, 0x1a, 0x5f, 0x3e,
    0x64, 0x64, 0x19, 0xbe, 0xa7, 0xd2, 0xb3, 0xbd, 0x0b, 0x5d,
    0x04, 0xbd, 0x5a, 0xba, 0x85, 0xbe, 0x4d, 0x44, 0x29, 0x3e,
    0x39, 0xed, 0x22, 0xbe, 0x0c, 0x3d, 0x69, 0x3d, 0xde, 0x69,
    0xf5, 0x3d, 0x66, 0x0b, 0x4a, 0xbe, 0x07, 0xb8, 0x85, 0xbc,
    0xfb, 0x19, 0x23, 0xbe, 0xfb, 0x16, 0x15, 0x3e, 0xe9, 0x40,
    0x96, 0x3d, 0x8c, 0xbb, 0xaf, 0xbd, 0x4f, 0xef, 0x5a, 0x3d,
    0xfc, 0x04, 0xb0, 0x3d, 0x56, 0xfa, 0x5b, 0xbe, 0x89, 0x06,
    0x16, 0xbe, 0x19, 0x60, 0xe2, 0x3c, 0x5b, 0x19, 0xa4, 0xbc,
    0x33, 0x08, 0x09, 0x3e, 0x91, 0xea, 0x15, 0x3e, 0xac, 0xdf,
    0x00, 0xbe, 0xc8, 0x6c, 0x65, 0x3e, 0x0c, 0xa5, 0x04, 0x3e,
    0x27, 0x58, 0xbc, 0xbd, 0x06, 0x3f, 0x4a, 0x3d, 0xb8, 0xe1,
    0x1e, 0x3e, 0xf8, 0x2b, 0x89, 0xbd, 0x82, 0x55, 0x1d, 0x3d,
    0xb2, 0x55, 0x0d, 0x3c, 0x77, 0xb2, 0x3f, 0xbe, 0x9d, 0x7b,
    0x42, 0xbe, 0x48, 0x0e, 0xbd, 0xbd, 0x2f, 0xcb, 0xae, 0xbd,
    0xcd, 0x28, 0xac, 0x3d, 0xa4, 0x31, 0x76, 0xbb, 0xe6, 0x5a,
    0x30, 0x3e, 0xa7, 0xf0, 0x90, 0x3c, 0x66, 0x7c, 0xf1, 0xbd,
    0x72, 0xc1, 0xb0, 0x3b, 0x07, 0x3c, 0x97, 0x3e, 0x99, 0x7a,
    0x81, 0x3b, 0x5c, 0xd9, 0xac, 0xbd, 0x78, 0x4f, 0x5e, 0x3e,
    0x52, 0xdc, 0x5e, 0xbc, 0x7c, 0xa8, 0x41, 0xbd, 0x50, 0x58,
    0x37, 0x3d, 0x9c, 0x52, 0x83, 0x3e, 0x4d, 0xee, 0x0d, 0xbd,
    0x51, 0x9a, 0xbd, 0xbd, 0xed, 0xc7, 0x1d, 0x3e, 0x35, 0x15,
    0x93, 0x3e, 0x9c, 0x50, 0xad, 0x3c, 0x6f, 0xba, 0x63, 0xbe,
    0x89, 0xb9, 0x53, 0x3e, 0xde, 0xdf, 0x30, 0xbd, 0x8e, 0xd4,
    0xcd, 0xbd, 0x15, 0xf0, 0x47, 0xbe, 0x0c, 0x33, 0x5f, 0x3e,
    0x84, 0x0e, 0x2a, 0xbe, 0x13, 0x08, 0x47, 0xbe, 0x84, 0x8c,
    0xda, 0x3d, 0x55, 0x7f, 0x54, 0x3d, 0x19, 0xe7, 0x30, 0xbc,
    0x6b, 0xfa, 0x49, 0x3e, 0xd2, 0x60, 0x8f, 0x3d, 0x57, 0xbd,
    0x96, 0x3d, 0x76, 0xa0, 0xdc, 0x3c, 0x2f, 0xf5, 0x8d, 0xbc,
    0x3a, 0x72, 0x39, 0xbd, 0x79, 0x8e, 0x45, 0xbe, 0x64, 0x98,
    0x04, 0xbc, 0xd6, 0xc5, 0xca, 0x3d, 0x87, 0x64, 0x20, 0x3e,
    0x28, 0x81, 0x81, 0xbe, 0x5a, 0xa9, 0xf0, 0xbd, 0xb7, 0x91,
    0x6b, 0xbd, 0x48, 0x17, 0xba, 0xbb, 0xee, 0xb3, 0x03, 0xbe,
    0x1e, 0x54, 0x22, 0x3d, 0x32, 0xac, 0x40, 0x3d, 0x0d, 0xed,
    0x1a, 0x3e, 0xab, 0xb3, 0x56, 0x3e, 0xe3, 0xcd, 0x02, 0x3e,
    0x17, 0x71, 0x1b, 0xbd, 0x4c, 0x0e, 0xba, 0xbc, 0x13, 0xc4,
    0x42, 0xbe, 0xa1, 0xca, 0xf5, 0xbd, 0x73, 0xdd, 0x7c, 0x3d,
    0x37, 0xa7, 0x9b, 0xbe, 0xdf, 0x94, 0x45, 0xbe, 0x41, 0xc2,
    0x13, 0xbe, 0x32, 0x86, 0xb3, 0x3d, 0xb7, 0x18, 0x5f, 0x3e,
    0x29, 0xfe, 0x11, 0x3d, 0xeb, 0xb3, 0x3c, 0xbd, 0x2a, 0xaa,
    0x2c, 0xbe, 0x06, 0x7d, 0x98, 0xbe, 0xb0, 0x15, 0xc7, 0xbd,
    0x25, 0x54, 0x3d, 0x3d, 0x27, 0xe3, 0xeb, 0x3d, 0x15, 0xab,
    0x4e, 0xbe, 0x87, 0x67, 0xa3, 0x3e, 0xd3, 0x52, 0x48, 0xbe,
    0x4d, 0xf3, 0x1e, 0xbe, 0x81, 0x12, 0xb1, 0x3d, 0xf5, 0x27,
    0xc6, 0x3d, 0x2e, 0xea, 0x7b, 0x3e, 0xc4, 0xb3, 0x62, 0xbd,
    0xd9, 0x4a, 0x41, 0x3e, 0x03, 0x46, 0xa5, 0x3e, 0x4d, 0xeb,
    0x79, 0x3d, 0xe1, 0x01, 0x79, 0x3e, 0xac, 0xd5, 0x21, 0x3d,
    0x64, 0xb8, 0xb1, 0x3d, 0xac, 0xd1, 0x86, 0xbd, 0xc3, 0xf7,
    0x2f, 0x3e, 0x7e, 0x7d, 0x41, 0xbe, 0x7a, 0xbb, 0x94, 0x3d,
    0xc7, 0xda, 0x1b, 0x3e, 0xf3, 0xec, 0xcc, 0x3c, 0x0a, 0x71,
    0xbe, 0x3c, 0x6e, 0x5a, 0xe9, 0xbd, 0xcc, 0x37, 0x0c, 0xbd,
    0x03, 0xfc, 0x59, 0xbe, 0x18, 0x47, 0x17, 0x3e, 0x8d, 0x8b,
    0x01, 0xbe, 0x60, 0x27, 0xe0, 0xbc, 0xbd, 0xa7, 0x6b, 0xbe,
    0x0e, 0xaf, 0x0b, 0x3e, 0x78, 0x39, 0x65, 0xbe, 0xc9, 0x41,
    0x1d, 0xbe, 0x41, 0x93, 0x39, 0x3e, 0x3f, 0x69, 0x82, 0x3d,
    0x32, 0x86, 0x78, 0xbd, 0x43, 0x43, 0x3e, 0xbe, 0x5e, 0xcc,
    0x5f, 0x3d, 0xdd, 0xb3, 0x1c, 0x3e, 0x40, 0xf2, 0x78, 0x3e,
    0x67, 0xa9, 0x3c, 0x3e, 0x1e, 0x7d, 0xe7, 0xbd, 0xc2, 0x8e,
    0xb0, 0x3d, 0x9c, 0xf3, 0x05, 0x3e, 0x48, 0xe3, 0x42, 0x3e,
    0xe4, 0x8a, 0x7c, 0xbe, 0x99, 0x82, 0x97, 0x3c, 0x8f, 0x0f,
    0x16, 0x3e, 0xe9, 0x31, 0x00, 0xbe, 0x80, 0x7b, 0x69, 0xbe,
    0xf4, 0xa3, 0x3a, 0x3d, 0xb7, 0x50, 0x9d, 0x3d, 0xd7, 0xf7,
    0x91, 0xbd, 0x99, 0x51, 0x00, 0xbc, 0x99, 0x5b, 0xc3, 0xbd,
    0x2e, 0x0a, 0x89, 0xbd, 0x56, 0xe0, 0x2b, 0xbe, 0x04, 0xc6,
    0xeb, 0x3c, 0xdd, 0x96, 0x1c, 0xbe, 0x02, 0xeb, 0xc6, 0xbc,
    0x0c, 0xfd, 0x87, 0x3d, 0x77, 0x50, 0x98, 0x3e, 0x2a, 0x32,
    0xa6, 0x3e, 0x12, 0x24, 0x64, 0xbe, 0x23, 0xfc, 0x13, 0xbd,
    0x1b, 0xb9, 0x37, 0xbe, 0x86, 0x5a, 0x26, 0xbe, 0x2b, 0x47,
    0xe7, 0xbd, 0xe0, 0x83, 0xb0, 0x3b, 0x05, 0x40, 0x54, 0xbe,
    0x99, 0xb7, 0xd8, 0x3d, 0x07, 0x63, 0x81, 0xbe, 0xe2, 0x83,
    0x0b, 0x3e, 0x71, 0x80, 0xf8, 0x3c, 0x88, 0xbc, 0xab, 0x3b,
    0x57, 0xbf, 0xea, 0xbc, 0xfe, 0xa3, 0xfe, 0x3d, 0xaa, 0xd2,
    0x4a, 0x3e, 0xc2, 0xfe, 0xab, 0x3e, 0x8c, 0x58, 0x1f, 0xbe,
    0x58, 0xfd, 0xb8, 0xbe, 0xcd, 0xb2, 0xa4, 0x3d, 0xf9, 0xb1,
    0x66, 0x3e, 0x81, 0x23, 0x93, 0x3e, 0x26, 0x4b, 0x98, 0x3d,
    0x0a, 0xdd, 0x87, 0x3e, 0xef, 0x2b, 0x84, 0x3e, 0xd2, 0x92,
    0x36, 0x3e, 0x8a, 0xba, 0x89, 0xbe, 0xc3, 0xcb, 0x9a, 0xbc,
    0xb0, 0x51, 0xa3, 0x3b, 0x81, 0xe7, 0xff, 0x3c, 0xbf, 0xdd,
    0x61, 0x3e, 0x79, 0x59, 0x76, 0xbc, 0x62, 0x57, 0x19, 0xbe,
    0x7a, 0xdb, 0xc5, 0x3d, 0x45, 0x66, 0x24, 0x3e, 0xd5, 0x95,
    0x0d, 0x3e, 0x0f, 0xe1, 0x10, 0xbe, 0x63, 0xa5, 0x66, 0x3e,
    0x2e, 0x9e, 0xe9, 0xbd, 0xdc, 0x6b, 0xda, 0xbd, 0x7c, 0x8b,
    0x51, 0x3e, 0x9d, 0x48, 0x43, 0xbe, 0x98, 0x51, 0x80, 0x3e,
    0xae, 0x02, 0x58, 0x3d, 0x60, 0x4a, 0x91, 0x3d, 0xfe, 0x0a,
    0xa6, 0x3d, 0xbc, 0xd7, 0xe0, 0x3c, 0xa0, 0x68, 0x75, 0xbe,
    0x86, 0x1d, 0x02, 0x3e, 0x28, 0xb0, 0x6d, 0x3d, 0xad, 0x3e,
    0xd8, 0xbd, 0x37, 0x21, 0x46, 0xbe, 0x23, 0x77, 0x41, 0x3e,
    0x25, 0xff, 0x3e, 0xbe, 0x73, 0xec, 0x1b, 0xbd, 0xef, 0xb5,
    0xd5, 0xbc, 0x64, 0x81, 0x66, 0x3e, 0xc3, 0xa1, 0xde, 0xbd,
    0x1e, 0xe8, 0x80, 0xbe, 0x2e, 0x6d, 0xe1, 0x3d, 0x88, 0x83,
    0xab, 0x3c, 0x98, 0x83, 0x91, 0x3e, 0xc2, 0xb7, 0x84, 0xbe,
    0x93, 0x0e, 0xdd, 0x3c, 0x87, 0x44, 0xea, 0xbd, 0xf8, 0x0c,
    0x0f, 0x3e, 0xfb, 0x1f, 0x2d, 0x3d, 0xaf, 0x58, 0xf4, 0xbb,
    0xe6, 0x17, 0xe1, 0x3d, 0x68, 0x88, 0x19, 0x3e, 0xff, 0xaf,
    0x08, 0xbe, 0x1d, 0x77, 0x41, 0xbe, 0xc9, 0xf7, 0xf1, 0x3c,
    0x65, 0x03, 0xb1, 0xbd, 0x12, 0x03, 0xdf, 0x3d, 0x3a, 0x7e,
    0x15, 0xbe, 0x90, 0x6e, 0x98, 0x3c, 0x3a, 0x80, 0x70, 0xbe,
    0xa2, 0x9c, 0xde, 0xbd, 0x26, 0xb9, 0x4c, 0x3c, 0xd5, 0x6e,
    0xc7, 0x3d, 0xfc, 0x16, 0x52, 0xbe, 0xbf, 0x66, 0xea, 0x3d,
    0x1f, 0xa3, 0x8a, 0x3d, 0x74, 0x8f, 0xa4, 0xbe, 0xb6, 0xc0,
    0x4f, 0xbd, 0xfc, 0xdd, 0xc9, 0x3d, 0x0e, 0xa4, 0x23, 0xbe,
    0x06, 0xd3, 0x11, 0xbd, 0xc1, 0x7e, 0x58, 0x3b, 0xbd, 0xbf,
    0xb0, 0x3d, 0x1c, 0xce, 0x52, 0xbe, 0xe6, 0x0c, 0x6f, 0xbe,
    0x54, 0xc1, 0x3f, 0xbe, 0xeb, 0xca, 0x99, 0x3d, 0x2f, 0xcf,
    0x95, 0x3e, 0x37, 0x8a, 0xf0, 0xbc, 0x49, 0x8e, 0x76, 0x3e,
    0x27, 0x2f, 0x58, 0x3e, 0xbc, 0x94, 0x91, 0xbd, 0xfa, 0x10,
    0x5a, 0x3e, 0xeb, 0x54, 0x99, 0x3d, 0xb8, 0xd1, 0xdc, 0xbd,
    0xdc, 0xd7, 0x13, 0xbe, 0x95, 0x57, 0xc6, 0x3d, 0x59, 0x34,
    0x0b, 0x3e, 0xff, 0xbe, 0x96, 0x3a, 0x17, 0xb0, 0x27, 0xbe,
    0x38, 0x01, 0x20, 0x3d, 0xc1, 0x7c, 0x70, 0x3e, 0x48, 0x7d,
    0x41, 0xbe, 0x67, 0x11, 0xc2, 0xbd, 0x48, 0x3c, 0x3f, 0x3e,
    0x75, 0x42, 0x85, 0x3d, 0x9e, 0xdf, 0xa5, 0xbd, 0x87, 0x65,
    0x25, 0xbe, 0xb5, 0xee, 0x86, 0x3e, 0x75, 0x29, 0xc0, 0xbd,
    0x43, 0x76, 0x93, 0x3e, 0xb1, 0x45, 0xd1, 0xbc, 0x8a, 0xa6,
    0x49, 0x3d, 0x39, 0x99, 0xd6, 0xbd, 0xed, 0x52, 0xd8, 0xbd,
    0x08, 0xb6, 0xba, 0x3c, 0x5d, 0x34, 0xb4, 0x3e, 0x3c, 0x8b,
    0x5a, 0xbd, 0x70, 0xa3, 0x44, 0x3d, 0x3a, 0x10, 0xb7, 0xbd,
    0x00, 0x7f, 0x28, 0xba, 0xcc, 0x36, 0xb9, 0xbd, 0x8c, 0x62,
    0x54, 0x3e, 0x76, 0x1d, 0x9e, 0x3d, 0x8f, 0x3a, 0xc1, 0x3e,
    0x21, 0xb8, 0x15, 0x3e, 0x01, 0x8f, 0x4f, 0x3e, 0xd9, 0xf6,
    0x9c, 0x3b, 0xcd, 0xf8, 0x77, 0x3e, 0xa6, 0xe7, 0x83, 0xbd,
    0x72, 0x3c, 0xb5, 0x3e, 0xec, 0x78, 0x99, 0x3d, 0x7c, 0x9d,
    0xa3, 0x3d, 0x60, 0x67, 0xdb, 0xbd, 0x3d, 0x62, 0x1d, 0x3e,
    0xc3, 0xc3, 0x8e, 0xbe, 0x5f, 0x4c, 0x2b, 0xbd, 0x61, 0x7c,
    0x06, 0xbd, 0x58, 0xa2, 0x37, 0xbd, 0x67, 0xc8, 0x17, 0x3e,
    0xf5, 0x66, 0x5b, 0x3e, 0x72, 0x72, 0x05, 0x3d, 0xe3, 0x95,
    0x74, 0xbe, 0x59, 0x35, 0x4a, 0xbd, 0x2d, 0x52, 0x79, 0xbe,
    0xfc, 0xc7, 0x58, 0x3e, 0x8d, 0x64, 0x16, 0xbe, 0xa3, 0xff,
    0x8d, 0x3e, 0x1c, 0x77, 0x0e, 0x3e, 0x48, 0x04, 0x2d, 0x3e,
    0x88, 0xce, 0x3e, 0xbd, 0xe6, 0xbf, 0x45, 0xbe, 0xe4, 0x71,
    0x97, 0x3e, 0xac, 0x07, 0x59, 0xbd, 0xcf, 0x5d, 0x31, 0x3e,
    0x79, 0xa9, 0x53, 0xbd, 0xb1, 0xbd, 0xb5, 0xbc, 0xf0, 0xec,
    0xa2, 0x3d, 0x0c, 0x3e, 0xdf, 0x3d, 0x82, 0xde, 0x88, 0xbd,
    0x45, 0x5d, 0x61, 0x3e, 0x63, 0x52, 0x86, 0xbc, 0x62, 0x64,
    0xc2, 0xbd, 0xcf, 0x87, 0x12, 0xbe, 0x23, 0x9f, 0x90, 0x3e,
    0xcc, 0xb7, 0xdc, 0x3d, 0x69, 0x8a, 0x6a, 0x3e, 0x7a, 0xd0,
    0x80, 0xbc, 0xcd, 0x40, 0x74, 0x3d, 0x21, 0xf1, 0x8d, 0x3d,
    0x40, 0xa3, 0xb6, 0xbd, 0x94, 0xb9, 0x32, 0xbd, 0x5a, 0x18,
    0x82, 0xbc, 0x8d, 0x5b, 0x59, 0x3e, 0x5b, 0xf3, 0x4f, 0x3e,
    0x71, 0x95, 0x61, 0xbd, 0xd8, 0xdc, 0x6f, 0x3d, 0x9e, 0x39,
    0x8f, 0xbd, 0x6a, 0x2a, 0xb0, 0xbd, 0x82, 0x4b, 0x24, 0x3e,
    0x97, 0xb1, 0x62, 0xbe, 0xb9, 0xad, 0x55, 0x3e, 0x8e, 0x1a,
    0x0a, 0x3e, 0xb0, 0xca, 0x8c, 0xbd, 0xb5, 0xb9, 0x3f, 0x3e,
    0x6e, 0x86, 0x63, 0x3e, 0xb7, 0x01, 0x52, 0xbe, 0xb0, 0xb0,
    0xdd, 0xbd, 0x0b, 0x83, 0x01, 0xbd, 0xab, 0x72, 0xde, 0x3d,
    0x72, 0xcd, 0x38, 0x3e, 0x74, 0xde, 0x2e, 0x3d, 0xb0, 0xc8,
    0x03, 0xbe, 0x48, 0xc8, 0x9c, 0xbd, 0x3a, 0xce, 0xcd, 0xbd,
    0xa8, 0xdc, 0x41, 0x3d, 0x72, 0x83, 0x57, 0xbe, 0x8a, 0x72,
    0x12, 0x3d, 0xa6, 0xbc, 0xa9, 0x3d, 0x27, 0x8f, 0x38, 0xbe,
    0x9c, 0xd5, 0x85, 0xbe, 0xa1, 0xcf, 0x89, 0xbd, 0x6a, 0x09,
    0x3f, 0xbb, 0xfc, 0xaf, 0xd0, 0x3d, 0x4b, 0xea, 0x68, 0x3e,
    0xde, 0x7a, 0xba, 0x3c, 0xde, 0x30, 0x7c, 0x3e, 0x41, 0x24,
    0x9d, 0x3c, 0xdd, 0x99, 0xa8, 0x3d, 0xea, 0x16, 0xbb, 0x3d,
    0x36, 0x6e, 0x56, 0x3d, 0xbf, 0x34, 0xfb, 0xbd, 0x06, 0x2a,
    0x2b, 0x3d, 0x8d, 0xe7, 0x54, 0x3e, 0x6c, 0xed, 0x3b, 0x3d,
    0x26, 0xdf, 0x22, 0xbe, 0xe1, 0x5d, 0xb5, 0xbd, 0xd8, 0x55,
    0x03, 0xbe, 0xdc, 0x4d, 0x13, 0xbe, 0xd0, 0x90, 0x5d, 0x3d,
    0x96, 0x94, 0x80, 0x3e, 0x6e, 0xbf, 0x47, 0x3e, 0x74, 0xf0,
    0x23, 0x3e, 0xdf, 0xe2, 0x4c, 0x3d, 0x93, 0x69, 0x58, 0xbe,
    0xc6, 0xf3, 0xb2, 0x3d, 0x4a, 0xbf, 0x81, 0x3e, 0x62, 0x31,
    0xe3, 0x3d, 0x58, 0xa9, 0x82, 0xbc, 0x41, 0x90, 0x91, 0xbe,
    0xf1, 0xa9, 0x60, 0xbe, 0x7a, 0x6f, 0x0c, 0x3d, 0x03, 0x64,
    0x29, 0xbd, 0x36, 0x19, 0x2d, 0xbe, 0xe8, 0x0f, 0x91, 0x3e,
    0xfc, 0x76, 0x4b, 0x3e, 0x0f, 0x44, 0x0c, 0xbd, 0xdc, 0xb2,
    0x20, 0xbe, 0xe4, 0x12, 0x1b, 0x3e, 0x23, 0x44, 0x4a, 0x3e,
    0x4e, 0xf1, 0x19, 0x3e, 0x62, 0x4f, 0x8f, 0xbd, 0x5e, 0xf7,
    0x2d, 0xbe, 0x96, 0x16, 0x45, 0xbe, 0x02, 0x41, 0xa5, 0xbd,
    0xd8, 0x3e, 0xc8, 0xbd, 0x39, 0xcb, 0x11, 0xbe, 0xf3, 0xb6,
    0x37, 0x3c, 0x4a, 0x69, 0x5d, 0x3e, 0x96, 0x8c, 0xa2, 0xbc,
    0x3d, 0xd0, 0x0b, 0x3e, 0x59, 0xff, 0xe9, 0xbd, 0x90, 0x8a,
    0xa1, 0xbd, 0x8e, 0xa6, 0x3e, 0x3e, 0xc8, 0x77, 0x1e, 0xbe,
    0xb5, 0x7f, 0x95, 0xbd, 0x02, 0x64, 0x17, 0xbd, 0x98, 0xf8,
    0x3c, 0xbc, 0x0f, 0x86, 0x4d, 0xbe, 0x0f, 0x5e, 0x92, 0xbd,
    0x32, 0x1d, 0xd5, 0xbd, 0x02, 0x77, 0xf1, 0x3d, 0xa5, 0xbb,
    0x00, 0xbc, 0xba, 0x2e, 0xb7, 0xbd, 0x1b, 0xcc, 0x09, 0xbd,
    0x42, 0x19, 0x6b, 0xbd, 0x51, 0xab, 0x6b, 0xbe, 0x4d, 0xa9,
    0x65, 0xbe, 0x8b, 0x7c, 0x68, 0x3e, 0xe4, 0x34, 0x03, 0xbe,
    0xd8, 0xa4, 0x27, 0x3d, 0x30, 0x8c, 0x15, 0xbe, 0x09, 0xb1,
    0x33, 0x3e, 0x16, 0x38, 0x58, 0x3e, 0xee, 0x9f, 0x4e, 0xbd,
