#include "network_data.h"

ai_handle ai_network_data_weights_get(void)
{

  AI_ALIGNED(4)
  static const ai_u8 s_network_weights[ 20748 ] = {
    0x7a, 0xad, 0x81, 0x3e, 0x27, 0x20, 0x87, 0x3e, 0x7e, 0x51,
    0x66, 0xbc, 0xc8, 0x2d, 0x63, 0x3e, 0x05, 0xcc, 0x05, 0xbe,
    0xfb, 0xe0, 0x3d, 0x3e, 0xe3, 0xdc, 0x43, 0x3d, 0x24, 0x29,
    0x4b, 0xbe, 0x5e, 0x12, 0x8e, 0xbc, 0x95, 0x25, 0x93, 0xbc,
    0xe4, 0x12, 0x46, 0x3e, 0x93, 0x74, 0x57, 0x3e, 0x55, 0xfc,
    0x8b, 0x3e, 0xcf, 0x67, 0x6d, 0x3e, 0xee, 0x13, 0x0b, 0x3e,
    0x46, 0xbd, 0x85, 0x3e, 0x44, 0x6c, 0xbf, 0x3d, 0x01, 0x1f,
    0x04, 0xbd, 0xb9, 0x6b, 0xbf, 0x3d, 0x80, 0x95, 0x2f, 0xbe,
    0x74, 0x74, 0xb0, 0x3c, 0x3c, 0x51, 0xe3, 0xbc, 0x29, 0x18,
    0x2e, 0xbe, 0x23, 0xc1, 0xb3, 0x3d, 0x19, 0x8c, 0x72, 0xbe,
    0x8e, 0x49, 0x29, 0xbe, 0xb3, 0x04, 0x41, 0x3e, 0x41, 0x6b,
    0xae, 0xbd, 0xfc, 0x37, 0x65, 0x3e, 0xa6, 0x05, 0x21, 0x3e,
    0xba, 0x5d, 0x1d, 0xbe, 0x80, 0x07, 0x80, 0xbe, 0xbd, 0x61,
    0xa0, 0x3d, 0x8e, 0x53, 0x8d, 0xbe, 0x64, 0x8b, 0x16, 0xbe,
    0xc7, 0xed, 0x15, 0x3e, 0x7b, 0x85, 0xd2, 0xbd, 0xb1, 0xec,
    0x0b, 0xbe, 0x5f, 0x67, 0xa4, 0x3d, 0x43, 0xba, 0x83, 0x3e,
    0xa8, 0x64, 0x9b, 0x3e, 0x3f, 0xc9, 0x6d, 0x3e, 0xcb, 0x1a,
    0x02, 0x3e, 0x4b, 0x6a, 0xed, 0x3d, 0x51, 0x0f, 0xa0, 0x3d,
    0x9b, 0x64, 0xe9, 0xbd, 0xb3, 0x2b, 0x74, 0x3e, 0x33, 0x02,
    0x4a, 0xbd, 0x77, 0x2a, 0x18, 0xbe, 0xf2, 0x14, 0x29, 0x3e,
    0x78, 0xbf, 0x6d, 0x3e, 0xcd, 0xd9, 0x8b, 0xbe, 0x16, 0xdc,
    0x4f, 0xbe, 0xe2, 0x2c, 0x24, 0x3e, 0x27, 0x4b, 0x67, 0xbe,
    0x06, 0x22, 0x8c, 0x3e, 0xbc, 0xcd, 0xc4, 0x3d, 0xa3, 0xc9,
    0x7a, 0xbd, 0x5c, 0xad, 0x2c, 0x3e, 0x5c, 0xca, 0xe8, 0xbd,
    0xaa, 0x12, 0x47, 0xbc, 0x0e, 0xb4, 0x3d, 0xbd, 0xd9, 0xa3,
    0x95, 0xbe, 0xb2, 0xb7, 0x6c, 0xbc, 0x99, 0x6b, 0x5b, 0xbc,
    0x24, 0xf5, 0x36, 0x3e, 0x7d, 0xf9, 0xd5, 0xbd, 0x6f, 0x9a,
    0x58, 0x3e, 0x07, 0xf6, 0x94, 0x3e, 0x68, 0x6d, 0x3f, 0x3e,
    0x52, 0x18, 0x4b, 0xbd, 0x22, 0x1a, 0x10, 0x3d, 0x58, 0xfe,
    0x5f, 0xbe, 0x8b, 0xf6, 0xcc, 0x3b, 0x79, 0x0b, 0x06, 0x3e,
    0x98, 0x19, 0x93, 0x3d, 0x81, 0xa3, 0x48, 0xbe, 0xb3, 0xaf,
    0xa4, 0xba, 0x1d, 0xbc, 0x7f, 0xbd, 0x5d, 0x2f, 0x4a, 0x3e,
    0x5e, 0x8a, 0x19, 0x3e, 0x19, 0x3e, 0x14, 0xbd, 0xdf, 0xf1,
    0x86, 0xbd, 0xaa, 0x1f, 0x5a, 0xbe, 0x53, 0x59, 0x0f, 0x3d,
    0x51, 0x7a, 0xb1, 0xbd, 0x37, 0x27, 0x9b, 0xbe, 0x82, 0xd0,
    0x92, 0xbe, 0xb3, 0x1b, 0x09, 0xbe, 0x88, 0x6c, 0xc4, 0xbd,
    0x51, 0x6b, 0x08, 0xbe, 0xcc, 0x34, 0x3e, 0xbe, 0x04, 0x21,
    0x76, 0xbe, 0x19, 0x4a, 0x28, 0xbe, 0x48, 0x82, 0x0a, 0xbe,
    0xa1, 0x96, 0xdb, 0xbd, 0xa8, 0xc8, 0x42, 0x3e, 0x85, 0x51,
    0x20, 0x3e, 0xd7, 0xae, 0x99, 0x3c, 0x14, 0x8e, 0x36, 0x3e,
    0x1b, 0x80, 0x67, 0x3e, 0xa4, 0x06, 0xa1, 0x3e, 0x42, 0x88,
    0x9c, 0x3d, 0x23, 0x80, 0x32, 0x3e, 0x3d, 0x79, 0x2a, 0x3e,
    0xac, 0x5e, 0xa4, 0x3d, 0x98, 0x74, 0x9f, 0xbb, 0xe5, 0x28,
    0x21, 0xbe, 0x64, 0x33, 0x96, 0xbe, 0x59, 0x9e, 0xc1, 0xbd,
    0x51, 0xce, 0xf8, 0x3d, 0x35, 0x84, 0x70, 0xbe, 0x10, 0x35,
    0x8d, 0xbd, 0x8a, 0xc8, 0xe5, 0x3d, 0x07, 0x6a, 0x2a, 0xbd,
    0x04, 0xcb, 0x64, 0x3e, 0x5f, 0xa5, 0x62, 0x3e, 0x10, 0xa5,
    0x4b, 0x3e, 0x87, 0x89, 0x02, 0x3e, 0xe8, 0x4e, 0x79, 0x3e,
    0xbd, 0x25, 0x35, 0xbd, 0x82, 0x88, 0x5a, 0xbe, 0xd3, 0x83,
    0x6b, 0x3e, 0xa8, 0x2d, 0x17, 0x3e, 0xe7, 0x1c, 0x6a, 0xbe,
    0x0c, 0x73, 0xa6, 0xbd, 0x04, 0xb4, 0x80, 0xbe, 0x0b, 0xe9,
    0x3f, 0xbd, 0xf8, 0x20, 0xdf, 0x3d, 0xc5, 0xe2, 0x49, 0x3e,
    0x35, 0xa1, 0x90, 0xbd, 0xe6, 0x17, 0x8e, 0x3e, 0xdd, 0x4b,
    0x85, 0x3e, 0x33, 0x9f, 0x13, 0xbd, 0x6c, 0x6b, 0x80, 0x3e,
    0x3b, 0x77, 0x02, 0xbe, 0x18, 0x12, 0xdf, 0xbd, 0xf7, 0x57,
    0xa6, 0xbd, 0xd2, 0x9f, 0x8a, 0xbe, 0xa0, 0x03, 0x7c, 0xbe,
    0x5d, 0xe0, 0x89, 0x3d, 0x61, 0x86, 0x03, 0xbe, 0xa9, 0x85,
    0x2c, 0xbe, 0xd9, 0xb6, 0xbe, 0xbd, 0xbe, 0x07, 0x08, 0x3d,
    0xd7, 0x0c, 0x01, 0xbd, 0xec, 0x75, 0x8a, 0x3d, 0x45, 0x7a,
    0x85, 0x3d, 0x67, 0xd2, 0x03, 0xbc, 0xc7, 0x64, 0xf3, 0x3b,
    0xf6, 0xc4, 0x97, 0x3d, 0xc6, 0x2d, 0x34, 0x3d, 0x1c, 0xb0,
    0x9e, 0xbc, 0x3a, 0x6b, 0x9d, 0x3d, 0x2d, 0x12, 0xc8, 0x3d,
    0xf5, 0x60, 0x07, 0x3b, 0xfd, 0x63, 0x4e, 0x3d, 0x12, 0x94,
    0xfe, 0x3c, 0xe6, 0x14, 0x4b, 0x3d, 0xa7, 0x72, 0xa0, 0x3d,
    0x4c, 0x45, 0xfd, 0x3d, 0x90, 0xbd, 0xfd, 0x3d, 0x94, 0x39,
    0xb7, 0x3d, 0x2a, 0xf2, 0x9e, 0x3a, 0x40, 0xc3, 0x06, 0x3d,
    0x69, 0xf6, 0x88, 0x3d, 0xff, 0x7d, 0x9e, 0x3d, 0x0d, 0xdf,
    0x38, 0x3d, 0xb7, 0x34, 0x95, 0xbc, 0xf9, 0x6e, 0x1e, 0x3c,
    0x75, 0x46, 0xe0, 0x3d, 0xbb, 0x31, 0xf8, 0xbb, 0x4e, 0x4c,
    0xba, 0x3d, 0xc2, 0x99, 0x9d, 0xbd, 0xf3, 0xbb, 0x8a, 0xbc,
    0x1a, 0x7e, 0xef, 0xbc, 0x69, 0xff, 0xf8, 0x3c, 0x67, 0xf5,
    0x39, 0x3d, 0xe3, 0xf3, 0x3c, 0xbd, 0x9b, 0x58, 0xf8, 0x3c,
    0x6e, 0x74, 0xe8, 0x3d, 0x47, 0x78, 0x1e, 0x3d, 0xe4, 0xaf,
    0x00, 0x3d, 0xbf, 0x13, 0xdd, 0xbd, 0x48, 0xdb, 0xc1, 0xbd,
    0xd2, 0xf1, 0x87, 0xbb, 0x8c, 0x8a, 0xdd, 0xbd, 0x83, 0xbc,
    0x31, 0xbc, 0x3b, 0x36, 0x2c, 0xbc, 0xb3, 0x20, 0xd1, 0x3d,
    0x1e, 0x70, 0x03, 0x3e, 0x8e, 0x45, 0x21, 0xbe, 0xe8, 0x61,
    0xb4, 0x3d, 0x5c, 0x0b, 0x85, 0x3b, 0x35, 0x9f, 0x57, 0xbd,
    0xcb, 0x8f, 0x88, 0x3c, 0x1f, 0xd2, 0xa7, 0xbd, 0x9d, 0x48,
    0x07, 0x3d, 0xbf, 0xbc, 0x8a, 0x3d, 0xfd, 0xbb, 0x8d, 0xbd,
    0xe9, 0xf3, 0xc6, 0x3c, 0x0e, 0x49, 0xdd, 0x3d, 0x4e, 0x77,
    0xe1, 0x3d, 0x97, 0xa5, 0x93, 0xbd, 0xc5, 0xa9, 0xa0, 0x3d,
    0x41, 0x69, 0x5a, 0xbd, 0xcf, 0xb7, 0xe5, 0xbd, 0x54, 0xf0,
    0xb0, 0xbd, 0xca, 0x88, 0x14, 0x3e, 0xd8, 0xf5, 0x07, 0x3e,
    0x15, 0x1b, 0x40, 0xbd, 0xdb, 0x61, 0xf7, 0x3c, 0xd2, 0x29,
    0x8f, 0x3d, 0x23, 0xe3, 0x8e, 0xbc, 0xff, 0x8e, 0xf7, 0x3d,
    0x3c, 0xb4, 0x27, 0x3d, 0xe1, 0x71, 0x2b, 0x3d, 0x14, 0x71,
    0x29, 0xbd, 0x85, 0xe6, 0xbb, 0x3c, 0x57, 0xc4, 0xbe, 0x3c,
    0x19, 0xdf, 0xb5, 0x3d, 0xf0, 0xe6, 0xdd, 0xb8, 0xba, 0xd7,
    0xa5, 0xbd, 0x36, 0x61, 0x30, 0xbd, 0x54, 0x49, 0xd1, 0x3d,
    0xf6, 0x15, 0x9c, 0x3d, 0xab, 0xe5, 0x00, 0x3d, 0xee, 0xa2,
    0x99, 0xbd, 0x64, 0x0e, 0x41, 0xbd, 0x4e, 0x93, 0x8e, 0x3b,
    0xfc, 0xbb, 0xcf, 0x3c, 0xfb, 0x05, 0x08, 0xbe, 0xed, 0x80,
    0xc7, 0xbd, 0x4c, 0xd1, 0xe4, 0xbc, 0xf7, 0xdc, 0x2b, 0x3d,
    0xf0, 0x12, 0xc6, 0xbd, 0xc5, 0xef, 0x07, 0x3d, 0xf2, 0xca,
    0xc9, 0xbb, 0xec, 0x96, 0xc9, 0xbd, 0x4a, 0xb8, 0xbd, 0xbc,
    0x19, 0x13, 0xc4, 0xbd, 0x34, 0xee, 0xdf, 0xbc, 0x44, 0xfe,
    0x32, 0x3d, 0xc0, 0xb5, 0x82, 0x3d, 0xd2, 0x42, 0x41, 0xbd,
    0xec, 0xd9, 0x8b, 0xbd, 0xb8, 0x78, 0xf5, 0xbb, 0x37, 0xad,
    0xbb, 0xbd, 0x5c, 0xb1, 0x3a, 0xbd, 0x58, 0x64, 0x77, 0xbd,
    0x83, 0x1e, 0xe5, 0xbd, 0xf0, 0x9b, 0x4d, 0x3d, 0xcc, 0xb3,
    0x02, 0xbe, 0x60, 0x68, 0x3e, 0xbd, 0x24, 0xe1, 0x86, 0x3d,
    0xcf, 0x4d, 0x0b, 0xbd, 0x9e, 0x72, 0x22, 0x3d, 0x55, 0x4c,
    0xa4, 0x3d, 0xb5, 0x35, 0xba, 0x3c, 0xaa, 0x56, 0x89, 0x3d,
    0xe8, 0x8f, 0xc6, 0x3d, 0x65, 0x1c, 0x2c, 0x3b, 0x2a, 0xa0,
    0x88, 0x3b, 0x81, 0x2d, 0xf5, 0xbd, 0x4f, 0x4b, 0xad, 0x3d,
    0x34, 0x8d, 0x28, 0x3d, 0xad, 0xf7, 0x22, 0x3c, 0x9a, 0x6d,
    0x3b, 0xbc, 0x38, 0x5e, 0xfc, 0x3d, 0xf5, 0xbe, 0x31, 0xbc,
    0xd5, 0x58, 0x06, 0x3e, 0xd2, 0xc6, 0x37, 0x3e, 0xc2, 0x8b,
    0x73, 0x3d, 0xc8, 0x03, 0xf1, 0xbd, 0xf3, 0x56, 0x2f, 0x3e,
    0x33, 0x27, 0x0b, 0x3e, 0x9c, 0xb8, 0xb3, 0xbd, 0xb9, 0x13,
    0x85, 0x3d, 0x87, 0x93, 0x1c, 0x3d, 0xb7, 0x2a, 0xf9, 0xbd,
    0xeb, 0x87, 0x18, 0x3e, 0x01, 0x12, 0x00, 0x3e, 0xb1, 0xfd,
    0x0e, 0x3e, 0x74, 0x90, 0x1a, 0xbd, 0x4a, 0x6b, 0x01, 0x3e,
    0xba, 0xf6, 0x46, 0x3d, 0x05, 0x22, 0xf5, 0xbd, 0xdb, 0xc9,
    0xbc, 0x3c, 0xb3, 0xe5, 0x11, 0xbd, 0xed, 0x53, 0x51, 0x3d,
    0x2b, 0x76, 0xc3, 0x3c, 0x25, 0x11, 0xa3, 0x3d, 0xd2, 0xbb,
    0xbe, 0xbc, 0xf0, 0x2d, 0xd4, 0x3d, 0x3a, 0xba, 0xb7, 0xbd,
    0xd6, 0x9a, 0x81, 0xbd, 0xc7, 0x24, 0xb8, 0xbd, 0xf5, 0xba,
    0xad, 0xbd, 0xe0, 0x7f, 0x20, 0xbc, 0x97, 0xd6, 0x55, 0x3d,
    0x04, 0x69, 0xe2, 0xbb, 0x71, 0xc6, 0x08, 0xbe, 0x95, 0x1e,
    0xa3, 0xbc, 0x56, 0x11, 0xc0, 0x3d, 0x5c, 0x62, 0x41, 0xbe,
    0x5b, 0x4d, 0x78, 0x3d, 0x59, 0x5d, 0x54, 0x3e, 0x0f, 0x2b,
    0x38, 0x3e, 0x81, 0x6f, 0x07, 0xbc, 0x1d, 0xbf, 0x82, 0xbc,
    0x99, 0xfb, 0x18, 0x3e, 0x59, 0x49, 0xb6, 0x3d, 0xc3, 0x97,
    0x13, 0x3e, 0x39, 0xbf, 0xdf, 0xbc, 0x6d, 0x99, 0x3d, 0x3e,
    0x4e, 0x77, 0x2d, 0xbd, 0x0b, 0x76, 0x2f, 0x3e, 0xb3, 0xf2,
    0xed, 0xbb, 0x4f, 0x00, 0x50, 0x3d, 0x5b, 0x4e, 0xe2, 0xbc,
    0xe2, 0x88, 0x06, 0xbd, 0xb5, 0xa4, 0xd2, 0xbc, 0xa2, 0x43,
    0xc0, 0x3d, 0xf9, 0x19, 0xb6, 0xbd, 0x71, 0x2a, 0x22, 0xbd,
    0xae, 0xe5, 0xc2, 0x3d, 0xad, 0x69, 0xb9, 0x3c, 0xb8, 0x5c,
    0x36, 0xbd, 0x9c, 0x71, 0x34, 0x3e, 0xf3, 0x3d, 0x29, 0x3d,
    0xda, 0x64, 0x88, 0x3d, 0xb8, 0xf9, 0x8a, 0xbc, 0x4e, 0x1d,
    0xac, 0xbc, 0xa2, 0x92, 0x92, 0xbd, 0x95, 0xe6, 0x46, 0xbd,
    0xd8, 0xe5, 0x8f, 0xbd, 0x88, 0xcf, 0x97, 0x3d, 0xdd, 0x22,
    0x17, 0xbe, 0x5c, 0x1f, 0x18, 0xbd, 0x09, 0x8a, 0xc7, 0x3d,
    0xe3, 0xc8, 0x32, 0xbe, 0xd7, 0x23, 0x73, 0x3c, 0x40, 0x05,
    0x8c, 0xbb, 0xf6, 0x94, 0x36, 0xbd, 0xaf, 0x56, 0x5e, 0x3c,
    0xac, 0x54, 0x82, 0x3d, 0x0a, 0xe6, 0x19, 0x3e, 0xc2, 0x90,
    0x90, 0xbd, 0x97, 0x19, 0x20, 0x3c, 0xcf, 0x31, 0xb0, 0xbc,
    0x25, 0x36, 0x69, 0x3d, 0xed, 0x6f, 0x1f, 0x3e, 0xf1, 0x0e,
    0x23, 0xbe, 0x8c, 0xab, 0x0e, 0xbd, 0x29, 0x62, 0x38, 0xbd,
    0xb8, 0x1c, 0x84, 0x3c, 0xd4, 0xcc, 0x91, 0xbd, 0x35, 0x26,
    0x10, 0xbd, 0xca, 0x49, 0xad, 0xbd, 0x8a, 0x11, 0xdc, 0xbd,
    0x76, 0xa3, 0xd5, 0x3d, 0xf8, 0xbb, 0x38, 0xbd, 0x7c, 0x80,
    0x42, 0x3e, 0x25, 0xd6, 0x13, 0xbc, 0x03, 0x26, 0xec, 0x3d,
    0x72, 0xfd, 0xc8, 0x3c, 0x18, 0x91, 0x84, 0x3d, 0xc3, 0x08,
    0x3f, 0x3d, 0x0d, 0xb2, 0x1d, 0xbe, 0xdf, 0xab, 0x98, 0xbc,
    0xad, 0xe1, 0x91, 0x3d, 0x4b, 0x85, 0x3b, 0x3d, 0xb6, 0x17,
    0x2a, 0x3c, 0x02, 0x38, 0x1c, 0x3d, 0x8c, 0xf9, 0xdc, 0xbd,
    0x33, 0xe0, 0xd2, 0xbd, 0xd5, 0x69, 0x4d, 0xbd, 0x51, 0xd4,
    0xf5, 0xbd, 0x2c, 0x52, 0x19, 0x3e, 0xc2, 0x09, 0x40, 0xbd,
    0xe0, 0x78, 0x92, 0xbd, 0x33, 0x8a, 0x5d, 0xbd, 0xf6, 0xe6,
    0x95, 0xbd, 0x4c, 0x9a, 0x26, 0x3c, 0x70, 0xd2, 0xca, 0xbd,
    0x83, 0x4c, 0x9b, 0xbd, 0x30, 0x44, 0xcf, 0xbd, 0xf2, 0x82,
    0xa4, 0x3d, 0x90, 0x5a, 0x37, 0x3c, 0x06, 0x6e, 0x04, 0xbe,
    0xa3, 0x0f, 0xa2, 0xbd, 0x4b, 0xc4, 0x04, 0xbd, 0x72, 0xdb,
    0x55, 0xbd, 0x88, 0x3e, 0xb9, 0xbd, 0xb9, 0xd8, 0x70, 0x3e,
    0x31, 0xbf, 0x1a, 0xbe, 0x69, 0xe2, 0xf6, 0xbb, 0x4f, 0x36,
    0x19, 0x3d, 0xd0, 0xf2, 0x0b, 0xbd, 0xf2, 0xd1, 0x59, 0x3c,
    0x5c, 0x04, 0x54, 0x3c, 0x25, 0xa0, 0x89, 0x3d, 0xdf, 0x54,
    0xd5, 0x3d, 0x6c, 0xcb, 0xec, 0x3a, 0x76, 0xc1, 0xdb, 0x3d,
    0x17, 0xd2, 0x91, 0x3d, 0x3b, 0xb1, 0x45, 0x3d, 0x1a, 0xdc,
    0x49, 0x3d, 0x5a, 0x30, 0x37, 0x3d, 0x82, 0x11, 0x11, 0xbd,
    0xe3, 0x9e, 0x4f, 0xbc, 0x36, 0xe2, 0x05, 0x3e, 0x87, 0x83,
    0x2d, 0x3d, 0xd6, 0x9b, 0xb4, 0x39, 0x67, 0x92, 0x1a, 0x3e,
    0xdb, 0x41, 0x96, 0x3d, 0x49, 0x5d, 0xa7, 0x3c, 0x46, 0x7f,
    0xe5, 0x3d, 0x9b, 0x91, 0x92, 0x3d, 0x75, 0xfd, 0x81, 0x3b,
    0x9f, 0xcf, 0xb7, 0xbc, 0x13, 0xf3, 0xf8, 0x3d, 0xd0, 0x0d,
    0x19, 0xbe, 0x54, 0x26, 0x1e, 0x3e, 0xbf, 0x66, 0xb0, 0x3b,
    0xc8, 0x71, 0xd6, 0xbd, 0x85, 0xf5, 0xa9, 0xbb, 0x6f, 0x4f,
    0x25, 0x3b, 0xb3, 0xad, 0xdf, 0x3b, 0xba, 0x84, 0x82, 0x3d,
    0x17, 0xd5, 0x14, 0xbc, 0x1a, 0xbd, 0x2c, 0x3c, 0x7d, 0x1e,
    0xad, 0x3d, 0x00, 0xd5, 0x04, 0x3e, 0x54, 0xd2, 0x53, 0x3d,
    0xdd, 0x59, 0x66, 0xbd, 0xb4, 0x58, 0xf9, 0x3d, 0x7d, 0x6b,
    0x27, 0x3d, 0x1e, 0xa2, 0x1d, 0xbe, 0xe4, 0x3a, 0x74, 0x3d,
    0xed, 0x29, 0x9b, 0xbc, 0xa0, 0xac, 0x21, 0xbd, 0x93, 0xf3,
    0x59, 0x3d, 0x3f, 0x96, 0x1c, 0x3d, 0x5c, 0xa0, 0xb4, 0x3d,
    0xe1, 0x4e, 0xc1, 0x3d, 0xc3, 0x19, 0xc3, 0x3d, 0x95, 0xef,
    0x25, 0x3b, 0xf7, 0x90, 0xaa, 0x3c, 0xb6, 0x60, 0x10, 0x3e,
    0xdd, 0x2b, 0x2e, 0x3d, 0x66, 0x18, 0x65, 0x3c, 0x15, 0x5b,
    0x21, 0x3e, 0x0b, 0xb8, 0x98, 0x3b, 0xf4, 0x78, 0xcc, 0xbc,
    0xac, 0xdb, 0x6d, 0xbd, 0xdd, 0xf2, 0x94, 0x3b, 0x7a, 0xd2,
    0x01, 0xbe, 0x0f, 0x0c, 0x96, 0x3b, 0xb7, 0x0b, 0x15, 0x3e,
    0x77, 0xd7, 0x3b, 0xbd, 0xf9, 0x0e, 0xb6, 0xbc, 0xb7, 0x1e,
    0xd4, 0xbd, 0xe4, 0x07, 0xe7, 0xbd, 0xe2, 0x8b, 0x39, 0x3c,
    0xaa, 0xe7, 0x95, 0x3c, 0x11, 0x39, 0x9b, 0xbd, 0xc2, 0x13,
    0xc3, 0x3c, 0x6e, 0x2b, 0xb2, 0xbd, 0xbf, 0x28, 0x9f, 0xbd,
    0xb3, 0xce, 0xf0, 0xbd, 0x99, 0xfb, 0xb4, 0xbc, 0x6e, 0x59,
    0xfa, 0xba, 0xff, 0xe9, 0xc9, 0xbc, 0x0c, 0x7e, 0x92, 0xbb,
    0x10, 0x95, 0xa2, 0x3d, 0x92, 0xb2, 0x0f, 0xbe, 0x9d, 0xda,
    0x07, 0x3e, 0x0c, 0x93, 0x93, 0x3d, 0x38, 0x4e, 0xa3, 0xba,
    0xa1, 0xb4, 0xc4, 0xbc, 0x7a, 0x35, 0x79, 0xbd, 0x9e, 0x45,
    0x05, 0xbd, 0xbf, 0x51, 0x6d, 0x3d, 0xe4, 0x88, 0x0f, 0xbc,
    0x0a, 0xbc, 0xe7, 0xbc, 0x37, 0x9a, 0x42, 0x3d, 0xc6, 0x7a,
    0xe3, 0xbd, 0xae, 0xde, 0xa1, 0x3d, 0xc8, 0x4c, 0xae, 0x3d,
    0xea, 0x5b, 0x8b, 0x3d, 0xaa, 0xe1, 0x9e, 0xbd, 0xc6, 0xf6,
    0xfd, 0xbd, 0x08, 0xc0, 0x83, 0xbd, 0xe0, 0x11, 0xae, 0x3d,
    0xc2, 0x9a, 0x76, 0xbd, 0x06, 0xc5, 0x10, 0x3d, 0xef, 0xbe,
    0x20, 0xbd, 0x62, 0x6e, 0x2d, 0x3c, 0x2d, 0x03, 0x01, 0x3d,
    0x08, 0xed, 0x90, 0x3d, 0xf5, 0xde, 0x01, 0x3e, 0xb5, 0x34,
    0x88, 0xbc, 0x53, 0x96, 0x97, 0x3c, 0xf9, 0x1c, 0x26, 0x3d,
    0x57, 0xb2, 0x51, 0xbc, 0xde, 0xc7, 0x49, 0xbd, 0x9b, 0xca,
    0x8c, 0x3d, 0xc5, 0x4d, 0x72, 0x3d, 0x35, 0xf1, 0x29, 0xbc,
    0xc2, 0xa1, 0x6e, 0xbc, 0x44, 0xde, 0x87, 0xbd, 0x7c, 0x75,
    0x13, 0x3d, 0x40, 0xad, 0x17, 0x3b, 0x79, 0x76, 0xdb, 0x3d,
    0x15, 0xf7, 0x81, 0xbc, 0x98, 0x76, 0x15, 0x3e, 0x41, 0xf9,
    0xe0, 0xbd, 0xfd, 0xfa, 0x2e, 0xbe, 0x86, 0x73, 0x64, 0x3c,
    0x3c, 0xae, 0x42, 0xbd, 0xff, 0xf3, 0x0a, 0x3d, 0xfc, 0x38,
    0xbc, 0xbc, 0x34, 0x69, 0xce, 0x3d, 0xf3, 0x1e, 0xab, 0x3d,
    0xbe, 0x90, 0xc3, 0x3d, 0x5b, 0xba, 0x73, 0x3d, 0x6b, 0xcc,
    0x23, 0xbd, 0xea, 0xd4, 0xa2, 0x3d, 0x4e, 0x17, 0x3d, 0xbd,
    0x59, 0xd7, 0x8a, 0xbd, 0x3a, 0x8b, 0x59, 0x3d, 0x41, 0x16,
    0x81, 0x3d, 0x7d, 0x8f, 0x0a, 0xbe, 0x8e, 0xe9, 0x0a, 0xbd,
    0x09, 0xa5, 0x1a, 0x3e, 0x6a, 0xed, 0x8b, 0xbd, 0x5d, 0xd7,
    0xbb, 0x3d, 0xba, 0xb5, 0xb5, 0x3d, 0x36, 0x49, 0x2f, 0xbd,
    0x13, 0xa4, 0x63, 0x3d, 0x31, 0xbb, 0xed, 0x3d, 0x8f, 0x05,
    0x0e, 0x3e, 0xf4, 0x7a, 0xe1, 0x3c, 0x85, 0x59, 0xcf, 0xbd,
    0x8b, 0x6e, 0x7c, 0xbd, 0xbd, 0xe8, 0x15, 0xbe, 0xc7, 0x48,
    0xdf, 0xbd, 0xf8, 0xde, 0xd8, 0xbd, 0x60, 0x5e, 0xd8, 0xbd,
    0xae, 0x3f, 0x14, 0xbe, 0x90, 0x59, 0xfb, 0xbd, 0x98, 0xfb,
    0x49, 0xbc, 0xe2, 0xb1, 0x5e, 0xbd, 0x1f, 0xcc, 0xfa, 0xbd,
    0x54, 0x9d, 0xb7, 0xbc, 0x55, 0xc4, 0x3d, 0xbe, 0x2d, 0x47,
    0xb0, 0xbd, 0x74, 0xc2, 0xf1, 0xbd, 0x06, 0x03, 0x0f, 0x3d,
    0x5c, 0x10, 0xa5, 0x3b, 0x49, 0x7e, 0xb9, 0x3c, 0x1a, 0xf7,
    0x0e, 0xbe, 0x96, 0xa7, 0xf5, 0x3c, 0xb1, 0x8d, 0x83, 0xbd,
    0x06, 0x40, 0xab, 0xbd, 0x09, 0xee, 0x9f, 0x3d, 0x03, 0x31,
    0xae, 0xbd, 0x74, 0x8d, 0xc7, 0xbd, 0x66, 0xc0, 0x00, 0xbe,
    0xff, 0x73, 0x19, 0xbe, 0x4a, 0x8d, 0x1a, 0x3e, 0xd4, 0xfe,
    0x4c, 0xbd, 0xd7, 0x01, 0x01, 0x3e, 0x33, 0x8f, 0x48, 0x3d,
    0xee, 0x99, 0x37, 0xbe, 0x0b, 0x1f, 0xae, 0x3d, 0x51, 0x04,
    0x84, 0x3d, 0xdc, 0xaf, 0xaf, 0x3c, 0xb9, 0x62, 0x45, 0xbd,
    0x4c, 0xc9, 0x73, 0xbc, 0x02, 0x92, 0x58, 0xbc, 0x3f, 0xaf,
    0x0b, 0x3e, 0x66, 0x83, 0x89, 0x3d, 0x1f, 0x8a, 0x14, 0x3d,
    0x73, 0x08, 0xed, 0xbd, 0x7a, 0xd5, 0x34, 0xbe, 0x0b, 0xac,
    0x81, 0xbd, 0xb5, 0x4a, 0x8a, 0xbd, 0xee, 0x2e, 0xc1, 0x3d,
    0xae, 0xd3, 0x79, 0x3d, 0x1b, 0x78, 0x22, 0xbe, 0x7f, 0xab,
    0xe0, 0x3c, 0x7f, 0x82, 0x17, 0x3d, 0x4c, 0x06, 0xd4, 0x3d,
    0xec, 0x7b, 0x82, 0x3d, 0x83, 0xeb, 0xa3, 0x3d, 0x41, 0x93,
    0x46, 0xbd, 0x7b, 0x7a, 0x00, 0xbe, 0xd4, 0x74, 0xee, 0x3d,
    0x0d, 0x5b, 0x2e, 0x3e, 0xb5, 0x6a, 0x30, 0x3d, 0x17, 0x18,
    0xbc, 0x3c, 0x4a, 0x62, 0xc1, 0x3a, 0xcc, 0x91, 0x29, 0x3d,
    0x61, 0xb4, 0x09, 0xbe, 0xb6, 0xd9, 0xb7, 0xbc, 0xc9, 0xc2,
    0xba, 0xbd, 0xa3, 0x55, 0x11, 0xbe, 0x19, 0xca, 0x4c, 0x3d,
    0xe0, 0xd0, 0xae, 0xbd, 0x6d, 0xc2, 0x3a, 0x3e, 0x93, 0x18,
    0x8d, 0x3d, 0x5d, 0x70, 0xc9, 0xbd, 0x3e, 0x7c, 0xf3, 0x3d,
    0x03, 0x15, 0xed, 0x3d, 0x27, 0x9f, 0x8c, 0x3d, 0x11, 0xf3,
    0x22, 0x3d, 0x48, 0xc3, 0x60, 0x3e, 0x24, 0x6e, 0x1e, 0x3c,
    0xf1, 0x24, 0x99, 0xbd, 0xd3, 0xc2, 0xf7, 0x3d, 0x1e, 0xd7,
    0x3b, 0xbd, 0x67, 0x87, 0x32, 0x3d, 0xad, 0xd4, 0x01, 0x3e,
    0xf2, 0x0a, 0xe1, 0xbc, 0x6b, 0xcf, 0x6b, 0x3d, 0x23, 0xda,
    0xb8, 0x3c, 0x85, 0xd9, 0x23, 0xbe, 0x11, 0xdb, 0x5e, 0xbc,
    0x23, 0x9f, 0xb1, 0xbc, 0x05, 0x11, 0x37, 0xbd, 0x37, 0x9b,
    0x3b, 0x3d, 0x5f, 0x99, 0x68, 0x3d, 0x12, 0x27, 0x8c, 0x3d,
    0x85, 0x97, 0xc0, 0xbc, 0x4f, 0xea, 0x84, 0x3c, 0x44, 0xfa,
    0x06, 0xbd, 0xe8, 0xd8, 0xde, 0xbb, 0x69, 0x83, 0x86, 0xbd,
    0xd7, 0xd7, 0x79, 0xbc, 0xae, 0x4d, 0xac, 0x3d, 0x35, 0x7d,
    0x54, 0xbd, 0xea, 0xe5, 0xfa, 0xbd, 0xd4, 0x71, 0xc8, 0x3d,
    0xbe, 0x09, 0x1a, 0x3d, 0xcd, 0x2d, 0x05, 0xbe, 0xb5, 0x19,
    0x6e, 0x3d, 0x94, 0x80, 0x4c, 0x3c, 0xa1, 0x77, 0xcf, 0xbc,
    0xe7, 0x5e, 0x3c, 0xbd, 0x51, 0x2b, 0xa1, 0xbd, 0x5e, 0xac,
    0xe3, 0xbc, 0xc0, 0xaa, 0x31, 0xbe, 0x13, 0xff, 0x85, 0xbc,
    0x93, 0x2a, 0x0c, 0xbe, 0xfb, 0x43, 0x91, 0xbd, 0xba, 0xd1,
    0x41, 0x3d, 0xbd, 0xd7, 0x53, 0x3d, 0x7c, 0x49, 0x82, 0xbd,
    0x06, 0x76, 0xcb, 0xbd, 0xa1, 0x76, 0x09, 0xbe, 0x7e, 0x5c,
    0xab, 0x3d, 0x15, 0xea, 0xb2, 0xbd, 0xf5, 0xf5, 0xdb, 0xbc,
    0xe8, 0x4c, 0x63, 0xbd, 0x04, 0xfa, 0xf5, 0xbc, 0x69, 0xb0,
    0xdb, 0x3c, 0x3c, 0xe2, 0x58, 0xbd, 0x7f, 0xe0, 0x11, 0xbe,
    0x89, 0x1c, 0xca, 0x3c, 0x40, 0xc5, 0xb7, 0x3d, 0x9d, 0x83,
    0x8d, 0x3c, 0xc4, 0xff, 0x8a, 0x3c, 0x5b, 0x1f, 0x99, 0xbd,
    0xf1, 0xf2, 0xee, 0xbc, 0xc8, 0xe8, 0xf1, 0x3c, 0xdd, 0x03,
    0x66, 0xbd, 0x33, 0x3b, 0x35, 0xbd, 0x7f, 0xbe, 0xb6, 0xbd,
    0xfd, 0xbc, 0xbe, 0x3d, 0x4e, 0xdb, 0xcf, 0x3d, 0xdc, 0x41,
    0x78, 0x3d, 0x11, 0x53, 0x0e, 0xbe, 0x8c, 0x79, 0x05, 0x3e,
    0xc7, 0x97, 0x3b, 0xbd, 0x33, 0xe2, 0xa8, 0x3d, 0x3c, 0xad,
    0xa7, 0xba, 0x67, 0x75, 0xc2, 0xbd, 0x48, 0x55, 0x1c, 0xbb,
    0x60, 0x8b, 0x08, 0xbe, 0xd3, 0xb4, 0xe0, 0x3d, 0xbd, 0x55,
    0xd2, 0x3d, 0x96, 0x64, 0xe1, 0x3d, 0x83, 0xac, 0xed, 0xbd,
    0x7f, 0x9b, 0xda, 0x3d, 0x3a, 0x67, 0xa9, 0x3d, 0xf6, 0xe1,
    0x22, 0xbe, 0x19, 0x42, 0xa6, 0x3c, 0x38, 0x33, 0x45, 0xbd,
    0x4c, 0xac, 0x91, 0x3d, 0x4e, 0xd7, 0x66, 0x3c, 0x13, 0x50,
    0x91, 0xbd, 0xbf, 0x7c, 0x8c, 0x3d, 0xac, 0x63, 0xf9, 0x3d,
    0x84, 0x0d, 0xd1, 0x3d, 0x4c, 0x3d, 0x12, 0x3c, 0xda, 0xda,
    0xdd, 0x3c, 0x74, 0xaf, 0x93, 0x3d, 0xb0, 0xfb, 0x1c, 0xbe,
    0x55, 0x06, 0xf8, 0xbc, 0xf4, 0xa2, 0x67, 0xbd, 0x91, 0xfb,
    0x45, 0xbc, 0x49, 0x7d, 0x43, 0x3d, 0x6a, 0xb7, 0x60, 0x3d,
    0xea, 0x66, 0xcd, 0xbb, 0x1a, 0xe8, 0x9b, 0xbd, 0xec, 0x0a,
    0x58, 0xb9, 0x64, 0x6f, 0xdf, 0xbd, 0x8d, 0x24, 0xe0, 0x3d,
    0x8c, 0xc9, 0x86, 0x3d, 0xde, 0xbf, 0x62, 0x3d, 0x2d, 0xa0,
    0x3e, 0x3b, 0x1b, 0xf6, 0x1d, 0xbe, 0x2f, 0x8f, 0x2d, 0x3d,
    0x22, 0xcc, 0x3f, 0xba, 0x0a, 0x8c, 0x4e, 0x3d, 0x8c, 0x01,
    0x7e, 0x3d, 0x1d, 0x3b, 0xa6, 0x3d, 0xd6, 0xff, 0x96, 0xbd,
    0x6e, 0x5a, 0x0e, 0xbb, 0xcc, 0xef, 0xb8, 0xbd, 0xb8, 0x01,
    0xfb, 0x3c, 0x60, 0xe0, 0x3c, 0xbc, 0x92, 0x95, 0x29, 0x3e,
    0x49, 0x43, 0xe3, 0xbc, 0x1e, 0x45, 0x10, 0xbe, 0x84, 0x0b,
    0x8b, 0xbd, 0x70, 0x1e, 0x6a, 0xbb, 0x4f, 0xe7, 0x2d, 0xbe,
    0x00, 0xa9, 0x63, 0x3d, 0xed, 0x03, 0xbd, 0xbd, 0xe7, 0xd8,
    0x66, 0xbc, 0xae, 0xe2, 0x17, 0x3d, 0x06, 0x06, 0x83, 0xbd,
    0xf5, 0x68, 0xd2, 0xbd, 0x6f, 0x60, 0x2b, 0xbe, 0xf5, 0x59,
    0xe3, 0xbd, 0x9c, 0xae, 0xa2, 0x3d, 0x54, 0x2f, 0xab, 0xbd,
    0x1b, 0xa2, 0x0f, 0xbd, 0x6d, 0x59, 0x7a, 0xbd, 0x89, 0xce,
    0x4f, 0xbd, 0x23, 0x07, 0xbf, 0x3d, 0x7b, 0xf6, 0xa5, 0xbd,
    0x20, 0x53, 0xb0, 0xbc, 0x8a, 0xae, 0x55, 0xbd, 0x4e, 0x33,
    0xaf, 0xbd, 0x02, 0x22, 0xe1, 0x3d, 0x07, 0xfd, 0xeb, 0xbd,
    0xe9, 0x8c, 0x0b, 0xbe, 0x61, 0x2c, 0xa5, 0x3d, 0x58, 0x15,
    0xf6, 0xbb, 0x52, 0xe4, 0x26, 0xbd, 0xcf, 0xea, 0x23, 0xbd,
    0x92, 0xe0, 0x88, 0xbd, 0xfa, 0x93, 0x0c, 0xbe, 0x5f, 0x23,
    0x85, 0xbd, 0xf7, 0x62, 0x64, 0xbd, 0x01, 0xe4, 0x28, 0x3c,
    0xbb, 0x9b, 0x17, 0xbd, 0x93, 0x64, 0xb3, 0x3d, 0x98, 0xdd,
    0xa3, 0x3d, 0xbc, 0x4d, 0x9b, 0x3d, 0x9b, 0x7d, 0xb9, 0x3d,
    0x02, 0x21, 0x1f, 0x3d, 0x3b, 0xf1, 0x0c, 0x3e, 0xa0, 0x5d,
    0xdb, 0x3d, 0x9e, 0x0f, 0x80, 0x3d, 0x55, 0x17, 0x33, 0xbd,
    0x74, 0x88, 0x6a, 0x3d, 0x66, 0x06, 0x69, 0x3d, 0x8e, 0xaf,
    0x18, 0x3e, 0xe4, 0x99, 0xe3, 0xbc, 0xd7, 0xae, 0x5b, 0x3d,
    0xf7, 0x2f, 0xa6, 0x3d, 0xad, 0x02, 0x80, 0xbd, 0xc0, 0xb4,
    0x3a, 0xbd, 0x53, 0x33, 0x88, 0x3d, 0x80, 0xf8, 0xea, 0x3d,
    0x05, 0xad, 0x33, 0xbb, 0x41, 0x96, 0xe7, 0x3c, 0x64, 0xb9,
    0x80, 0xbd, 0x5c, 0xe0, 0x17, 0xbe, 0xc8, 0x6f, 0x6e, 0x3c,
    0xa4, 0xa7, 0x8d, 0x3d, 0xf9, 0x96, 0x91, 0xbd, 0xc3, 0x79,
    0x9a, 0x3d, 0x72, 0x4c, 0xb8, 0x3d, 0x65, 0x5a, 0xa4, 0xbd,
    0x39, 0xe9, 0x92, 0x3d, 0x3d, 0x6e, 0x04, 0x3e, 0x61, 0x15,
    0x88, 0x3d, 0xfb, 0x5e, 0xab, 0x3d, 0xa0, 0xc5, 0x27, 0xbd,
    0x24, 0x24, 0xb9, 0xbd, 0xa7, 0x82, 0x9d, 0xbc, 0xc9, 0xad,
    0xae, 0x3c, 0xde, 0xa7, 0x49, 0xbe, 0xef, 0x55, 0xfe, 0x3c,
    0x6f, 0x84, 0x97, 0x3d, 0x3f, 0x07, 0x82, 0x3c, 0xe3, 0xb9,
    0x44, 0x3c, 0x31, 0x07, 0x88, 0xbd, 0x22, 0x4e, 0xb6, 0xbd,
    0x5d, 0x1a, 0x2d, 0x3d, 0x3e, 0x6c, 0x07, 0xbe, 0x45, 0xa0,
    0x03, 0x3c, 0x32, 0xac, 0x0e, 0x3e, 0x45, 0x3d, 0x41, 0xbd,
    0x74, 0x9d, 0x27, 0xbe, 0x1d, 0x76, 0xd8, 0xbd, 0xaa, 0xcb,
    0x89, 0x3d, 0x9d, 0xfd, 0x0b, 0x3c, 0x7f, 0x8a, 0xb7, 0x3d,
    0x2c, 0xbb, 0x60, 0xbd, 0x9f, 0x83, 0x27, 0xbd, 0x37, 0xaa,
    0x34, 0xbe, 0x59, 0x6d, 0x02, 0x3e, 0xd5, 0xa3, 0x33, 0xbd,
    0x8c, 0xfe, 0x66, 0xbd, 0x02, 0x50, 0xad, 0x3d, 0x6c, 0x1e,
    0x27, 0x3e, 0x2a, 0xde, 0x8b, 0x3d, 0x1d, 0xa2, 0xee, 0xbd,
    0xcc, 0x7f, 0x09, 0x3e, 0x43, 0xb8, 0xe0, 0xbc, 0x21, 0x86,
    0xde, 0x3d, 0x4a, 0xc1, 0x12, 0x3e, 0xb4, 0xfc, 0xe6, 0x3b,
    0x09, 0x55, 0xce, 0xbd, 0xce, 0xe3, 0x7b, 0x3d, 0x5d, 0x0a,
    0x9c, 0xbb, 0x17, 0xd4, 0x64, 0xbd, 0x7b, 0x83, 0x6f, 0x3d,
    0x8d, 0x21, 0xb3, 0x3b, 0xf0, 0x9e, 0x22, 0xbe, 0xad, 0xce,
    0x13, 0x3d, 0xf3, 0x27, 0x85, 0xbd, 0xea, 0xa0, 0xe2, 0xbd,
    0x43, 0x90, 0x89, 0xbc, 0xc4, 0xf9, 0x25, 0x3d, 0xc9, 0x98,
    0x22, 0xbd, 0x23, 0xc8, 0x2e, 0x3d, 0xf3, 0x69, 0xca, 0xbd,
    0xf6, 0x26, 0xb3, 0xbd, 0x7b, 0xc9, 0x97, 0x3d, 0xaa, 0xbb,
    0xc1, 0x3c, 0x36, 0x35, 0xf6, 0x3d, 0xbd, 0x63, 0x2d, 0x3d,
    0x1a, 0x87, 0x22, 0x3c, 0xe4, 0xa9, 0x34, 0xbd, 0x01, 0x42,
    0x16, 0xbd, 0x8c, 0x6e, 0x28, 0x3d, 0xb4, 0x03, 0xbc, 0x3c,
    0x27, 0x02, 0xe1, 0xbd, 0x2b, 0x80, 0x66, 0x3d, 0xaf, 0x1a,
    0x3e, 0x3d, 0xe5, 0xf8, 0x93, 0x3d, 0x73, 0xf9, 0xdb, 0x3d,
    0x9c, 0x11, 0x86, 0xbc, 0x18, 0x9e, 0x6e, 0x3d, 0x25, 0x87,
    0x9a, 0x3c, 0xc3, 0x78, 0x3d, 0xbc, 0xdc, 0x7b, 0xb8, 0x3d,
    0xee, 0x1f, 0xaa, 0x3c, 0x90, 0x28, 0xe5, 0x3d, 0x5b, 0x23,
    0x78, 0xbd, 0x49, 0x29, 0x9e, 0x3d, 0x4d, 0xb5, 0x61, 0x3c,
    0x18, 0x11, 0x1d, 0xbd, 0xaf, 0x97, 0x81, 0x3d, 0xc7, 0xd4,
    0xa7, 0x3d, 0xa8, 0xf0, 0x0d, 0x3c, 0xe2, 0xfe, 0xa8, 0xbd,
    0x16, 0x3f, 0x10, 0x3d, 0x5a, 0x7b, 0xc6, 0xbd, 0x40, 0xba,
    0xe6, 0xbd, 0x67, 0x3d, 0xcb, 0x3d, 0xbf, 0x72, 0xe0, 0xbd,
    0x35, 0x26, 0xa3, 0x3d, 0x64, 0x2e, 0x4a, 0xbd, 0x0e, 0xb1,
    0x12, 0xbd, 0xf3, 0xa9, 0xa3, 0x3d, 0xa2, 0xd1, 0x2b, 0xbd,
    0x50, 0xad, 0x94, 0xbc, 0x88, 0x18, 0x75, 0xbc, 0x80, 0xaa,
    0x02, 0xbc, 0xc6, 0xcd, 0x5f, 0x3d, 0xd1, 0xe9, 0xbc, 0xbd,
    0x39, 0xcf, 0xe2, 0x3d, 0xfc, 0xc8, 0xbc, 0x3c, 0x50, 0x37,
    0xa4, 0xbd, 0xe8, 0xa6, 0xb2, 0xbc, 0x39, 0xc7, 0x8f, 0x3d,
    0x9e, 0xf8, 0x56, 0xbd, 0x21, 0x2e, 0xc4, 0x3d, 0x30, 0x9e,
    0xbc, 0x3b, 0x3c, 0xc9, 0xf3, 0x3c, 0x18, 0xe1, 0x2c, 0xbc,
    0x6a, 0xac, 0x6c, 0x3d, 0xcf, 0xae, 0xe9, 0xbd, 0x1d, 0xde,
    0x89, 0x3d, 0x7c, 0x1f, 0x58, 0xbd, 0x7a, 0x09, 0x22, 0x3d,
    0x2c, 0xa3, 0xb1, 0xbd, 0x6e, 0xfe, 0x32, 0x3d, 0xe6, 0x4a,
    0xe7, 0xbd, 0xcc, 0xec, 0x2a, 0xbd, 0x2a, 0x76, 0x15, 0xbd,
    0x9a, 0xd8, 0x07, 0x3d, 0xbc, 0x25, 0xd9, 0xbc, 0xd4, 0x91,
    0xe7, 0xbd, 0x6c, 0xd5, 0xe9, 0x3c, 0x22, 0x6d, 0x6b, 0x3d,
    0x07, 0x43, 0x6d, 0xbd, 0x70, 0x61, 0x80, 0xbd, 0x1e, 0xfc,
    0x6f, 0x3d, 0xb8, 0x1a, 0x6f, 0x3c, 0xfa, 0xac, 0x84, 0xbd,
    0x46, 0x3d, 0xc6, 0xbd, 0xc0, 0xbc, 0x15, 0x3b, 0x52, 0xe8,
    0x7e, 0xbd, 0x21, 0x6b, 0xbb, 0x3d, 0x46, 0x8e, 0x25, 0xbd,
    0xc0, 0xcb, 0x04, 0xbb, 0xee, 0x87, 0x77, 0x3d, 0xf5, 0xbe,
    0xe3, 0x3d, 0xae, 0xa1, 0x2f, 0xbd, 0x6e, 0x7b, 0xb2, 0xbd,
    0x8c, 0x60, 0xc8, 0xbd, 0xf6, 0xd5, 0x61, 0x3d, 0x4c, 0xad,
    0xdd, 0xbd, 0x08, 0x6a, 0xa5, 0xbd, 0x4a, 0x38, 0xdf, 0xbd,
    0x92, 0x3d, 0x6a, 0xbd, 0xee, 0x5d, 0xad, 0xbd, 0x8b, 0xe2,
    0xe4, 0xbd, 0x0c, 0x77, 0xe6, 0x3c, 0x11, 0xa9, 0xd3, 0x3c,
    0xc9, 0xed, 0x39, 0x3d, 0x43, 0xee, 0x91, 0xbd, 0xb2, 0x37,
    0x52, 0x3d, 0x9e, 0x61, 0xd3, 0xbd, 0x88, 0x51, 0xc5, 0xbc,
    0xed, 0xa0, 0xbc, 0xbd, 0x75, 0x34, 0x68, 0x3c, 0x73, 0x1f,
    0xde, 0xbd, 0x24, 0x7d, 0xde, 0xbd, 0x95, 0xd9, 0x10, 0xbd,
    0x63, 0x4a, 0x1e, 0x3d, 0x0a, 0x9a, 0x59, 0xbd, 0x80, 0xb3,
    0x89, 0xba, 0x8e, 0x11, 0xa8, 0xbd, 0xe0, 0x0d, 0xc4, 0xbd,
    0xc0, 0xcc, 0xd4, 0x3d, 0x1c, 0xf0, 0x4b, 0xbd, 0xc2, 0xda,
    0x8e, 0xbd, 0x09, 0x2e, 0x03, 0x3d, 0xb0, 0x33, 0x10, 0xbd,
    0x5e, 0xc9, 0xbc, 0x3c, 0xb4, 0xe8, 0xbb, 0xbd, 0x5a, 0x50,
    0x49, 0x3d, 0x70, 0x46, 0x4f, 0xbd, 0x3f, 0xe6, 0xb2, 0x3d,
    0x9b, 0x70, 0xc3, 0x3d, 0xe0, 0xb2, 0xbf, 0xbd, 0xaa, 0xac,
    0x48, 0xbd, 0x6a, 0xd1, 0x30, 0xbd, 0xb4, 0xc4, 0xf1, 0xbc,
    0x68, 0x4b, 0x73, 0x3c, 0xf2, 0x8a, 0x44, 0x3d, 0xda, 0xc9,
    0xa9, 0xbd, 0x54, 0x7e, 0xcf, 0x3c, 0x70, 0x3e, 0x38, 0xbd,
    0x61, 0x74, 0x92, 0x3d, 0x80, 0x18, 0xd0, 0xba, 0x53, 0xae,
    0x8e, 0x3d, 0x28, 0x1a, 0x68, 0x3c, 0x4e, 0x19, 0x40, 0x3d,
    0x76, 0x06, 0x37, 0xbd, 0x61, 0xca, 0xb3, 0x3d, 0xc3, 0xa7,
    0xba, 0x3d, 0x0d, 0xcd, 0xda, 0x3d, 0x14, 0xf9, 0xea, 0x3d,
    0xd4, 0x27, 0xb8, 0x3d, 0xb8, 0x39, 0xc3, 0xbc, 0xba, 0xd2,
    0xb0, 0x3d, 0xdd, 0xbe, 0xab, 0x3d, 0x51, 0x5d, 0x5d, 0xbd,
    0xdd, 0x7e, 0x73, 0xbc, 0x05, 0xc7, 0x6d, 0xbd, 0x62, 0x12,
    0xb9, 0xbd, 0x1f, 0x85, 0xb8, 0xbd, 0x69, 0xc8, 0xe2, 0x3c,
    0x80, 0x04, 0xa0, 0x3c, 0x8e, 0xfc, 0x6f, 0xbc, 0xa4, 0xf9,
    0xd0, 0xbd, 0x8d, 0xe8, 0x79, 0x3d, 0xae, 0x1f, 0x0d, 0x3d,
    0xf3, 0x2c, 0xe8, 0xbd, 0xff, 0xe6, 0xf0, 0xbb, 0x1f, 0x97,
    0xe9, 0xbd, 0x57, 0xad, 0x03, 0xbd, 0x52, 0xc0, 0x06, 0x3d,
    0xa6, 0xe0, 0x6b, 0x3c, 0xf6, 0x19, 0xcb, 0x3b, 0xfc, 0xe7,
    0x93, 0x3c, 0x79, 0xff, 0xc3, 0xbd, 0x74, 0x8c, 0x85, 0x3c,
    0x46, 0x40, 0x17, 0x3d, 0x05, 0x06, 0x68, 0x3d, 0x59, 0xac,
    0x17, 0xbb, 0x3a, 0x6c, 0x34, 0xbd, 0x15, 0x03, 0xf2, 0x3c,
    0x6b, 0xf6, 0xa0, 0xbd, 0xd4, 0xd5, 0x60, 0x3d, 0x2f, 0x83,
    0x6f, 0xbd, 0x38, 0xae, 0x10, 0xbe, 0x67, 0x57, 0xf5, 0x3d,
    0xf3, 0x7a, 0xc2, 0x3c, 0xee, 0x24, 0xfc, 0x3c, 0x1d, 0x72,
    0x10, 0x3e, 0xb0, 0xc8, 0x0c, 0x3d, 0xae, 0x86, 0xe1, 0x3d,
    0x50, 0xe9, 0x8b, 0x3d, 0x17, 0x02, 0xc3, 0x3d, 0x7d, 0xce,
    0xc4, 0x3d, 0x07, 0x1c, 0x85, 0x3d, 0xf0, 0xf8, 0x4b, 0xbd,
    0x7d, 0xae, 0x76, 0xbd, 0x9a, 0x68, 0x26, 0xbd, 0x24, 0xaf,
    0x09, 0x3e, 0x3b, 0x3b, 0x6b, 0x3d, 0x65, 0x8d, 0x08, 0xbe,
    0x76, 0x7e, 0x93, 0x3d, 0x67, 0x5a, 0x0b, 0x3e, 0xb0, 0x01,
    0x61, 0xbd, 0x30, 0x62, 0x18, 0x3d, 0xf1, 0xe4, 0xc9, 0x3c,
    0xc9, 0x70, 0xe3, 0x3d, 0x69, 0x35, 0xec, 0xbd, 0xb4, 0xff,
    0x07, 0xbd, 0xc4, 0x81, 0xf9, 0xbc, 0x62, 0x9e, 0x4e, 0x3d,
    0x4d, 0xb7, 0xa8, 0xbd, 0x8e, 0x1a, 0x7c, 0xbd, 0xae, 0xba,
    0xfd, 0xbd, 0x35, 0xa5, 0xe9, 0x3d, 0x5d, 0x37, 0xbd, 0x3d,
    0x43, 0xb6, 0x63, 0x3d, 0x4f, 0x55, 0x93, 0x3d, 0x82, 0x0d,
    0xc2, 0x3d, 0xe9, 0xc9, 0x05, 0xbe, 0x92, 0x2c, 0xf2, 0xbd,
    0x77, 0xe1, 0x9f, 0x3d, 0x96, 0x8d, 0x35, 0x3c, 0xf8, 0xf9,
    0xe8, 0xbd, 0xfa, 0xe9, 0x2a, 0x3d, 0x6c, 0x57, 0x05, 0xbe,
    0xbd, 0x62, 0xf9, 0xbd, 0x63, 0x00, 0x8e, 0xbd, 0x59, 0x6d,
    0x22, 0xbd, 0xae, 0x0f, 0x5c, 0xbc, 0x21, 0x68, 0x2f, 0xbd,
    0xec, 0x72, 0xc2, 0x3c, 0x03, 0xfb, 0xb3, 0xbd, 0xdc, 0x1c,
    0xbe, 0x3c, 0x56, 0xf1, 0x8b, 0x3d, 0x5b, 0xff, 0x1d, 0xbd,
    0x1d, 0xf9, 0x68, 0x3d, 0x17, 0xa3, 0xf6, 0x3c, 0x5b, 0x35,
    0x63, 0x3c, 0x07, 0xab, 0x24, 0x3d, 0x45, 0x81, 0x0b, 0xbd,
    0xaa, 0xe1, 0xa4, 0x3d, 0x4c, 0xb0, 0xc5, 0x3d, 0xf7, 0x28,
    0x12, 0x3e, 0x43, 0xd4, 0x30, 0xbd, 0xb6, 0x24, 0x0c, 0xbd,
    0x1b, 0x3d, 0x13, 0x3d, 0xc3, 0x27, 0xe4, 0xbd, 0xdc, 0xa9,
    0xeb, 0xbd, 0xc8, 0xfa, 0xd9, 0xbd, 0x85, 0x37, 0x8f, 0x3b,
    0xaa, 0xfd, 0xcf, 0x3d, 0xae, 0xa5, 0xe4, 0x3c, 0xc8, 0x3b,
    0x95, 0xbd, 0xbb, 0x45, 0x0d, 0x3e, 0x38, 0x79, 0x76, 0xbd,
    0x5e, 0xa0, 0xe2, 0xbd, 0x14, 0xbe, 0xf1, 0xbd, 0x14, 0xaf,
    0x1f, 0x3c, 0x6c, 0xde, 0x8d, 0x3b, 0xc7, 0xed, 0x64, 0xba,
    0xbc, 0xad, 0xc0, 0xbd, 0xf9, 0xba, 0xa2, 0xbd, 0x7f, 0xf5,
    0x0d, 0xbc, 0xde, 0xaf, 0xb6, 0xbd, 0x95, 0xc7, 0x4b, 0xbd,
    0x50, 0xcd, 0xa9, 0x3d, 0x46, 0x51, 0xeb, 0xbd, 0x6c, 0x36,
    0xa2, 0xbd, 0x8d, 0x50, 0xfd, 0xbb, 0x68, 0x68, 0x27, 0x3e,
    0x30, 0xc9, 0x06, 0xbd, 0x96, 0xee, 0x9e, 0x3d, 0xf7, 0xcc,
    0xc6, 0xbd, 0x91, 0x10, 0x9b, 0x3d, 0x18, 0x46, 0xe3, 0x3d,
    0x60, 0xe9, 0x01, 0xbe, 0xf4, 0xc3, 0x85, 0x3d, 0xff, 0xee,
    0x87, 0x3d, 0x2d, 0x75, 0xfe, 0xbc, 0x20, 0xb9, 0x2c, 0x3e,
    0x50, 0xfe, 0xa4, 0x3d, 0xb5, 0xc6, 0x23, 0xbd, 0x35, 0x4a,
    0xfa, 0xbc, 0xdf, 0x69, 0xed, 0xbb, 0xee, 0xbf, 0x02, 0x3d,
    0x36, 0x17, 0xbf, 0x3d, 0x7f, 0x75, 0x2e, 0xbc, 0x73, 0xbf,
    0x0f, 0xbd, 0xb8, 0xe7, 0xc4, 0xbd, 0xe8, 0xdf, 0x1c, 0x3e,
    0x74, 0xf3, 0x3a, 0xbd, 0x0e, 0x69, 0x4a, 0xbb, 0x4c, 0x07,
    0x2d, 0x3d, 0xbf, 0xdf, 0x06, 0xbe, 0xb2, 0x5a, 0x2b, 0xbd,
    0x95, 0x88, 0x71, 0xbc, 0x9a, 0xe9, 0x70, 0xbd, 0xa6, 0xa2,
    0x10, 0xbe, 0xb5, 0x72, 0x0a, 0x3e, 0x6a, 0x83, 0x16, 0xbd,
    0x22, 0x3f, 0xc2, 0xbd, 0x35, 0xbe, 0x31, 0x3b, 0x2a, 0x41,
    0x56, 0xbb, 0x64, 0x5f, 0x98, 0x3d, 0x09, 0x4b, 0x93, 0x3d,
    0x2c, 0xbd, 0xe9, 0x3d, 0x65, 0xe3, 0x06, 0xbe, 0x18, 0x43,
    0x0c, 0x3e, 0xd8, 0xdd, 0x87, 0x3c, 0x2a, 0x5d, 0x30, 0x3c,
    0xcc, 0x2f, 0x4c, 0xbd, 0x68, 0xb5, 0x53, 0xbd, 0x9c, 0xc9,
    0x4e, 0x3d, 0x7e, 0x09, 0xaa, 0xbd, 0xaa, 0x35, 0x5d, 0xbd,
    0xc0, 0x61, 0x89, 0x3d, 0xb2, 0x77, 0x8c, 0x3d, 0x37, 0x43,
    0x8c, 0xbd, 0x39, 0xf4, 0x06, 0x3c, 0x02, 0xb3, 0x2b, 0xbd,
    0x10, 0x36, 0x9f, 0x3d, 0xe8, 0x10, 0xc9, 0x3d, 0x72, 0x94,
    0xda, 0x3d, 0x93, 0x32, 0xb5, 0x3d, 0xa5, 0xfd, 0xa7, 0x3d,
    0x3d, 0x57, 0xe6, 0xbd, 0x35, 0x50, 0x0b, 0xbe, 0x6f, 0x23,
    0x82, 0x3d, 0x35, 0x94, 0xdd, 0xbd, 0x49, 0x2c, 0x70, 0x3c,
    0xed, 0xda, 0xc5, 0x3d, 0x61, 0xd3, 0x2c, 0x3d, 0xe5, 0x58,
    0x01, 0xbe, 0xda, 0xd5, 0xdb, 0x3d, 0x3c, 0xa7, 0xe2, 0x3d,
    0x28, 0x84, 0xe5, 0x3b, 0x7f, 0x1d, 0x80, 0x3d, 0xb0, 0x0e,
    0xfb, 0x3d, 0xc4, 0x20, 0xc7, 0x3c, 0x22, 0xd5, 0xf0, 0x3d,
    0xef, 0xfe, 0x07, 0x3e, 0xb8, 0x09, 0x90, 0x3c, 0x54, 0x45,
    0x74, 0xbd, 0x0b, 0x00, 0x1e, 0x3e, 0x12, 0x2b, 0x92, 0xbd,
    0x54, 0xbf, 0x82, 0x3b, 0x98, 0xae, 0x2c, 0xbd, 0x10, 0x8e,
    0xa1, 0x3d, 0x04, 0x5c, 0x6d, 0xbb, 0x06, 0x54, 0x1e, 0xbd,
    0x04, 0xab, 0x29, 0x3d, 0xc4, 0xd7, 0x8c, 0x3c, 0xa5, 0x53,
    0xf8, 0xbd, 0x3a, 0x16, 0x28, 0x3d, 0x62, 0x68, 0x9e, 0x3d,
    0x0d, 0x55, 0x5f, 0xbd, 0x7a, 0xc3, 0x60, 0xbc, 0xf4, 0xaa,
    0xe0, 0x3d, 0xdf, 0x9e, 0x75, 0xbc, 0x93, 0xe8, 0xe1, 0x3d,
    0xfc, 0xf5, 0x5b, 0xbc, 0x8a, 0x1a, 0xac, 0x3d, 0x06, 0x0c,
    0x28, 0x3e, 0xca, 0x02, 0x0b, 0x3e, 0x75, 0x48, 0x0c, 0x3d,
    0x63, 0xf8, 0x08, 0xbe, 0x09, 0xde, 0xeb, 0x3d, 0x1f, 0xdf,
    0xa3, 0x3d, 0xbe, 0xdc, 0xde, 0xbd, 0xd6, 0x77, 0x08, 0xbd,
    0x48, 0x11, 0x46, 0x3d, 0xaf, 0x93, 0x00, 0x3e, 0xb2, 0x0e,
    0x33, 0xbd, 0x39, 0x97, 0xb9, 0xbd, 0x84, 0x7a, 0x14, 0xbd,
    0x47, 0x52, 0x27, 0x3e, 0x0a, 0x63, 0x67, 0x3d, 0xf5, 0x1d,
    0xa8, 0x3d, 0x19, 0xbb, 0xea, 0xbc, 0x3d, 0x22, 0x55, 0x3d,
    0xb7, 0x1c, 0xae, 0xbd, 0xae, 0xb9, 0xb7, 0xbd, 0xa2, 0xc4,
    0x16, 0x3e, 0xa3, 0x3d, 0x2e, 0x3d, 0x35, 0xcf, 0xaf, 0x3d,
    0xec, 0x8f, 0xfb, 0xbd, 0x89, 0x3a, 0xe5, 0xbd, 0xbb, 0x44,
    0x0b, 0x3d, 0x55, 0x1e, 0x26, 0xbd, 0x5b, 0x11, 0xac, 0xbd,
    0x38, 0x86, 0xc7, 0xbd, 0xdc, 0xbb, 0xb2, 0xbc, 0xf3, 0xa8,
    0x9d, 0xbd, 0x0d, 0x36, 0xbb, 0x3c, 0xe2, 0x34, 0xc7, 0x3d,
    0xde, 0xf0, 0x9f, 0x3d, 0x28, 0x84, 0x8c, 0xbd, 0x5e, 0xf4,
    0x9d, 0xbd, 0x43, 0x11, 0xa2, 0xbd, 0x5e, 0x2b, 0x2d, 0x3c,
    0x34, 0x6c, 0x8a, 0xbd, 0x41, 0xf9, 0x0b, 0xbe, 0xcf, 0x79,
    0xd2, 0xbc, 0x46, 0xaa, 0x69, 0x3d, 0xe9, 0x9f, 0x6c, 0xbd,
    0x9e, 0xa1, 0x10, 0x3c, 0x9c, 0x2a, 0xa2, 0x3d, 0x5d, 0x70,
    0xb0, 0x3d, 0x4b, 0xf7, 0x8d, 0x3d, 0xfd, 0x4f, 0x84, 0xbc,
    0x02, 0xb4, 0xb6, 0x3d, 0x5f, 0x3b, 0x6c, 0xbd, 0xac, 0xf0,
    0x06, 0x3e, 0xb8, 0xb8, 0x01, 0x3d, 0xd9, 0x9a, 0x24, 0xbb,
    0x52, 0x3d, 0xbc, 0xbd, 0x29, 0xb6, 0xa8, 0xbd, 0xdc, 0x82,
    0xb0, 0x3d, 0x0e, 0x6c, 0x2f, 0xbd, 0x18, 0x1c, 0x8e, 0x3d,
    0x52, 0xc4, 0xd6, 0x3d, 0x60, 0x86, 0x14, 0x3d, 0xf4, 0xdc,
    0x87, 0xbd, 0xc0, 0xec, 0x9d, 0xbd, 0xa1, 0xf2, 0x1c, 0x3c,
    0x58, 0xb1, 0x90, 0xbd, 0xcb, 0x9d, 0xd8, 0x3c, 0x1f, 0x51,
    0x55, 0xbd, 0xdc, 0x7c, 0x27, 0xbe, 0xe4, 0xf9, 0x2b, 0xbe,
    0xf2, 0x36, 0x9a, 0xbd, 0x2e, 0xb9, 0x08, 0xbe, 0x23, 0xed,
    0xcd, 0xbd, 0xd0, 0x6f, 0xb2, 0xba, 0x90, 0x27, 0xfc, 0xbd,
    0xad, 0x57, 0x1e, 0xbe, 0x93, 0x6e, 0x65, 0xbd, 0x21, 0xd7,
    0x2b, 0xbe, 0x53, 0x49, 0x4c, 0xbd, 0x5b, 0xa5, 0x90, 0xbc,
    0xad, 0xfa, 0x4e, 0x3c, 0x9f, 0x01, 0xd4, 0xbc, 0x04, 0xd4,
    0x53, 0x3c, 0x26, 0x69, 0xde, 0xbb, 0xa8, 0x76, 0x0d, 0xbe,
    0x39, 0x3d, 0x27, 0xbe, 0x87, 0xca, 0xf6, 0xbd, 0x2e, 0xfd,
    0xa2, 0xbd, 0xdc, 0x24, 0x05, 0xbe, 0x60, 0x86, 0x1e, 0xbb,
    0x70, 0xd9, 0x29, 0xbe, 0x18, 0xeb, 0xb0, 0xbb, 0xc0, 0xa3,
    0xdb, 0xbd, 0x8e, 0x0b, 0xbd, 0xbd, 0x2e, 0x8c, 0x6e, 0x3d,
    0x57, 0x07, 0xf5, 0xbd, 0x58, 0x21, 0x01, 0xbd, 0xcf, 0x50,
    0xf2, 0xbd, 0x76, 0xa9, 0xe4, 0xbc, 0x2a, 0x1d, 0x3a, 0xbd,
    0x97, 0x1b, 0x1a, 0xbe, 0xaa, 0x8c, 0x06, 0xbd, 0xea, 0x90,
    0xeb, 0xbd, 0xb7, 0xb1, 0x0e, 0xbd, 0x7d, 0x18, 0x15, 0xbe,
    0x83, 0x5d, 0xbf, 0xbd, 0x6e, 0x99, 0x1d, 0xbb, 0xf6, 0x07,
    0x2e, 0xbd, 0x54, 0xd4, 0xa0, 0xbd, 0xe9, 0xfa, 0x16, 0x3e,
    0x23, 0x04, 0xc3, 0x3d, 0x50, 0x58, 0xad, 0x3c, 0x96, 0x8e,
    0x18, 0x3e, 0x41, 0x32, 0x46, 0xbd, 0xa6, 0x74, 0x05, 0x3e,
    0x1a, 0x13, 0xdc, 0x3d, 0x1e, 0xea, 0x6c, 0xbd, 0x54, 0x9e,
    0xfa, 0x3d, 0x3b, 0x35, 0xd1, 0xbc, 0xd1, 0xce, 0x1a, 0x3e,
    0xda, 0x50, 0x28, 0xbd, 0x5b, 0x12, 0xb4, 0xbc, 0xd4, 0x78,
    0x92, 0xbd, 0xf8, 0x5a, 0x9d, 0x3d, 0x28, 0xbb, 0x1e, 0x3b,
    0xa7, 0x36, 0x95, 0xbc, 0xdd, 0x96, 0x04, 0xbe, 0x7c, 0x15,
    0xed, 0x3c, 0xa5, 0x56, 0xc6, 0x3b, 0x18, 0xa9, 0x77, 0xbb,
    0xfc, 0x95, 0x23, 0x3d, 0x7a, 0x03, 0xbe, 0x3c, 0xe7, 0xc3,
    0x28, 0xbe, 0xce, 0x47, 0xd3, 0xbd, 0x32, 0x8e, 0x57, 0xbd,
    0xc6, 0xc8, 0x0a, 0xbd, 0xa9, 0x79, 0xc2, 0xbd, 0xa5, 0xb6,
    0x38, 0x3c, 0xa5, 0xb8, 0x3c, 0xbd, 0xe5, 0x59, 0x83, 0x3d,
    0xd2, 0x74, 0xea, 0xbd, 0x4b, 0x5c, 0x14, 0xbe, 0x63, 0xba,
    0xbd, 0x3d, 0x4a, 0xdb, 0x6e, 0x3c, 0x06, 0x73, 0x1e, 0xbc,
    0x63, 0xce, 0x33, 0xbd, 0x4b, 0x7e, 0xaa, 0x3d, 0x27, 0xaf,
    0x90, 0xbc, 0xbc, 0x0a, 0x7a, 0x3d, 0x9b, 0xe9, 0xe7, 0x3d,
    0xd4, 0x8c, 0xb8, 0x3d, 0x9f, 0xe5, 0x3e, 0x3d, 0x8b, 0x2c,
    0x2c, 0x3d, 0xa9, 0x77, 0x39, 0xbd, 0x37, 0xf1, 0x04, 0x3d,
    0x43, 0xd3, 0xad, 0x3c, 0x10, 0x97, 0x63, 0xbc, 0xad, 0xae,
    0x99, 0x3d, 0xdc, 0x92, 0x4f, 0xbd, 0x74, 0xeb, 0x8f, 0x3d,
    0x44, 0x89, 0x26, 0x3d, 0xb3, 0x4a, 0x02, 0x3e, 0x0b, 0x92,
    0x87, 0xbd, 0xc5, 0xd7, 0x00, 0x3d, 0x2e, 0x45, 0xff, 0x38,
    0xb0, 0xf8, 0xde, 0x3c, 0x14, 0x7d, 0x91, 0x3d, 0xf9, 0x5c,
    0x39, 0xbd, 0x8d, 0xfa, 0x73, 0xbd, 0xfd, 0x5b, 0x21, 0x3d,
    0xb9, 0xc0, 0x83, 0xbd, 0xbd, 0xf3, 0x12, 0xbd, 0x26, 0x1a,
    0xad, 0x3d, 0x9e, 0xe2, 0x91, 0xbc, 0x7d, 0x9c, 0x67, 0x3d,
    0x1f, 0xb0, 0x9d, 0xbd, 0x19, 0x26, 0xe4, 0xbd, 0x1b, 0x98,
    0x71, 0x3c, 0x9b, 0xd5, 0xd2, 0x3a, 0xea, 0xc5, 0x06, 0x3c,
    0x33, 0x76, 0x90, 0x3c, 0xac, 0x96, 0x58, 0xbd, 0xce, 0x2d,
    0x1c, 0x3d, 0x05, 0x5c, 0x36, 0xbe, 0xea, 0x28, 0x99, 0x3d,
    0x64, 0x65, 0x94, 0x3d, 0xc4, 0x9f, 0x30, 0x3d, 0x80, 0x39,
    0x76, 0x3d, 0x3b, 0x60, 0xc2, 0x3c, 0x0f, 0x79, 0x45, 0xbd,
    0x6a, 0x32, 0xb8, 0x3d, 0x06, 0x41, 0xed, 0xbc, 0x18, 0x86,
    0x37, 0x3c, 0x58, 0x22, 0x29, 0xbe, 0x1c, 0x50, 0xda, 0x3d,
    0x76, 0x1f, 0x2d, 0xbe, 0xb4, 0x76, 0xbc, 0xba, 0x35, 0x5b,
    0xbe, 0xbc, 0x48, 0xd0, 0xc9, 0xbc, 0x74, 0x2c, 0x33, 0x3d,
    0x54, 0xc0, 0x02, 0xbd, 0x13, 0x01, 0xcf, 0xbd, 0x13, 0x77,
    0x0e, 0xbd, 0x64, 0xd6, 0x6c, 0x3d, 0xbe, 0x22, 0xbe, 0x3c,
    0xa7, 0x48, 0x54, 0x3c, 0x65, 0xd2, 0xff, 0xbd, 0x40, 0xcd,
    0x1f, 0x3e, 0x06, 0x07, 0xbf, 0x3d, 0x0c, 0x6e, 0xc0, 0x3c,
    0x18, 0x33, 0xb6, 0x3d, 0xf7, 0xab, 0x45, 0x3c, 0x7c, 0x30,
    0x60, 0x3d, 0xc1, 0x2d, 0xdc, 0x3d, 0xd1, 0x91, 0x83, 0xbd,
    0xe8, 0xfe, 0x01, 0x3e, 0x83, 0x5b, 0xc4, 0xbd, 0x8b, 0xe0,
    0x9f, 0xbd, 0x73, 0xe3, 0x16, 0x3d, 0xa7, 0x10, 0xbe, 0xbd,
    0xf2, 0x75, 0x26, 0xbd, 0x82, 0xf6, 0x3d, 0xbc, 0x20, 0x25,
    0xdd, 0x3d, 0xae, 0x1b, 0xc7, 0xbd, 0xdf, 0xfb, 0x09, 0xbd,
    0xd6, 0xb0, 0x74, 0xbd, 0x28, 0x4a, 0x46, 0x3d, 0x50, 0x64,
    0xa2, 0xbd, 0xb4, 0xec, 0x04, 0xbd, 0x46, 0x82, 0x0a, 0x3e,
    0x75, 0x3c, 0xa1, 0x3d, 0x3d, 0x5a, 0xa7, 0x3c, 0x17, 0xba,
    0x15, 0x3d, 0xe1, 0xd9, 0x94, 0xbc, 0xf5, 0x8e, 0xca, 0x3c,
    0x19, 0x4e, 0xb0, 0xbc, 0x3f, 0x33, 0x0c, 0xbd, 0x1a, 0x9d,
    0x50, 0xbb, 0xbd, 0x01, 0x3e, 0x3c, 0xec, 0x04, 0x26, 0x3d,
    0xb7, 0x04, 0x76, 0x3d, 0x16, 0x86, 0xe1, 0xbd, 0xc1, 0x73,
    0xa3, 0x3c, 0x27, 0x45, 0x99, 0xbd, 0x53, 0xa8, 0x84, 0x3c,
    0x01, 0xa5, 0xa7, 0xbd, 0x3f, 0x6c, 0xcd, 0x3d, 0x59, 0x68,
    0x23, 0xbd, 0x46, 0x84, 0xbc, 0x3d, 0xce, 0xf7, 0x01, 0xbe,
    0x0a, 0xf6, 0xdf, 0x3d, 0x67, 0x48, 0x45, 0xbd, 0xc5, 0x08,
    0x11, 0xbe, 0x56, 0x0f, 0x29, 0x3d, 0xb4, 0x9a, 0xef, 0x3d,
    0x09, 0x61, 0x9e, 0x3d, 0x88, 0xd5, 0xaa, 0xbd, 0xd7, 0xa4,
    0xc0, 0x3d, 0xff, 0x98, 0x0d, 0x3e, 0x2d, 0xf8, 0xe5, 0x3d,
    0xcf, 0x34, 0xd5, 0xbc, 0x1a, 0x86, 0x85, 0x3d, 0x0a, 0x69,
    0x5d, 0xbd, 0x3f, 0xbc, 0x86, 0x3c, 0x7f, 0xec, 0x90, 0x3d,
    0x4f, 0xce, 0x1c, 0x3d, 0x90, 0x83, 0xbf, 0x3c, 0x3c, 0x33,
    0xa1, 0x3d, 0x89, 0x3b, 0xe5, 0x3d, 0x22, 0xd7, 0xf1, 0xbd,
    0x60, 0xa1, 0x97, 0x3d, 0x4c, 0x97, 0x8d, 0x3d, 0x6e, 0x71,
    0xd0, 0x3d, 0x0a, 0xbf, 0x9b, 0x3d, 0x92, 0xf8, 0xe6, 0xbd,
    0xbd, 0x19, 0x8e, 0xbd, 0x35, 0x38, 0xc4, 0x3c, 0xb2, 0x41,
    0x03, 0x3d, 0xf2, 0x6a, 0xca, 0x3b, 0xc9, 0x58, 0x14, 0xbe,
    0x1a, 0xaf, 0xaa, 0xbd, 0x7c, 0xd0, 0xaa, 0xbd, 0x9f, 0x5f,
    0x9f, 0xbc, 0xa7, 0x8b, 0x28, 0xbd, 0xe8, 0xc1, 0x0c, 0x3d,
    0xab, 0x9f, 0x62, 0x3d, 0x7d, 0xca, 0x1c, 0x3d, 0x5d, 0x3a,
    0x35, 0x3d, 0x74, 0xc1, 0xb8, 0x3d, 0x7b, 0xab, 0x2d, 0xbc,
    0x98, 0x20, 0xbe, 0x3c, 0xca, 0x10, 0x43, 0x3d, 0x05, 0x34,
    0x08, 0x3c, 0x1a, 0xe0, 0xa4, 0x3d, 0xa5, 0xf0, 0xff, 0xbc,
    0xcf, 0x77, 0x6f, 0x3d, 0x75, 0xc7, 0x50, 0x3c, 0x97, 0x4b,
    0x9c, 0x3d, 0x92, 0x06, 0x8f, 0x3d, 0xc9, 0x80, 0x77, 0xbd,
    0x94, 0x8b, 0xcc, 0x3c, 0xfb, 0x02, 0x24, 0xbd, 0x47, 0x89,
    0xb5, 0x3d, 0xa2, 0xbd, 0x31, 0xbe, 0xe1, 0xe2, 0xec, 0x3c,
    0x01, 0x85, 0x72, 0xbd, 0xd6, 0xeb, 0xb2, 0xbd, 0xeb, 0x67,
    0x87, 0xbd, 0x07, 0x8d, 0x05, 0x3e, 0x5e, 0x8f, 0x81, 0x3d,
    0x16, 0x0b, 0x1d, 0x3c, 0x2b, 0x2c, 0x6c, 0xbd, 0x4a, 0xd3,
    0x01, 0x3e, 0xaa, 0x17, 0x35, 0x3d, 0x7e, 0x89, 0xda, 0xbd,
    0x3b, 0x9c, 0xc7, 0x3d, 0x40, 0x86, 0x85, 0xbb, 0x96, 0x14,
    0xba, 0x3d, 0x32, 0x7a, 0x0a, 0x3e, 0x80, 0x67, 0xdb, 0x3c,
    0xeb, 0xc7, 0xa3, 0xbd, 0x2e, 0x74, 0xb0, 0x3d, 0x18, 0xf5,
    0x1e, 0x3d, 0x3c, 0xa7, 0x6c, 0xbd, 0x3b, 0x2a, 0x27, 0xbd,
    0x15, 0x2f, 0x68, 0x3b, 0x27, 0xfd, 0x99, 0xbd, 0xd6, 0xd1,
    0x91, 0xbd, 0xe8, 0x78, 0xf4, 0xbd, 0xe1, 0x3d, 0x22, 0xbe,
    0x7b, 0x3b, 0x68, 0xbd, 0x9f, 0x38, 0x2d, 0xbe, 0x7e, 0x87,
    0x84, 0x3d, 0xea, 0x03, 0xbf, 0xbd, 0xdc, 0x9d, 0x31, 0xbb,
    0x94, 0xc0, 0xb7, 0x3d, 0xc3, 0x51, 0xce, 0x3b, 0xda, 0x73,
    0x3f, 0xbe, 0x14, 0x39, 0xb1, 0xbd, 0xe4, 0x1d, 0xf0, 0x3d,
    0x42, 0x3b, 0x35, 0xbe, 0x7c, 0xfd, 0x21, 0xbc, 0x92, 0x4f,
    0x45, 0x3c, 0xd0, 0x65, 0x89, 0x3d, 0xd1, 0xcc, 0x0a, 0xbd,
    0xe6, 0x7d, 0xab, 0xbc, 0x9d, 0x5d, 0xef, 0xbd, 0x14, 0xe5,
    0xfd, 0x3c, 0xbc, 0xb2, 0xe4, 0xb8, 0xca, 0x16, 0x16, 0x3e,
    0x93, 0x96, 0x7e, 0xbd, 0x2a, 0xcb, 0x9a, 0xbd, 0x6d, 0x1f,
    0xcb, 0xbd, 0x4a, 0x0f, 0xe1, 0x3c, 0x73, 0x3b, 0xe0, 0x3c,
    0xb3, 0x1d, 0x57, 0x3c, 0x25, 0x03, 0x61, 0xbc, 0xed, 0x1c,
    0xd9, 0x3d, 0x9a, 0x20, 0xa6, 0xbd, 0x9d, 0xae, 0xff, 0x3d,
    0x74, 0xaf, 0xe9, 0xbd, 0xa3, 0x28, 0xbf, 0x3d, 0xad, 0x7a,
    0xed, 0x3d, 0x8b, 0xa8, 0x22, 0xbe, 0xcf, 0x2a, 0x1a, 0xbe,
    0x2a, 0xe5, 0xcb, 0x3d, 0x76, 0xb6, 0xe1, 0x3d, 0x99, 0x17,
    0xee, 0x3d, 0x12, 0x09, 0x98, 0x3c, 0xd1, 0x94, 0xc7, 0xbd,
    0x2d, 0x93, 0x18, 0x3d, 0x68, 0x43, 0xec, 0x3d, 0x2f, 0x4c,
    0xaa, 0xbd, 0x98, 0x65, 0x00, 0xbd, 0xb6, 0x25, 0x8d, 0xbd,
    0x50, 0x73, 0x0f, 0xbd, 0xba, 0x4d, 0xc2, 0xbc, 0xcf, 0x37,
    0xaf, 0xbd, 0x7c, 0x6b, 0xc7, 0xbc, 0x91, 0xc2, 0xd1, 0xba,
    0x4b, 0xc5, 0x35, 0xbd, 0x17, 0x18, 0x12, 0xbd, 0xc9, 0x9b,
    0x9f, 0x3d, 0xc3, 0xcc, 0x8b, 0x3d, 0xc0, 0xc9, 0x22, 0x3e,
    0xf2, 0x1f, 0x01, 0x3e, 0x6f, 0x42, 0x5b, 0x3d, 0x79, 0xd8,
    0x33, 0x3e, 0xb7, 0x1e, 0x1c, 0xbd, 0x63, 0xa7, 0x8f, 0xbd,
    0xf6, 0x26, 0x76, 0xbd, 0xe9, 0x54, 0x90, 0x3d, 0xaf, 0x57,
    0xb5, 0x3d, 0x75, 0x42, 0x13, 0x3e, 0x3a, 0x91, 0x9d, 0x3d,
    0x06, 0x7a, 0xa8, 0x3d, 0x85, 0xc3, 0xe2, 0x3d, 0x1a, 0x35,
    0x5e, 0xbc, 0x20, 0x72, 0x33, 0x3e, 0xbb, 0x7d, 0x38, 0x3c,
    0x79, 0x8f, 0x78, 0x3d, 0x57, 0xe0, 0x6e, 0x3d, 0x2e, 0xc4,
    0x8d, 0x39, 0x31, 0x84, 0xd2, 0x3d, 0xd8, 0xbb, 0x34, 0xbe,
    0xcf, 0x0d, 0x68, 0xbe, 0xbb, 0xb6, 0x4f, 0xbd, 0x98, 0xf2,
    0xe5, 0xbd, 0x09, 0x20, 0x9f, 0x3d, 0x45, 0xc3, 0xb5, 0x3d,
    0x2b, 0xd8, 0xc7, 0x3c, 0xfe, 0xdb, 0xf6, 0x3d, 0x6f, 0xc6,
    0x24, 0xbd, 0x3b, 0x09, 0xd1, 0xbd, 0x60, 0x09, 0xfc, 0x3d,
    0x25, 0x80, 0xb1, 0x3d, 0xb1, 0xa0, 0xc2, 0x3d, 0xd0, 0xff,
    0xc5, 0xbd, 0xc0, 0x64, 0x6f, 0x3d, 0x42, 0x93, 0x20, 0xbe,
    0x8e, 0x08, 0x32, 0xbc, 0xa6, 0x35, 0xd1, 0xbc, 0xd2, 0x18,
    0x03, 0x3e, 0x83, 0x77, 0x5e, 0x3b, 0xc3, 0xb5, 0x9d, 0x3d,
    0xba, 0x6b, 0xe8, 0x3d, 0xbe, 0x4d, 0xc2, 0xbd, 0x5f, 0x32,
    0x93, 0x3d, 0x88, 0xb3, 0x94, 0x3d, 0xf7, 0x36, 0xc6, 0xbd,
    0x45, 0xd7, 0xdf, 0xbd, 0x89, 0x86, 0x49, 0x3e, 0x4b, 0x2b,
    0xb6, 0x3d, 0x1b, 0x4d, 0xe4, 0xbd, 0xff, 0xbf, 0x17, 0x3e,
    0xa1, 0x2d, 0x7f, 0x3b, 0x4d, 0x98, 0x75, 0xba, 0xa8, 0x58,
    0x33, 0x3c, 0x70, 0x13, 0xe5, 0x3d, 0xb7, 0xc1, 0xc3, 0x3c,
    0xed, 0x15, 0xf9, 0x3d, 0x19, 0x1c, 0xfb, 0x3c, 0x75, 0xab,
    0x70, 0xbd, 0x5a, 0x6f, 0xa1, 0x3d, 0x09, 0x9b, 0x91, 0x3c,
    0x0c, 0x18, 0xa1, 0xbd, 0x0d, 0x70, 0xb8, 0x3d, 0xcd, 0x0a,
    0x0d, 0xbe, 0xe1, 0xe0, 0xfa, 0xbc, 0x4d, 0xd7, 0x8f, 0x3d,
    0x4a, 0x19, 0x94, 0xbd, 0xf9, 0xca, 0x9a, 0x3d, 0xc5, 0x3a,
    0x83, 0x3d, 0xc1, 0x87, 0x33, 0x3d, 0xbd, 0x94, 0x16, 0x3d,
    0x96, 0xff, 0x8f, 0xbd, 0xac, 0xc3, 0x0f, 0xbd, 0x74, 0xa3,
    0x53, 0xbd, 0x91, 0xf5, 0xb5, 0x3d, 0xed, 0x1d, 0xcd, 0x3c,
    0x3d, 0x33, 0x84, 0x3d, 0xae, 0xc3, 0x8b, 0xbd, 0x4e, 0xf9,
    0x72, 0x3b, 0xf7, 0x04, 0x7a, 0xbd, 0x52, 0x4c, 0x66, 0x3d,
    0x24, 0x54, 0xd5, 0x3a, 0xca, 0xa7, 0x15, 0xbb, 0x53, 0x84,
    0x4f, 0xbc, 0x2f, 0x2d, 0x41, 0xbc, 0x63, 0xae, 0xcd, 0x3d,
    0xee, 0x4a, 0xe4, 0x3d, 0xb8, 0x19, 0x5b, 0x3d, 0x2a, 0x49,
    0xd3, 0x3a, 0xd7, 0xbc, 0x86, 0x3d, 0x64, 0x90, 0x87, 0x3c,
    0xef, 0xf4, 0x6b, 0xbd, 0xfb, 0x71, 0xbe, 0xbd, 0x09, 0x77,
    0xab, 0xbc, 0x0a, 0x3c, 0x15, 0xbc, 0x25, 0x78, 0xfe, 0xbd,
    0xea, 0xdc, 0x0c, 0x3d, 0xef, 0x1e, 0xf1, 0x3d, 0x83, 0x50,
    0x13, 0xbe, 0x76, 0xed, 0x70, 0xbd, 0x8c, 0x31, 0x65, 0x3d,
    0xd4, 0xed, 0x99, 0xbc, 0xb0, 0xd5, 0x8e, 0xbc, 0x7c, 0xcf,
    0xb8, 0x3b, 0x7a, 0x49, 0x2e, 0x3c, 0xbd, 0x0b, 0x1f, 0xbb,
    0x37, 0x53, 0xe4, 0x3d, 0x79, 0xa7, 0xc7, 0xbc, 0xfd, 0x01,
    0xa4, 0xbd, 0x78, 0x57, 0x89, 0x3d, 0x66, 0x11, 0xc5, 0xbd,
    0x59, 0x8e, 0xe3, 0x3c, 0x8f, 0x1b, 0x59, 0xbd, 0x68, 0xed,
    0xb1, 0xbd, 0x06, 0x50, 0xc2, 0x3d, 0xba, 0xbc, 0x97, 0x3d,
    0x54, 0x26, 0x48, 0x3d, 0xbd, 0x6b, 0xa2, 0xbd, 0x36, 0x4d,
    0xf8, 0xbd, 0xf0, 0xdc, 0xdb, 0xbb, 0x9c, 0xb3, 0xa9, 0x3d,
    0x43, 0xb2, 0x80, 0xbd, 0x9c, 0xb2, 0xa9, 0xbd, 0x77, 0x1c,
    0x47, 0x3d, 0x5d, 0x72, 0x47, 0xbc, 0xf4, 0xd5, 0xfa, 0x3d,
    0xcb, 0xd1, 0x00, 0xbe, 0x30, 0x1a, 0x19, 0xbe, 0x63, 0xd4,
    0x1d, 0xbe, 0xf4, 0x4f, 0xdf, 0x3b, 0x1b, 0x31, 0x28, 0xbc,
    0x29, 0xbb, 0x83, 0x3d, 0x29, 0xa7, 0x07, 0xbd, 0x17, 0x42,
    0x7f, 0xbd, 0xea, 0x24, 0x06, 0xbe, 0x5c, 0x0c, 0xc8, 0xbd,
    0x46, 0xfc, 0x8a, 0x3d, 0x3a, 0xb0, 0xc0, 0xba, 0x22, 0x6f,
    0xf2, 0x3c, 0x2b, 0x1d, 0x2b, 0x3d, 0xa2, 0x2d, 0x0f, 0xbe,
    0x49, 0xe2, 0xb0, 0x3b, 0x70, 0x7a, 0x82, 0xbd, 0xaa, 0xa2,
    0x49, 0xbd, 0xe4, 0x63, 0x42, 0x3d, 0x75, 0xb8, 0xad, 0xbc,
    0x1a, 0x3d, 0x08, 0x3c, 0xec, 0x1b, 0x0f, 0x3d, 0xdf, 0xe9,
    0x63, 0x3b, 0xe5, 0xda, 0x9e, 0x3d, 0xd0, 0xee, 0x9f, 0xbd,
    0xd9, 0xab, 0xc7, 0x3d, 0x2d, 0xdb, 0xc5, 0xbc, 0x9a, 0x7e,
    0x2b, 0xbd, 0xe6, 0x2e, 0x8e, 0xbd, 0xb1, 0x74, 0x8f, 0xbd,
    0x1c, 0x93, 0xbc, 0xbd, 0x46, 0x22, 0xb8, 0x3d, 0xd7, 0xff,
    0x10, 0x3e, 0xe8, 0x73, 0xea, 0xbc, 0x66, 0x53, 0x7c, 0x3c,
    0x00, 0x43, 0x05, 0xbe, 0x74, 0xec, 0xbd, 0x3d, 0x8e, 0x2c,
    0x0b, 0x3e, 0x4f, 0x2d, 0xb7, 0x3d, 0xf8, 0x94, 0xdb, 0x3d,
    0xfe, 0xf0, 0x63, 0x3d, 0xb6, 0x09, 0x46, 0x3d, 0xd1, 0x9a,
    0x10, 0xbe, 0x56, 0xf4, 0x47, 0x3d, 0x02, 0x34, 0xda, 0x3d,
    0xbc, 0xc0, 0xc3, 0xbd, 0x2a, 0xef, 0x5e, 0x3b, 0x90, 0x7e,
    0x0f, 0xbe, 0x40, 0xa6, 0x21, 0xbd, 0x89, 0x79, 0x6e, 0xbd,
    0xf3, 0x65, 0xc5, 0xbd, 0xd5, 0xd7, 0x8a, 0xbc, 0x76, 0x60,
    0x1e, 0x3c, 0x88, 0xd3, 0x1b, 0xbb, 0x96, 0x57, 0x4b, 0xbd,
    0xd4, 0x72, 0xfe, 0xbc, 0xbd, 0x3a, 0xa1, 0xbd, 0x14, 0x9a,
    0xa8, 0xb9, 0xc5, 0x83, 0x3a, 0xbd, 0xc5, 0xe5, 0x1b, 0x3d,
    0xd9, 0x5e, 0x81, 0xbd, 0x53, 0xa3, 0x73, 0x3d, 0x82, 0xae,
    0xc2, 0xbd, 0x0c, 0x6f, 0xbe, 0xbd, 0xd6, 0xa2, 0x31, 0xbd,
    0x95, 0xbd, 0xa3, 0x3d, 0x09, 0x47, 0xf8, 0x3b, 0x97, 0xb1,
    0x27, 0x3c, 0x37, 0x9f, 0xd1, 0x3c, 0x72, 0x01, 0x65, 0xbd,
    0x13, 0xcb, 0xe5, 0x3b, 0x77, 0x75, 0xd4, 0x3d, 0xb1, 0x78,
    0xbf, 0x3a, 0x10, 0xde, 0xc2, 0x3c, 0x34, 0x53, 0xa2, 0x3d,
    0x3a, 0x74, 0x03, 0xbe, 0x39, 0x5a, 0xb3, 0xbc, 0x42, 0x4c,
    0x87, 0xbc, 0x72, 0x2a, 0x21, 0x3e, 0xae, 0x62, 0x9a, 0xbd,
    0xe6, 0xed, 0xf0, 0xbd, 0x45, 0x93, 0x5c, 0x3d, 0xee, 0x49,
    0xeb, 0xbd, 0x26, 0x3b, 0x63, 0xbb, 0x7e, 0x59, 0xf9, 0x3d,
    0xeb, 0x61, 0xf4, 0x3d, 0xa3, 0xd5, 0xa5, 0xbd, 0x0d, 0xa8,
    0x0b, 0x3d, 0xcc, 0xe7, 0x7f, 0x3d, 0xee, 0x2d, 0x19, 0x3e,
    0x02, 0x43, 0x80, 0xbd, 0x7d, 0x3c, 0x32, 0x3e, 0xb6, 0x01,
    0x85, 0xbd, 0xbc, 0xe0, 0x7e, 0x3d, 0x8a, 0x93, 0xf2, 0x3d,
    0xaf, 0x90, 0x00, 0xbe, 0xf2, 0xe6, 0x53, 0xbc, 0x80, 0xcf,
    0x5c, 0x3d, 0xde, 0x5b, 0xbc, 0xbc, 0x06, 0x47, 0x7f, 0xba,
    0x65, 0xa8, 0x0c, 0x3e, 0xf8, 0x3f, 0x84, 0xbd, 0xbf, 0x6c,
    0xbc, 0x3c, 0x71, 0x4c, 0x5b, 0xbd, 0xb3, 0xbc, 0x5a, 0x3d,
    0x02, 0x6e, 0xfd, 0xbd, 0xec, 0xea, 0xa9, 0xbd, 0xef, 0x07,
    0xa3, 0x3d, 0xbd, 0x2a, 0x91, 0xbb, 0x85, 0xef, 0x3e, 0x3e,
    0x74, 0xbb, 0xb3, 0x3d, 0x22, 0x16, 0x65, 0x3d, 0xf1, 0x88,
    0x60, 0x3d, 0x38, 0xf5, 0x36, 0x3e, 0xe8, 0xb2, 0x9a, 0xbd,
    0x43, 0xc1, 0x0a, 0xbe, 0x05, 0xea, 0xc2, 0x3d, 0xec, 0xe5,
    0x6a, 0xbd, 0xf9, 0x31, 0x5b, 0x3d, 0x6e, 0x24, 0xa7, 0xbd,
    0x52, 0x8f, 0x38, 0x3e, 0x30, 0x8a, 0xa0, 0xbc, 0xff, 0x6c,
    0xc8, 0x3d, 0xdb, 0xe2, 0x8f, 0x3d, 0x8e, 0xac, 0xaa, 0xbd,
    0x5f, 0x59, 0x29, 0x3e, 0x8d, 0xf2, 0xde, 0x3d, 0x61, 0x71,
    0x13, 0x3d, 0xa2, 0x30, 0xb9, 0xbd, 0xeb, 0x23, 0x47, 0x3d,
    0xdb, 0xc6, 0xd1, 0xbd, 0x53, 0x67, 0xb4, 0x3d, 0x7a, 0x10,
    0x0e, 0xbd, 0xac, 0x85, 0x3e, 0x3c, 0x67, 0x3d, 0x12, 0xbd,
    0x48, 0xc3, 0x79, 0xbb, 0xf8, 0x36, 0x06, 0x3e, 0x89, 0x16,
    0x19, 0xbd, 0xa0, 0x70, 0x2e, 0x3d, 0xbb, 0xb0, 0x98, 0xbd,
    0x3f, 0x53, 0x75, 0xbd, 0x2c, 0x67, 0xfa, 0x3d, 0xd4, 0xeb,
    0x31, 0xbc, 0xfc, 0xa9, 0x7c, 0xbd, 0x8b, 0x9a, 0xc3, 0x3c,
    0xad, 0x11, 0x48, 0xbc, 0xcb, 0x6d, 0x8b, 0xbd, 0x7d, 0x66,
    0x74, 0xbc, 0xdd, 0x9a, 0x90, 0xbd, 0xbe, 0x07, 0x87, 0xbd,
    0x70, 0xe6, 0xa8, 0x3d, 0x10, 0x1f, 0x52, 0xbd, 0xe0, 0x5c,
    0xc3, 0xbd, 0x43, 0xb7, 0x9e, 0xbd, 0x95, 0x08, 0xcf, 0xba,
    0xdf, 0x5a, 0x96, 0x3c, 0x1f, 0x7c, 0x0a, 0x3d, 0xc9, 0x2b,
    0x42, 0x3d, 0x31, 0xed, 0x3f, 0x3d, 0x9d, 0x68, 0x00, 0xbe,
    0x86, 0x14, 0xee, 0xbb, 0x57, 0x43, 0x7a, 0x3b, 0x09, 0xd3,
    0x11, 0xbd, 0x33, 0xbf, 0x03, 0xbe, 0xb2, 0x04, 0x91, 0x3d,
    0x13, 0x58, 0x97, 0xbd, 0x44, 0xeb, 0x31, 0xbd, 0x1c, 0x12,
    0x26, 0x3d, 0x9e, 0x3f, 0xbe, 0xbb, 0xd3, 0xf7, 0x9c, 0xbd,
    0xc0, 0xc0, 0xb5, 0xbb, 0x4c, 0x5f, 0x11, 0xbd, 0x89, 0xaa,
    0xd9, 0x3d, 0xd4, 0xac, 0x0c, 0x3e, 0xa2, 0x84, 0xb3, 0xbb,
    0xe8, 0x18, 0x98, 0xbd, 0x34, 0x66, 0x01, 0x3c, 0xea, 0xd0,
    0xdc, 0x3d, 0x85, 0xc0, 0xb2, 0x3c, 0x6e, 0xe0, 0x8b, 0xbc,
    0xf7, 0x4c, 0x62, 0x3d, 0x95, 0x8b, 0x4b, 0xbc, 0xc7, 0xd1,
    0xc5, 0x3d, 0xbf, 0x5f, 0x25, 0xbd, 0x19, 0xe7, 0x41, 0x3e,
    0xb0, 0x13, 0xe5, 0x3c, 0xf5, 0x22, 0xb1, 0x3d, 0x64, 0x32,
    0x41, 0xbd, 0x7c, 0x2d, 0xf1, 0xbd, 0x95, 0x3a, 0x33, 0x3e,
    0xf4, 0x12, 0xa2, 0x3d, 0x8a, 0x0d, 0x60, 0xbd, 0xd2, 0x02,
    0x1c, 0x3e, 0x7f, 0x83, 0x5f, 0xbd, 0xbc, 0x68, 0x0c, 0xbd,
    0x99, 0x3f, 0x87, 0xbc, 0x11, 0x44, 0xa9, 0xbc, 0xdc, 0x24,
    0x3c, 0x3c, 0xa8, 0xd1, 0x69, 0x3d, 0x9f, 0x01, 0x4c, 0xbd,
    0xb2, 0x62, 0x1b, 0xbd, 0xdd, 0x53, 0x1a, 0x3c, 0x42, 0x4f,
    0x27, 0x3e, 0x0a, 0xbb, 0x90, 0x3d, 0x70, 0xdd, 0xc0, 0x3d,
    0x7a, 0x94, 0x57, 0xbd, 0x08, 0xea, 0x10, 0x3e, 0xb8, 0x8f,
    0x77, 0xbd, 0x12, 0x73, 0xa7, 0x3c, 0xc9, 0x8a, 0x11, 0x3e,
    0x96, 0x91, 0x09, 0x3e, 0x71, 0x36, 0x2d, 0xbe, 0x72, 0xae,
    0x35, 0x3d, 0xd6, 0x33, 0x23, 0xbb, 0xcc, 0x95, 0x0c, 0xbd,
    0x46, 0x3f, 0x17, 0xbe, 0xeb, 0x08, 0x22, 0x3e, 0xde, 0xb9,
    0x9f, 0xbd, 0x51, 0x40, 0xab, 0xbc, 0x81, 0x6b, 0x1d, 0xbc,
    0xd6, 0xe7, 0x0f, 0xbe, 0x98, 0x3a, 0xa9, 0x3d, 0x74, 0x48,
    0xd2, 0xbd, 0xf4, 0x4b, 0x08, 0x3e, 0x4f, 0xac, 0x9b, 0xbd,
    0xe1, 0x9e, 0x12, 0xbe, 0xde, 0x59, 0x9a, 0xbd, 0xc3, 0x5b,
    0x25, 0x3c, 0x9f, 0x48, 0x0f, 0xbd, 0xc0, 0x40, 0x22, 0xbd,
    0x90, 0xbc, 0xfb, 0x3d, 0x26, 0xdb, 0x53, 0xbd, 0xb3, 0x0b,
    0x7c, 0xbd, 0x8d, 0x1e, 0x64, 0x3d, 0x8f, 0x3e, 0x8f, 0x3d,
    0x9c, 0xbe, 0xcb, 0x3c, 0x40, 0x99, 0x69, 0x3d, 0x66, 0xc0,
    0xd3, 0xbc, 0x08, 0xc0, 0x4e, 0xbd, 0x55, 0x46, 0x2b, 0xbd,
    0xe8, 0x72, 0xcb, 0x3d, 0xc0, 0x08, 0x8e, 0xbd, 0x8b, 0x75,
    0x87, 0xbb, 0x94, 0x5c, 0xa0, 0x3d, 0x2a, 0x6d, 0x14, 0x3d,
    0x26, 0x10, 0xa9, 0x3b, 0x0a, 0xf8, 0xf1, 0x3d, 0xb8, 0xe3,
    0x1c, 0xbd, 0xaf, 0x39, 0xb4, 0xbd, 0x75, 0x6d, 0xde, 0x3d,
    0x91, 0x8a, 0x6c, 0xbd, 0x01, 0x2d, 0x9b, 0x3d, 0xbd, 0x5e,
    0x1a, 0x3e, 0xb2, 0x96, 0xaa, 0xbd, 0x9a, 0xd2, 0x4d, 0xbd,
    0x30, 0x2b, 0x9d, 0xbd, 0x46, 0xbc, 0x36, 0xbc, 0xff, 0xc3,
    0x54, 0xbd, 0xc4, 0xda, 0xb2, 0x3d, 0x01, 0x9b, 0xbc, 0xbd,
    0x5e, 0x63, 0x25, 0x3d, 0x0c, 0xb3, 0x9a, 0xbd, 0xb5, 0xbd,
    0x02, 0xbe, 0xcb, 0x7e, 0x5b, 0x3d, 0x73, 0x84, 0x8e, 0x3d,
    0x60, 0x96, 0xd4, 0xbd, 0x47, 0xaf, 0xfe, 0x3d, 0x80, 0xaa,
    0x7b, 0xbb, 0x67, 0x71, 0xd2, 0x3d, 0x5c, 0xe2, 0x50, 0xbd,
    0xb9, 0xa1, 0x86, 0x3b, 0xa6, 0x77, 0x13, 0xbc, 0x4b, 0x38,
    0x81, 0xbd, 0x84, 0xa1, 0xe8, 0x3a, 0x22, 0x6c, 0xb4, 0x3d,
    0xa1, 0xfd, 0x2c, 0xbd, 0x4d, 0x02, 0xa5, 0x3d, 0x7f, 0x9b,
    0x68, 0xbd, 0xbe, 0xa7, 0xe4, 0x3d, 0x2e, 0x8e, 0x3c, 0x3d,
    0xa0, 0xf6, 0xef, 0xbd, 0xf2, 0x65, 0x97, 0x3d, 0xb5, 0xd6,
    0xcf, 0xbd, 0xd5, 0x40, 0x92, 0xbd, 0xeb, 0xb6, 0x23, 0xbd,
    0xe1, 0x35, 0x94, 0x3d, 0xb0, 0x32, 0x2c, 0xbd, 0x90, 0xb5,
    0xa1, 0xbd, 0x2e, 0xc2, 0x06, 0xbe, 0x7e, 0xff, 0x22, 0x3d,
    0x11, 0x06, 0x4f, 0x3c, 0xe9, 0x55, 0x05, 0xbd, 0x98, 0x52,
    0x75, 0x3c, 0xaf, 0xb0, 0x65, 0x3d, 0xd5, 0x63, 0xe3, 0xbd,
    0x10, 0x6e, 0xbd, 0xbd, 0x98, 0x40, 0x65, 0xbc, 0x04, 0xca,
    0x80, 0xbd, 0x24, 0x70, 0x7b, 0xbd, 0x9a, 0x20, 0x4e, 0xba,
    0x9e, 0xc2, 0x16, 0xbd, 0xfe, 0xe8, 0x85, 0x3d, 0xac, 0x57,
    0x1b, 0xbe, 0x7a, 0x0a, 0x88, 0xbd, 0xd3, 0x62, 0xac, 0xbd,
    0xde, 0xb8, 0x7f, 0xbd, 0xb8, 0xc6, 0xb7, 0xbd, 0xe6, 0x4b,
    0x94, 0x3d, 0xad, 0xa2, 0x89, 0xbd, 0x6b, 0xdd, 0x8f, 0xbd,
    0x98, 0xa4, 0xea, 0xbd, 0x8b, 0xc3, 0x32, 0xbc, 0x3d, 0x48,
    0x60, 0x3d, 0x7b, 0x4a, 0x2d, 0xbe, 0xe4, 0x33, 0xa3, 0x3d,
    0x55, 0xb7, 0xda, 0x3c, 0x88, 0xe6, 0x0c, 0xbe, 0x00, 0xd7,
    0xb3, 0x3d, 0xe6, 0xd8, 0x59, 0xbd, 0x2e, 0xb0, 0xfd, 0x3d,
    0x7b, 0xe2, 0xa0, 0x3d, 0xbf, 0x83, 0xcc, 0xbd, 0x6c, 0xc3,
    0xc1, 0x3d, 0x7e, 0x58, 0xd4, 0xbd, 0x22, 0x10, 0xa3, 0xbc,
    0xab, 0x3b, 0x22, 0xbc, 0x48, 0xb7, 0x81, 0xbd, 0x3d, 0xcf,
    0x6c, 0x3d, 0xe2, 0x0b, 0x6c, 0xbd, 0xa7, 0xf1, 0x12, 0xbe,
    0x20, 0xa3, 0x29, 0x3e, 0x4a, 0x59, 0xee, 0xbc, 0xdf, 0xee,
    0xe9, 0x3d, 0xbe, 0x89, 0x04, 0x3e, 0xab, 0x90, 0x00, 0xbd,
    0x46, 0xe8, 0x6f, 0x3d, 0xa2, 0x3e, 0x5a, 0x3d, 0x82, 0xf7,
    0xaa, 0x3c, 0x7c, 0x91, 0x8a, 0xbd, 0xe2, 0x80, 0x80, 0xbc,
    0x6a, 0x55, 0xe4, 0xbd, 0x17, 0x69, 0xbf, 0xbc, 0x9b, 0x6f,
    0x0c, 0xbe, 0xd8, 0x7c, 0x46, 0x3d, 0xa8, 0x90, 0x02, 0x3d,
    0x1f, 0xa5, 0x03, 0xbd, 0x12, 0xea, 0x1a, 0x3d, 0x5e, 0x27,
    0xba, 0x3b, 0xcd, 0xdc, 0x89, 0xbd, 0xbd, 0x28, 0x1b, 0xba,
    0xde, 0x6e, 0xf6, 0x3d, 0x2d, 0x80, 0x05, 0xbd, 0xf5, 0x6a,
    0xa9, 0x3d, 0xd4, 0xd9, 0xd7, 0x3d, 0x5b, 0x91, 0xa0, 0x3d,
    0xdb, 0xe1, 0x45, 0xbd, 0xe5, 0x7d, 0x59, 0x3c, 0xa3, 0x75,
    0x18, 0x3e, 0x8f, 0x9d, 0x6d, 0xbd, 0x49, 0x06, 0xcb, 0x3d,
    0xc0, 0x6e, 0x2a, 0x3d, 0xd7, 0x16, 0x0d, 0x3e, 0xc6, 0x4a,
    0x26, 0x3c, 0x76, 0x55, 0x45, 0x3c, 0x13, 0x7b, 0xac, 0x3d,
    0x89, 0x6a, 0xe0, 0xbd, 0x71, 0xdc, 0xea, 0xbd, 0x89, 0x96,
    0xc2, 0x3d, 0xaa, 0xd1, 0x08, 0x3c, 0x11, 0x5c, 0x97, 0x3d,
    0x46, 0x4c, 0x95, 0x3d, 0x94, 0x8b, 0xaa, 0xbc, 0x92, 0x55,
    0x93, 0xbd, 0x12, 0xe4, 0x13, 0x3c, 0x45, 0xb4, 0x3f, 0x3d,
    0xa3, 0x53, 0xb6, 0xbc, 0xae, 0xcc, 0xff, 0xbc, 0x3f, 0xd5,
    0x25, 0x3e, 0x86, 0x8d, 0x7b, 0xbd, 0x65, 0x82, 0xb2, 0xbd,
    0xe6, 0x07, 0xe3, 0x3d, 0xc7, 0x13, 0xba, 0xbd, 0x88, 0x3d,
    0x03, 0x3d, 0x9a, 0x9c, 0x6e, 0xbd, 0x08, 0x28, 0x0f, 0xbd,
    0x41, 0xa6, 0x1b, 0x3d, 0xd7, 0x94, 0x9b, 0x3d, 0x01, 0xbe,
    0xbf, 0xbd, 0xfc, 0x1e, 0xc1, 0xbc, 0x29, 0x6a, 0x61, 0xbb,
    0xc6, 0xef, 0x02, 0xbb, 0xb8, 0xaa, 0xde, 0x3d, 0x21, 0xfd,
    0xc4, 0xbd, 0x47, 0xbe, 0x0e, 0x3d, 0x1e, 0x65, 0xe5, 0xbd,
    0x38, 0x8f, 0x94, 0xbb, 0x6e, 0xc9, 0x13, 0x3c, 0x8a, 0xe1,
    0x29, 0xbc, 0xda, 0x8b, 0xf4, 0x3d, 0xfc, 0x7f, 0xb0, 0x3d,
    0x3e, 0x30, 0x0f, 0x3e, 0x5a, 0x97, 0x08, 0x3e, 0x2c, 0xfc,
    0x06, 0x3e, 0x73, 0x9a, 0xe6, 0xbd, 0xbe, 0x58, 0x08, 0x3e,
    0x07, 0xff, 0x96, 0x3c, 0x36, 0xe5, 0xe1, 0x3d, 0xd2, 0x5a,
    0x20, 0x3d, 0x0b, 0xae, 0xaa, 0xbd, 0xd5, 0x5f, 0x72, 0xbd,
    0x3c, 0x98, 0xac, 0x3d, 0x30, 0x54, 0xad, 0x3d, 0x7a, 0xd6,
    0x0b, 0xbd, 0xe1, 0x11, 0xe5, 0xb9, 0x47, 0xa9, 0xe2, 0xbd,
    0x94, 0x99, 0x95, 0xbd, 0x8d, 0x26, 0xef, 0x3c, 0xa8, 0xb0,
    0x93, 0xbc, 0xee, 0x49, 0xda, 0xbc, 0x1b, 0xea, 0x6f, 0x3d,
    0xa2, 0xa1, 0xc0, 0x3d, 0x22, 0xaa, 0x62, 0xbc, 0x59, 0xea,
    0x01, 0xbe, 0x89, 0x8f, 0x09, 0xbe, 0x97, 0x40, 0xdf, 0xbd,
    0xc2, 0xc9, 0x6e, 0xbc, 0xdd, 0x5a, 0xcf, 0xbd, 0x29, 0x81,
    0xd6, 0xbd, 0x2d, 0xb4, 0xd4, 0xbd, 0x5e, 0x00, 0x62, 0xbd,
    0x49, 0xa5, 0x04, 0x3e, 0xc9, 0xd7, 0x51, 0xbd, 0x70, 0x00,
    0x52, 0x3d, 0xfd, 0xfd, 0x14, 0x3e, 0xa5, 0x66, 0xa9, 0xbd,
    0xb2, 0x87, 0x93, 0x3d, 0x63, 0x1f, 0x99, 0x3d, 0x01, 0xcd,
    0xa8, 0x3c, 0x57, 0x25, 0xc7, 0xbd, 0x54, 0x5d, 0x09, 0xbb,
    0x40, 0xb2, 0x88, 0x3d, 0x2e, 0x55, 0xe0, 0xbd, 0x4e, 0x4c,
    0xdf, 0x3c, 0xb2, 0x4e, 0x5d, 0x3d, 0x07, 0xaf, 0x34, 0xbd,
    0x11, 0xd0, 0xf1, 0x3c, 0xbf, 0x60, 0x3c, 0x3d, 0x01, 0x95,
    0x49, 0xbd, 0x0f, 0xb9, 0x16, 0x3e, 0xf0, 0x6e, 0x35, 0x3e,
    0x94, 0xb4, 0x39, 0xba, 0x60, 0x2d, 0x87, 0xbd, 0x08, 0x21,
    0xcb, 0x3d, 0x84, 0x15, 0xfd, 0x3d, 0xeb, 0xb8, 0xeb, 0xbd,
    0xd3, 0x1b, 0x26, 0x3d, 0xf0, 0x50, 0x0d, 0x3e, 0xd5, 0xf7,
    0x64, 0xbc, 0xa9, 0x52, 0xfd, 0x3c, 0xa5, 0xc8, 0xd8, 0xbd,
    0x4c, 0xe3, 0xce, 0xbd, 0x3c, 0x44, 0xce, 0xbc, 0x2e, 0x11,
    0x22, 0x3c, 0x55, 0x03, 0xff, 0xbc, 0xc1, 0x93, 0x89, 0x3d,
    0x7c, 0xa7, 0xb9, 0xbc, 0xb0, 0x24, 0x82, 0xbd, 0xdd, 0xb0,
    0xeb, 0xbc, 0xc6, 0x7c, 0x46, 0x3d, 0x44, 0xc8, 0xc2, 0x3d,
    0x43, 0xf2, 0x11, 0x3d, 0x28, 0x0e, 0xcc, 0xbc, 0x25, 0xc2,
    0x5d, 0x3d, 0x05, 0x75, 0x27, 0x3d, 0xfd, 0x02, 0xb0, 0x3d,
    0x04, 0x04, 0xfe, 0x3d, 0xce, 0xdb, 0xc1, 0xbd, 0xf6, 0x06,
    0x91, 0xbd, 0xc3, 0x5e, 0x8d, 0x3d, 0x98, 0x0b, 0x42, 0xbd,
    0xf7, 0xfc, 0x31, 0xbd, 0x2e, 0x16, 0x27, 0x3e, 0x20, 0xfb,
    0x05, 0x3e, 0xfe, 0x87, 0x16, 0x3e, 0xe1, 0xd8, 0xc0, 0x3d,
    0xcb, 0xbb, 0xbe, 0x3d, 0x4c, 0xc9, 0x46, 0x3c, 0xf4, 0x7e,
    0x52, 0x3d, 0x7a, 0xd0, 0xd3, 0x3d, 0x5c, 0xba, 0xba, 0x3d,
    0x36, 0x00, 0x24, 0x3e, 0xe7, 0x0c, 0xb8, 0x3d, 0x39, 0x42,
    0x7f, 0xbd, 0x9a, 0x28, 0x37, 0x3e, 0xb9, 0xcb, 0xda, 0x3d,
    0x87, 0x54, 0x80, 0xbc, 0xa3, 0xc5, 0xa7, 0x3d, 0x1e, 0xb8,
    0xc2, 0xbc, 0xd8, 0xff, 0xef, 0x3b, 0x8a, 0xe6, 0x8c, 0x3c,
    0x5c, 0x26, 0xae, 0xbd, 0xf0, 0x6a, 0xa0, 0x3c, 0x59, 0xa6,
    0x3e, 0x3d, 0x12, 0x46, 0xdf, 0xbc, 0xe2, 0x5b, 0xf3, 0x3d,
    0x73, 0xc1, 0xbf, 0x3d, 0xae, 0x1a, 0x1f, 0x3d, 0xaa, 0xd3,
    0xc6, 0x3d, 0xf6, 0x72, 0xc5, 0x3d, 0xef, 0x82, 0xa0, 0x3d,
    0xe9, 0xe7, 0x6f, 0x3d, 0xae, 0x9a, 0x12, 0xbb, 0xb8, 0x90,
    0xdb, 0xbd, 0x2a, 0xbd, 0xc9, 0x3d, 0x1d, 0x52, 0xd8, 0xbd,
    0x3d, 0xa6, 0x72, 0xbd, 0xba, 0x49, 0xa8, 0xbd, 0xde, 0x01,
    0xe4, 0xbd, 0xe2, 0xfc, 0x1d, 0xbc, 0xa8, 0x8f, 0xd8, 0x3d,
    0x29, 0x29, 0x08, 0x3e, 0x2a, 0x56, 0x71, 0xbd, 0x12, 0x43,
    0xae, 0x3d, 0x33, 0x0b, 0xdc, 0xbd, 0x1b, 0x5d, 0xf7, 0xbd,
    0xe6, 0x83, 0x98, 0x3b, 0x38, 0x69, 0x70, 0xbd, 0xb5, 0x29,
    0x85, 0xbd, 0x7b, 0x0f, 0xd9, 0x3c, 0x48, 0xa2, 0x0b, 0x3b,
    0xe3, 0x5d, 0xbc, 0xbd, 0xee, 0xa7, 0xb9, 0xbb, 0xdb, 0x36,
    0xc4, 0xbd, 0xc5, 0xcf, 0xc5, 0x3d, 0x66, 0x60, 0x9d, 0x3d,
    0x05, 0xc5, 0x05, 0xbd, 0x9b, 0x9d, 0xd3, 0x3d, 0xf1, 0x7a,
    0xd0, 0x3c, 0xde, 0x73, 0x6d, 0xbc, 0x21, 0x0f, 0x64, 0x3b,
    0xde, 0xab, 0xe8, 0xbd, 0x6b, 0xe4, 0xfa, 0x3d, 0x09, 0x67,
    0x0b, 0xbe, 0xe7, 0x22, 0x03, 0xbd, 0x2c, 0x58, 0x57, 0x3d,
    0x6d, 0xcc, 0xae, 0xbc, 0x7b, 0xd2, 0xa4, 0xbd, 0x8f, 0x19,
    0x53, 0xbd, 0x8e, 0x84, 0xb9, 0xbd, 0x67, 0xf9, 0xf1, 0xba,
    0xec, 0xbd, 0xec, 0x3c, 0x9c, 0x60, 0x03, 0x3e, 0x1b, 0x4b,
    0xf2, 0x3c, 0xce, 0x32, 0x66, 0x3c, 0x0d, 0x07, 0x6b, 0x3d,
    0x86, 0x33, 0x1d, 0x3d, 0xff, 0x1b, 0x81, 0x3d, 0xc6, 0xfe,
    0xe3, 0xbd, 0x00, 0xad, 0x7c, 0xbc, 0xbd, 0x48, 0xae, 0xbd,
    0xd3, 0x8b, 0xd5, 0x3d, 0xd7, 0x82, 0x8a, 0xbc, 0x37, 0xad,
    0xa4, 0x3d, 0x0a, 0x3b, 0x28, 0xbe, 0x20, 0xc0, 0x3a, 0x3d,
    0x9d, 0x5b, 0x2b, 0x3c, 0x94, 0xa5, 0x6a, 0x3c, 0x95, 0x82,
    0xf2, 0xbd, 0x8e, 0xa9, 0xa0, 0xbd, 0x50, 0x06, 0x01, 0xbe,
    0xbe, 0x4f, 0x90, 0x3c, 0x34, 0x01, 0xab, 0xbd, 0x02, 0x29,
    0x54, 0x3d, 0x2d, 0x81, 0x38, 0xbd, 0xbc, 0x0a, 0x03, 0xbe,
    0x03, 0x67, 0x71, 0xbd, 0xe3, 0x63, 0xf7, 0xbb, 0x65, 0x42,
    0x5f, 0xbd, 0xd5, 0xe7, 0x9f, 0xbd, 0x5c, 0x03, 0x85, 0x3d,
    0xef, 0xd2, 0x6b, 0xbd, 0x23, 0x73, 0xf4, 0x3c, 0x45, 0xea,
    0xa9, 0xbc, 0x5b, 0xdd, 0x91, 0x3d, 0x57, 0x10, 0xc8, 0xbd,
    0xcc, 0xb7, 0xc4, 0x3d, 0xa8, 0x7a, 0x40, 0x3d, 0xe4, 0xab,
    0xbc, 0x3d, 0x69, 0x96, 0x21, 0xbe, 0xb9, 0x9d, 0xba, 0xbc,
    0x43, 0xe2, 0x25, 0xbe, 0x52, 0x57, 0xb0, 0xbb, 0x83, 0xd1,
    0xeb, 0xbd, 0xdb, 0x9f, 0xa5, 0xbd, 0xdc, 0x33, 0x7d, 0xbd,
    0x26, 0x6d, 0x9b, 0xbd, 0x55, 0xae, 0xc0, 0xbd, 0x3f, 0x30,
    0xc2, 0xbd, 0x83, 0x0d, 0x44, 0xbd, 0x12, 0x0e, 0x8c, 0xbd,
    0x97, 0x73, 0xa4, 0xbd, 0x92, 0x0f, 0xb4, 0x3c, 0xf7, 0x07,
    0xd1, 0x3d, 0x85, 0x48, 0x04, 0x3d, 0x7e, 0x00, 0x9c, 0xba,
    0x99, 0x1b, 0x8f, 0x3d, 0x58, 0x89, 0x1a, 0x3d, 0x4f, 0xa5,
    0x17, 0x3e, 0x28, 0x6a, 0x17, 0xbc, 0x1f, 0xa4, 0x02, 0x3e,
    0x68, 0x9a, 0xb6, 0x3d, 0xfb, 0xf7, 0x09, 0x3e, 0x11, 0x04,
    0xb8, 0x3c, 0xbd, 0x97, 0x24, 0x3d, 0x44, 0x06, 0x06, 0x3d,
    0x63, 0xc0, 0xed, 0xbd, 0x84, 0x00, 0x13, 0x3e, 0x87, 0x4e,
    0xc5, 0x3d, 0x65, 0xc5, 0x8d, 0x3d, 0xc1, 0x8f, 0x02, 0x3c,
    0x4c, 0xde, 0xc1, 0xbd, 0xe7, 0xf4, 0x1e, 0xbd, 0x48, 0x66,
    0x64, 0xbd, 0xf4, 0xee, 0x82, 0x3d, 0xbe, 0x2a, 0x16, 0x3e,
    0xfb, 0x8b, 0x94, 0xbd, 0x15, 0xa2, 0xa7, 0x3b, 0xaf, 0x27,
    0x17, 0x3d, 0x69, 0xbd, 0xc4, 0x3d, 0x79, 0x1c, 0x96, 0xbd,
    0x29, 0xcd, 0x2a, 0x3e, 0x61, 0xe8, 0x2b, 0xbc, 0x43, 0xd2,
    0x3d, 0x3d, 0xc2, 0x76, 0xab, 0xbd, 0x0c, 0xd2, 0xbd, 0xbd,
    0x84, 0x8c, 0x15, 0xbd, 0x1c, 0xba, 0x81, 0xbd, 0x04, 0xf5,
    0xd2, 0x3c, 0x11, 0x91, 0xae, 0xbd, 0xec, 0x9b, 0x92, 0xbd,
    0x7b, 0x72, 0x24, 0x3e, 0x93, 0xbd, 0x8f, 0xbd, 0x65, 0xe9,
    0x8d, 0x3d, 0x0a, 0x6d, 0x14, 0xbe, 0x09, 0xd0, 0xc4, 0xbb,
    0x82, 0xb0, 0x90, 0x3d, 0xc4, 0xea, 0xf2, 0x3d, 0x64, 0x40,
    0x1a, 0x3e, 0x05, 0x69, 0x35, 0xbd, 0x98, 0xf4, 0x88, 0x3b,
    0xce, 0x41, 0x14, 0xbc, 0xbd, 0xa3, 0x2f, 0x3d, 0xad, 0xd3,
    0xb1, 0x3b, 0x37, 0x9f, 0xd3, 0x3d, 0x84, 0xdb, 0x57, 0xbd,
    0xca, 0xbd, 0xeb, 0x3d, 0xaa, 0x6f, 0xd0, 0x3c, 0x53, 0xe4,
    0xba, 0x3b, 0x57, 0x38, 0xc9, 0xbd, 0x79, 0xc1, 0xe9, 0x3d,
    0x9f, 0x03, 0xa2, 0xbd, 0xd5, 0x84, 0xed, 0xbd, 0x7f, 0x9a,
    0x2a, 0x3e, 0x8c, 0x00, 0xa7, 0x3b, 0x0c, 0xf2, 0x13, 0xbd,
    0xd6, 0xd6, 0xcb, 0x3c, 0x03, 0x54, 0x53, 0x3d, 0x6a, 0xf3,
    0x89, 0xbd, 0x7c, 0x03, 0x36, 0x3d, 0x22, 0xa2, 0xaa, 0xbc,
    0x5e, 0x33, 0xc9, 0xbd, 0xf7, 0x1f, 0x32, 0x3c, 0x48, 0x8d,
    0x7e, 0xbd, 0x20, 0x99, 0x0d, 0xbe, 0xa4, 0xb8, 0xaa, 0x3d,
    0xe2, 0xf7, 0x2a, 0x3d, 0x0c, 0x9a, 0xcf, 0xbd, 0xfe, 0xa7,
    0xc4, 0xbd, 0xb2, 0x82, 0xd1, 0x3c, 0xfb, 0x53, 0xf6, 0xbc,
    0x5d, 0x03, 0xa3, 0xbd, 0x5a, 0x22, 0xe7, 0xbc, 0x07, 0x51,
    0x8b, 0xbd, 0x77, 0x04, 0x82, 0x3d, 0x23, 0xc0, 0x8d, 0xbd,
    0x43, 0x78, 0x0b, 0xbe, 0x27, 0x28, 0x3f, 0xbc, 0xe2, 0x60,
    0x8f, 0x3d, 0x9d, 0x72, 0x16, 0x3e, 0x48, 0x90, 0xcd, 0xbd,
    0xf4, 0xc4, 0x25, 0x3d, 0x67, 0x36, 0xb9, 0xbc, 0xf9, 0x99,
    0xb5, 0x3d, 0xf6, 0xba, 0xf7, 0x3d, 0xfc, 0x49, 0x9f, 0xbc,
    0x1d, 0xd7, 0xff, 0xbc, 0x8a, 0x90, 0x59, 0x3d, 0x99, 0x8f,
    0x80, 0x3d, 0x3a, 0x95, 0x86, 0xbd, 0x67, 0x15, 0xd1, 0xbd,
    0x08, 0x7e, 0xee, 0xba, 0x79, 0x3e, 0xee, 0x3c, 0xc4, 0x08,
    0x91, 0x3d, 0xd0, 0x13, 0x0b, 0x3e, 0x6e, 0x40, 0x51, 0x3c,
    0xb9, 0x9d, 0xc9, 0xbc, 0x6b, 0xe8, 0xa1, 0x3d, 0x1e, 0xf2,
    0x44, 0x3c, 0x8f, 0x9e, 0x37, 0xbc, 0x9b, 0xf9, 0x0b, 0x3e,
    0x5e, 0x3c, 0x18, 0x3e, 0x6f, 0x5a, 0x19, 0x3d, 0x30, 0x14,
    0x97, 0xbd, 0xa9, 0x44, 0xb7, 0x3c, 0x66, 0xad, 0x0c, 0x3e,
    0x92, 0xd9, 0x49, 0x3d, 0x1a, 0x56, 0xe3, 0x3c, 0x26, 0xb3,
    0x66, 0x3c, 0xa7, 0x1f, 0xe0, 0xbd, 0xf2, 0x45, 0xd4, 0x3d,
    0x3f, 0x53, 0x50, 0x3b, 0xe9, 0x1d, 0x19, 0xbd, 0x6a, 0x51,
    0x05, 0x3e, 0x8f, 0xad, 0x09, 0xbe, 0x89, 0xd3, 0xed, 0xbd,
    0xfc, 0x3d, 0x9c, 0x3d, 0x49, 0x1c, 0xaa, 0xbd, 0xfa, 0x71,
    0x2a, 0x3d, 0x0f, 0x08, 0x80, 0xbc, 0x17, 0xf2, 0x12, 0xbc,
    0x5f, 0xcb, 0x4c, 0xbd, 0x19, 0x09, 0xf1, 0x3d, 0x83, 0x18,
    0x97, 0xbc, 0xfc, 0xaa, 0xd3, 0x3c, 0xaa, 0x8a, 0x01, 0x3e,
    0x74, 0x19, 0x6b, 0xbd, 0x2b, 0x55, 0x42, 0xbc, 0xce, 0xc6,
    0x06, 0x3d, 0xdc, 0xce, 0x8d, 0xbc, 0x6d, 0x64, 0x82, 0xbd,
    0x91, 0x8e, 0xb8, 0x3d, 0x86, 0xbe, 0x40, 0xbc, 0xb9, 0x79,
    0xfd, 0xbd, 0x46, 0x49, 0xa4, 0xbd, 0x88, 0x15, 0x9d, 0xbd,
    0x56, 0x72, 0xe1, 0x3d, 0xfc, 0xe4, 0x87, 0xbd, 0xb0, 0xfd,
    0xe1, 0x3c, 0xc9, 0x6a, 0x0f, 0xbe, 0xce, 0x7b, 0xa8, 0xbd,
    0x57, 0x27, 0xac, 0x3b, 0x42, 0x67, 0xe5, 0xbd, 0x3d, 0xf5,
    0x9f, 0xbd, 0xbc, 0xbd, 0xe1, 0x3c, 0xa5, 0x18, 0x1d, 0xbe,
    0x61, 0xce, 0x55, 0xbe, 0xd8, 0x24, 0xbf, 0xbd, 0xbd, 0x9b,
    0xef, 0xbd, 0x56, 0xbe, 0x8f, 0x3d, 0x56, 0xe1, 0x19, 0x3d,
    0xc1, 0xf8, 0x10, 0xbe, 0x89, 0x90, 0x2c, 0xbe, 0x27, 0xcb,
    0x02, 0xbe, 0xa8, 0xe9, 0xbe, 0x3c, 0x7f, 0xd7, 0x63, 0xbd,
    0xb4, 0xc5, 0x00, 0xbd, 0x72, 0x25, 0x27, 0xbd, 0x11, 0xa3,
    0x04, 0xbd, 0x06, 0x4c, 0xcb, 0x3d, 0xc6, 0x19, 0x74, 0x3d,
    0x2c, 0x29, 0x93, 0xbd, 0x01, 0x8d, 0xf3, 0x3c, 0x48, 0x52,
    0x68, 0x3c, 0x4b, 0x7b, 0x3e, 0x3d, 0x54, 0x6b, 0xb4, 0x3c,
    0x5a, 0xd3, 0xc9, 0xbc, 0xf2, 0x86, 0x8c, 0xbc, 0x51, 0x14,
    0xc7, 0xbc, 0x6e, 0x4b, 0x20, 0x3e, 0xcc, 0x8c, 0xc1, 0x3b,
    0x32, 0x2f, 0xc0, 0x3d, 0xf4, 0x28, 0x1b, 0xbd, 0x61, 0xaa,
    0x8a, 0xbd, 0xed, 0xc8, 0xfc, 0x3d, 0xd8, 0x7d, 0x2c, 0x3e,
    0xdc, 0x7e, 0xcb, 0xbc, 0x0f, 0x1f, 0x7e, 0xbc, 0x1c, 0x5c,
    0x3f, 0xbd, 0x4a, 0x14, 0xc8, 0xbd, 0x86, 0x87, 0x18, 0xbe,
    0x0b, 0xf5, 0x1f, 0x3a, 0x5d, 0xe0, 0xaa, 0x3d, 0x7e, 0x8d,
    0xbe, 0x3c, 0x63, 0x0b, 0xbf, 0xbd, 0x18, 0xfc, 0x13, 0x3e,
    0xd7, 0x49, 0x2f, 0xbd, 0xc8, 0xc7, 0xf2, 0x3d, 0x0e, 0x6f,
    0xea, 0x3d, 0xea, 0xe3, 0x95, 0x3d, 0x1a, 0x2c, 0x37, 0xbe,
    0xa7, 0xa4, 0xbf, 0xbd, 0x09, 0x31, 0x0a, 0x3e, 0xf0, 0xb7,
    0x8b, 0x3d, 0x9a, 0x93, 0x2a, 0xbd, 0xea, 0x06, 0xcb, 0x3d,
    0x53, 0xfe, 0x14, 0xbe, 0x4f, 0x1a, 0xab, 0xbd, 0x36, 0x5c,
    0x3a, 0xbe, 0xda, 0xe1, 0x85, 0xbd, 0xf1, 0x3b, 0x36, 0xbe,
    0x82, 0xe0, 0xf3, 0x3d, 0x91, 0xa2, 0xd8, 0x3d, 0xa6, 0xc9,
    0xcd, 0xbd, 0x6f, 0xf0, 0x0f, 0x3e, 0xc0, 0xf2, 0x7b, 0x3d,
    0x73, 0x9d, 0x0b, 0x3e, 0x48, 0xa4, 0xac, 0x3d, 0x8b, 0x88,
    0x20, 0x3d, 0xef, 0xfe, 0xbc, 0xbd, 0x5f, 0xc7, 0x05, 0x3e,
    0x67, 0x31, 0xa9, 0xbc, 0xb9, 0x51, 0x6f, 0xbc, 0x40, 0xcc,
    0xc5, 0x3d, 0xc9, 0x15, 0x13, 0x3e, 0x1c, 0xb0, 0x69, 0x3d,
    0xfb, 0x1b, 0xb3, 0xbd, 0x84, 0xc8, 0xf1, 0x3d, 0x9f, 0xdf,
    0xbc, 0x3d, 0x2f, 0x15, 0xee, 0x3a, 0x0c, 0x84, 0xd0, 0xbc,
    0xaa, 0xda, 0xbf, 0xbd, 0x27, 0x31, 0x04, 0x3c, 0x60, 0xca,
    0x91, 0xbc, 0xe3, 0x10, 0xff, 0xbc, 0x30, 0xe5, 0xfe, 0x3d,
    0x5a, 0x20, 0xc0, 0xbb, 0x39, 0xfb, 0x4d, 0xbd, 0x26, 0xf0,
    0x67, 0x3b, 0x47, 0xe9, 0x84, 0xbd, 0xd0, 0x07, 0x04, 0xbd,
    0x5d, 0xc3, 0xf7, 0xbd, 0x3c, 0x50, 0xa5, 0xbc, 0x11, 0x2e,
    0x63, 0x3d, 0x04, 0x3d, 0xea, 0x3c, 0xd0, 0xc6, 0x27, 0x3e,
    0x06, 0xfb, 0x2d, 0xbd, 0x6e, 0x98, 0xf3, 0xbd, 0xf2, 0x05,
    0x8a, 0xbd, 0xc9, 0x0d, 0xec, 0xbc, 0xe7, 0x5a, 0x0d, 0xbd,
    0xe0, 0x75, 0x30, 0x3e, 0xe8, 0x01, 0xa4, 0x3d, 0xb6, 0x29,
    0x90, 0xbc, 0x6d, 0x7e, 0xb0, 0x3c, 0xad, 0xc3, 0x57, 0x3c,
    0xb8, 0x9b, 0x69, 0xbd, 0xff, 0x6a, 0xf9, 0xbd, 0x6b, 0xd5,
    0x7d, 0x3d, 0x00, 0x6f, 0xaf, 0xbc, 0x2c, 0x11, 0xbf, 0x3d,
    0xa8, 0xc2, 0x19, 0xbd, 0x84, 0x1d, 0xe5, 0xbc, 0x2d, 0xcb,
    0x3d, 0x3d, 0x87, 0x4f, 0xd4, 0x3d, 0x70, 0x6e, 0x9b, 0xbd,
    0x8b, 0x2d, 0x14, 0xbe, 0xea, 0x74, 0xe7, 0xbc, 0x3e, 0x86,
    0x4d, 0x3e, 0x4e, 0x23, 0xa8, 0xbd, 0x08, 0x44, 0xd4, 0xbd,
    0x8d, 0x7e, 0xbf, 0xbd, 0x93, 0xbe, 0xfe, 0xbb, 0x7e, 0x38,
    0x76, 0x3c, 0x70, 0x52, 0xee, 0xbd, 0xbc, 0xf3, 0x8d, 0x3d,
    0x13, 0xd1, 0x4e, 0x3c, 0x27, 0xa0, 0x2e, 0x3d, 0xc5, 0x24,
    0x81, 0xbd, 0x4c, 0x4b, 0x4b, 0xbd, 0x7d, 0xec, 0x95, 0x3b,
    0x43, 0x39, 0xa0, 0xbd, 0x90, 0x3f, 0xa5, 0xbd, 0x14, 0xe0,
    0xb9, 0xbd, 0xb6, 0x11, 0x02, 0xbe, 0xa8, 0x84, 0x56, 0xbd,
    0x89, 0x43, 0x12, 0xbd, 0x5b, 0xb5, 0xb6, 0x3d, 0x01, 0x26,
    0xf6, 0xbd, 0x45, 0xb0, 0xb6, 0xbd, 0xf4, 0xe1, 0xd3, 0x3c,
    0xe1, 0x98, 0xff, 0xbc, 0x20, 0x74, 0xf2, 0x3d, 0x55, 0x75,
    0x28, 0xbd, 0xe4, 0xb8, 0x33, 0x3d, 0x49, 0xbf, 0xce, 0x3d,
    0x91, 0x83, 0xa7, 0xbd, 0x91, 0x5b, 0xde, 0xbd, 0x66, 0xe9,
    0xc1, 0x3d, 0x4f, 0xfa, 0xb2, 0xbd, 0x7a, 0x2f, 0xf8, 0xbd,
    0x91, 0x42, 0x4a, 0xbd, 0x04, 0xe0, 0x62, 0x3c, 0x55, 0x2b,
    0x4c, 0x3c, 0x99, 0x2e, 0x47, 0x3e, 0x07, 0x2e, 0xa7, 0xbd,
    0x9e, 0x4f, 0x89, 0xbd, 0x12, 0xb2, 0x79, 0x3d, 0x2f, 0xa6,
    0x20, 0x3e, 0xeb, 0x80, 0x06, 0xbe, 0x2a, 0x0f, 0x2b, 0xbe,
    0xb7, 0xe7, 0x28, 0x3c, 0x7f, 0xdc, 0xa3, 0x3d, 0x3e, 0x8a,
    0xa9, 0x3c, 0x50, 0xb6, 0xb8, 0x3d, 0x3a, 0xd8, 0xe2, 0xbb,
    0xad, 0xc9, 0xb1, 0xbd, 0x21, 0x01, 0x91, 0xbd, 0x30, 0x01,
    0xae, 0x3c, 0xfb, 0xbb, 0x3f, 0xbd, 0x89, 0x88, 0x31, 0x3e,
    0x98, 0xcc, 0x28, 0xbe, 0x14, 0x9c, 0x72, 0xbd, 0x6f, 0x92,
    0x80, 0xbd, 0xe8, 0xe9, 0x85, 0x3d, 0xe0, 0x16, 0x44, 0x3d,
    0x0a, 0x60, 0x4e, 0xbd, 0x94, 0xad, 0x2b, 0xbd, 0x9c, 0xae,
    0x33, 0x3e, 0x14, 0x8c, 0x0a, 0x3e, 0xeb, 0x33, 0x95, 0x3d,
    0x79, 0x07, 0xec, 0xbb, 0x04, 0x5c, 0x24, 0xbd, 0xcf, 0xb6,
    0xd7, 0xbc, 0x7e, 0xec, 0x3b, 0x3d, 0x08, 0x15, 0x6c, 0x3d,
    0x0f, 0x5c, 0x34, 0x3e, 0x7a, 0xac, 0xd6, 0x3d, 0x6d, 0x46,
    0x06, 0x3e, 0xc8, 0x2b, 0x30, 0xbd, 0xcd, 0x09, 0xf9, 0x3d,
    0x64, 0x1a, 0x77, 0xbd, 0xee, 0xce, 0xa3, 0x3d, 0x36, 0xdf,
    0x86, 0x3d, 0x49, 0xd8, 0x82, 0xbd, 0x8c, 0xaa, 0x89, 0xbd,
    0xcb, 0x75, 0xaf, 0xbd, 0x05, 0xed, 0x54, 0x3d, 0x38, 0xf5,
    0x30, 0xbe, 0xe0, 0x36, 0xad, 0xbd, 0x1d, 0xe5, 0xd5, 0xbb,
    0x79, 0xed, 0x18, 0xbe, 0x01, 0xf0, 0x83, 0x3d, 0x69, 0x2d,
    0x66, 0x3c, 0x0b, 0x44, 0x04, 0x3d, 0xcd, 0xb3, 0xfb, 0x3c,
    0xf8, 0x65, 0x42, 0x3d, 0x59, 0x2c, 0x08, 0xbe, 0x53, 0xac,
    0xf4, 0x3c, 0x0e, 0x64, 0x59, 0xbd, 0xf0, 0x88, 0x16, 0xbe,
    0x89, 0x4c, 0xf3, 0xbd, 0xf5, 0x1a, 0x49, 0xbd, 0x0a, 0xaf,
    0xa3, 0xbd, 0x5b, 0xf6, 0x2c, 0xbd, 0x5e, 0x90, 0xb6, 0x3d,
    0xa0, 0x34, 0x56, 0x3d, 0xb1, 0x8a, 0x5b, 0x3c, 0xed, 0xf9,
    0xee, 0xbc, 0xe8, 0xcc, 0x87, 0xbd, 0xed, 0x94, 0x84, 0x3c,
    0xa7, 0x75, 0x12, 0xbe, 0x60, 0xbb, 0x8d, 0x3d, 0xa0, 0x5e,
    0x72, 0x3d, 0xdf, 0xea, 0x6d, 0xbd, 0x19, 0x0b, 0xcd, 0x3d,
    0x79, 0xe1, 0x12, 0xbe, 0xb4, 0xd3, 0xf6, 0xbd, 0x28, 0x6a,
    0xa9, 0x3d, 0xc8, 0xd4, 0x80, 0x3d, 0x47, 0x62, 0x83, 0xbd,
    0x3e, 0xfa, 0x24, 0x3c, 0xdc, 0xdf, 0x76, 0x3d, 0x1d, 0x7d,
    0x99, 0xbd, 0x29, 0x04, 0xe1, 0xbd, 0x42, 0x4f, 0xf8, 0x3d,
    0x2b, 0xe4, 0x6e, 0x3d, 0x3d, 0x56, 0xba, 0x3d, 0x3a, 0xa2,
    0xdc, 0xba, 0x18, 0x39, 0x93, 0x3d, 0x39, 0xe0, 0xf2, 0xbc,
    0xf6, 0x61, 0x94, 0x3d, 0xac, 0x11, 0xd8, 0x3d, 0xae, 0x7b,
    0x06, 0x3d, 0x79, 0x3e, 0x9b, 0xbd, 0xe9, 0x06, 0x10, 0x3e,
    0xf9, 0xb3, 0x03, 0xbe, 0x03, 0x1e, 0xf9, 0x3b, 0xd3, 0x04,
    0x56, 0xbd, 0x77, 0x2a, 0x34, 0xbe, 0xfb, 0x1f, 0x27, 0xbd,
    0x6c, 0x48, 0x89, 0x3d, 0x81, 0x96, 0x3d, 0xbd, 0xda, 0xb1,
    0x6a, 0xbd, 0xa5, 0xf5, 0x3f, 0xbe, 0x0b, 0xd5, 0x07, 0x3e,
    0x32, 0x18, 0x0f, 0xbc, 0x69, 0x99, 0x15, 0x3d, 0xae, 0x72,
    0x21, 0xbe, 0xd3, 0xee, 0x6f, 0xbd, 0x39, 0x8a, 0x0d, 0xbe,
    0xb2, 0x21, 0x9e, 0x3d, 0x04, 0x19, 0xba, 0x3d, 0x6f, 0x1d,
    0x01, 0x3c, 0x10, 0x8a, 0x43, 0xbd, 0x06, 0x2f, 0x15, 0xbd,
    0x3d, 0x90, 0xf1, 0x3b, 0x20, 0x99, 0xf8, 0x3d, 0xdc, 0xed,
    0x02, 0xbe, 0xb6, 0x5b, 0x83, 0xbd, 0xc5, 0x1b, 0x0d, 0x3d,
    0x7e, 0xa1, 0x82, 0xbd, 0x52, 0xd0, 0x96, 0xbc, 0x70, 0xe0,
    0xa2, 0xbc, 0x3b, 0xb4, 0xa7, 0x3d, 0xfc, 0x9e, 0x57, 0x3d,
    0x90, 0x75, 0xc5, 0xbd, 0x9a, 0xcf, 0x92, 0x3c, 0x72, 0x83,
    0x8f, 0x3d, 0x94, 0x9c, 0xf6, 0xbc, 0x9f, 0x1f, 0x7c, 0xbd,
    0xda, 0x41, 0x03, 0xbd, 0x3f, 0xf3, 0x04, 0x3e, 0x81, 0x44,
    0xcb, 0x3d, 0xa5, 0xff, 0xa3, 0xbd, 0x7f, 0x84, 0x4b, 0xbd,
    0x0c, 0x65, 0xd0, 0x3c, 0x58, 0x94, 0x28, 0xbc, 0x74, 0x8a,
    0x09, 0x3e, 0x6a, 0x5c, 0x2b, 0xbd, 0xc2, 0x3e, 0x38, 0xbd,
    0x30, 0xc4, 0xf2, 0x3d, 0xca, 0x98, 0x44, 0xbd, 0x2b, 0x73,
    0x17, 0xbd, 0x08, 0xa0, 0x33, 0x3e, 0xdd, 0xe1, 0x0c, 0x3e,
    0x25, 0xaf, 0xd8, 0xbd, 0x46, 0x69, 0x11, 0x3b, 0xa1, 0x27,
    0x51, 0xbe, 0xec, 0x7b, 0x9c, 0x3d, 0xdf, 0x1b, 0xaa, 0xbc,
    0x2c, 0xee, 0x3b, 0x3e, 0x8c, 0xb0, 0xde, 0x3d, 0xb6, 0xac,
    0x8c, 0xbd, 0xd7, 0x47, 0x92, 0x3d, 0x10, 0x07, 0xaa, 0x3c,
    0x02, 0x3c, 0xe5, 0xbd, 0x3d, 0x44, 0x52, 0xbd, 0x9c, 0xa4,
    0x29, 0x3e, 0x6a, 0x3d, 0x19, 0x3e, 0x38, 0x1c, 0xab, 0xbd,
    0x06, 0x7b, 0x96, 0x3d, 0x04, 0x0e, 0x08, 0xbe, 0xf7, 0xd0,
    0x0c, 0xbe, 0x9d, 0x14, 0xf2, 0x3b, 0x1e, 0x35, 0x33, 0x3d,
    0xb8, 0x0f, 0x64, 0xbd, 0xff, 0x58, 0xf3, 0x3d, 0x41, 0xaf,
    0x8e, 0x3d, 0x3a, 0x5d, 0xe0, 0xbc, 0x0f, 0x26, 0xc7, 0xbc,
    0x26, 0xe9, 0x1e, 0x3d, 0xec, 0x35, 0x35, 0xbd, 0x78, 0xb8,
    0x75, 0xbd, 0x1b, 0xce, 0x03, 0x3e, 0x57, 0x2e, 0xd4, 0x3c,
    0xdd, 0x3e, 0x0f, 0xbe, 0xa7, 0x04, 0x01, 0x3e, 0x16, 0x66,
    0x8c, 0xbd, 0xa3, 0x49, 0x91, 0xbc, 0x7f, 0x9b, 0x2b, 0xbe,
    0xa8, 0xa6, 0x1e, 0x3e, 0xda, 0xd5, 0x0e, 0xbe, 0x80, 0xb2,
    0xf3, 0x3d, 0x1f, 0xab, 0x7d, 0x3c, 0xf3, 0xb3, 0x12, 0xbe,
    0x96, 0x1e, 0x54, 0xbc, 0xe6, 0x2e, 0x69, 0xbc, 0x64, 0x91,
    0x83, 0x3d, 0x2a, 0xfb, 0xa6, 0x3d, 0x98, 0xbe, 0xd5, 0xbd,
    0x87, 0xa5, 0x38, 0xbd, 0xdb, 0xd9, 0x28, 0xbc, 0xa6, 0x56,
    0x98, 0x3d, 0xee, 0xd6, 0x98, 0x3d, 0x09, 0x66, 0xa7, 0x3d,
    0xa9, 0xef, 0x06, 0xbd, 0x4f, 0x11, 0xf5, 0xbd, 0x15, 0x6f,
    0x91, 0xbc, 0x79, 0xb8, 0xb6, 0x3d, 0x04, 0xdf, 0x2a, 0xbc,
    0xfa, 0x7b, 0x27, 0x3d, 0x67, 0xbb, 0xac, 0xbc, 0x54, 0xc9,
    0x1c, 0x3d, 0xf9, 0x00, 0x04, 0x3e, 0xe8, 0x88, 0x9a, 0xbd,
    0xb5, 0xd1, 0x74, 0xbd, 0x4f, 0x9e, 0x1c, 0xbd, 0xcc, 0x89,
    0xe6, 0xbb, 0x2d, 0xa8, 0xd2, 0xbb, 0xae, 0x54, 0xe0, 0xbd,
    0xfd, 0xb1, 0xc0, 0xbc, 0x7e, 0xa1, 0x6d, 0xbd, 0xea, 0xd1,
    0xe3, 0xb9, 0x83, 0x9c, 0xa6, 0x3d, 0xd1, 0x06, 0x2f, 0xbd,
    0xc7, 0xd0, 0x10, 0xbd, 0x66, 0xbb, 0x9a, 0x3d, 0x4f, 0xf8,
    0xf2, 0x3d, 0xaa, 0x16, 0x32, 0xbd, 0x2b, 0xcf, 0x09, 0xbe,
    0xde, 0x40, 0xb4, 0xbd, 0x64, 0x1c, 0x85, 0xbd, 0xb3, 0x43,
    0x0c, 0xbd, 0x0e, 0x3e, 0xa8, 0xbd, 0x7a, 0xad, 0x83, 0xbd,
    0x96, 0x21, 0xbe, 0xbd, 0xa4, 0x91, 0xbe, 0xbd, 0x54, 0x39,
    0x6c, 0x3d, 0x66, 0x87, 0x63, 0x3d, 0xda, 0x54, 0xcb, 0x3c,
    0xd2, 0x04, 0xfe, 0x3d, 0xd4, 0xea, 0x1c, 0xbd, 0x46, 0xf0,
    0x35, 0xbd, 0x04, 0x59, 0xf4, 0xbd, 0x72, 0xaf, 0x17, 0xbd,
    0xab, 0xae, 0x29, 0x3e, 0x35, 0x82, 0xe2, 0xbd, 0x01, 0x6b,
    0x95, 0xbd, 0x76, 0x09, 0x37, 0xbd, 0x64, 0x33, 0x84, 0x3d,
    0x19, 0x9e, 0x66, 0x3c, 0x67, 0xbf, 0x8c, 0xbc, 0x19, 0x18,
    0xcc, 0x3d, 0x47, 0x40, 0x95, 0x3b, 0xca, 0x7a, 0x47, 0x39,
    0x24, 0xbd, 0x81, 0xbd, 0xe6, 0xfb, 0x03, 0x3d, 0xc0, 0xd3,
    0xa5, 0x3d, 0x4b, 0xde, 0x0d, 0xbd, 0x31, 0xe1, 0x1e, 0xbb,
    0x22, 0xa9, 0xfa, 0xbd, 0xc5, 0xf8, 0x09, 0x3d, 0x4e, 0x50,
    0x98, 0xbd, 0xad, 0x54, 0x33, 0x3d, 0x69, 0x13, 0xcb, 0xbd,
    0xb3, 0xe7, 0x18, 0x3c, 0x8b, 0x44, 0xac, 0xbd, 0x2a, 0xc1,
    0x87, 0x3b, 0xf1, 0xa1, 0xfe, 0x3d, 0x5a, 0xda, 0xd1, 0x3d,
    0x26, 0x5c, 0xbc, 0xbd, 0xd5, 0xe3, 0xac, 0xbd, 0xa0, 0x82,
    0x5a, 0x3d, 0x19, 0xf3, 0x5f, 0x3c, 0x42, 0xe7, 0x84, 0x3c,
    0xb1, 0xa3, 0xbe, 0xbd, 0x9b, 0x2a, 0x21, 0xbe, 0xd4, 0x8a,
    0x0a, 0x3e, 0x1c, 0x94, 0xed, 0x3d, 0xcf, 0x87, 0x4f, 0xbc,
    0x46, 0xf8, 0xe7, 0xbc, 0xfa, 0xe4, 0x4d, 0xbd, 0xed, 0xeb,
    0x2c, 0xbd, 0x8c, 0x86, 0x8b, 0x3d, 0xf2, 0xef, 0xbc, 0x3c,
    0x90, 0x64, 0xa0, 0xbd, 0x6c, 0x35, 0x12, 0xbe, 0xfe, 0x7c,
    0x6b, 0xbd, 0xee, 0x20, 0xa5, 0x3d, 0x50, 0x44, 0x05, 0xbd,
    0x03, 0xb9, 0x1e, 0x3d, 0x54, 0x19, 0x8e, 0xbc, 0xb2, 0xef,
    0x68, 0x3d, 0x1f, 0xe5, 0xf4, 0x3d, 0x72, 0x8c, 0xd6, 0x3c,
    0xbc, 0xab, 0xc2, 0x3d, 0x3c, 0x94, 0xdd, 0x3b, 0x6b, 0xfd,
    0xa3, 0xbd, 0x9d, 0x7f, 0x11, 0x3d, 0xe1, 0xf4, 0xcb, 0x3d,
    0x04, 0x94, 0xa0, 0xbd, 0xdf, 0x34, 0xcd, 0x3b, 0x29, 0xd2,
    0xa3, 0xbd, 0xba, 0x66, 0x42, 0xbc, 0x74, 0xa0, 0x68, 0x3d,
    0x75, 0x79, 0x66, 0x3c, 0x5c, 0xcf, 0xba, 0xbd, 0x7c, 0x8d,
    0xf3, 0x3d, 0xff, 0xde, 0x14, 0xbe, 0x91, 0xf2, 0x60, 0xbd,
    0x23, 0x60, 0xc0, 0x3d, 0xf7, 0xdd, 0x8a, 0xbd, 0x77, 0xcc,
    0x06, 0x3e, 0xff, 0x05, 0xf5, 0x3d, 0x02, 0xfa, 0x93, 0x3d,
    0x27, 0x58, 0x4c, 0xbd, 0x53, 0xec, 0x1a, 0x3e, 0x9e, 0xe1,
    0x15, 0x3e, 0xae, 0x95, 0x64, 0x3c, 0x4e, 0x15, 0xcc, 0xbc,
    0x77, 0xfc, 0xf3, 0x3d, 0x74, 0xd6, 0x92, 0xbd, 0x48, 0x75,
    0x5a, 0xbd, 0x47, 0x7b, 0xff, 0xbc, 0x09, 0x23, 0xa0, 0xbd,
    0xe7, 0xf1, 0x1c, 0x3e, 0x4c, 0x64, 0x1d, 0x3e, 0xd7, 0x74,
    0xa8, 0x3d, 0x9a, 0x69, 0xff, 0x3d, 0x02, 0xa2, 0xd9, 0x3d,
    0x76, 0xd5, 0x67, 0xbd, 0x02, 0xdc, 0xac, 0x3d, 0xfd, 0x89,
    0x62, 0xbd, 0x8b, 0x2e, 0x24, 0x3d, 0x0d, 0xab, 0xd5, 0x3d,
    0x79, 0xd7, 0x04, 0x3e, 0xa7, 0xdc, 0x8b, 0x3d, 0x70, 0xd4,
    0xe4, 0xbd, 0xd7, 0xd9, 0xad, 0x3c, 0xbe, 0x7b, 0xc4, 0x3d,
    0xf1, 0x65, 0xe7, 0x3c, 0x61, 0x61, 0x00, 0x3e, 0x2d, 0xb7,
    0x84, 0xbb, 0x7d, 0xc2, 0x7e, 0xbc, 0x3d, 0xfc, 0xf8, 0x3c,
    0xe5, 0x0a, 0xf3, 0x3d, 0x57, 0x43, 0x0f, 0x3c, 0x4b, 0x4a,
    0x5f, 0x3c, 0x08, 0x1d, 0x65, 0x3a, 0x4a, 0xde, 0xac, 0xbc,
    0x14, 0x05, 0xfa, 0xbd, 0x8c, 0x8b, 0x17, 0xbe, 0x1b, 0x73,
    0x2b, 0x3d, 0x81, 0x8f, 0x20, 0x3e, 0x6b, 0xa0, 0xec, 0x3c,
    0xdd, 0xb9, 0xf3, 0xbb, 0x2e, 0x89, 0x40, 0xbd, 0xba, 0x53,
    0x7d, 0xbd, 0x88, 0x37, 0x42, 0xbd, 0xa1, 0x00, 0x3f, 0xbe,
    0x36, 0x34, 0x8e, 0xbd, 0x31, 0xab, 0x99, 0xbd, 0x13, 0xd3,
    0xdb, 0xbd, 0x17, 0x66, 0xad, 0xbd, 0x5c, 0xb2, 0xe6, 0x3d,
    0xd7, 0x70, 0xa2, 0x3d, 0xa9, 0x9a, 0x3e, 0xbe, 0x2c, 0xeb,
    0x6a, 0xbd, 0xdf, 0x36, 0x96, 0xbd, 0x05, 0xea, 0x1d, 0x3c,
    0x86, 0xc4, 0xaf, 0xbd, 0xa6, 0xf1, 0x99, 0x3c, 0x00, 0x6c,
    0xcc, 0xbd, 0x95, 0x85, 0x20, 0xbd, 0x94, 0x9f, 0x11, 0x3e,
    0xc6, 0x13, 0xc2, 0x3c, 0x63, 0xf0, 0x66, 0xbc, 0xcf, 0x58,
    0x1e, 0xbe, 0x8f, 0x46, 0x5e, 0xbc, 0x64, 0xce, 0x1d, 0x3e,
    0x48, 0x03, 0xd3, 0xbd, 0x48, 0xb8, 0xea, 0x3b, 0xe5, 0x66,
    0x6a, 0xbc, 0x31, 0x9e, 0xa7, 0x3d, 0x8b, 0x11, 0x94, 0xbc,
    0x6c, 0x23, 0xd3, 0x3d, 0xd5, 0x68, 0x17, 0x3e, 0x0d, 0xcf,
    0xac, 0xbd, 0x6c, 0xef, 0xa9, 0xbd, 0x1b, 0x63, 0xee, 0x3d,
    0x41, 0x02, 0xef, 0x3d, 0xfd, 0xe1, 0x24, 0x3c, 0xab, 0x16,
    0x5a, 0x3c, 0xea, 0x11, 0x16, 0xbd, 0x2f, 0x84, 0x30, 0x3d,
    0xb7, 0xfc, 0xac, 0x3c, 0x85, 0xe8, 0x82, 0xbd, 0xf9, 0x77,
    0x7e, 0x3d, 0xc2, 0xc7, 0x23, 0xbe, 0x64, 0x93, 0x0e, 0x3e,
    0xdd, 0x2b, 0x63, 0xbd, 0xdc, 0x52, 0xfa, 0xbd, 0xc6, 0xbc,
    0x13, 0x3d, 0x65, 0x7f, 0x32, 0x3c, 0x1d, 0x15, 0x02, 0xbe,
    0xa8, 0x48, 0xa6, 0x3d, 0x4d, 0x42, 0x01, 0x3d, 0xec, 0xfb,
    0xe0, 0x3c, 0x27, 0x81, 0x3d, 0xbd, 0x26, 0xf5, 0xb3, 0xbd,
    0x56, 0xf5, 0xa7, 0xbc, 0x9c, 0xcb, 0xf7, 0x3d, 0x4a, 0x40,
    0x31, 0xbd, 0x11, 0x5f, 0xbe, 0x3d, 0x05, 0x76, 0xff, 0xbd,
    0x86, 0x1b, 0xc7, 0x3d, 0x7a, 0xba, 0x12, 0xbc, 0x89, 0xef,
    0xe9, 0xbb, 0xee, 0xee, 0x63, 0x3d, 0xc0, 0x47, 0xde, 0xbc,
    0x46, 0x84, 0x27, 0xbc, 0x21, 0x74, 0x8f, 0xbb, 0x73, 0xcb,
    0x62, 0x3d, 0x0f, 0x0a, 0xf2, 0xbc, 0x9c, 0x4f, 0x0e, 0x3e,
    0xb4, 0xbc, 0xae, 0x3d, 0xe5, 0x89, 0x92, 0x3d, 0x7e, 0xdf,
    0x58, 0x3c, 0x93, 0xc5, 0x03, 0x3b, 0xe5, 0x8e, 0x8b, 0xbd,
    0x4c, 0x53, 0x67, 0x3d, 0x89, 0xf9, 0x3c, 0x3e, 0x7a, 0x54,
    0x10, 0x3c, 0x3b, 0x76, 0x31, 0x3d, 0x64, 0xad, 0x15, 0xbd,
    0x81, 0xef, 0xd7, 0x3b, 0x74, 0xf1, 0x17, 0xbe, 0x00, 0x14,
    0xe3, 0xbc, 0x2c, 0xb3, 0x38, 0xbd, 0x1d, 0x3c, 0xbd, 0xbb,
    0x2b, 0xdf, 0x8f, 0xbd, 0xf0, 0xed, 0x05, 0xbe, 0x8f, 0x0c,
    0x98, 0xbd, 0xb9, 0xfc, 0xe8, 0x3c, 0xbe, 0x29, 0x05, 0x3e,
    0xb0, 0xe5, 0x5a, 0x3d, 0x77, 0xef, 0xe1, 0xbd, 0x4e, 0x86,
    0x04, 0x3e, 0x1c, 0x1b, 0x19, 0xbe, 0x7f, 0x4c, 0x0c, 0xbd,
    0xa2, 0x60, 0x6d, 0xbd, 0x18, 0x5c, 0xbb, 0xbc, 0xe7, 0x90,
    0x0c, 0x3d, 0x02, 0x8f, 0xc4, 0x3d, 0x93, 0x1f, 0x4e, 0x3c,
    0xac, 0xba, 0x73, 0x3d, 0x5a, 0x3a, 0xcf, 0x3c, 0x3a, 0x0a,
    0xef, 0x3c, 0x45, 0x71, 0x9d, 0x3c, 0x4a, 0x22, 0x2d, 0x3d,
    0xe0, 0xe5, 0x8f, 0x3d, 0x8c, 0x68, 0x02, 0xbe, 0x67, 0xb8,
    0x16, 0x3d, 0x21, 0x28, 0x2e, 0x3d, 0x9b, 0xf7, 0x8c, 0xbd,
    0xc7, 0x52, 0x42, 0x3d, 0x41, 0x05, 0x4b, 0x3d, 0x67, 0xa8,
    0xc4, 0x3d, 0x29, 0xa2, 0x0a, 0xbd, 0x68, 0x59, 0xb8, 0xbc,
    0x37, 0xe6, 0x12, 0xbe, 0x38, 0x3f, 0x6f, 0x3d, 0xea, 0xb8,
    0xe8, 0xbd, 0xf5, 0x71, 0xba, 0xbd, 0x51, 0x73, 0xa7, 0xbd,
    0xb8, 0xe5, 0xd1, 0xbc, 0x04, 0x9c, 0x61, 0xbc, 0xba, 0xf0,
    0x5f, 0xbd, 0xa2, 0xe9, 0xd3, 0xbc, 0x2a, 0xe3, 0x31, 0x3d,
    0x1e, 0xeb, 0x06, 0x3d, 0x64, 0xb8, 0xfb, 0xbd, 0x8f, 0xe8,
    0xcc, 0xbd, 0x42, 0xca, 0xe5, 0x3c, 0x64, 0x97, 0x1b, 0x3d,
    0x1c, 0xa4, 0x63, 0xbd, 0x00, 0x78, 0x81, 0x3d, 0x3b, 0xc8,
    0x35, 0xbd, 0x8c, 0xbe, 0x21, 0x3c, 0xeb, 0x4b, 0xd8, 0xbd,
    0xe5, 0xdb, 0x09, 0x3e, 0xdc, 0xbd, 0x81, 0x3c, 0x57, 0xdb,
    0x66, 0xbc, 0xe1, 0x6b, 0xb4, 0x3d, 0xa3, 0xb6, 0x5b, 0xbd,
    0xc5, 0xb8, 0x51, 0x3e, 0x54, 0xac, 0x4c, 0xbd, 0x5b, 0x40,
    0x4b, 0x3e, 0xf3, 0xec, 0xfc, 0xbc, 0x4d, 0x16, 0xdf, 0xbc,
    0x1a, 0x5f, 0xfa, 0x3d, 0x1d, 0x82, 0x21, 0xbe, 0x9d, 0x68,
    0x9d, 0xbc, 0xdb, 0xc2, 0x91, 0x3d, 0x51, 0xd9, 0x91, 0x3d,
    0xd5, 0xe9, 0x91, 0x3d, 0xb3, 0xdf, 0x9b, 0x3d, 0x4f, 0x96,
    0x14, 0x3e, 0x9c, 0x86, 0x2f, 0x3d, 0x02, 0xc8, 0x5d, 0xbd,
    0xee, 0x2a, 0xbc, 0xbc, 0x5d, 0x8d, 0x5e, 0x3d, 0x9a, 0xb7,
    0x0d, 0x3e, 0xc1, 0xa1, 0xa2, 0x3d, 0xfd, 0x90, 0xff, 0xbd,
    0xac, 0x2b, 0x30, 0xbc, 0x04, 0x97, 0xf5, 0x3d, 0x8b, 0x09,
    0xf3, 0x3c, 0x44, 0x7c, 0x9f, 0xbd, 0x41, 0x5d, 0x92, 0xb9,
    0x83, 0xf1, 0xfc, 0xbd, 0x90, 0x5f, 0x3d, 0x3b, 0xa0, 0x5b,
    0x0f, 0x3e, 0xc7, 0x8f, 0xc2, 0x3d, 0x5b, 0xcc, 0x7d, 0x3d,
    0x6c, 0xcf, 0x0a, 0xbd, 0x6f, 0xb6, 0xab, 0xbc, 0x09, 0x4d,
    0x80, 0xbd, 0x5c, 0x89, 0x96, 0x3d, 0x4f, 0x5b, 0xd1, 0xbd,
    0xe3, 0x7c, 0x7a, 0x3d, 0x1e, 0x7f, 0x18, 0x3d, 0xf9, 0x8f,
    0x5d, 0xbc, 0xea, 0x33, 0x25, 0xbd, 0xec, 0x80, 0xf2, 0x3d,
    0x9a, 0x96, 0xf2, 0x3d, 0xb2, 0xd8, 0xcc, 0x3c, 0xd1, 0xda,
    0x40, 0x3e, 0x31, 0x3b, 0x08, 0xbc, 0xf9, 0xfd, 0xc1, 0xbd,
    0x5d, 0x2c, 0x82, 0xbc, 0x9c, 0xa9, 0xe1, 0xbd, 0x69, 0x59,
    0x03, 0x3e, 0xc5, 0x39, 0x2d, 0xbe, 0x16, 0xee, 0xfa, 0x3d,
    0x6d, 0xe2, 0x1e, 0xbd, 0x36, 0x12, 0x72, 0x3d, 0x7a, 0x41,
    0x00, 0x3d, 0x31, 0xf5, 0xdb, 0x3d, 0x96, 0xb6, 0x6c, 0xba,
    0xa4, 0x94, 0x8d, 0xbd, 0xe8, 0x1d, 0x59, 0x3c, 0x3e, 0xb9,
    0xa3, 0x3c, 0xa2, 0xc5, 0xb7, 0x3d, 0x21, 0xa4, 0xb9, 0xbd,
    0x29, 0x15, 0xbf, 0xbd, 0xcb, 0x39, 0xbc, 0xbc, 0xaa, 0x82,
    0x92, 0xbd, 0xb0, 0x93, 0x10, 0x3e, 0xbf, 0xa9, 0x25, 0xbe,
    0x2e, 0x76, 0xf6, 0x3d, 0x30, 0x3d, 0x58, 0x3d, 0xba, 0xb2,
    0x88, 0x3c, 0x9c, 0x54, 0x93, 0xbd, 0xc0, 0xfc, 0x0d, 0x3d,
    0x97, 0x0c, 0x89, 0x3c, 0x05, 0x57, 0x93, 0xbd, 0x18, 0x48,
    0xc1, 0x3d, 0xd4, 0x87, 0x34, 0x3c, 0x5b, 0x21, 0xe8, 0xbd,
    0x2d, 0x28, 0x43, 0x3d, 0x0c, 0xd6, 0x1d, 0x3e, 0xd6, 0xa9,
    0x02, 0xbd, 0x46, 0xf5, 0x85, 0xbb, 0xa9, 0x7d, 0x06, 0x3e,
    0xeb, 0x06, 0xd8, 0xbc, 0x09, 0x9d, 0x90, 0x3d, 0x46, 0x12,
    0xbf, 0x3c, 0x37, 0xeb, 0x29, 0x3d, 0x4f, 0x74, 0x2b, 0xbd,
    0x50, 0xe8, 0x18, 0xbe, 0x26, 0x24, 0x99, 0x3d, 0x57, 0xa3,
    0x2a, 0x3d, 0x5a, 0xfd, 0x93, 0xbd, 0x3c, 0x8a, 0xdd, 0x3d,
    0x9f, 0x94, 0x7b, 0xbd, 0xbd, 0x62, 0xd2, 0x3d, 0xb7, 0x83,
    0x5e, 0x3d, 0xe1, 0x6b, 0xec, 0xbc, 0xe7, 0x08, 0xa4, 0x3c,
    0x28, 0xec, 0x08, 0xbe, 0x4b, 0x4f, 0x1c, 0x3e, 0x5b, 0xf0,
    0x2d, 0xbe, 0xdf, 0x0b, 0xbf, 0xbd, 0x4a, 0x51, 0xab, 0x3c,
    0xa9, 0x1f, 0x12, 0xbd, 0xad, 0x27, 0xd4, 0x3d, 0x1f, 0x3a,
    0x46, 0x3d, 0xe0, 0x47, 0x04, 0xbe, 0x48, 0xfd, 0x80, 0x3d,
    0x2a, 0xc0, 0x8b, 0x3d, 0xa6, 0xc6, 0xf8, 0xbd, 0xf3, 0x62,
    0x1c, 0xbb, 0x6e, 0x76, 0x4d, 0x3c, 0xf0, 0xa0, 0xc2, 0xbd,
    0x4b, 0x8c, 0x06, 0xbd, 0x98, 0x58, 0x74, 0xbd, 0x7c, 0x65,
    0xd6, 0x3c, 0x2d, 0x84, 0xbc, 0xbd, 0xce, 0xe9, 0xab, 0x3c,
    0x96, 0x71, 0xcb, 0x3b, 0x62, 0xbf, 0x0c, 0x3d, 0xab, 0xa5,
    0xf5, 0x3d, 0x43, 0x01, 0x42, 0x3d, 0x6a, 0x8f, 0x3c, 0x3d,
    0x25, 0x68, 0x91, 0x3d, 0xee, 0x5e, 0xd1, 0x3c, 0xe1, 0x1c,
    0x66, 0xbd, 0x2e, 0x1d, 0x0e, 0x3e, 0x7e, 0xca, 0x1b, 0x3e,
    0xc8, 0xf6, 0xfc, 0xbd, 0x90, 0x0e, 0x2d, 0x3d, 0x39, 0xd7,
    0xe3, 0xbd, 0x02, 0x1e, 0xca, 0x3d, 0x80, 0x0d, 0xcf, 0x3d,
    0x2f, 0x18, 0xae, 0xbc, 0xe0, 0x02, 0x71, 0x3d, 0x0b, 0xd1,
    0xd7, 0xbd, 0x92, 0x8d, 0x08, 0x3d, 0x25, 0x34, 0xc7, 0xbd,
    0x5d, 0x12, 0xf2, 0xbd, 0x46, 0x0f, 0x2c, 0x3e, 0xca, 0x25,
    0xc0, 0x3c, 0xe0, 0xea, 0xfe, 0x3d, 0x0c, 0xe1, 0x13, 0x3e,
    0xa8, 0x2f, 0x05, 0x3e, 0x15, 0x1d, 0xa3, 0xbd, 0x27, 0xf8,
    0xe5, 0x3c, 0x87, 0x7e, 0xf2, 0x3c, 0x40, 0x80, 0xd4, 0x3c,
    0x3a, 0x06, 0xaf, 0x3d, 0x78, 0x0a, 0x22, 0x3e, 0xfe, 0x35,
    0x07, 0xbe, 0xa1, 0x05, 0x55, 0x3d, 0xe9, 0x12, 0x6f, 0x3d,
    0xb5, 0x3b, 0x52, 0xbd, 0x67, 0x07, 0x0d, 0xbd, 0x38, 0x4e,
    0xfc, 0xba, 0xdf, 0xa2, 0x21, 0xbe, 0x5c, 0x09, 0x49, 0xbd,
    0x36, 0x76, 0x2e, 0xbd, 0xaa, 0x76, 0x2c, 0xbd, 0xce, 0xc1,
    0xe6, 0x3c, 0xc1, 0x2b, 0xe1, 0x3d, 0x59, 0x17, 0x13, 0xbd,
    0x50, 0xc2, 0x92, 0x3d, 0x99, 0x3b, 0x14, 0x3c, 0x4a, 0x66,
    0xfb, 0xbc, 0x4a, 0xf8, 0xc6, 0xbd, 0x00, 0x48, 0xdb, 0xbd,
    0x6c, 0xca, 0xc0, 0x3d, 0x95, 0x2e, 0x91, 0x3d, 0x43, 0x27,
    0xb1, 0xbc, 0x1e, 0xa9, 0xf7, 0x3a, 0x36, 0x05, 0x0c, 0xbd,
    0x57, 0xcc, 0x3e, 0x3c, 0x7e, 0xac, 0x85, 0xbd, 0xe8, 0xd3,
    0x34, 0xbd, 0xc2, 0xd1, 0xc0, 0x3d, 0x98, 0x2d, 0xbd, 0x3d,
    0x6a, 0x32, 0xa8, 0xbc, 0x94, 0xb8, 0x3c, 0xbc, 0x62, 0xda,
    0xdc, 0xbd, 0xdf, 0x26, 0x0f, 0x3d, 0xcf, 0xff, 0xc7, 0xbd,
    0x6d, 0x92, 0x89, 0x3b, 0x11, 0x3d, 0xa6, 0x3d, 0xc0, 0x36,
    0xc5, 0xbd, 0x8d, 0x01, 0x22, 0x3e, 0x92, 0xe7, 0x20, 0xbe,
    0x78, 0xec, 0x71, 0xbd, 0x12, 0x55, 0xbd, 0x3d, 0x36, 0x94,
    0xf6, 0xbc, 0x74, 0xd4, 0xe4, 0xbd, 0xd1, 0xd5, 0x73, 0x3d,
    0x8a, 0x1f, 0x01, 0xbe, 0x73, 0x73, 0xa7, 0x3d, 0xb1, 0x0e,
    0x91, 0xbd, 0x90, 0x9e, 0x51, 0x3d, 0x95, 0xb9, 0x29, 0x3d,
    0xf2, 0x69, 0xb4, 0xbb, 0xaf, 0xac, 0xc1, 0x3d, 0x35, 0x44,
    0x0d, 0xbb, 0xe8, 0xee, 0x06, 0x3e, 0xa3, 0x38, 0x1d, 0x3e,
    0x86, 0x19, 0x1e, 0x3c, 0x18, 0x7c, 0x97, 0x3d, 0x8d, 0x02,
    0xa4, 0xbd, 0xad, 0xde, 0x05, 0xbd, 0xd4, 0xca, 0x10, 0xbd,
    0x7a, 0x57, 0x5e, 0xbd, 0xdf, 0x66, 0x9a, 0x3b, 0xce, 0x4f,
    0x94, 0x3d, 0xdd, 0xf7, 0x23, 0xbd, 0x26, 0x24, 0xd9, 0x3d,
    0x80, 0xfd, 0x6e, 0xbd, 0xc4, 0xc4, 0x60, 0xbd, 0xb5, 0x33,
    0x70, 0x3c, 0x56, 0x88, 0xa1, 0x3d, 0xcd, 0xff, 0x28, 0x3d,
    0xc6, 0x84, 0x59, 0xbd, 0xae, 0xe6, 0x51, 0x3c, 0x39, 0x20,
    0xbe, 0x3d, 0x3b, 0xb2, 0x32, 0xbe, 0xd0, 0x73, 0x9b, 0xbd,
    0xfe, 0x35, 0x19, 0x3b, 0xe2, 0xf0, 0x1c, 0x3d, 0xb3, 0x0f,
    0x16, 0xbd, 0xd9, 0x9f, 0x86, 0xbd, 0x31, 0x83, 0x99, 0xbd,
    0xe9, 0x4f, 0x98, 0x3d, 0xfd, 0x7f, 0x61, 0x3d, 0x6f, 0x79,
    0x9b, 0xbd, 0xed, 0xb7, 0xee, 0xbd, 0xc9, 0xcc, 0xee, 0xbd,
    0x41, 0x91, 0xc3, 0x3d, 0x16, 0x86, 0x34, 0xbd, 0xbc, 0x79,
    0x5b, 0xbd, 0x7e, 0xb3, 0x38, 0xbd, 0x53, 0x6b, 0xcc, 0x3d,
    0x41, 0x4d, 0xd0, 0x3d, 0xdd, 0xfa, 0x93, 0xbd, 0xcb, 0xfa,
    0xc5, 0xbd, 0xe0, 0x53, 0x23, 0xbd, 0xb4, 0x8d, 0xff, 0xbc,
    0xcb, 0x16, 0x9b, 0x3d, 0x90, 0x39, 0x63, 0xbc, 0x5d, 0xbf,
    0x93, 0xbd, 0xec, 0x1d, 0x80, 0x3c, 0xf6, 0xd0, 0x6b, 0xbd,
    0xb8, 0x29, 0xf3, 0xbd, 0xec, 0x5d, 0xdb, 0xbc, 0x5f, 0x9a,
    0xf0, 0xbc, 0xa0, 0xff, 0xf9, 0xbc, 0x29, 0xd0, 0x11, 0x3d,
    0x03, 0x5d, 0xd8, 0xbd, 0xe1, 0x13, 0xb2, 0xbd, 0xa0, 0x44,
    0x08, 0xbe, 0x31, 0x15, 0xd5, 0xbc, 0x7e, 0x2e, 0x3b, 0xbc,
    0xea, 0x59, 0x0c, 0xbe, 0x07, 0xb5, 0x5b, 0xbd, 0xbd, 0x07,
    0x0e, 0xbe, 0x89, 0xeb, 0x24, 0xbc, 0x26, 0x23, 0x90, 0xbd,
    0x6f, 0x01, 0x15, 0xbe, 0x1a, 0x42, 0x03, 0xbe, 0x48, 0x1a,
    0x99, 0xbd, 0xfe, 0xd6, 0x59, 0xbd, 0x7f, 0xf9, 0x68, 0xbd,
    0xb2, 0x3f, 0x76, 0x3d, 0x36, 0x3d, 0xf0, 0xbd, 0x8c, 0x67,
    0x32, 0xbe, 0xd5, 0x50, 0xe8, 0xbd, 0xa0, 0x2f, 0xe1, 0x3c,
    0x80, 0x88, 0xd7, 0xbd, 0x58, 0x5f, 0x8a, 0xbd, 0xff, 0x41,
    0xd2, 0xbd, 0xff, 0xd4, 0xc6, 0xbd, 0x41, 0x6e, 0x9e, 0xbd,
    0x62, 0x8c, 0xcc, 0xbd, 0x4f, 0x79, 0x58, 0xbd, 0x30, 0xf9,
    0x01, 0xbb, 0x6c, 0xe8, 0x2b, 0x3d, 0x8c, 0x3a, 0xbb, 0xbd,
    0xd2, 0xa8, 0xae, 0x3d, 0x80, 0x2f, 0x14, 0x3d, 0x2d, 0x60,
    0x68, 0x3d, 0xde, 0x46, 0x83, 0x3d, 0x62, 0x19, 0x4f, 0x3d,
    0x56, 0xe2, 0xae, 0xbc, 0xcf, 0xd1, 0x08, 0xbe, 0xa7, 0xb8,
    0x7d, 0x3b, 0xe8, 0xd9, 0x11, 0x3d, 0x7e, 0x8f, 0x84, 0x3d,
    0xb0, 0xb4, 0x12, 0x3d, 0x22, 0xbc, 0x1a, 0xbe, 0xa8, 0x3c,
    0x83, 0xb9, 0x80, 0xcd, 0xf0, 0xbc, 0x66, 0x7d, 0x77, 0x3c,
    0x15, 0x12, 0x95, 0xbd, 0xe0, 0xdd, 0x11, 0x3e, 0x8c, 0x30,
    0xef, 0x3d, 0x1e, 0xe0, 0xf4, 0x3d, 0x8d, 0x7c, 0xb6, 0xbc,
    0x2d, 0xfb, 0x3d, 0x3d, 0x2f, 0x80, 0x8b, 0xbd, 0xf4, 0xfe,
    0x84, 0xbd, 0x6f, 0xe9, 0xbb, 0x3d, 0xc1, 0x5b, 0x94, 0x3d,
    0xc4, 0xde, 0xb7, 0xbd, 0xfa, 0xc1, 0xc8, 0xbd, 0xc0, 0x3d,
    0x40, 0x3c, 0xf6, 0xcc, 0x5e, 0x3d, 0xec, 0x81, 0xde, 0x3d,
    0x12, 0x5b, 0x28, 0x3c, 0xde, 0x06, 0x09, 0xbd, 0x74, 0x4a,
    0xbd, 0x3d, 0x88, 0xda, 0xb7, 0xbd, 0x71, 0xe8, 0x18, 0x3e,
    0x0d, 0x57, 0xfd, 0x3d, 0x11, 0x9f, 0x46, 0x3d, 0x90, 0xab,
    0xb7, 0x3d, 0x33, 0x53, 0xaf, 0xbd, 0x55, 0xef, 0xe9, 0x3c,
    0xd2, 0xd2, 0x83, 0xba, 0x96, 0x1a, 0x40, 0x3b, 0x49, 0xcb,
    0xe0, 0x3d, 0x25, 0x86, 0x0c, 0xbd, 0xde, 0x35, 0xaa, 0x3c,
    0x7b, 0x47, 0x3a, 0xbd, 0x93, 0x43, 0xde, 0xbd, 0xa4, 0x0e,
    0xc3, 0xbd, 0x54, 0xb1, 0x64, 0xbd, 0x8f, 0xdb, 0x1d, 0xbe,
    0xce, 0xa8, 0xbb, 0xbd, 0x2f, 0x3d, 0x82, 0x3d, 0x22, 0x6d,
    0x48, 0xbd, 0x0a, 0xbc, 0x57, 0x3d, 0x13, 0xa9, 0x36, 0xbd,
    0xb6, 0x77, 0xb0, 0xbc, 0xd3, 0xd2, 0x0a, 0xbe, 0xa2, 0x5b,
    0xe8, 0xbd, 0xdf, 0xac, 0xff, 0xbd, 0x63, 0xd6, 0xfa, 0xbd,
    0xd6, 0x78, 0x0d, 0xbd, 0x85, 0xa0, 0x69, 0x3b, 0x3b, 0xa7,
    0x76, 0x3d, 0xac, 0x02, 0x2c, 0xbc, 0x6b, 0xa0, 0x54, 0xbd,
    0x10, 0x57, 0x89, 0xbd, 0x59, 0xa6, 0xfd, 0x3d, 0xb2, 0x5f,
    0xcc, 0x3d, 0xde, 0xc2, 0xf0, 0xbd, 0xfa, 0xc6, 0xde, 0xbc,
    0xab, 0x27, 0x01, 0xbe, 0x25, 0xd4, 0x42, 0x3d, 0xb7, 0x7b,
    0x53, 0xbd, 0x18, 0xaf, 0xc1, 0x3d, 0x9e, 0xf4, 0xc5, 0x3d,
    0x9d, 0xb7, 0x9e, 0xbd, 0xc0, 0x4a, 0xab, 0x3d, 0x9c, 0xa6,
    0x5f, 0xbd, 0x84, 0x84, 0xa3, 0x3c, 0xe3, 0xaf, 0x5f, 0x3d,
    0xd3, 0xb3, 0x59, 0xbd, 0x19, 0x9e, 0xa1, 0xbd, 0x17, 0x10,
    0x1d, 0x3e, 0xd4, 0x6c, 0xac, 0xbd, 0x88, 0x98, 0xf0, 0x3c,
    0xe0, 0x35, 0x8f, 0x3c, 0x1f, 0xac, 0xb1, 0xbd, 0x72, 0xac,
    0x0d, 0xbc, 0x3b, 0x5e, 0x94, 0xbd, 0x91, 0x18, 0x09, 0x3e,
    0x68, 0x9d, 0x77, 0x3d, 0xd9, 0x3b, 0xbb, 0x3d, 0x1c, 0xa8,
    0x0e, 0x3d, 0xaf, 0x12, 0x8b, 0x3d, 0x9a, 0x07, 0x28, 0x3d,
    0xc6, 0xde, 0xaa, 0x3d, 0x6f, 0x91, 0x09, 0xbe, 0xe4, 0xc2,
    0x28, 0x3e, 0x19, 0x8f, 0x06, 0x3e, 0x78, 0x4f, 0x99, 0xbd,
    0xcc, 0x51, 0xd3, 0xbd, 0x69, 0x23, 0xa0, 0x3d, 0x19, 0x96,
    0xeb, 0x3c, 0x26, 0xa8, 0x58, 0x3d, 0x8f, 0x35, 0xb4, 0xbd,
    0x64, 0x8b, 0x23, 0x3e, 0x6f, 0xd6, 0x06, 0xbe, 0xb9, 0x5d,
    0x0e, 0x3d, 0x1b, 0xd0, 0xb8, 0x3d, 0x32, 0xc9, 0x74, 0xbd,
    0x3e, 0xb2, 0xaa, 0xbd, 0x71, 0x08, 0x83, 0x3d, 0x7d, 0x72,
    0x28, 0xbd, 0x2d, 0x8f, 0xef, 0x3d, 0x45, 0x19, 0x67, 0xbd,
    0x3e, 0xe1, 0xd7, 0x3d, 0x6e, 0x1e, 0xf3, 0x3c, 0x75, 0xac,
    0x8c, 0xbc, 0xda, 0x48, 0xfc, 0x3c, 0x68, 0x53, 0x0d, 0x3e,
    0x47, 0xf2, 0x5d, 0x3c, 0xe7, 0xd8, 0xcc, 0xbc, 0x19, 0x3e,
    0x07, 0xbe, 0x0a, 0x3e, 0x4a, 0xbc, 0xa5, 0x1f, 0x39, 0xbd,
    0xe4, 0xa0, 0xb1, 0x3d, 0x86, 0x64, 0xe2, 0x3d, 0xa6, 0x3a,
    0x82, 0xbc, 0x3f, 0x91, 0xa4, 0xbd, 0x53, 0x93, 0x9f, 0xbc,
    0x17, 0x8d, 0x88, 0x3d, 0xfb, 0x29, 0x59, 0x3b, 0x2e, 0x7d,
    0xef, 0xbc, 0x8a, 0xaf, 0xe5, 0xbc, 0x5d, 0xa5, 0xc4, 0x3d,
    0x29, 0x48, 0x95, 0x3d, 0x2e, 0x25, 0xfe, 0xbd, 0xb4, 0xef,
    0x33, 0x3e, 0x8b, 0xd9, 0x15, 0x3e, 0x5e, 0x79, 0x41, 0x3d,
    0x34, 0xa1, 0x59, 0xbe, 0x32, 0x39, 0x91, 0xbd, 0xdf, 0xc8,
    0xc3, 0x3d, 0xa1, 0x50, 0x98, 0x3d, 0x53, 0x0b, 0x63, 0x3c,
    0x62, 0x77, 0x71, 0x3c, 0xa6, 0x03, 0xe9, 0x3b, 0x1b, 0x30,
    0x3e, 0x3d, 0xcc, 0x1f, 0xd8, 0x3c, 0x0a, 0xc7, 0xcc, 0x3d,
    0x03, 0x92, 0xa4, 0x3d, 0x6d, 0x06, 0x12, 0xbe, 0xeb, 0x61,
    0x1a, 0x3d, 0xa1, 0x2e, 0x6a, 0x3d, 0x81, 0x89, 0x7f, 0x3d,
    0xad, 0xc5, 0xe3, 0x3d, 0x79, 0x8f, 0x72, 0x3d, 0xdf, 0xa2,
    0x8e, 0x3d, 0x2a, 0x3a, 0x36, 0x3d, 0x4c, 0xcc, 0xce, 0x3d,
    0x6e, 0x15, 0xb3, 0xbc, 0x30, 0x35, 0x78, 0xbd, 0x6a, 0x70,
    0xa3, 0xbb, 0xee, 0xfa, 0x04, 0xbe, 0x62, 0x35, 0x18, 0x3e,
    0xf5, 0xc7, 0xa7, 0x3d, 0x5b, 0x40, 0xe6, 0xbd, 0x01, 0xd9,
    0xdb, 0x3d, 0xf7, 0xac, 0x84, 0x3d, 0xce, 0x1d, 0xd7, 0xbd,
    0xe0, 0x5b, 0xc7, 0xbd, 0xc4, 0xc4, 0xcd, 0xbc, 0x7f, 0xe1,
    0xcc, 0xbc, 0x15, 0x1e, 0xbf, 0x3d, 0x34, 0xcd, 0xa3, 0x3c,
    0xee, 0x96, 0x0e, 0xbd, 0xd4, 0x35, 0xe8, 0x3c, 0x4d, 0xa2,
    0x29, 0xbd, 0xe1, 0x4b, 0xb3, 0x3d, 0x54, 0x4e, 0xc3, 0xbd,
    0xbb, 0x2c, 0xb7, 0xbb, 0x11, 0x2b, 0x37, 0x3d, 0xc3, 0xa4,
    0xc4, 0xbb, 0x1e, 0x7b, 0x80, 0x3c, 0x87, 0x46, 0xf9, 0x3d,
    0x98, 0xa3, 0x98, 0x3d, 0x51, 0x34, 0x24, 0x3d, 0xd2, 0xcf,
    0x48, 0x3d, 0x55, 0xd5, 0xe5, 0x3c, 0xd2, 0x89, 0x50, 0x3c,
    0x39, 0xff, 0x63, 0xbd, 0x7d, 0x61, 0x63, 0x3c, 0x43, 0xc4,
    0x22, 0x3d, 0x9a, 0x61, 0xe3, 0x3d, 0x3e, 0x81, 0x7a, 0xbd,
    0xca, 0x4a, 0xaf, 0xbd, 0x80, 0xd8, 0xb3, 0x3d, 0xbf, 0x8b,
    0x04, 0xbe, 0x40, 0xbc, 0x5e, 0xb8, 0xd7, 0x6a, 0xa0, 0xbd,
    0xa5, 0xf8, 0xb0, 0xbc, 0x3c, 0x6c, 0x98, 0x3d, 0xbb, 0x7c,
    0x1b, 0xbc, 0x63, 0x2c, 0x92, 0x3d, 0x49, 0x11, 0xe3, 0xbd,
    0xbe, 0x72, 0xb5, 0xbd, 0x92, 0x3a, 0x00, 0xbe, 0xa7, 0x88,
    0x9a, 0x3d, 0x5f, 0x19, 0x06, 0x3e, 0x03, 0x44, 0xf9, 0xbd,
    0x82, 0x4e, 0x2f, 0xbd, 0x4d, 0x50, 0x51, 0x3d, 0x7f, 0x52,
    0x24, 0xba, 0x45, 0x77, 0xb2, 0xbd, 0x3d, 0xc8, 0xcf, 0xbd,
    0xec, 0x49, 0xb7, 0xbb, 0xd6, 0xbd, 0x6c, 0xbb, 0x43, 0x11,
    0x8f, 0x3d, 0x10, 0xe9, 0xb7, 0xbd, 0x41, 0x60, 0x2b, 0xbe,
    0x15, 0xba, 0xf6, 0x3d, 0x5f, 0x64, 0xcb, 0x3d, 0x5d, 0xb4,
    0x1c, 0x3e, 0xa6, 0x36, 0xa9, 0x3d, 0x98, 0xa9, 0x26, 0xbd,
    0x24, 0x34, 0x26, 0xbd, 0x3a, 0xca, 0xb2, 0x3c, 0x2d, 0x6b,
    0x21, 0xbe, 0x6e, 0xec, 0x26, 0xbd, 0x52, 0xdc, 0xb1, 0x3d,
    0x45, 0xe2, 0x3a, 0x3d, 0xd9, 0xb4, 0xc8, 0xbd, 0x99, 0x7d,
    0x74, 0x3d, 0x75, 0x22, 0x9e, 0xbc, 0x53, 0x99, 0xa3, 0xbd,
    0x11, 0x92, 0xd8, 0xbd, 0x61, 0x5f, 0x1f, 0x3e, 0xdd, 0x28,
    0x60, 0x3d, 0x38, 0x9e, 0x37, 0xbc, 0x64, 0x38, 0xdf, 0x3d,
    0x0f, 0xcd, 0x81, 0x3d, 0x03, 0x5d, 0x30, 0x3e, 0x71, 0x81,
    0x0b, 0x3e, 0xd6, 0xe5, 0x02, 0xbd, 0x25, 0x7e, 0x8e, 0x3b,
    0x9b, 0x4f, 0xca, 0xbc, 0xa5, 0x49, 0x21, 0xbe, 0xfc, 0x36,
    0x98, 0x3c, 0xa1, 0x64, 0xb1, 0xbd, 0x02, 0x20, 0xde, 0x3c,
    0x02, 0x1d, 0xd8, 0x3d, 0x22, 0x44, 0x6d, 0xbd, 0xb3, 0x59,
    0x12, 0x3e, 0x0c, 0xf3, 0x00, 0xbd, 0x94, 0x3e, 0x04, 0xbe,
    0xe5, 0x76, 0x20, 0x3d, 0x54, 0xe2, 0xfb, 0xbb, 0x51, 0xec,
    0x96, 0xbc, 0x1e, 0xb6, 0xf0, 0x3d, 0x26, 0x0e, 0xad, 0xbc,
    0x4e, 0xf4, 0x3e, 0xbd, 0xe4, 0x10, 0xbb, 0x3c, 0x95, 0x9b,
    0x0b, 0xbe, 0x04, 0x1f, 0x3b, 0x3d, 0xe1, 0xdd, 0x85, 0x3d,
    0xbb, 0x07, 0x23, 0x3e, 0x23, 0x7f, 0x1b, 0x3e, 0xd9, 0x4a,
    0x3b, 0x3c, 0x6a, 0xb3, 0xa5, 0xbc, 0x1c, 0xdb, 0x0c, 0x3e,
    0x33, 0x7e, 0x85, 0xbd, 0x83, 0x4f, 0x2b, 0xbd, 0xf2, 0xef,
    0x30, 0x3e, 0x18, 0x6e, 0xc0, 0xbb, 0x4e, 0x54, 0xf3, 0x3d,
    0x6a, 0xe5, 0x40, 0x3d, 0xe1, 0x5f, 0x66, 0x3d, 0x12, 0xae,
    0x05, 0x3c, 0xb7, 0xe3, 0x30, 0xbe, 0xd1, 0x29, 0x17, 0x3e,
    0x38, 0x79, 0x9c, 0xbd, 0x67, 0x95, 0x9d, 0x3b, 0xfc, 0x4a,
    0xa6, 0x3c, 0x44, 0x99, 0x69, 0xbd, 0x46, 0xa1, 0xa4, 0x3d,
    0x6d, 0xd7, 0x84, 0xbd, 0xc0, 0x71, 0x22, 0xbd, 0xe0, 0xb9,
    0xeb, 0x3c, 0x46, 0x39, 0xb2, 0xbd, 0x1d, 0x83, 0x14, 0xbd,
    0x91, 0x88, 0x98, 0x3d, 0x6e, 0xc5, 0xc3, 0x3b, 0x64, 0xb8,
    0xae, 0xbd, 0x27, 0xe4, 0xd7, 0x3d, 0x43, 0x49, 0x67, 0xbb,
    0x6f, 0xd5, 0xc2, 0x3d, 0x6e, 0x2a, 0x45, 0x3d, 0x3e, 0x8c,
    0xde, 0xbb, 0x40, 0xa6, 0xdb, 0xbc, 0x54, 0x25, 0x18, 0x3e,
    0x24, 0xc7, 0x10, 0x3d, 0xd9, 0xb9, 0x6e, 0x3d, 0x8e, 0x79,
    0xa5, 0xbc, 0x0a, 0x16, 0x7f, 0x3d, 0xab, 0x77, 0x7e, 0x3c,
    0x9d, 0x1a, 0x76, 0x3d, 0xb6, 0xd5, 0x31, 0x3d, 0x54, 0x39,
    0xe8, 0xbd, 0xe4, 0x3b, 0x55, 0x3d, 0xb4, 0x93, 0x9f, 0xbd,
    0xd4, 0xd6, 0x34, 0xbd, 0x0f, 0x8e, 0xe3, 0x3d, 0x05, 0xf6,
    0x12, 0xbe, 0xb2, 0x41, 0x08, 0xbd, 0xe6, 0xc3, 0xc5, 0xbd,
    0x75, 0xc6, 0xe3, 0x3d, 0xa7, 0x23, 0xbe, 0xbd, 0xec, 0x41,
    0x16, 0xbb, 0xac, 0x9c, 0x52, 0xbd, 0x2c, 0x09, 0xf2, 0x3d,
    0xcb, 0x8e, 0x05, 0x3d, 0x99, 0x9f, 0x4d, 0xbd, 0x77, 0x0b,
    0x15, 0x3d, 0xaa, 0xcb, 0xd9, 0xbd, 0x0c, 0xd4, 0x58, 0xbb,
    0x03, 0xb4, 0xb7, 0x3d, 0x6b, 0x20, 0xca, 0xbd, 0xee, 0xce,
    0x88, 0x3d, 0x22, 0xd3, 0x89, 0xbc, 0xba, 0xd8, 0xe8, 0xbc,
    0x6e, 0x1a, 0x81, 0x3c, 0xa4, 0xc5, 0x02, 0x3e, 0x2f, 0x9c,
    0x39, 0x3d, 0xb4, 0x82, 0x65, 0xbd, 0x08, 0xe4, 0xec, 0xbd,
    0x9e, 0x15, 0x8c, 0x3d, 0x1e, 0xe6, 0xc9, 0x3a, 0x89, 0x15,
    0x82, 0xbd, 0x0c, 0xf5, 0xab, 0x3d, 0xcd, 0x89, 0x72, 0x3d,
    0x26, 0xe1, 0x58, 0xbd, 0x98, 0x37, 0xc4, 0x3d, 0x2b, 0x28,
    0xfe, 0x3a, 0x52, 0x82, 0xd2, 0xbd, 0x31, 0xb6, 0x0b, 0xbc,
    0xf6, 0xb9, 0x60, 0xbc, 0x2e, 0xdf, 0xdf, 0x3d, 0xe9, 0x08,
    0x85, 0x3d, 0x0c, 0xa6, 0x9b, 0xbd, 0x21, 0x8a, 0x2e, 0xbe,
    0x94, 0x8c, 0x89, 0x3b, 0xb8, 0x95, 0x56, 0xbd, 0xcc, 0xec,
    0xfb, 0xbc, 0x23, 0x87, 0x0f, 0xbe, 0xba, 0xc3, 0xef, 0xbb,
    0xff, 0x4d, 0x9f, 0xbd, 0x8f, 0xa0, 0x72, 0xbd, 0x0a, 0x1c,
    0x02, 0x3d, 0x97, 0x58, 0xe2, 0x3d, 0x32, 0x43, 0xd7, 0xbd,
    0x7c, 0xf7, 0xef, 0xbd, 0xd6, 0x02, 0xaa, 0xbc, 0xf6, 0xa1,
    0x80, 0xbd, 0x21, 0xfc, 0xd7, 0xbd, 0x8d, 0x3a, 0xdc, 0xbd,
    0xe3, 0xc5, 0x17, 0xbe, 0xda, 0x98, 0x1b, 0x3d, 0xc7, 0xa4,
    0x29, 0xbd, 0x76, 0xb1, 0x5f, 0xbe, 0x94, 0xf8, 0xd0, 0x3d,
    0xab, 0xdb, 0xf3, 0x3d, 0x8c, 0x60, 0x33, 0xbe, 0x3b, 0x2b,
    0x00, 0xbe, 0x66, 0x8f, 0x0b, 0xbc, 0xd1, 0xc1, 0xb1, 0x3c,
    0xa9, 0x86, 0xb1, 0x3c, 0x4b, 0xeb, 0xae, 0x3d, 0x94, 0xb6,
    0xca, 0x3d, 0x3b, 0x31, 0xd8, 0xbb, 0x94, 0x23, 0xa2, 0x3c,
    0x56, 0xb7, 0x19, 0x3d, 0x4e, 0x83, 0xa8, 0x3d, 0x78, 0xe6,
    0x54, 0x3d, 0x26, 0x57, 0x1b, 0xbe, 0xed, 0xef, 0xb2, 0xbd,
    0xf2, 0x3b, 0x08, 0xbe, 0x50, 0xaf, 0xcf, 0xbc, 0xc8, 0x5a,
    0xe1, 0xbd, 0xf0, 0x69, 0x25, 0x3d, 0x5d, 0x4f, 0xd0, 0x3d,
    0xb1, 0xef, 0x95, 0x3c, 0x9a, 0x15, 0xca, 0x3d, 0x82, 0x9e,
    0xae, 0x3d, 0xb9, 0x52, 0xb0, 0xbd, 0x64, 0xae, 0xa3, 0xbc,
    0x36, 0xd6, 0x84, 0xbd, 0x49, 0xbb, 0xde, 0xbd, 0xbd, 0x78,
    0x00, 0xbe, 0xad, 0xc1, 0xdd, 0xbd, 0x4b, 0xe8, 0x9a, 0xbc,
    0x71, 0x9e, 0x9a, 0x3d, 0x6f, 0x93, 0x29, 0x3d, 0x35, 0x43,
    0x2b, 0xbe, 0x2f, 0xd8, 0x09, 0xbd, 0x46, 0xc3, 0xbb, 0xbd,
    0xa9, 0xf6, 0x7d, 0x3d, 0xbf, 0xa1, 0x94, 0x3d, 0x51, 0xc7,
    0x1b, 0x3d, 0x15, 0xd1, 0x80, 0xbd, 0xcb, 0x58, 0x91, 0xbd,
    0x18, 0x6a, 0x24, 0x3d, 0x14, 0xb4, 0x02, 0x3d, 0xd1, 0x9a,
    0xf4, 0x3d, 0x94, 0x40, 0xe4, 0x3d, 0xb4, 0x9d, 0x80, 0xbd,
    0x2e, 0x16, 0xb5, 0x3d, 0x3f, 0x37, 0xc9, 0x3d, 0xa1, 0x06,
    0xf1, 0x3d, 0x3b, 0xf1, 0x1c, 0x3e, 0x92, 0xbe, 0x24, 0x3d,
    0x05, 0x4e, 0x14, 0x3d, 0x9c, 0xcd, 0x98, 0x3d, 0x2f, 0xbd,
    0x22, 0x3e, 0xdc, 0x21, 0x8b, 0xbd, 0xc2, 0xba, 0x6d, 0x3d,
    0xc2, 0xa9, 0x1a, 0x3c, 0x08, 0x58, 0x17, 0x3d, 0x35, 0xa7,
    0x2c, 0x3d, 0x92, 0x8b, 0xc0, 0x3d, 0x3c, 0xa9, 0xd6, 0xbc,
    0x6d, 0x05, 0xaf, 0x3d, 0x88, 0x78, 0xc5, 0xbb, 0xe8, 0x58,
    0xc4, 0x3d, 0xc6, 0x82, 0xde, 0xbd, 0x83, 0xfa, 0xad, 0xbc,
    0xa3, 0x67, 0x86, 0xbd, 0x8e, 0x38, 0x31, 0x3d, 0x1f, 0xb7,
    0x04, 0x3e, 0x3f, 0x2f, 0x1c, 0xbd, 0x13, 0x62, 0x03, 0xbe,
    0x88, 0x81, 0xca, 0x3d, 0x9f, 0x14, 0x34, 0x3d, 0xda, 0x76,
    0x09, 0xbb, 0xf9, 0x34, 0xa9, 0x3d, 0x1d, 0x4d, 0x42, 0xbe,
    0xf8, 0x21, 0x23, 0xbe, 0xa6, 0xd3, 0xe5, 0x3d, 0x19, 0x70,
    0xb2, 0xbd, 0xd1, 0x27, 0x7b, 0xbd, 0x84, 0xe4, 0x97, 0xbd,
    0x4d, 0x08, 0x84, 0xbd, 0xc0, 0x1f, 0xab, 0x3d, 0x3f, 0x13,
    0x75, 0x3d, 0xe4, 0xae, 0xf5, 0xbb, 0xfb, 0x3c, 0x7e, 0x3c,
    0x63, 0x4e, 0x17, 0xbe, 0xa3, 0xf0, 0x00, 0x3d, 0x40, 0x72,
    0xbd, 0x3d, 0x7a, 0x45, 0xe6, 0x3d, 0x1f, 0x2d, 0x4b, 0xbd,
    0x0a, 0x8e, 0x89, 0x3d, 0x15, 0x38, 0xc5, 0x3c, 0xae, 0x1c,
    0xbd, 0xbd, 0x20, 0x5a, 0x9f, 0xbc, 0x77, 0x0a, 0xd6, 0xbd,
    0xf0, 0x2f, 0x8a, 0xbd, 0x6b, 0xf7, 0x3b, 0x3d, 0xf3, 0x74,
    0x9d, 0x3d, 0xcf, 0x0f, 0x85, 0x3d, 0x7d, 0x70, 0xb6, 0xbd,
    0x4e, 0x35, 0x20, 0xbe, 0xc4, 0x0a, 0x8e, 0x3d, 0xcc, 0xb4,
    0xd3, 0x3c, 0x48, 0x2f, 0xdb, 0xbd, 0x25, 0x81, 0xaa, 0x3d,
    0x4f, 0xf2, 0xca, 0xbb, 0xd3, 0x6e, 0x1c, 0xbc, 0x24, 0xf0,
    0x2e, 0x3e, 0x9e, 0x03, 0x13, 0x3e, 0x34, 0x9c, 0x64, 0xbd,
    0x28, 0x6a, 0x9f, 0x3d, 0xc8, 0xec, 0xbb, 0x3d, 0x86, 0x9e,
    0xac, 0xbd, 0x90, 0xb3, 0x93, 0x3d, 0xe5, 0x6a, 0x89, 0xbd,
    0xcf, 0x03, 0x40, 0xbd, 0x6c, 0x6a, 0x3e, 0x3d, 0xa7, 0x4f,
    0x83, 0xbb, 0x69, 0x32, 0xe5, 0x3d, 0x21, 0x71, 0xd4, 0x3c,
    0x64, 0x45, 0xfa, 0xbc, 0x5a, 0x8a, 0x27, 0x3d, 0x89, 0xca,
    0xc8, 0xbc, 0xfd, 0x22, 0xc6, 0xbb, 0xe6, 0xa7, 0x17, 0x3d,
    0x4a, 0xd6, 0xb7, 0x3d, 0x22, 0x20, 0x8e, 0xbc, 0x40, 0x9a,
    0xcc, 0xbc, 0xbd, 0xfd, 0x20, 0xbd, 0x54, 0x71, 0x9d, 0x3d,
    0x9c, 0x94, 0x53, 0x3d, 0xb0, 0x69, 0xa9, 0xbd, 0xf5, 0x5b,
    0x0c, 0x3e, 0x4e, 0x05, 0x75, 0xbd, 0xb4, 0x09, 0x80, 0xbd,
    0x93, 0x3c, 0xa5, 0xbc, 0xa9, 0x9d, 0x0d, 0x3e, 0xc6, 0xbb,
    0xce, 0xbd, 0xbb, 0xd8, 0x53, 0x3d, 0x43, 0xfb, 0xdb, 0x3d,
    0x7a, 0xde, 0x78, 0x3d, 0x2a, 0xc9, 0xa8, 0xbd, 0xbf, 0x82,
    0xf3, 0x3d, 0x15, 0x5a, 0x9a, 0xbd, 0xca, 0xb7, 0x96, 0x3d,
    0x40, 0x99, 0xa7, 0xbd, 0x12, 0x42, 0x94, 0xbd, 0xe8, 0x71,
    0x17, 0xbc, 0x4f, 0x36, 0x3a, 0x3d, 0xeb, 0x1f, 0x55, 0xbc,
