#include "network_data.h"

ai_handle ai_network_data_weights_get(void)
{

  AI_ALIGNED(4)
  static const ai_u8 s_network_weights[ 23692 ] = {
    0xaa, 0x6e, 0xb4, 0x3d, 0x41, 0x90, 0xcd, 0xbd, 0x2e, 0xbb,
    0x74, 0xbe, 0x3a, 0x3b, 0x28, 0xbe, 0x75, 0x26, 0x82, 0x3d,
    0xba, 0x1e, 0x5e, 0xbe, 0x4f, 0x0a, 0x08, 0xbe, 0x58, 0x29,
    0x1c, 0x3d, 0x0a, 0x9b, 0x89, 0xbe, 0x69, 0xd7, 0x95, 0x3d,
    0xa9, 0xd0, 0x68, 0x3e, 0x35, 0x5b, 0xb2, 0x3d, 0x6b, 0xdd,
    0xb6, 0x3c, 0xc7, 0xe0, 0x86, 0xbd, 0xc8, 0xd3, 0x58, 0x3e,
    0xfb, 0xce, 0xda, 0x3c, 0x84, 0x97, 0x61, 0xbb, 0x1a, 0x4a,
    0x0f, 0x3e, 0xb3, 0xc7, 0x56, 0xbe, 0x6e, 0xdc, 0x89, 0xbd,
    0xb9, 0x44, 0x5f, 0xbe, 0xbe, 0x6c, 0xc9, 0x3d, 0x7e, 0xac,
    0x55, 0xbe, 0xf6, 0x67, 0xc9, 0x3c, 0xc6, 0x10, 0x64, 0x3d,
    0x3e, 0xf4, 0x44, 0xbe, 0x5b, 0xd8, 0x20, 0xbd, 0xc0, 0x5d,
    0x44, 0xbd, 0x60, 0x33, 0x32, 0xbe, 0x6e, 0x09, 0xbd, 0xbd,
    0x6a, 0xe8, 0xa8, 0xbc, 0xdd, 0x48, 0xde, 0xbd, 0x56, 0x51,
    0x7f, 0x3d, 0x34, 0x96, 0xf6, 0xbd, 0x1b, 0x6b, 0xa6, 0xbc,
    0xfc, 0x5f, 0xe5, 0x3c, 0x5f, 0xc3, 0x3f, 0xbe, 0x00, 0x11,
    0x13, 0xbe, 0x64, 0x6c, 0x6e, 0xbe, 0x67, 0xf9, 0x2e, 0x3e,
    0x25, 0x29, 0x83, 0xbc, 0x95, 0x85, 0x09, 0xbe, 0x9e, 0x9e,
    0x54, 0x3e, 0xc1, 0x40, 0x08, 0x3e, 0xd8, 0x39, 0xb9, 0x3d,
    0x7f, 0x5a, 0x56, 0xbd, 0x59, 0x3d, 0x71, 0xbe, 0x39, 0xf2,
    0x37, 0xbe, 0x45, 0xc8, 0xc1, 0xbd, 0x8c, 0x59, 0x0e, 0xbe,
    0x3c, 0xd1, 0xa1, 0x3d, 0xe3, 0xb6, 0x79, 0x3d, 0x44, 0xe5,
    0x8d, 0xbd, 0x13, 0xca, 0x7c, 0xbd, 0xc2, 0x49, 0x5d, 0xbd,
    0x25, 0xb2, 0x6a, 0x3e, 0xa2, 0x07, 0x7f, 0x3e, 0x27, 0x50,
    0x60, 0x3d, 0x0e, 0xe7, 0x86, 0xbd, 0xe8, 0x54, 0xb5, 0x3b,
    0x9c, 0xde, 0x3e, 0x3e, 0x72, 0x90, 0x18, 0x3e, 0xd9, 0x7f,
    0x7b, 0x3e, 0xb4, 0xcc, 0x2a, 0xbd, 0x74, 0xbe, 0x53, 0xbe,
    0x93, 0x09, 0x57, 0xbd, 0x3e, 0xd5, 0x0a, 0xbe, 0xea, 0x22,
    0x2d, 0x3e, 0xfa, 0x0c, 0xa3, 0xbd, 0x40, 0x15, 0x16, 0x3d,
    0xcf, 0xa5, 0x5c, 0x3e, 0x4b, 0x5c, 0x3e, 0x3e, 0xd3, 0xa4,
    0x57, 0x3e, 0xe0, 0xea, 0xf5, 0xbb, 0xae, 0x22, 0x4f, 0xbd,
    0x6e, 0x7b, 0xf5, 0x3d, 0xc0, 0x4c, 0x14, 0x3e, 0x81, 0xa8,
    0x3c, 0x3c, 0x31, 0xba, 0x35, 0x3c, 0xb7, 0x41, 0x90, 0xbd,
    0x36, 0x00, 0x8a, 0x3d, 0xfe, 0x6c, 0x69, 0xbe, 0xb1, 0xcd,
    0x92, 0xbd, 0x51, 0x43, 0x13, 0xbe, 0xc7, 0x6d, 0x8b, 0xbb,
    0x27, 0xf5, 0x43, 0xbe, 0xb8, 0x0d, 0x57, 0xbe, 0xe8, 0xe8,
    0xde, 0x3d, 0x56, 0x76, 0xa9, 0xbd, 0xed, 0x51, 0x83, 0xbd,
    0x59, 0x73, 0xf6, 0xbd, 0xce, 0x6b, 0x18, 0x3e, 0xd1, 0xdb,
    0x29, 0x3e, 0xc1, 0x68, 0x41, 0xbe, 0xc7, 0xcf, 0xf3, 0xbd,
    0x08, 0x1c, 0x7f, 0xba, 0x4c, 0x10, 0xf7, 0xbd, 0x04, 0xbc,
    0x74, 0xbe, 0x59, 0xd3, 0x01, 0xbe, 0xcc, 0xaf, 0x7d, 0x3c,
    0x6d, 0x1e, 0x1e, 0xbe, 0xbf, 0x67, 0xd5, 0xbd, 0x80, 0xf8,
    0x32, 0xbb, 0x82, 0xc2, 0x2c, 0xbe, 0xe2, 0x0a, 0x1c, 0xbe,
    0xb1, 0x61, 0x79, 0xbe, 0x35, 0x7d, 0xf2, 0xbd, 0xda, 0xbe,
    0x0b, 0xbe, 0xeb, 0x33, 0x2d, 0x3e, 0x32, 0x2e, 0x56, 0x3d,
    0x9c, 0xc1, 0x54, 0xbd, 0x1d, 0x3a, 0xf1, 0xbd, 0xf3, 0x05,
    0xd1, 0xbd, 0x1c, 0x27, 0xb9, 0x3d, 0x99, 0x66, 0xac, 0xbc,
    0xda, 0x8f, 0x0e, 0xbe, 0xcc, 0xb2, 0x38, 0x3e, 0xee, 0x35,
    0xbf, 0x3b, 0x85, 0xf5, 0x55, 0xbe, 0xb8, 0x75, 0x12, 0x3e,
    0x0a, 0xe5, 0xd3, 0xbc, 0x26, 0x9c, 0x88, 0x3d, 0x12, 0x77,
    0x55, 0xbe, 0xfd, 0x8e, 0x7b, 0xbe, 0x82, 0x2a, 0x58, 0xbb,
    0x20, 0x6d, 0x21, 0xba, 0xbb, 0xb2, 0x64, 0xbe, 0x7f, 0x75,
    0xd5, 0xbd, 0x9f, 0x3a, 0xe3, 0xbd, 0x8f, 0x16, 0x27, 0xbe,
    0x70, 0x91, 0x91, 0x3c, 0xcd, 0x53, 0xbd, 0x3d, 0x14, 0x68,
    0x00, 0xbe, 0x81, 0x2e, 0x3e, 0xbd, 0x08, 0xfa, 0x0a, 0x3d,
    0x80, 0x5e, 0x59, 0x3e, 0xd7, 0x66, 0x16, 0x3e, 0x1d, 0x65,
    0x82, 0xbd, 0x89, 0xa6, 0x41, 0x3e, 0xec, 0xb5, 0x0e, 0x3d,
    0xc2, 0x2c, 0x19, 0xbe, 0xba, 0x52, 0x26, 0x3e, 0xc3, 0xf5,
    0x01, 0xbe, 0xd5, 0xd2, 0x19, 0x3e, 0xeb, 0x9d, 0xa5, 0x3c,
    0xe7, 0x5f, 0x43, 0xbc, 0x20, 0xd1, 0x35, 0x3c, 0xe5, 0x1c,
    0xb5, 0xbc, 0x03, 0xaa, 0xb2, 0x3d, 0x0e, 0x2c, 0x44, 0x3d,
    0x80, 0xc5, 0x65, 0xb9, 0x07, 0xa9, 0x74, 0x3d, 0x51, 0x44,
    0xdf, 0xbb, 0x87, 0xc2, 0x83, 0x3c, 0xdc, 0xb7, 0x79, 0x3d,
    0xe6, 0x83, 0xe0, 0xbb, 0xed, 0xcf, 0x89, 0x3d, 0x72, 0xa1,
    0x90, 0x3c, 0xda, 0x9f, 0xb6, 0x39, 0x6d, 0xfc, 0x1d, 0x3c,
    0xe1, 0x57, 0x7d, 0x3d, 0xba, 0xdb, 0xa9, 0xbd, 0xb9, 0xff,
    0x06, 0xbd, 0xfb, 0xb1, 0xb7, 0x3c, 0x38, 0x5f, 0x24, 0x3d,
    0x49, 0xaa, 0xce, 0x3d, 0xf0, 0x03, 0x69, 0xbd, 0x77, 0x9a,
    0x07, 0xbd, 0x80, 0xe3, 0xb1, 0x3d, 0x5c, 0x79, 0xe8, 0xbc,
    0x21, 0x1a, 0xcd, 0x3d, 0x9b, 0x60, 0x0a, 0x3e, 0xe2, 0xb7,
    0x35, 0x3e, 0xef, 0xd4, 0x51, 0xbd, 0xa4, 0x3f, 0x1e, 0x3d,
    0x39, 0x0f, 0xc4, 0xbd, 0x2d, 0x42, 0xbb, 0xbd, 0xfb, 0x06,
    0xb3, 0x3b, 0x21, 0x37, 0xba, 0xbd, 0x4e, 0x88, 0xd0, 0xbd,
    0x0e, 0x85, 0xcd, 0xbd, 0x67, 0x61, 0xbb, 0xbd, 0x94, 0x53,
    0x44, 0x3d, 0x34, 0x8d, 0x04, 0x3e, 0x4c, 0xad, 0x62, 0xbd,
    0x31, 0x30, 0x8f, 0xbd, 0x27, 0x68, 0xa5, 0x3c, 0x4b, 0x03,
    0xbb, 0xbd, 0x76, 0x56, 0xeb, 0x3d, 0xa7, 0x66, 0xa7, 0x3d,
    0x45, 0xc3, 0x8e, 0x3d, 0x6e, 0xc5, 0x13, 0x3d, 0xb2, 0x06,
    0x21, 0xbc, 0x35, 0x6b, 0x59, 0x3d, 0x09, 0xef, 0xe2, 0xbd,
    0x75, 0x93, 0xa6, 0xbc, 0xff, 0xb4, 0xbe, 0x3d, 0x3a, 0x9f,
    0x22, 0xbe, 0x98, 0xac, 0xad, 0xbc, 0x0f, 0xfa, 0x08, 0xbc,
    0x7f, 0x18, 0x16, 0x3e, 0xd8, 0x29, 0x45, 0x3c, 0xaa, 0xf0,
    0xfd, 0xbd, 0xa8, 0x67, 0x88, 0xbc, 0x47, 0x77, 0x78, 0x3d,
    0x27, 0x1e, 0x5f, 0xbd, 0xbb, 0x5b, 0xd1, 0x3c, 0xb8, 0xb9,
    0x6c, 0xbd, 0xea, 0x8e, 0x1c, 0x3c, 0x4b, 0xa1, 0x32, 0xbe,
    0x0f, 0x91, 0xab, 0x3b, 0xb4, 0xb3, 0x12, 0x3d, 0x09, 0x0e,
    0xc1, 0xbd, 0xc0, 0x2b, 0x38, 0x3d, 0x92, 0xe1, 0x7b, 0xbc,
    0x23, 0xbd, 0xa0, 0x3c, 0x63, 0xa1, 0xf1, 0x3c, 0x82, 0x6a,
    0xbc, 0x3d, 0xd0, 0x96, 0x06, 0xbd, 0x98, 0xc4, 0xa8, 0x3d,
    0x53, 0x39, 0xa6, 0x3d, 0x98, 0xd7, 0xe4, 0xb9, 0x44, 0x5b,
    0xa1, 0x3d, 0xd3, 0xa2, 0xb8, 0xbc, 0x3c, 0xda, 0xfd, 0xbc,
    0x04, 0x0b, 0xfe, 0xbd, 0xc8, 0xcd, 0xa9, 0xbd, 0x9d, 0x5f,
    0x9e, 0xbd, 0xf4, 0x12, 0xb8, 0xbc, 0xa5, 0x77, 0x33, 0xbc,
    0xd7, 0x4a, 0x8d, 0x3d, 0xf6, 0x86, 0x80, 0x3c, 0x57, 0xc6,
    0x64, 0x3d, 0xdb, 0xe8, 0xcf, 0xbd, 0x06, 0x82, 0x06, 0x3e,
    0xf8, 0x97, 0xb2, 0xbd, 0xcb, 0xda, 0x1c, 0x3e, 0xa1, 0x6b,
    0x60, 0x3d, 0x6a, 0xe1, 0x1b, 0x3e, 0x72, 0x19, 0x09, 0xbd,
    0x49, 0xc1, 0x8d, 0xbd, 0xbf, 0x55, 0x6e, 0x3d, 0x42, 0x1f,
    0x68, 0x3c, 0x59, 0x81, 0xa9, 0x3c, 0x26, 0xe7, 0xe8, 0xbd,
    0x8c, 0xed, 0x9a, 0xbc, 0x87, 0x9c, 0x0c, 0x3d, 0x4b, 0x99,
    0x9c, 0x3d, 0x04, 0x03, 0xaa, 0xbd, 0xab, 0xf9, 0x27, 0xbe,
    0x79, 0x88, 0x06, 0x3d, 0x89, 0x27, 0x37, 0xbd, 0x59, 0x16,
    0x96, 0x3d, 0x34, 0x95, 0x83, 0xbb, 0xaf, 0x9d, 0xb7, 0xbd,
    0x52, 0x92, 0x1f, 0x3b, 0xcb, 0xc3, 0x49, 0xbb, 0x66, 0x84,
    0x15, 0xbc, 0xa3, 0xc2, 0x3c, 0x3e, 0x2f, 0xed, 0x3a, 0x3e,
    0xf0, 0xb2, 0xca, 0xbc, 0x07, 0x9e, 0x4a, 0x3d, 0x11, 0x41,
    0xea, 0xbd, 0x6f, 0xfe, 0xfe, 0xbd, 0xd1, 0x27, 0x0f, 0xbe,
    0x61, 0xc8, 0x0c, 0x3e, 0x8b, 0xe4, 0xb2, 0x3d, 0x51, 0x0d,
    0x0d, 0x3e, 0x70, 0xfb, 0x7b, 0x3d, 0xf8, 0xd9, 0x30, 0x3e,
    0x7e, 0x68, 0x4b, 0xbd, 0x82, 0x41, 0xad, 0xbd, 0xa5, 0x6c,
    0xf8, 0xbd, 0x78, 0xf3, 0xa1, 0xbd, 0x79, 0x2b, 0xe5, 0xbc,
    0x9f, 0x03, 0xf6, 0x3d, 0x05, 0x5b, 0x28, 0xbd, 0x8b, 0xac,
    0x98, 0xbd, 0x6c, 0x08, 0x88, 0xbc, 0xe1, 0x67, 0xd8, 0x3d,
    0xcc, 0x10, 0xa2, 0xbd, 0xc2, 0x0b, 0x4e, 0xbd, 0x03, 0x40,
    0x08, 0x3e, 0xf9, 0xbe, 0xf4, 0x3d, 0x66, 0x17, 0x1b, 0x3e,
    0x87, 0x4c, 0x26, 0xbd, 0x01, 0x78, 0x68, 0x3d, 0x2c, 0x01,
    0x90, 0xbc, 0x6f, 0xe2, 0xe2, 0xbd, 0xec, 0x82, 0x4d, 0x3c,
    0x6e, 0xeb, 0x88, 0x3d, 0xbd, 0x73, 0x88, 0xbd, 0xfe, 0xee,
    0x8a, 0xbd, 0x96, 0x27, 0x5e, 0xbd, 0x3d, 0xc9, 0x4b, 0xbd,
    0xf3, 0x37, 0xba, 0x3d, 0xec, 0x62, 0xe4, 0xbb, 0xd7, 0xdb,
    0xa3, 0x3c, 0x95, 0x10, 0xe7, 0x3d, 0x75, 0xf7, 0x0b, 0xbe,
    0x1b, 0x8c, 0x42, 0x3e, 0x0c, 0xa8, 0xa5, 0xbd, 0x9d, 0x67,
    0x6e, 0x3d, 0x1b, 0x33, 0xe8, 0xba, 0xab, 0x7c, 0xce, 0x3c,
    0x1e, 0xc1, 0xde, 0x3d, 0xfb, 0x0d, 0xc8, 0xbc, 0xea, 0x60,
    0x20, 0xbd, 0x66, 0x7d, 0x35, 0x3b, 0xfd, 0x78, 0x78, 0x3d,
    0xe3, 0xbe, 0x3d, 0x3d, 0x02, 0x71, 0xae, 0xbd, 0x09, 0xa5,
    0xfb, 0xba, 0xd2, 0xc7, 0xad, 0x3c, 0x89, 0xd2, 0xcb, 0xbd,
    0x6a, 0xcc, 0x69, 0xbc, 0x13, 0xaa, 0xc3, 0x3d, 0xf6, 0xef,
    0xc3, 0xbd, 0x8d, 0x66, 0xe4, 0x3d, 0xf7, 0x48, 0xc1, 0xbd,
    0x70, 0x6f, 0xa5, 0x3d, 0x0e, 0x61, 0x89, 0x3d, 0xa0, 0xc0,
    0x28, 0x3d, 0x9e, 0x71, 0x88, 0xbd, 0x16, 0x9d, 0xfd, 0xbc,
    0xf4, 0xa3, 0xec, 0xbc, 0x39, 0x1b, 0x85, 0xbd, 0x17, 0x8e,
    0xeb, 0xbc, 0x02, 0xf0, 0x75, 0x3d, 0x01, 0xac, 0xf1, 0xbd,
    0x42, 0x2f, 0x20, 0xbd, 0x6a, 0xe6, 0xbf, 0xbd, 0xe8, 0x26,
    0x80, 0xbc, 0xa5, 0xe6, 0xc6, 0x3c, 0x1d, 0x3b, 0xe0, 0xbd,
    0x14, 0xe5, 0xe1, 0xbd, 0x7b, 0xa1, 0x7c, 0x3b, 0xb8, 0xad,
    0xa5, 0xbc, 0xee, 0xcc, 0xc9, 0xbd, 0x3d, 0x4d, 0xc7, 0xba,
    0xf6, 0x15, 0xb4, 0xbc, 0x2c, 0x7f, 0x9e, 0x3d, 0x08, 0x8b,
    0xe4, 0xbd, 0x97, 0x5d, 0x97, 0xbd, 0x2c, 0x6c, 0xd6, 0x3d,
    0x64, 0x03, 0xeb, 0x3c, 0xee, 0x2e, 0xed, 0xbd, 0x3f, 0xc4,
    0xe3, 0x3d, 0x70, 0xcc, 0xbc, 0xbd, 0xe3, 0x88, 0x4c, 0x3d,
    0xf8, 0xb7, 0x7c, 0xbd, 0xeb, 0x30, 0xcc, 0xbd, 0xc1, 0x98,
    0x96, 0x3d, 0xf2, 0x84, 0x7d, 0x3d, 0xd6, 0xbe, 0x2b, 0x3c,
    0x2a, 0x25, 0x49, 0x3d, 0x9b, 0x72, 0x20, 0x3d, 0x89, 0x2e,
    0xa4, 0xbc, 0x3d, 0xe8, 0xa0, 0xbd, 0x24, 0x01, 0xaa, 0xbd,
    0x7b, 0x82, 0x8c, 0xbd, 0xe9, 0x75, 0x92, 0x3c, 0x7d, 0x70,
    0x66, 0x3c, 0x2f, 0xbc, 0xc5, 0x3d, 0xe2, 0xce, 0x60, 0xbd,
    0x67, 0xb9, 0x17, 0xbd, 0x4d, 0x24, 0x89, 0x3d, 0x90, 0x69,
    0xcc, 0xbd, 0x54, 0xab, 0x77, 0x3d, 0x41, 0x73, 0x2d, 0x3d,
    0xb5, 0xfc, 0xe9, 0x3c, 0xa5, 0x69, 0x8f, 0x3d, 0xd6, 0x9f,
    0x7f, 0x3d, 0xd3, 0x28, 0xa5, 0x3c, 0x29, 0x33, 0x6d, 0xbd,
    0xe0, 0xcb, 0xad, 0xbd, 0x52, 0xda, 0x93, 0x3d, 0x93, 0x45,
    0x0a, 0x3d, 0x7e, 0x4b, 0x66, 0x3d, 0x77, 0xb1, 0xd1, 0xbd,
    0x78, 0x46, 0x98, 0xbd, 0x40, 0x85, 0x97, 0x3d, 0x09, 0x29,
    0x07, 0xbd, 0xe5, 0x41, 0x99, 0x3d, 0x8a, 0x35, 0x01, 0xbd,
    0x8c, 0x57, 0xb6, 0xbb, 0xac, 0xe3, 0x1f, 0x3d, 0xb9, 0x12,
    0x75, 0x3d, 0x12, 0x14, 0x3e, 0x3c, 0x8f, 0x73, 0xc7, 0xbc,
    0xba, 0xaa, 0xde, 0xbc, 0x17, 0x79, 0x90, 0x3d, 0x13, 0x57,
    0x03, 0xbc, 0x33, 0x70, 0xf3, 0xbd, 0x6a, 0x22, 0xca, 0xbd,
    0x94, 0xec, 0xc7, 0x3d, 0x83, 0x7b, 0x01, 0xbd, 0xa4, 0x19,
    0x1a, 0x3d, 0xaf, 0x95, 0xaf, 0x3d, 0x70, 0x8b, 0xa9, 0xbd,
    0x41, 0xf3, 0xf0, 0xbd, 0x58, 0xe5, 0xc6, 0x3d, 0x57, 0xf7,
    0x5e, 0x3d, 0x38, 0x80, 0x84, 0xbd, 0xfe, 0x10, 0x8c, 0x3d,
    0xa2, 0x09, 0xfa, 0xbd, 0x89, 0xab, 0xa1, 0xbd, 0x48, 0xe7,
    0x62, 0x3c, 0xcc, 0x45, 0xc3, 0x3d, 0x28, 0x47, 0x38, 0xbb,
    0x24, 0x52, 0xcc, 0xbd, 0xe3, 0xa7, 0x79, 0xbd, 0x01, 0x97,
    0xc3, 0xbd, 0xcb, 0xea, 0x92, 0xbd, 0x7d, 0x73, 0x5c, 0xbd,
    0x9e, 0x8e, 0x90, 0xbd, 0x03, 0xc2, 0xc0, 0xbd, 0x12, 0xfb,
    0xbb, 0x3a, 0xcf, 0x9d, 0x02, 0x3d, 0x71, 0x41, 0x8c, 0x3c,
    0x98, 0xd2, 0xce, 0xbc, 0x6c, 0x4c, 0xbe, 0x3d, 0xe6, 0x43,
    0x58, 0xbd, 0x2b, 0x33, 0xb5, 0xbd, 0x98, 0xb6, 0x7f, 0x3c,
    0xaf, 0x06, 0x96, 0x3b, 0x04, 0xc5, 0x8c, 0x3d, 0xeb, 0x04,
    0x44, 0xbd, 0x66, 0xc4, 0x84, 0x3d, 0xff, 0xd4, 0x89, 0xbd,
    0x0d, 0x77, 0x98, 0x3d, 0xe2, 0x24, 0x66, 0xbd, 0x2c, 0x89,
    0x84, 0x3d, 0xcf, 0x53, 0xe6, 0xbd, 0x11, 0x45, 0x51, 0xbd,
    0x0e, 0x85, 0xef, 0xbd, 0xb3, 0x8f, 0xf2, 0xbd, 0x3e, 0x9d,
    0x2a, 0x3d, 0x88, 0x4c, 0x07, 0x3d, 0xad, 0xf6, 0x3b, 0xbb,
    0x94, 0xc6, 0x60, 0xbc, 0xb7, 0x02, 0xf8, 0xbd, 0x89, 0x0d,
    0xf4, 0xbc, 0x7f, 0x2a, 0xe1, 0x3d, 0x18, 0x10, 0x83, 0x3d,
    0xe8, 0x42, 0x86, 0x3c, 0x35, 0xee, 0xc6, 0xbd, 0xd1, 0x71,
    0xe2, 0x3d, 0x8b, 0xc4, 0xb8, 0x3c, 0xe1, 0x83, 0x18, 0xbe,
    0x24, 0xb6, 0xad, 0x3c, 0x05, 0x31, 0xff, 0xbd, 0x2b, 0xac,
    0xcb, 0xbd, 0x7d, 0x69, 0x58, 0x3d, 0x26, 0x84, 0xd6, 0xbd,
    0xb7, 0xea, 0x38, 0xbe, 0x62, 0xd7, 0xca, 0xbc, 0xf7, 0xbe,
    0xd2, 0x3d, 0x17, 0x7c, 0x0f, 0x3d, 0x15, 0x13, 0x26, 0xbd,
    0xeb, 0x94, 0x1a, 0xbe, 0xc3, 0xfd, 0xea, 0xbd, 0xcf, 0xe8,
    0x09, 0xbe, 0x14, 0xc8, 0x7f, 0xbc, 0x13, 0x03, 0x63, 0xbd,
    0xe8, 0xa5, 0xc8, 0xbd, 0x66, 0x38, 0x92, 0xbd, 0x3f, 0xd9,
    0x9a, 0xbd, 0xce, 0xbe, 0xa4, 0x3c, 0xf2, 0xa5, 0x9b, 0x3c,
    0x7c, 0xc1, 0xdf, 0xbc, 0xf5, 0xe2, 0x1f, 0xbe, 0xa1, 0xa4,
    0xaf, 0xbd, 0xa5, 0x1c, 0xf8, 0x3d, 0xfd, 0x13, 0xdc, 0xbd,
    0xbb, 0x12, 0xff, 0x3d, 0x34, 0x95, 0x88, 0x3d, 0x74, 0xa4,
    0x86, 0x3d, 0x34, 0xc5, 0xb6, 0x3b, 0x72, 0x2f, 0xf7, 0xbb,
    0x48, 0xc8, 0x42, 0x3d, 0x89, 0xf1, 0xa7, 0x3c, 0x1c, 0x6d,
    0x40, 0x3d, 0x08, 0xae, 0x2a, 0xbb, 0xeb, 0x9c, 0x2f, 0x3d,
    0x49, 0xb0, 0x44, 0x3d, 0xbb, 0x8b, 0xab, 0x3d, 0xc8, 0xc9,
    0xcf, 0xbd, 0x7d, 0xff, 0xa1, 0xbd, 0x01, 0xb1, 0xf9, 0xbd,
    0x08, 0x53, 0x9d, 0xbc, 0x58, 0xfa, 0x73, 0xbd, 0xad, 0x0f,
    0x4e, 0x3d, 0xe0, 0xd3, 0x97, 0xbd, 0x32, 0x4a, 0x6b, 0xbd,
    0xf7, 0x6e, 0xd8, 0xbd, 0xd0, 0x50, 0x54, 0xbd, 0x6c, 0xd5,
    0xac, 0xbd, 0x03, 0x8f, 0x31, 0x3c, 0xc0, 0x80, 0xb6, 0xbd,
    0x9a, 0x1b, 0xbd, 0x3b, 0x7c, 0x18, 0xb7, 0x3d, 0x00, 0x74,
    0xb3, 0x35, 0xb8, 0x87, 0x36, 0xbe, 0x05, 0x7e, 0xd9, 0xbd,
    0x3a, 0xb9, 0x95, 0x3d, 0x01, 0xb1, 0x72, 0x3d, 0xca, 0xf5,
    0xc3, 0xbd, 0x8c, 0x23, 0x90, 0xbd, 0x66, 0x6b, 0xbf, 0x3d,
    0xbd, 0x73, 0x94, 0xbd, 0xab, 0x8c, 0x9e, 0xbc, 0x03, 0xaf,
    0xac, 0x3d, 0x7f, 0xab, 0x73, 0xbd, 0x45, 0x81, 0x53, 0xbc,
    0x9d, 0x1a, 0xe1, 0xbd, 0x2c, 0xd7, 0x69, 0xbd, 0x74, 0x54,
    0x9d, 0xbd, 0xc0, 0xb3, 0x75, 0x3c, 0x6b, 0x43, 0x9b, 0x3c,
    0xdc, 0x14, 0xfd, 0xbc, 0x89, 0xae, 0xcd, 0x3d, 0x4d, 0x77,
    0xbb, 0x3d, 0x86, 0xde, 0x6a, 0x3c, 0xd9, 0xc7, 0x3a, 0xbd,
    0x26, 0x05, 0xb9, 0xbd, 0xc6, 0xc1, 0x4c, 0xb9, 0xd3, 0xc5,
    0x41, 0x3d, 0xdc, 0x20, 0xca, 0x3d, 0xd5, 0xcc, 0x11, 0x3d,
    0x72, 0xf2, 0x31, 0x3c, 0x14, 0xfc, 0x37, 0xbd, 0x91, 0x5e,
    0x0f, 0xbd, 0x7d, 0xc4, 0xf2, 0xbc, 0x20, 0x98, 0xea, 0xbd,
    0x9b, 0x04, 0x97, 0x3c, 0x04, 0xfd, 0xcc, 0xbd, 0xff, 0x5a,
    0x53, 0x3c, 0x7c, 0xe4, 0x16, 0xba, 0x8a, 0x94, 0xa9, 0xbd,
    0x1f, 0x67, 0x70, 0xbc, 0xeb, 0xd3, 0x9a, 0x3c, 0x6f, 0x28,
    0x92, 0x3d, 0xa6, 0xc7, 0xee, 0xbc, 0x04, 0x19, 0xcf, 0x3d,
    0xae, 0x3d, 0x33, 0xbe, 0x1b, 0x8f, 0xbe, 0x3c, 0x2d, 0x8c,
    0x63, 0x3c, 0xd2, 0xf3, 0x8e, 0x3d, 0xb9, 0x19, 0xcc, 0x3d,
    0x4f, 0x3b, 0xe6, 0x3c, 0x75, 0x13, 0x99, 0x3d, 0x59, 0x3e,
    0xbe, 0xbd, 0xb6, 0x42, 0x8d, 0x3b, 0xd2, 0xa9, 0xda, 0xbd,
    0xf8, 0xc6, 0x2c, 0x3c, 0xea, 0x31, 0xa1, 0x3d, 0x28, 0x9a,
    0x12, 0xbc, 0xf5, 0xec, 0x60, 0xbc, 0xe2, 0x05, 0x5a, 0xba,
    0x32, 0x8a, 0xef, 0x3d, 0x77, 0x7b, 0x85, 0x3d, 0x98, 0x70,
    0xd2, 0x3d, 0xf9, 0xa4, 0x77, 0x3c, 0x26, 0xd4, 0x69, 0x3d,
    0x0c, 0xa4, 0xc4, 0xbd, 0x30, 0x9c, 0x8f, 0xbb, 0x91, 0x50,
    0x9d, 0x3d, 0x77, 0x11, 0xcf, 0xbd, 0x02, 0xff, 0x0e, 0xbc,
    0x75, 0xb4, 0xc1, 0x3d, 0x7a, 0xc0, 0xe3, 0x3d, 0x57, 0x00,
    0x1f, 0xbd, 0x7c, 0xd7, 0xc8, 0x3d, 0x78, 0xe5, 0x8b, 0xbd,
    0x89, 0xf7, 0x28, 0xbe, 0x1f, 0x86, 0xde, 0xbd, 0x3c, 0xfe,
    0x52, 0x3b, 0x4b, 0x88, 0x43, 0xbd, 0xe7, 0x4c, 0x8e, 0xbd,
    0x05, 0x6b, 0x3b, 0x3d, 0x51, 0x1f, 0xcf, 0x3d, 0xfe, 0x3b,
    0x09, 0x3b, 0xd4, 0xb6, 0xbc, 0xbb, 0x81, 0xb8, 0x9e, 0xbd,
    0x67, 0xff, 0x27, 0xbd, 0x5e, 0x73, 0x13, 0x3d, 0xdb, 0xcb,
    0xca, 0xbd, 0xea, 0xad, 0x44, 0xbc, 0xcc, 0x9f, 0xb7, 0xbd,
    0xa6, 0x27, 0xf8, 0x3d, 0x3f, 0x7c, 0xbb, 0xbb, 0xf4, 0x35,
    0x76, 0xbd, 0x24, 0x80, 0x92, 0x3d, 0xcd, 0xd9, 0xea, 0x3c,
    0x70, 0x5e, 0x16, 0x3e, 0x23, 0xd4, 0xee, 0x3d, 0x89, 0x7d,
    0xad, 0xbc, 0x76, 0xd8, 0x77, 0x3d, 0x3a, 0xa8, 0xb5, 0xbd,
    0x5e, 0x52, 0xf9, 0xbc, 0x25, 0xcc, 0x1b, 0x3e, 0x0f, 0x86,
    0x0c, 0x3d, 0x02, 0x39, 0x97, 0xbd, 0xf6, 0xc6, 0x98, 0x3c,
    0xbc, 0xbb, 0xff, 0x3c, 0xba, 0x34, 0xa8, 0xbd, 0x94, 0xf2,
    0xae, 0x3d, 0x31, 0x40, 0x89, 0xbc, 0x1e, 0x4d, 0xaf, 0xbc,
    0xf7, 0x64, 0x81, 0x3d, 0x39, 0x65, 0xa1, 0x3c, 0xa6, 0xce,
    0x15, 0x3e, 0x0b, 0x58, 0xaa, 0x3d, 0xba, 0x14, 0x92, 0x3d,
    0xb8, 0xd0, 0x47, 0x3d, 0x28, 0x0c, 0x8f, 0x3d, 0x30, 0xe0,
    0x87, 0x3d, 0xb5, 0xfe, 0x87, 0x3b, 0x4c, 0x92, 0x01, 0x3e,
    0xa7, 0x62, 0xf0, 0xbd, 0xd5, 0x1e, 0x9f, 0x3d, 0x09, 0x4d,
    0x31, 0x3d, 0xc9, 0x64, 0x67, 0xbd, 0x89, 0x78, 0x3b, 0xbd,
    0x57, 0x75, 0x80, 0x3d, 0xa0, 0x34, 0x5d, 0xbd, 0x86, 0x91,
    0x48, 0xbc, 0x64, 0x7f, 0x87, 0x3c, 0xa3, 0xe8, 0x0f, 0xbc,
    0x1d, 0x22, 0x03, 0x3e, 0x29, 0x32, 0x95, 0xbc, 0x8e, 0x4d,
    0x9a, 0x3d, 0xd2, 0x35, 0x36, 0x3c, 0x8c, 0x45, 0x90, 0xbd,
    0xba, 0xf0, 0x0d, 0x3e, 0x23, 0x26, 0x89, 0xbd, 0xd0, 0xfe,
    0xa3, 0xbd, 0x60, 0xb1, 0x17, 0x3e, 0x75, 0xc0, 0xb4, 0xbd,
    0x1a, 0x36, 0x92, 0xbd, 0x9d, 0xdf, 0x9e, 0x3d, 0x0b, 0x8e,
    0xa0, 0xbc, 0x95, 0x7b, 0x16, 0xbd, 0x2d, 0x41, 0x95, 0xbd,
    0x56, 0x5d, 0xd7, 0x3c, 0x7e, 0xb9, 0xe6, 0x3d, 0xd5, 0x7b,
    0x84, 0x3c, 0x6a, 0xa8, 0x97, 0xbc, 0x02, 0x04, 0xaf, 0xbd,
    0xfa, 0x44, 0xed, 0xbc, 0x35, 0xd8, 0x8d, 0x3c, 0x41, 0xa8,
    0x16, 0x3c, 0xad, 0x9f, 0x55, 0x3d, 0x84, 0x10, 0xcb, 0xbd,
    0xeb, 0x9c, 0xb9, 0xbd, 0x80, 0x02, 0x9e, 0x3c, 0x4e, 0xe2,
    0x8a, 0x3d, 0x3d, 0x1c, 0xbf, 0xbd, 0x74, 0x26, 0x97, 0x3d,
    0x9c, 0xb0, 0x39, 0xbd, 0x2d, 0x40, 0x34, 0xbd, 0x1d, 0x01,
    0x01, 0x3e, 0x3c, 0x61, 0xbf, 0x3c, 0x53, 0xb6, 0x79, 0x3d,
    0x55, 0x66, 0x50, 0x3d, 0x52, 0x74, 0x9f, 0xbd, 0xee, 0x7c,
    0x80, 0xbb, 0x68, 0xe9, 0x6b, 0x3b, 0x70, 0x7a, 0x67, 0x3d,
    0x89, 0xa7, 0xb4, 0xbd, 0x3d, 0xc4, 0xd9, 0xbd, 0x3c, 0xdf,
    0x80, 0x3d, 0x39, 0x0c, 0x19, 0x3e, 0xdf, 0x50, 0xe9, 0xbd,
    0x6a, 0x8a, 0xb3, 0xbd, 0xf3, 0x8a, 0xff, 0xbd, 0xfc, 0x00,
    0x2b, 0xbd, 0xf9, 0x6c, 0x75, 0x3d, 0x9c, 0x37, 0x18, 0x3e,
    0xb7, 0x6b, 0x1a, 0xbd, 0x4f, 0x46, 0x22, 0xbd, 0x2a, 0x08,
    0x12, 0xbe, 0x9b, 0x84, 0xbf, 0x3d, 0x94, 0xd2, 0x33, 0x3a,
    0x47, 0xce, 0xdd, 0x3c, 0xd0, 0xe4, 0x09, 0x3d, 0x98, 0xf4,
    0x8b, 0x3b, 0x68, 0x8a, 0xf4, 0xbd, 0xd5, 0x28, 0xd8, 0x3d,
    0xf2, 0x0e, 0x94, 0x3c, 0xc0, 0xd8, 0x49, 0x3d, 0x71, 0x5a,
    0xba, 0xbc, 0x3e, 0x7e, 0x30, 0x3d, 0x8c, 0xbc, 0xe7, 0xbd,
    0x14, 0x53, 0x05, 0x3d, 0xb1, 0xa2, 0x9b, 0xbd, 0xbb, 0xa0,
    0x71, 0xbd, 0x8d, 0xa4, 0x99, 0xbd, 0xaa, 0x71, 0x32, 0xbd,
    0xd5, 0x7c, 0xf2, 0xbc, 0xf2, 0x83, 0xe6, 0xbd, 0x06, 0x55,
    0xd6, 0x3c, 0x38, 0x33, 0xb2, 0x3d, 0x7c, 0x1c, 0x80, 0xbc,
    0xcd, 0x66, 0x01, 0x3e, 0x8b, 0x9a, 0x32, 0xbd, 0x5e, 0x76,
    0x53, 0x3d, 0x37, 0x6b, 0xb0, 0xbd, 0xef, 0xf5, 0xb4, 0xbc,
    0x2b, 0x19, 0xb8, 0xbd, 0x9f, 0x5e, 0x9c, 0x3d, 0x27, 0xc5,
    0x1f, 0xba, 0x29, 0x0e, 0x00, 0xbe, 0xb1, 0xaa, 0xe2, 0xbd,
    0xf1, 0x7a, 0x0d, 0xbe, 0x95, 0x09, 0x84, 0x3d, 0x83, 0xce,
    0x0b, 0xbe, 0x31, 0x97, 0xc7, 0xbd, 0xce, 0xb6, 0xb2, 0x3d,
    0xcb, 0x2c, 0xd7, 0xbd, 0x6c, 0xc2, 0x0b, 0x3e, 0x7c, 0xde,
    0xc9, 0xbd, 0xf5, 0xf9, 0xe5, 0x3d, 0x35, 0x8f, 0x43, 0xbe,
    0x62, 0xc0, 0xc6, 0x3d, 0x18, 0x3f, 0x83, 0x3d, 0x45, 0x21,
    0x08, 0xbe, 0x94, 0xac, 0xda, 0x39, 0x8d, 0x23, 0xc0, 0xbd,
    0x89, 0x1f, 0x7a, 0xbc, 0x6f, 0x04, 0x8a, 0x3c, 0x33, 0xc4,
    0xe5, 0xbd, 0xa7, 0x4a, 0xa7, 0x3d, 0x25, 0x7c, 0xb0, 0xbd,
    0xb7, 0x42, 0x63, 0xbd, 0xc3, 0x37, 0xf7, 0xbd, 0x36, 0x5e,
    0x9e, 0xbd, 0x9e, 0x94, 0xbf, 0xbd, 0xf7, 0x5c, 0x40, 0x3d,
    0x1a, 0x1c, 0x5c, 0xbd, 0x29, 0xa4, 0xee, 0xbd, 0x7d, 0xf4,
    0xcf, 0xbd, 0x69, 0xc6, 0x8c, 0xbd, 0x12, 0xd9, 0xe6, 0x3d,
    0xc6, 0xd2, 0x1b, 0x3d, 0xd2, 0x20, 0xe3, 0x3d, 0x5a, 0xd9,
    0xd0, 0xbd, 0x0a, 0x19, 0x1b, 0x3e, 0x5f, 0x1c, 0xdb, 0xba,
    0xde, 0xa7, 0x82, 0xbb, 0x40, 0x90, 0xb9, 0x3d, 0xf7, 0xa4,
    0x61, 0xbd, 0xc7, 0x1c, 0xeb, 0xbc, 0x41, 0xa4, 0x97, 0xbc,
    0x54, 0x4b, 0x10, 0xbe, 0xb1, 0xa8, 0x07, 0xbe, 0x8c, 0x80,
    0x4e, 0x3d, 0x18, 0x6a, 0x0b, 0xbd, 0xf5, 0x90, 0x47, 0xbc,
    0xf4, 0x81, 0x6a, 0xbd, 0x86, 0x65, 0x93, 0xbd, 0xdc, 0x7a,
    0xf4, 0x3d, 0x95, 0xc0, 0x7c, 0xbd, 0x48, 0xc4, 0x98, 0xbc,
    0x03, 0xf6, 0x58, 0x3d, 0xfa, 0x57, 0xea, 0xbb, 0x24, 0x23,
    0xe1, 0xbd, 0xac, 0x86, 0x64, 0x3b, 0xe2, 0x33, 0xbc, 0x3d,
    0xcd, 0xce, 0x25, 0xbe, 0xc4, 0x50, 0xd6, 0xbd, 0xaa, 0x9a,
    0x1b, 0x3d, 0xed, 0x9e, 0xa6, 0x3b, 0x97, 0x34, 0x1c, 0xbd,
    0xd4, 0xce, 0xaa, 0xbd, 0x78, 0x47, 0x6d, 0x3b, 0x39, 0x62,
    0x55, 0xbd, 0x07, 0x0d, 0x9a, 0x3d, 0xe3, 0x25, 0x3e, 0x3d,
    0x6c, 0x7c, 0x0c, 0x3e, 0xc7, 0xad, 0x42, 0xbd, 0x64, 0x63,
    0x2a, 0xbe, 0xca, 0x23, 0xcf, 0x3c, 0x1b, 0xb0, 0x96, 0xbd,
    0xd8, 0x8c, 0x31, 0xbd, 0x30, 0xfb, 0xc1, 0x3d, 0x08, 0x23,
    0xb1, 0x3d, 0x7b, 0x4c, 0xfb, 0x3d, 0x7d, 0x66, 0xdf, 0x3b,
    0x05, 0xe7, 0xd8, 0x3c, 0x66, 0x1f, 0x0a, 0x3c, 0x86, 0x10,
    0x34, 0x3d, 0xfe, 0x04, 0x05, 0x3e, 0xc9, 0x7e, 0x3f, 0xbd,
    0x16, 0x41, 0xd5, 0x3d, 0x39, 0x31, 0x07, 0xbc, 0xb7, 0x7a,
    0xb6, 0x3d, 0x5f, 0xf9, 0xd8, 0x3d, 0xba, 0xc5, 0xaa, 0x3d,
    0x48, 0xc6, 0xab, 0xb9, 0x8b, 0x25, 0x87, 0xbd, 0xf0, 0x80,
    0x39, 0xbd, 0x72, 0x8d, 0xd0, 0x3c, 0x99, 0x2d, 0x5c, 0x3d,
    0xc2, 0xc2, 0xd5, 0xbd, 0xfc, 0xc6, 0x73, 0xbc, 0x3c, 0x34,
    0x94, 0x3d, 0xb5, 0x96, 0x68, 0xbd, 0xe3, 0x14, 0xb1, 0xbd,
    0xa2, 0x56, 0x76, 0x3d, 0x48, 0x82, 0xf4, 0xbd, 0x71, 0x58,
    0x9d, 0x3d, 0xf7, 0x9d, 0x31, 0x3d, 0xc1, 0xfe, 0xc7, 0x3d,
    0x89, 0xc1, 0xef, 0x3a, 0x4b, 0x58, 0x54, 0x3d, 0xa4, 0x59,
    0xfa, 0x3b, 0x50, 0x6b, 0xfe, 0xbd, 0x88, 0x32, 0xe9, 0xbd,
    0x8c, 0x40, 0xcd, 0xbc, 0x88, 0x93, 0x23, 0x3d, 0x63, 0xfb,
    0xa7, 0xbd, 0x68, 0x68, 0x0c, 0xbd, 0xd9, 0x11, 0xc8, 0xbd,
    0x36, 0x6f, 0x4e, 0xbd, 0xc7, 0x33, 0x26, 0xbd, 0x12, 0x55,
    0x7d, 0x3d, 0x95, 0xb1, 0x6b, 0xbc, 0x50, 0x89, 0xea, 0xbb,
    0x34, 0x82, 0xab, 0xbd, 0x0e, 0xa9, 0xfb, 0xbc, 0xeb, 0x9e,
    0xc4, 0x3d, 0x7e, 0x94, 0x84, 0x3d, 0xc6, 0x43, 0x9b, 0xbc,
    0x24, 0x1c, 0x61, 0xbd, 0x9f, 0xec, 0x13, 0x3e, 0x41, 0x48,
    0x73, 0x3d, 0xcc, 0xe8, 0xae, 0x3b, 0x41, 0x07, 0x18, 0x3d,
    0xb0, 0x74, 0x8a, 0xbd, 0x90, 0x1d, 0x5c, 0x3d, 0x7a, 0x2f,
    0x1e, 0x3e, 0x3f, 0x53, 0x65, 0xbd, 0x0e, 0xb6, 0xbc, 0xbc,
    0x13, 0x7b, 0x8a, 0x3d, 0x02, 0x06, 0x53, 0x3d, 0x12, 0x50,
    0x0f, 0x3d, 0x90, 0x96, 0x9f, 0xbd, 0x28, 0x75, 0x88, 0xbd,
    0x47, 0xe7, 0xad, 0x3c, 0xa2, 0x22, 0x60, 0x3c, 0x2d, 0xa1,
    0x2d, 0x3e, 0x6d, 0x19, 0xb7, 0x3d, 0x9e, 0x38, 0xf3, 0xbc,
    0x2e, 0xd4, 0x21, 0x3e, 0x02, 0x1e, 0x19, 0xbd, 0x8e, 0x00,
    0x15, 0xbd, 0x2a, 0x9d, 0xb1, 0x3d, 0xc5, 0xeb, 0xbc, 0xbc,
    0xa2, 0x54, 0xc9, 0x3d, 0x8f, 0x42, 0xd6, 0x3d, 0xf2, 0x22,
    0x98, 0xbd, 0xca, 0xed, 0x9d, 0x3d, 0x07, 0x8a, 0xbc, 0x3d,
    0x10, 0x16, 0xbe, 0x3d, 0x4f, 0x36, 0xc8, 0x3d, 0xd1, 0xfa,
    0x81, 0xbd, 0xf8, 0x9a, 0xc9, 0x3d, 0x3b, 0x44, 0xd4, 0x3d,
    0x17, 0xc9, 0xed, 0x3d, 0xf3, 0xc1, 0x20, 0x3e, 0x9f, 0x23,
    0x10, 0xbd, 0x4e, 0x2b, 0xd5, 0xbd, 0xd9, 0x59, 0xc2, 0x3d,
    0x19, 0x6d, 0x88, 0x3c, 0xba, 0xa4, 0x93, 0x3d, 0x74, 0x36,
    0xf7, 0xbd, 0x55, 0x65, 0xa7, 0x3d, 0x08, 0x4b, 0xb3, 0x3d,
    0x1f, 0x1e, 0x25, 0x3d, 0xca, 0x5a, 0x72, 0xbd, 0x00, 0x67,
    0x4d, 0x3d, 0x87, 0xb6, 0x98, 0xbd, 0x1e, 0xd5, 0x95, 0x3d,
    0x91, 0xb3, 0x2b, 0xbd, 0x3a, 0x30, 0x43, 0x3d, 0x37, 0x2b,
    0xcf, 0x3d, 0x30, 0x59, 0x93, 0x3c, 0x0e, 0xb9, 0x45, 0x3b,
    0x70, 0x6a, 0x4f, 0xbe, 0x5c, 0x75, 0x7a, 0xbd, 0x73, 0x34,
    0x29, 0xbd, 0x0f, 0x0b, 0x7b, 0xbd, 0x19, 0xeb, 0x1b, 0x3c,
    0x24, 0x7f, 0x9f, 0x3d, 0x34, 0x51, 0xec, 0x3c, 0x01, 0x34,
    0x83, 0xbd, 0x04, 0xbc, 0xca, 0x3d, 0x3f, 0x53, 0x96, 0xbd,
    0xb0, 0x22, 0xce, 0x3d, 0x66, 0xef, 0xa2, 0xbd, 0x06, 0xf1,
    0x07, 0x3e, 0x3b, 0x60, 0xf6, 0x3d, 0x0e, 0x90, 0x90, 0x3d,
    0x63, 0x63, 0x0e, 0x3e, 0xbe, 0x95, 0x53, 0xbe, 0xef, 0xdd,
    0xd0, 0xbd, 0xce, 0x8e, 0xb4, 0x3d, 0x9f, 0x81, 0x2b, 0xbe,
    0xb0, 0x03, 0xde, 0xbc, 0x91, 0x49, 0xca, 0x3d, 0xd0, 0x1b,
    0xa0, 0xbd, 0xd1, 0xbc, 0xa8, 0x3d, 0x5f, 0x42, 0xf1, 0xbc,
    0xe1, 0x53, 0xb0, 0x3d, 0x50, 0x94, 0x8b, 0x3d, 0x1b, 0x0b,
    0xe4, 0xbb, 0x46, 0x11, 0x37, 0x3c, 0xa2, 0x4f, 0x10, 0x3e,
    0x50, 0xa6, 0x00, 0x3e, 0xb2, 0x1e, 0x32, 0x3c, 0xf5, 0x55,
    0x7f, 0x3c, 0xb4, 0xd7, 0x99, 0xbd, 0xb3, 0xf6, 0x5d, 0xbd,
    0x14, 0xbe, 0xfa, 0xbd, 0xf7, 0xdd, 0x68, 0x3d, 0x3f, 0xd5,
    0x1c, 0xbc, 0xd5, 0x59, 0xc7, 0xbd, 0xb9, 0xaf, 0x12, 0x3e,
    0xa6, 0x6a, 0xfe, 0xbc, 0xd1, 0x53, 0x22, 0x3d, 0xbf, 0x20,
    0xc3, 0xbd, 0xb7, 0x2b, 0x8a, 0xbd, 0x39, 0x2a, 0x13, 0x3d,
    0xf6, 0x7e, 0x52, 0xbd, 0x39, 0xa1, 0x2e, 0x3b, 0x89, 0x19,
    0xfa, 0xbd, 0xfa, 0x17, 0xf8, 0xbc, 0x06, 0xd0, 0x70, 0xbd,
    0xe0, 0xf5, 0x91, 0x3d, 0xe1, 0x45, 0x2d, 0xbe, 0xbc, 0xef,
    0x65, 0xbd, 0x5c, 0x92, 0x14, 0x3e, 0xb7, 0xfb, 0xd7, 0xbd,
    0x5c, 0x6d, 0x56, 0xbd, 0x6f, 0x53, 0x67, 0xbd, 0x84, 0x13,
    0xb3, 0xbc, 0x94, 0xb2, 0x89, 0xbd, 0x3e, 0x04, 0x0c, 0xbe,
    0xae, 0x61, 0x9b, 0xbd, 0x77, 0x0d, 0x21, 0x3d, 0xe2, 0x64,
    0x16, 0x3e, 0x43, 0x5d, 0x17, 0xbd, 0xb8, 0xf1, 0x86, 0xbd,
    0x99, 0x34, 0x8a, 0xbd, 0x82, 0xb8, 0xd2, 0x3a, 0x52, 0x17,
    0x73, 0xbd, 0x8d, 0x0b, 0x95, 0xbd, 0x96, 0xa2, 0x54, 0x3c,
    0xc1, 0x56, 0x37, 0xbd, 0xd3, 0xb6, 0x2f, 0x3d, 0xb2, 0x6a,
    0xc0, 0xbd, 0x26, 0xb8, 0x71, 0x3d, 0xdf, 0x43, 0xa6, 0x3d,
    0x13, 0x55, 0x0a, 0xbe, 0xc2, 0xca, 0x56, 0x3d, 0xdb, 0xc6,
    0x80, 0xbd, 0x66, 0xfe, 0x2d, 0xbd, 0x52, 0xcc, 0x2b, 0xbe,
    0xcf, 0x10, 0xb0, 0x3c, 0x2a, 0x48, 0xde, 0xbd, 0xe8, 0x59,
    0xf9, 0x3d, 0xbf, 0x5a, 0x23, 0xbc, 0x6e, 0xee, 0x13, 0xbd,
    0xad, 0x2e, 0xc3, 0x3d, 0x61, 0xe1, 0x52, 0xbd, 0x34, 0x10,
    0x03, 0xbd, 0xfe, 0x65, 0xf0, 0x3d, 0x5f, 0x87, 0xa6, 0xbd,
    0xe0, 0x3b, 0x88, 0xbb, 0xe3, 0x93, 0x7f, 0xbd, 0x87, 0xcd,
    0xc1, 0x3c, 0x6a, 0x1e, 0x8f, 0x3c, 0xe9, 0x51, 0x71, 0x3d,
    0x9a, 0xaf, 0x01, 0x3e, 0x4f, 0x34, 0x2c, 0xbd, 0x37, 0xfd,
    0x1e, 0x3e, 0x75, 0x75, 0x6e, 0xbd, 0xf4, 0xc6, 0xb3, 0xbd,
    0xa0, 0x7d, 0x28, 0xbe, 0x38, 0x66, 0xc0, 0x3c, 0x0e, 0x25,
    0xb9, 0x3c, 0xc1, 0x4a, 0xa8, 0x3d, 0xa3, 0x5b, 0xbf, 0x3d,
    0x93, 0xfb, 0xab, 0x3d, 0xa2, 0x9d, 0x6e, 0x3b, 0x72, 0x53,
    0x8a, 0xbd, 0xd3, 0x91, 0xae, 0x3c, 0xd8, 0x67, 0x92, 0x3d,
    0xf9, 0x86, 0x04, 0x3e, 0x49, 0x31, 0x68, 0x3d, 0x16, 0x24,
    0xef, 0x3d, 0xeb, 0x7c, 0x2a, 0xbd, 0xc8, 0x30, 0xac, 0x3d,
    0x99, 0x1e, 0xb3, 0x3d, 0xfc, 0x65, 0x0c, 0x3e, 0xed, 0xf0,
    0x0d, 0x3c, 0x14, 0x26, 0xec, 0x3c, 0x19, 0x9c, 0x0f, 0x3d,
    0x70, 0x4c, 0x6e, 0x3c, 0x3e, 0x24, 0x3c, 0x3d, 0xb4, 0x4a,
    0x2b, 0xbe, 0xe3, 0xc5, 0x9f, 0x3d, 0xce, 0xe2, 0xb9, 0xbd,
    0x98, 0xf4, 0xaa, 0xba, 0x10, 0x97, 0x38, 0x3d, 0x32, 0x71,
    0x30, 0xbd, 0x46, 0x11, 0x07, 0x3e, 0xeb, 0xd5, 0x5a, 0x3d,
    0xc8, 0xc4, 0x93, 0xbd, 0xe6, 0xa6, 0xe2, 0x3d, 0xe5, 0x5a,
    0x9b, 0xbd, 0x36, 0x75, 0x92, 0x3c, 0xa2, 0xcd, 0x1d, 0xbd,
    0x20, 0xc8, 0xb2, 0x3c, 0x13, 0xc8, 0x57, 0xbd, 0x40, 0xcb,
    0x6b, 0x3d, 0x88, 0xa6, 0xc8, 0x3d, 0x7e, 0x39, 0xee, 0xbc,
    0x9b, 0x98, 0x12, 0xbe, 0xca, 0x8f, 0x12, 0xbe, 0x01, 0xf6,
    0x78, 0xbd, 0x59, 0x74, 0xb3, 0x3d, 0x4c, 0xf0, 0xa0, 0x3d,
    0x55, 0x74, 0xa0, 0x3d, 0x0a, 0x73, 0x24, 0xbe, 0xe5, 0xcc,
    0xec, 0xbd, 0x87, 0x85, 0xc5, 0xbd, 0x9d, 0x2b, 0x47, 0xbd,
    0x3f, 0x8c, 0xcf, 0xbd, 0x2f, 0x1c, 0x96, 0x3c, 0x03, 0x1d,
    0x03, 0x3e, 0x30, 0x2b, 0xb1, 0xbd, 0x16, 0x33, 0x39, 0x3d,
    0x16, 0x9f, 0xb7, 0xbc, 0x2e, 0x79, 0x10, 0xbc, 0x24, 0x63,
    0xe3, 0xbc, 0xf2, 0x1d, 0x4d, 0xbc, 0xb1, 0x6a, 0xd9, 0xbd,
    0x2f, 0xb0, 0xe8, 0xbc, 0x2a, 0x09, 0xe1, 0x3d, 0xa6, 0x7b,
    0x1d, 0x3d, 0x81, 0x85, 0x07, 0x3c, 0x27, 0x18, 0xad, 0xbd,
    0x44, 0xb4, 0x95, 0x3d, 0xe6, 0xb6, 0x2b, 0xbd, 0x9e, 0x18,
    0xfc, 0xbd, 0x5d, 0x5e, 0xb7, 0x3d, 0x1d, 0x95, 0x3e, 0xbd,
    0xef, 0x40, 0xbb, 0xbd, 0x1d, 0x7b, 0x41, 0xbd, 0xde, 0x59,
    0x2a, 0xbd, 0xcd, 0x9b, 0xbe, 0xbb, 0x0b, 0xcf, 0x16, 0x3b,
    0xd2, 0x00, 0xc2, 0x3d, 0x57, 0xd9, 0x1f, 0x3d, 0x27, 0x80,
    0xd6, 0xbd, 0x11, 0xa8, 0xb1, 0xbd, 0x66, 0x47, 0x02, 0x3e,
    0x3d, 0xd2, 0x50, 0x3b, 0xc3, 0x19, 0xcb, 0xbc, 0x7e, 0x4a,
    0x8c, 0xbd, 0x47, 0xef, 0x50, 0x3d, 0x41, 0xc3, 0xc4, 0xbd,
    0x0a, 0x2c, 0x09, 0x3d, 0xe3, 0xfe, 0x18, 0xbd, 0xe1, 0xd3,
    0xa3, 0x3d, 0x24, 0xbe, 0xea, 0x3d, 0x50, 0xa9, 0x1e, 0xbd,
    0xf9, 0xcd, 0x1a, 0x3d, 0x63, 0x6b, 0xa3, 0x3c, 0x87, 0xd9,
    0x2c, 0x3d, 0x85, 0x1d, 0x8e, 0x3c, 0xe5, 0xd5, 0x9d, 0xbd,
    0xc5, 0x3c, 0x2a, 0xbc, 0x76, 0x73, 0x4d, 0xbd, 0x3f, 0x73,
    0x5e, 0xbd, 0xf0, 0xc9, 0x15, 0x3d, 0x89, 0x49, 0x98, 0xbd,
    0x03, 0x01, 0xa6, 0xbc, 0x93, 0x6f, 0x3b, 0x3d, 0xc7, 0x52,
    0x0f, 0xbd, 0x58, 0xad, 0xe6, 0x3d, 0x05, 0xb2, 0x62, 0xbd,
    0xac, 0x01, 0x37, 0xbe, 0x28, 0x99, 0x06, 0x3d, 0x84, 0xa7,
    0x5d, 0x3c, 0x52, 0x24, 0xb0, 0x3d, 0x9c, 0x24, 0x88, 0x3d,
    0x27, 0x77, 0x17, 0x3d, 0xce, 0xb9, 0xe3, 0x3d, 0x97, 0x67,
    0x0c, 0x3d, 0xb7, 0xec, 0x5e, 0x3c, 0x8a, 0x2b, 0x4f, 0x3d,
    0xb8, 0x02, 0x7f, 0xbc, 0x98, 0x9f, 0x2e, 0xbd, 0xbe, 0x14,
    0xa7, 0x3d, 0x2f, 0x8f, 0xde, 0xbd, 0x0c, 0x69, 0xf7, 0x3c,
    0x67, 0x4b, 0xd1, 0x3c, 0x92, 0x08, 0x21, 0xbe, 0x82, 0x31,
    0xa1, 0x3c, 0xdc, 0x83, 0x1d, 0x3d, 0xf6, 0x12, 0xb6, 0x3d,
    0x40, 0x91, 0xea, 0x3c, 0x64, 0x04, 0xab, 0xbd, 0x78, 0xd3,
    0x9d, 0xbd, 0x09, 0xad, 0x8d, 0xbb, 0x49, 0x0f, 0xe9, 0xbd,
    0x77, 0x51, 0xb2, 0xbc, 0x23, 0x48, 0x51, 0xbd, 0x55, 0xfc,
    0x54, 0x3d, 0xa1, 0x7c, 0x1b, 0xbd, 0xac, 0x3b, 0xa2, 0xbc,
    0x19, 0xce, 0x91, 0x3d, 0x1a, 0x6b, 0x15, 0x3d, 0x19, 0xda,
    0x52, 0xbd, 0xbd, 0x12, 0x8f, 0x3d, 0x8a, 0x10, 0x10, 0xbd,
    0x4a, 0xd7, 0xc8, 0x3d, 0xfb, 0xc1, 0xdf, 0x3d, 0x63, 0x2c,
    0xfa, 0xbd, 0x1b, 0x14, 0x54, 0x3d, 0xcc, 0x44, 0x03, 0xbe,
    0xda, 0x4e, 0xe0, 0xbc, 0xf3, 0x88, 0x93, 0x3d, 0x02, 0x28,
    0x22, 0xbd, 0x21, 0x73, 0x05, 0x3e, 0x62, 0x75, 0xb6, 0x3c,
    0x43, 0x5e, 0x8c, 0xbd, 0x3b, 0x6c, 0x0c, 0xbc, 0xf0, 0x81,
    0xd5, 0xbc, 0xb5, 0x12, 0xbd, 0xbd, 0x10, 0xaa, 0xbb, 0xbd,
    0x6f, 0xdc, 0x30, 0xbd, 0x1b, 0x26, 0xa8, 0x3d, 0x0c, 0xa9,
    0x9a, 0x3b, 0x7a, 0x54, 0x30, 0xbd, 0x06, 0xf2, 0x5a, 0xbd,
    0xe6, 0x69, 0x01, 0xbd, 0x8a, 0x29, 0x14, 0xbd, 0xaa, 0xfd,
    0xfc, 0x3d, 0x3b, 0x93, 0x28, 0x3d, 0x2b, 0x7c, 0xb5, 0xbd,
    0x79, 0x18, 0x6b, 0x3d, 0x92, 0x7c, 0x5f, 0x3d, 0x66, 0x2a,
    0xa7, 0x3c, 0x27, 0xe0, 0x36, 0xbb, 0xa8, 0x5e, 0xe4, 0x3c,
    0x28, 0xd4, 0x1e, 0x3c, 0x13, 0x99, 0xc3, 0x3d, 0x60, 0xae,
    0xac, 0xbc, 0xbf, 0x4b, 0xe3, 0x3c, 0xf7, 0xcc, 0x8f, 0xbd,
    0xd0, 0x0c, 0xf6, 0x3b, 0xc2, 0x68, 0x83, 0xbd, 0x5d, 0x72,
    0xc7, 0xbd, 0xef, 0x1c, 0x9b, 0x3d, 0xaf, 0x27, 0x25, 0x3c,
    0xd2, 0x05, 0xaf, 0x3d, 0xaf, 0xe8, 0xd1, 0x3d, 0xa5, 0x01,
    0x7f, 0xbc, 0xe0, 0x7d, 0xd8, 0x3d, 0x19, 0xed, 0x9b, 0xbd,
    0x18, 0xf9, 0x4b, 0xbc, 0x25, 0x03, 0x89, 0x3d, 0x23, 0x5c,
    0x16, 0x3d, 0x5a, 0x79, 0x84, 0xbc, 0xb2, 0xec, 0x30, 0x3d,
    0x2a, 0xcc, 0xd7, 0xbb, 0x24, 0xb8, 0xea, 0x3d, 0x3b, 0x56,
    0x91, 0xbd, 0x09, 0x9c, 0xc1, 0xbd, 0x5a, 0x4c, 0xcb, 0xbd,
    0xbb, 0x24, 0x7f, 0xbd, 0xc7, 0x3e, 0xa9, 0xbd, 0xbf, 0x20,
    0x9a, 0xbd, 0x5c, 0x33, 0x83, 0x3d, 0x45, 0x79, 0xdf, 0xbd,
    0xc2, 0x26, 0x07, 0xbe, 0x4f, 0xcd, 0xec, 0xbc, 0x41, 0x5b,
    0x88, 0x3c, 0xeb, 0x28, 0xc1, 0x3d, 0xb7, 0xb8, 0x00, 0x3e,
    0x9c, 0xa3, 0x89, 0x3d, 0xe8, 0x46, 0x08, 0x3d, 0x26, 0x84,
    0xb5, 0x3d, 0xf6, 0xf1, 0xd3, 0x3d, 0x1c, 0x6f, 0x04, 0xbe,
    0xc3, 0xf8, 0x36, 0x3d, 0xc0, 0xc0, 0xc2, 0xbc, 0x41, 0x59,
    0xd8, 0x3d, 0xf6, 0x68, 0xfa, 0x3d, 0xc5, 0xc0, 0x3d, 0x3d,
    0x13, 0xb9, 0xed, 0xbd, 0xb5, 0xfe, 0xab, 0x3c, 0x91, 0xe6,
    0xa8, 0xbd, 0xb3, 0x07, 0x8c, 0x3d, 0xbf, 0x1a, 0x0c, 0xbd,
    0x8a, 0x90, 0x76, 0xbd, 0xa8, 0x63, 0x7b, 0x3d, 0xa1, 0xb0,
    0x1e, 0xbe, 0xe9, 0x81, 0x18, 0xbb, 0x34, 0x93, 0x90, 0xbc,
    0xd7, 0x6e, 0x01, 0x3c, 0x96, 0x8a, 0x82, 0xbd, 0x1d, 0xe6,
    0x00, 0xbd, 0x10, 0x84, 0xcf, 0x3d, 0x8e, 0xa6, 0x88, 0xbd,
    0x97, 0xce, 0x2c, 0xbd, 0xec, 0x35, 0x75, 0x3c, 0x5a, 0x5f,
    0x9e, 0x3a, 0x3e, 0x3c, 0xe8, 0xbd, 0x88, 0x61, 0x3d, 0xbc,
    0xf5, 0x01, 0xcf, 0xbd, 0xc6, 0x2a, 0xaa, 0xbc, 0xdc, 0xb2,
    0x97, 0x3d, 0x8c, 0xe0, 0x72, 0x3c, 0xb6, 0x32, 0xb5, 0x3d,
    0xd7, 0x7f, 0xfa, 0x3d, 0xe0, 0x07, 0x28, 0x38, 0xb1, 0xe8,
    0x0a, 0xbd, 0x0e, 0xb8, 0x60, 0x3a, 0x05, 0xba, 0x61, 0x3d,
    0x9b, 0x61, 0xf8, 0x3c, 0x09, 0x33, 0x17, 0xbd, 0x68, 0x2e,
    0xdd, 0xbb, 0x9f, 0x55, 0x8a, 0x3d, 0x32, 0xdf, 0x7b, 0x3c,
    0xaf, 0x21, 0x9d, 0xbb, 0xbf, 0x9b, 0x77, 0x3d, 0xe8, 0x90,
    0x9b, 0xbb, 0x30, 0x43, 0xf9, 0x3c, 0x33, 0x50, 0x19, 0xbe,
    0xc6, 0xeb, 0xd5, 0x3d, 0xfc, 0x2b, 0x9c, 0xbd, 0x4e, 0x9f,
    0xca, 0xba, 0xa1, 0x2b, 0xa5, 0xbd, 0x7e, 0x83, 0x8f, 0xbd,
    0x63, 0x78, 0xc8, 0x3d, 0x5f, 0xc6, 0xf2, 0x3c, 0x2a, 0xe1,
    0x20, 0x3c, 0x94, 0x5c, 0xfd, 0x3d, 0x81, 0xd3, 0xc7, 0xbd,
    0x95, 0x13, 0xca, 0x3c, 0xf1, 0xa8, 0x2d, 0x3c, 0x23, 0x6e,
    0x1b, 0x3d, 0xbf, 0x17, 0x8d, 0xbd, 0xff, 0x16, 0x07, 0x3d,
    0x33, 0x69, 0xf3, 0xbd, 0x20, 0x7e, 0x6c, 0x3d, 0x37, 0xa1,
    0xfd, 0xbc, 0x72, 0xd8, 0x27, 0xbd, 0x70, 0x91, 0x90, 0x3d,
    0xd1, 0x41, 0xcd, 0x3d, 0x9e, 0xbc, 0xad, 0x3d, 0xbf, 0x51,
    0x90, 0x3d, 0x0c, 0xe9, 0x78, 0x3d, 0x54, 0x9a, 0xa9, 0x3d,
    0x1d, 0xe7, 0xc5, 0x3d, 0x1d, 0x83, 0x44, 0xbd, 0x00, 0x46,
    0x74, 0xbc, 0x84, 0x2f, 0x98, 0x3c, 0xea, 0x7e, 0x60, 0x3d,
    0x49, 0x31, 0x9c, 0x3d, 0x81, 0x16, 0x16, 0xbe, 0xc0, 0x14,
    0xbf, 0x3d, 0xd4, 0x50, 0x8a, 0xbc, 0xa6, 0x74, 0xe6, 0xbd,
    0x15, 0x7f, 0x61, 0x3d, 0x39, 0xdc, 0x9c, 0xb9, 0xd1, 0x1e,
    0x4a, 0x3d, 0x1f, 0xbb, 0xf4, 0xbc, 0x28, 0xa0, 0xbf, 0x3d,
    0xa3, 0x8c, 0x92, 0xbd, 0x21, 0x29, 0x17, 0xbd, 0x47, 0xe6,
    0x32, 0xbd, 0xf6, 0x8a, 0xb2, 0xbc, 0x3e, 0xa0, 0xce, 0xbc,
    0x42, 0x4a, 0x35, 0xbd, 0x07, 0x87, 0xe4, 0x3d, 0xf6, 0x4a,
    0xe1, 0x3c, 0xaf, 0xd6, 0x84, 0xbc, 0xdf, 0x2a, 0x3f, 0xbd,
    0x43, 0xc2, 0xc7, 0x3d, 0x7a, 0xe4, 0x57, 0x3d, 0x0b, 0x8b,
    0x8c, 0x3c, 0x60, 0x93, 0x09, 0xbd, 0x53, 0x91, 0xb8, 0x3d,
    0xdc, 0xb5, 0x49, 0x3d, 0x78, 0xf7, 0x11, 0x3d, 0xa2, 0xf2,
    0xf2, 0x3c, 0x2d, 0x6a, 0xf5, 0x3d, 0xda, 0xf6, 0x73, 0xbd,
    0xd1, 0xd7, 0xba, 0x3c, 0xf7, 0x3f, 0x4d, 0x3d, 0xa7, 0x06,
    0xa9, 0x3d, 0x03, 0x71, 0x33, 0xbe, 0x52, 0x38, 0x62, 0xbd,
    0xcf, 0xbb, 0x17, 0x3d, 0x0f, 0x3b, 0x82, 0x3d, 0xc4, 0xbe,
    0xb9, 0x3c, 0x52, 0xba, 0x13, 0x3c, 0x89, 0xfc, 0xaf, 0x3c,
    0xeb, 0xd3, 0x9e, 0xbd, 0xf9, 0xc4, 0x7e, 0x3d, 0x7d, 0xc0,
    0xb8, 0x3d, 0x44, 0x63, 0x53, 0x3c, 0x85, 0x5f, 0xf5, 0xbc,
    0xfa, 0x5b, 0x51, 0x3d, 0x9b, 0xc3, 0xef, 0x3d, 0x48, 0x1c,
    0xc9, 0xbd, 0x87, 0xd6, 0x83, 0x3d, 0x5b, 0x75, 0xb2, 0xbd,
    0x9d, 0xf4, 0xb2, 0xbd, 0xa6, 0x77, 0xaf, 0x3d, 0xcc, 0xd4,
    0x68, 0x3d, 0x43, 0xbc, 0x6e, 0xbd, 0x27, 0x24, 0x3b, 0x3d,
    0x89, 0x5f, 0xc3, 0x3d, 0x1f, 0x36, 0x15, 0xbd, 0x58, 0xba,
    0x0c, 0x3e, 0x8b, 0xa3, 0xf2, 0x3d, 0xa3, 0x2a, 0xb9, 0x3d,
    0x4c, 0xe5, 0xd9, 0x3d, 0xb1, 0xb3, 0x82, 0x3d, 0xe6, 0x5e,
    0x1b, 0x3c, 0x80, 0x13, 0x92, 0xbd, 0x1a, 0x53, 0x14, 0xbd,
    0xb0, 0x0c, 0x1d, 0xbd, 0x58, 0x11, 0xf3, 0x3c, 0x2a, 0x62,
    0xf1, 0x3d, 0xd4, 0x58, 0x14, 0x3d, 0x4a, 0xd0, 0x00, 0xbe,
    0x33, 0x4b, 0x06, 0xbd, 0x06, 0x2f, 0xd0, 0xbd, 0x7a, 0x4c,
    0x70, 0x3d, 0x3e, 0xa0, 0xac, 0xbd, 0x1a, 0x50, 0xd9, 0xbd,
    0xae, 0xf7, 0xaa, 0xbc, 0x4b, 0x0e, 0xf1, 0xbc, 0x98, 0x04,
    0x9c, 0xbb, 0xca, 0x44, 0x46, 0x3d, 0x9b, 0xde, 0xf8, 0xbd,
    0xc9, 0x5e, 0x83, 0x3d, 0x11, 0x3f, 0xe4, 0xbd, 0xd4, 0xc0,
    0x1c, 0xbd, 0x45, 0x33, 0x77, 0xbd, 0x4e, 0xbc, 0x02, 0x3d,
    0x2f, 0xdd, 0x17, 0xbe, 0xcf, 0x2c, 0x0d, 0x3e, 0x99, 0xfd,
    0xd0, 0xbd, 0x37, 0x07, 0x88, 0xbc, 0xf4, 0x44, 0x9c, 0x3d,
    0x96, 0xc9, 0xd3, 0xbd, 0x79, 0x51, 0x83, 0xbd, 0x60, 0x4b,
    0xf3, 0x3d, 0x2f, 0x80, 0x71, 0x3d, 0x32, 0xc8, 0x0a, 0xbd,
    0xae, 0xa7, 0x61, 0xbd, 0xbb, 0xef, 0x1f, 0xbe, 0x6d, 0xd9,
    0xdd, 0xbc, 0x5b, 0xe8, 0x02, 0xbe, 0xbe, 0x1a, 0x6b, 0x3d,
    0x21, 0x4a, 0x2c, 0xbc, 0xa5, 0x00, 0xcb, 0xbd, 0xb2, 0xd8,
    0xdb, 0x3d, 0xd0, 0x10, 0x00, 0xbd, 0xc3, 0x60, 0x2a, 0xbc,
    0xb2, 0x7b, 0x37, 0x3d, 0x54, 0xd6, 0x93, 0x3d, 0x74, 0xc0,
    0x1f, 0x3e, 0xc1, 0x0e, 0xdf, 0x3d, 0x9e, 0xc8, 0x3e, 0x3c,
    0x87, 0xfd, 0xff, 0x3c, 0x3e, 0x13, 0x14, 0xbe, 0x5e, 0xca,
    0xc4, 0xbd, 0x5f, 0x17, 0xd5, 0xbd, 0x5c, 0xec, 0x08, 0xbe,
    0x4a, 0x7b, 0x91, 0xbd, 0x98, 0x5b, 0x0a, 0x3e, 0x78, 0x54,
    0x7d, 0x3c, 0xde, 0xc1, 0x28, 0x3e, 0x53, 0x3f, 0xa7, 0xbd,
    0xab, 0x0e, 0xb0, 0xbd, 0x0c, 0x97, 0xb1, 0xbd, 0x30, 0xb9,
    0x81, 0x3d, 0x3f, 0xa1, 0xd9, 0x3c, 0x8a, 0x34, 0x49, 0x3d,
    0xc4, 0xfd, 0x87, 0x3d, 0x33, 0x8d, 0x09, 0xbe, 0x6a, 0xb3,
    0x3b, 0xbd, 0x39, 0xa9, 0x1a, 0xbd, 0x89, 0x69, 0xfa, 0x3d,
    0x9c, 0x5f, 0x57, 0x3c, 0xfd, 0x8f, 0xb2, 0xbd, 0x64, 0xd7,
    0x87, 0x3d, 0xff, 0x70, 0xaa, 0xbc, 0xe4, 0x79, 0x9e, 0x3d,
    0x8d, 0x47, 0x4a, 0xbd, 0x68, 0xd4, 0x44, 0xbc, 0x29, 0xb9,
    0xb2, 0x3d, 0x98, 0xd6, 0xac, 0xbd, 0x1d, 0x85, 0x18, 0x3e,
    0x0a, 0xe6, 0xd9, 0xbd, 0x10, 0x2c, 0x69, 0x3d, 0xf4, 0x83,
    0xab, 0xbc, 0x61, 0x9b, 0xbe, 0xbd, 0xe4, 0x36, 0xd4, 0xbd,
    0x15, 0x4a, 0x97, 0x3b, 0xd8, 0x7a, 0x96, 0xbb, 0xea, 0x5d,
    0x95, 0x3c, 0x00, 0x97, 0xfc, 0xbb, 0x2e, 0xfa, 0x64, 0xbd,
    0xde, 0x8d, 0xe3, 0xbc, 0x99, 0x27, 0x53, 0x3d, 0xed, 0x71,
    0x15, 0xbc, 0xf9, 0x5f, 0xa7, 0xbc, 0x9c, 0x2b, 0x3c, 0x3d,
    0x73, 0x19, 0x97, 0x3c, 0xd9, 0x4e, 0x86, 0x3c, 0x90, 0xfb,
    0x81, 0x3c, 0x94, 0x27, 0xdc, 0xbd, 0x94, 0x12, 0x7f, 0xbd,
    0x90, 0xd0, 0x4f, 0xbd, 0x92, 0x96, 0x87, 0x3d, 0xc8, 0x6d,
    0xf9, 0x3c, 0x58, 0xf4, 0xbb, 0xbc, 0x80, 0x43, 0x73, 0x3c,
    0x89, 0xfd, 0xa9, 0x3d, 0x7c, 0xf0, 0x54, 0x3d, 0x08, 0x49,
    0x89, 0x3d, 0x0b, 0x99, 0x77, 0xbd, 0x36, 0x2e, 0xc4, 0xbd,
    0xfa, 0xe1, 0x45, 0x3d, 0x5e, 0xe1, 0x08, 0x3e, 0x30, 0x07,
    0x21, 0xbd, 0x69, 0x1d, 0x40, 0xbc, 0xf5, 0xaa, 0x3d, 0x3d,
    0x74, 0xca, 0xca, 0xbc, 0xde, 0xb2, 0xb4, 0x3d, 0xce, 0xdf,
    0x00, 0x3e, 0x47, 0xf4, 0x49, 0xbd, 0x03, 0x85, 0x22, 0xbd,
    0xc8, 0xab, 0xce, 0xbb, 0x8a, 0x11, 0x05, 0x3e, 0x89, 0x29,
    0x9e, 0xbd, 0x85, 0x2e, 0xd2, 0xbd, 0xd0, 0xcc, 0x3a, 0x3d,
    0xc1, 0x5a, 0x97, 0xbb, 0x25, 0x6e, 0x95, 0xbd, 0xcd, 0xe8,
    0xa1, 0xbd, 0x5f, 0xfc, 0x1d, 0xbe, 0xf6, 0x59, 0xf0, 0x3d,
    0xc0, 0x30, 0x83, 0x3d, 0xbd, 0xb5, 0xd6, 0xbd, 0x4b, 0x1c,
    0x01, 0x3e, 0x5f, 0x7c, 0x2c, 0x3d, 0x8b, 0x6f, 0x7b, 0x3d,
    0x1a, 0xbf, 0x7e, 0xbb, 0xe1, 0x29, 0x2f, 0x3d, 0xd2, 0x81,
    0x2b, 0xbd, 0x40, 0x34, 0xe9, 0xbd, 0x8d, 0x4d, 0x46, 0x3d,
    0x99, 0x09, 0xa2, 0x3d, 0xa3, 0x76, 0xaa, 0xbd, 0xd2, 0x1c,
    0x1a, 0xbd, 0x70, 0x08, 0xd6, 0xbd, 0xfd, 0x3c, 0xe0, 0xbd,
    0xd4, 0x64, 0x7d, 0x3c, 0x2c, 0xab, 0x55, 0x3c, 0x49, 0x59,
    0x74, 0x3d, 0x10, 0x04, 0x9d, 0x3d, 0x16, 0x72, 0x1c, 0xbe,
    0xa7, 0xc3, 0xe0, 0x3d, 0xef, 0x7c, 0x90, 0x3c, 0xd6, 0x07,
    0x89, 0xbd, 0x5d, 0x00, 0xbf, 0xbc, 0x9b, 0x6d, 0x9a, 0xbd,
    0x22, 0x92, 0xee, 0x3d, 0x4c, 0x75, 0xa4, 0xbd, 0x87, 0xc4,
    0xf0, 0xbd, 0x5e, 0xcd, 0x1b, 0xbc, 0xc0, 0x81, 0x1b, 0xbb,
    0x37, 0x8b, 0x11, 0xbe, 0x03, 0xaf, 0x52, 0x3d, 0xbf, 0xe1,
    0x01, 0x3e, 0xf3, 0x24, 0x01, 0x3e, 0x94, 0x82, 0x9a, 0xbc,
    0x9b, 0xf7, 0x01, 0xbe, 0x8f, 0xfb, 0xb7, 0x3d, 0x92, 0xff,
    0x29, 0xbd, 0x5e, 0xc2, 0x09, 0xbe, 0x95, 0x32, 0x8f, 0x3d,
    0x53, 0xd4, 0x96, 0xbd, 0x2f, 0x5e, 0x69, 0x3d, 0x10, 0xcb,
    0x05, 0xbc, 0xa6, 0xf6, 0x85, 0xbd, 0x6b, 0xd9, 0xc7, 0xbd,
    0xff, 0xd0, 0x98, 0xbd, 0x59, 0x60, 0xf4, 0xbd, 0x3a, 0xec,
    0x83, 0xbc, 0xb1, 0x03, 0xd5, 0x3c, 0xee, 0xac, 0x97, 0x3c,
    0xef, 0xf0, 0x90, 0xbd, 0xc1, 0x38, 0x0b, 0xbe, 0x91, 0x03,
    0xcd, 0x3d, 0x48, 0xa9, 0xd7, 0x3d, 0x25, 0xfb, 0x32, 0x3d,
    0x56, 0xf9, 0xd0, 0x3b, 0x10, 0xeb, 0x7d, 0x3b, 0x3b, 0xa8,
    0x63, 0xbd, 0x9b, 0x69, 0xd6, 0x3d, 0xe7, 0x6b, 0xe7, 0x3d,
    0x62, 0x93, 0xd4, 0x3d, 0xee, 0x1d, 0x0d, 0xbd, 0x70, 0x09,
    0x39, 0x3d, 0xb6, 0x6c, 0x95, 0x3a, 0x95, 0x1b, 0xaf, 0x3d,
    0x0b, 0xe4, 0xaf, 0xbd, 0x74, 0x28, 0xba, 0x3c, 0x58, 0x42,
    0xd5, 0xbd, 0xbc, 0xfa, 0xa7, 0x3d, 0xe7, 0x2b, 0x37, 0x3c,
    0x18, 0xef, 0xd6, 0x3d, 0x9a, 0x18, 0x14, 0x3e, 0x06, 0x4e,
    0x93, 0xbd, 0x56, 0x9d, 0xaa, 0xbd, 0x7a, 0xb8, 0x83, 0x3d,
    0xaf, 0x24, 0x06, 0x3d, 0x2f, 0x0f, 0x41, 0x3d, 0xeb, 0xb3,
    0xa2, 0xbd, 0xf6, 0x4f, 0xdc, 0xbd, 0xfc, 0x26, 0xdc, 0x3d,
    0xbf, 0x34, 0x49, 0xbd, 0x96, 0x1e, 0x89, 0x3c, 0x31, 0xd6,
    0xa5, 0x3d, 0x11, 0x16, 0x8f, 0x3d, 0x31, 0xcd, 0xb9, 0xbc,
    0x9c, 0xc0, 0xed, 0xbc, 0x80, 0xd6, 0xcc, 0x3d, 0xd1, 0x3a,
    0xef, 0x3b, 0xa1, 0x47, 0xe5, 0xbd, 0xa4, 0x2b, 0xe0, 0x3d,
    0x4e, 0x4b, 0xbb, 0xbd, 0xdc, 0x2a, 0x43, 0x3d, 0xb9, 0xc3,
    0xb9, 0xbd, 0x1a, 0x45, 0x6c, 0xbd, 0x7f, 0x3d, 0xbf, 0x3c,
    0x88, 0xf8, 0x64, 0xbc, 0x14, 0xc4, 0x56, 0xbc, 0x6e, 0x19,
    0x31, 0xbc, 0xe4, 0x39, 0xf3, 0x3d, 0xe0, 0x9e, 0x16, 0x3d,
    0xe0, 0xcc, 0x84, 0xbd, 0xda, 0x73, 0x9d, 0xbd, 0x9e, 0xb9,
    0x9d, 0xbd, 0x77, 0xab, 0x8f, 0x3d, 0x9d, 0x0d, 0x7f, 0x3c,
    0x22, 0xaa, 0xa9, 0xba, 0x23, 0xc8, 0xc0, 0xbd, 0x7e, 0xeb,
    0xcc, 0xba, 0x38, 0x94, 0x18, 0x3d, 0x83, 0x96, 0x1e, 0x3d,
    0x79, 0xe7, 0x09, 0x3c, 0x48, 0x69, 0x5c, 0x3c, 0x35, 0xe0,
    0x49, 0x3c, 0x5b, 0xa1, 0x93, 0x3d, 0x9c, 0x16, 0x57, 0x3d,
    0x0d, 0x53, 0x93, 0xbd, 0x16, 0x45, 0x79, 0xbd, 0xe4, 0x1b,
    0x43, 0x3d, 0x8b, 0x14, 0x0e, 0xbd, 0x67, 0xe3, 0x22, 0xbd,
    0x84, 0xf0, 0xa1, 0xbd, 0x51, 0x37, 0x27, 0xbc, 0xfc, 0x37,
    0xf3, 0x3d, 0x3d, 0xb8, 0x29, 0xbc, 0xca, 0x7d, 0x44, 0x3d,
    0xc1, 0x4e, 0x52, 0x3c, 0xc6, 0x7e, 0xe8, 0x3c, 0x06, 0xad,
    0x85, 0xbd, 0xda, 0x2f, 0x37, 0x3d, 0x49, 0xe1, 0x32, 0x3d,
    0xde, 0x5f, 0xc4, 0x3d, 0xae, 0x59, 0xe7, 0xbd, 0xdb, 0xa9,
    0x14, 0x3e, 0xea, 0x9a, 0xf2, 0xbc, 0xe6, 0x1d, 0xdb, 0x3d,
    0x7c, 0x9a, 0xa0, 0xbd, 0x9f, 0x15, 0xf8, 0x3d, 0x55, 0xf1,
    0xe1, 0xbd, 0xf0, 0x5b, 0x17, 0xbe, 0x12, 0xaf, 0xc4, 0xbd,
    0xee, 0x21, 0xfc, 0xbd, 0x79, 0x07, 0xe9, 0x3d, 0x6f, 0x8f,
    0x14, 0xbd, 0xe1, 0x0c, 0x48, 0x3d, 0x7f, 0xfd, 0x94, 0xbd,
    0x02, 0x23, 0x6d, 0xbd, 0x62, 0x0a, 0x4a, 0x3d, 0xd0, 0xef,
    0x10, 0xbe, 0x52, 0xdc, 0x2e, 0xbe, 0xce, 0x90, 0x0e, 0xbe,
    0x62, 0xff, 0x8f, 0x3d, 0x17, 0x4b, 0x3d, 0xbd, 0xd6, 0x67,
    0xee, 0x3d, 0x52, 0x3f, 0x55, 0x3d, 0x48, 0x33, 0x20, 0xba,
    0x7f, 0x02, 0x00, 0xbe, 0xcb, 0x0e, 0xbd, 0xbc, 0x67, 0x0b,
    0x4f, 0x3d, 0x52, 0x39, 0xe9, 0xbd, 0x3e, 0xbc, 0x99, 0x3d,
    0xb8, 0x87, 0x8e, 0x3d, 0x77, 0xe4, 0x12, 0x3b, 0x08, 0x70,
    0x8f, 0x3b, 0x50, 0x50, 0xf8, 0x3d, 0x18, 0xfb, 0x13, 0x3c,
    0x7a, 0xa0, 0x4d, 0xbd, 0xf0, 0x28, 0x49, 0x3d, 0xee, 0xc1,
    0x7d, 0x3d, 0x29, 0x55, 0x05, 0x3e, 0x1c, 0x97, 0xa1, 0xbd,
    0x16, 0x73, 0x6d, 0x3b, 0x42, 0x3a, 0x9c, 0xbc, 0x0e, 0x7b,
    0x45, 0xbd, 0xf6, 0x70, 0x02, 0x3e, 0xb8, 0xe6, 0x76, 0xbd,
    0xb5, 0xaf, 0xbc, 0x3d, 0x6c, 0x83, 0x46, 0x3d, 0xa0, 0x49,
    0x9e, 0x3b, 0x8a, 0x26, 0x04, 0x3e, 0xc4, 0x85, 0x25, 0xbd,
    0x5e, 0xc6, 0x8f, 0xbd, 0x21, 0x8f, 0xca, 0xbd, 0x08, 0xc8,
    0xa9, 0x3d, 0x70, 0xeb, 0x7d, 0xbd, 0xee, 0x42, 0x8d, 0xbc,
    0x65, 0x1b, 0xab, 0x3d, 0x34, 0x3d, 0xb0, 0xbd, 0xa3, 0x30,
    0x25, 0xbd, 0xb0, 0xf8, 0xab, 0xbd, 0xde, 0x89, 0xd0, 0xbd,
    0xc6, 0x90, 0x0f, 0xbe, 0xa3, 0xd0, 0x29, 0x3c, 0xb5, 0xce,
    0xd9, 0xbc, 0x74, 0x3a, 0xf3, 0xbd, 0x81, 0xd6, 0x2c, 0xbd,
    0x4a, 0xfa, 0xb5, 0x3c, 0x35, 0x42, 0x08, 0x3d, 0x90, 0xae,
    0x28, 0xbe, 0x27, 0xab, 0xd7, 0x3d, 0xdd, 0xc8, 0x65, 0x3d,
    0xc5, 0x72, 0xc3, 0x3d, 0xc7, 0xc8, 0xd1, 0x3c, 0xcb, 0xe2,
    0x3a, 0x3c, 0x68, 0x0f, 0x26, 0xbc, 0xee, 0xaa, 0x04, 0x3e,
    0xc4, 0x94, 0x81, 0xbd, 0xda, 0xac, 0x84, 0xbd, 0x17, 0x27,
    0x9c, 0xbd, 0x1d, 0xa2, 0x95, 0x3d, 0x31, 0x47, 0x4a, 0xbd,
    0x9e, 0x8f, 0x03, 0x3e, 0x41, 0x3f, 0x7b, 0xbd, 0x51, 0xe3,
    0x27, 0xbd, 0x63, 0xe9, 0x95, 0xbd, 0x5e, 0x77, 0xe3, 0x3d,
    0xb7, 0x5a, 0x0a, 0x3e, 0x10, 0x10, 0x6b, 0x3d, 0x1f, 0xa1,
    0xa2, 0x3d, 0x24, 0x9f, 0x56, 0xbd, 0x47, 0xf7, 0x91, 0x3c,
    0x29, 0x1f, 0x28, 0xbd, 0x95, 0xca, 0xff, 0x3c, 0xc0, 0x1f,
    0x27, 0x3d, 0x1e, 0xd4, 0x5f, 0x3d, 0xb2, 0x62, 0x4d, 0xbd,
    0xd6, 0xbc, 0x81, 0xbc, 0xa6, 0x2e, 0x8d, 0x3d, 0x9d, 0x65,
    0x95, 0x3d, 0xef, 0xd5, 0xb8, 0xbc, 0x6a, 0xb0, 0x83, 0x3c,
    0x0d, 0x76, 0xe3, 0x3d, 0xbb, 0xb5, 0x4c, 0xbd, 0x3f, 0x5a,
    0xfa, 0xba, 0x58, 0x8b, 0xcb, 0x3b, 0xfa, 0x50, 0xa9, 0xbd,
    0x3a, 0xc9, 0xca, 0xbc, 0x90, 0x62, 0x1b, 0x3d, 0xfb, 0xe0,
    0xe6, 0xbd, 0x3a, 0x7f, 0x2e, 0x3d, 0x68, 0xe6, 0x8f, 0xbd,
    0x90, 0x18, 0xd2, 0xbd, 0x69, 0x22, 0xcd, 0xbd, 0xc1, 0x3f,
    0xda, 0x3c, 0x3b, 0xb5, 0xe1, 0xbc, 0xe6, 0x21, 0x05, 0x3b,
    0xcc, 0x42, 0x97, 0xbd, 0x54, 0xb7, 0xb4, 0x3d, 0x88, 0xfa,
    0x08, 0x3e, 0x6a, 0x27, 0xb7, 0xbd, 0x36, 0x0a, 0xad, 0x3d,
    0x9b, 0xcd, 0xa7, 0x3c, 0x49, 0xa6, 0x97, 0xbc, 0x4a, 0x98,
    0x26, 0x3d, 0x85, 0xfd, 0xe8, 0xbc, 0x2a, 0x65, 0x57, 0xbd,
    0x32, 0x2f, 0x76, 0x3c, 0xa0, 0x25, 0x86, 0xbd, 0x42, 0x02,
    0xdc, 0x3d, 0xa6, 0x4a, 0x1a, 0x3e, 0xa1, 0x6a, 0xdb, 0x3d,
    0xca, 0xb8, 0x00, 0x3e, 0x9a, 0x6b, 0x4a, 0xbd, 0x43, 0x73,
    0xab, 0xbd, 0xfb, 0xaa, 0xfa, 0x3c, 0x70, 0xd0, 0xe6, 0xbd,
    0x91, 0xa9, 0xc4, 0x3a, 0x23, 0xe9, 0x12, 0x3e, 0xf5, 0xbb,
    0xce, 0xbc, 0x01, 0x59, 0x82, 0x3b, 0x79, 0x63, 0xb1, 0xbd,
    0xd3, 0xf0, 0xd8, 0xbd, 0x09, 0xfa, 0xe1, 0xbd, 0x56, 0x84,
    0x0f, 0x3e, 0x85, 0x69, 0xa2, 0xbc, 0xac, 0x49, 0xf7, 0xbb,
    0x3b, 0xfa, 0x74, 0x3b, 0xe2, 0x82, 0x24, 0x3e, 0x60, 0x7e,
    0x0a, 0x3e, 0xea, 0xc8, 0xdf, 0xbd, 0x7f, 0xe9, 0x64, 0x3d,
    0x13, 0xc5, 0x86, 0xbd, 0x75, 0xe9, 0xa1, 0xbd, 0xee, 0x64,
    0x5c, 0x3d, 0x57, 0xe4, 0xb1, 0xbc, 0xa9, 0x68, 0xa4, 0x3d,
    0x6e, 0x28, 0x79, 0x3d, 0xc1, 0x8a, 0x52, 0x3e, 0x10, 0xce,
    0xcc, 0x3d, 0x52, 0x22, 0x9a, 0x3d, 0x61, 0xa8, 0x98, 0xbd,
    0x54, 0x5e, 0x73, 0xbd, 0x1c, 0xf9, 0x81, 0x3d, 0x47, 0x34,
    0xf3, 0xbd, 0x47, 0xe4, 0x72, 0xbd, 0x21, 0x53, 0xa8, 0x3d,
    0x32, 0x48, 0x76, 0x3d, 0xa9, 0xab, 0x17, 0xbe, 0x50, 0x85,
    0xc9, 0x3c, 0x89, 0xb5, 0xd4, 0x3d, 0xee, 0x0f, 0xc7, 0x3d,
    0x69, 0x33, 0xc1, 0x3d, 0xae, 0x1e, 0xf1, 0xbd, 0x93, 0x0f,
    0x41, 0xbd, 0xf6, 0x90, 0xf6, 0xbc, 0xa9, 0x5e, 0x0d, 0x3e,
    0x74, 0xd0, 0x2b, 0xbd, 0xac, 0xe7, 0xa8, 0x3c, 0x72, 0x2f,
    0xf7, 0x3d, 0x28, 0x9d, 0x4d, 0x3d, 0xf6, 0xde, 0x35, 0xbd,
    0x6c, 0x75, 0x67, 0xbd, 0x3d, 0xb1, 0x0f, 0x3e, 0x5b, 0x1b,
    0x40, 0x3d, 0x10, 0x34, 0x82, 0x3d, 0x1c, 0x56, 0x80, 0xbd,
    0x08, 0xa6, 0x84, 0xbc, 0xdb, 0x36, 0x17, 0x3e, 0xaf, 0x96,
    0xf7, 0x3c, 0xb7, 0xd2, 0xd2, 0xbc, 0x53, 0x41, 0x60, 0xbd,
    0x39, 0xce, 0xd1, 0x3d, 0xfc, 0xbb, 0x95, 0x3b, 0xc6, 0x68,
    0x17, 0x3e, 0xf3, 0x70, 0x3f, 0x3e, 0x42, 0xcf, 0xf4, 0xbc,
    0xd1, 0x7c, 0x0c, 0xbd, 0x57, 0xdc, 0x82, 0xbd, 0x7b, 0x6b,
    0xc2, 0xbc, 0x2c, 0x52, 0x5b, 0xbd, 0x8e, 0x0e, 0xb0, 0xbb,
    0x37, 0xb9, 0xdb, 0xbd, 0x86, 0xb3, 0xe0, 0x3c, 0x7e, 0x7c,
    0x8a, 0x3d, 0x3a, 0x7b, 0xed, 0x3c, 0x4e, 0x5a, 0x35, 0x3e,
    0xae, 0x0a, 0x03, 0x3d, 0x45, 0x3e, 0x06, 0xbe, 0x47, 0xa0,
    0xc4, 0xbc, 0xa2, 0x7b, 0x4b, 0x3d, 0x65, 0xac, 0xe0, 0x3d,
    0xbe, 0xbb, 0x5c, 0xbd, 0x4c, 0x2a, 0x2d, 0xbd, 0xee, 0x51,
    0x4a, 0x3c, 0x14, 0x39, 0x97, 0x3c, 0x7a, 0x19, 0x95, 0x3d,
    0x80, 0x7f, 0x21, 0x3c, 0xc6, 0x7f, 0x34, 0x3d, 0x96, 0xc2,
    0x17, 0x3e, 0xda, 0x11, 0x95, 0x3c, 0x20, 0x6e, 0xcf, 0xbd,
    0x74, 0x2a, 0x13, 0xbd, 0x21, 0xa2, 0x48, 0x3c, 0xde, 0x0c,
    0x10, 0x3a, 0xf6, 0x53, 0x92, 0xbd, 0xa8, 0x5a, 0x05, 0xbe,
    0xb0, 0x3b, 0x54, 0x3d, 0xcc, 0xa5, 0x41, 0x3d, 0xbe, 0x72,
    0x4a, 0xbc, 0xed, 0xa9, 0x80, 0x3d, 0x01, 0x65, 0x60, 0x3b,
    0xeb, 0x85, 0x09, 0xbe, 0xb5, 0x13, 0xd8, 0xbc, 0x70, 0x32,
    0xf6, 0x3b, 0xd0, 0xeb, 0x87, 0x3d, 0xff, 0xbf, 0x06, 0x3e,
    0xe6, 0xcb, 0x2d, 0xbe, 0x6a, 0x76, 0xab, 0xbd, 0x3a, 0xfa,
    0xa4, 0xbd, 0x77, 0xbb, 0x17, 0xbd, 0x4b, 0x21, 0xbe, 0xbd,
    0xcf, 0xdd, 0x28, 0x3d, 0x8b, 0x29, 0xed, 0xbc, 0xb8, 0xef,
    0x0c, 0x3c, 0x56, 0x8d, 0x5c, 0xbd, 0x71, 0x89, 0x75, 0x3d,
    0x10, 0x82, 0xdd, 0xbd, 0x69, 0x10, 0x46, 0x3c, 0x25, 0x6c,
    0x8d, 0x3c, 0xf2, 0xa3, 0x92, 0x3d, 0x29, 0x9e, 0xaa, 0x3d,
    0xcf, 0x0a, 0xa0, 0xbd, 0x52, 0x20, 0xf3, 0xbc, 0xce, 0xea,
    0x13, 0xbb, 0x8f, 0x04, 0x05, 0x3e, 0x7e, 0x18, 0x19, 0xbe,
    0x24, 0x65, 0x08, 0x3d, 0x4a, 0xf5, 0x05, 0xbe, 0x84, 0xca,
    0x48, 0x3e, 0xd0, 0x3c, 0x9b, 0x3d, 0x68, 0x52, 0x9b, 0xbd,
    0x17, 0xad, 0xf9, 0x3d, 0x36, 0x1e, 0x2e, 0xbd, 0x51, 0x8b,
    0x53, 0x3d, 0xce, 0xdb, 0x90, 0x3c, 0xc9, 0x58, 0xcb, 0x3c,
    0xd7, 0x15, 0x80, 0x3d, 0x08, 0x87, 0xa3, 0xbd, 0x85, 0xfc,
    0x3c, 0xbc, 0xa5, 0xf4, 0x60, 0x3c, 0x7f, 0xcf, 0xa5, 0xbc,
    0x70, 0xfb, 0x0e, 0x3c, 0xc8, 0x68, 0x85, 0xbd, 0xa5, 0xe5,
    0x0c, 0xbe, 0xee, 0x14, 0xc5, 0x3c, 0xaf, 0x46, 0xc5, 0xbd,
    0xf1, 0x5d, 0x08, 0x3c, 0x28, 0x5e, 0x4e, 0x3d, 0x96, 0x04,
    0x0a, 0xbd, 0xfe, 0xed, 0x18, 0xbe, 0x47, 0x42, 0xf5, 0x3d,
    0x2c, 0x1b, 0x54, 0x3c, 0x82, 0xe7, 0x29, 0x3d, 0x04, 0x98,
    0x38, 0x3d, 0xaf, 0xdd, 0xdf, 0xbd, 0x4b, 0x8f, 0x7b, 0xbd,
    0x06, 0x9f, 0x27, 0xbd, 0xce, 0xbc, 0xa4, 0xbd, 0x2e, 0xc3,
    0x48, 0xbd, 0xa6, 0x8c, 0x2f, 0xbc, 0x61, 0x9d, 0x93, 0x3c,
    0x5f, 0x74, 0x59, 0xbd, 0x52, 0x9d, 0xd4, 0x3d, 0xde, 0x52,
    0x9e, 0xbd, 0x52, 0xc5, 0xa1, 0x3c, 0xc5, 0xc4, 0x6f, 0xbd,
    0x62, 0x80, 0xa6, 0x3d, 0xa5, 0xbd, 0x30, 0x3c, 0x7f, 0x43,
    0xb1, 0xbd, 0xc6, 0x30, 0x87, 0x3a, 0x0b, 0x9c, 0x4c, 0xbd,
    0x99, 0x68, 0xa8, 0xbc, 0x9a, 0x5a, 0x85, 0xbd, 0xac, 0x17,
    0xa5, 0xbd, 0xce, 0xe5, 0x8b, 0x3d, 0xb2, 0xe1, 0x9a, 0x3c,
    0xc6, 0x27, 0x2c, 0xbd, 0xb4, 0x11, 0xf0, 0xbb, 0xf1, 0xd0,
    0xb3, 0x3d, 0xbd, 0x3c, 0x8a, 0x3d, 0x13, 0x94, 0x95, 0x3c,
    0xfe, 0x9d, 0x31, 0xbc, 0x4f, 0x3f, 0xf5, 0x3d, 0xaa, 0x2f,
    0x33, 0xbd, 0xbd, 0x1a, 0xb2, 0x3d, 0xb2, 0x13, 0x02, 0x3d,
    0x18, 0x01, 0x08, 0xbe, 0xeb, 0x8e, 0xdd, 0xbd, 0x8c, 0x24,
    0x69, 0xbd, 0x53, 0xa3, 0x4e, 0x3d, 0x99, 0x6d, 0x19, 0x3d,
    0x14, 0xec, 0x16, 0xbc, 0x14, 0xae, 0x66, 0xbc, 0x42, 0xf1,
    0xc1, 0xbd, 0xfc, 0xf2, 0x36, 0x3c, 0x8c, 0xf8, 0x78, 0xbd,
    0xe9, 0xb5, 0x98, 0xbd, 0xa3, 0x43, 0x81, 0xbb, 0x26, 0x94,
    0x7a, 0x3c, 0xce, 0xfd, 0xc1, 0xbd, 0x7a, 0x33, 0x86, 0x3b,
    0x2e, 0x3c, 0x66, 0x3d, 0xc8, 0x26, 0x79, 0xbd, 0x20, 0x09,
    0x86, 0x3d, 0xe0, 0xec, 0x36, 0x3d, 0x60, 0x18, 0x5d, 0x3d,
    0x57, 0xac, 0x8b, 0xbd, 0x7d, 0x75, 0xe7, 0x3d, 0xac, 0x44,
    0x5a, 0x3d, 0xbd, 0x5d, 0xa4, 0x3d, 0xdf, 0x12, 0x87, 0x3d,
    0x13, 0x25, 0xde, 0xbd, 0xe2, 0xc8, 0x02, 0xbc, 0xe2, 0x06,
    0x79, 0xbd, 0xfe, 0xf3, 0x20, 0x3d, 0xa6, 0x82, 0xc1, 0x3d,
    0x73, 0x12, 0xca, 0xbb, 0x23, 0x87, 0x80, 0x3b, 0x3d, 0x53,
    0xd5, 0xbd, 0xf5, 0x9b, 0x4e, 0x3d, 0xb1, 0xc4, 0xa6, 0xbd,
    0x6c, 0x5a, 0xa9, 0x3d, 0xb3, 0x71, 0x91, 0x3d, 0xba, 0x83,
    0xe5, 0x3b, 0x63, 0xf8, 0x5c, 0x3c, 0xe6, 0xa8, 0xf2, 0x3c,
    0x72, 0x4d, 0xdc, 0x3d, 0x61, 0xbc, 0xbd, 0xbd, 0x1f, 0x34,
    0x79, 0x3d, 0x76, 0xac, 0xac, 0x3d, 0x2b, 0xdc, 0x1b, 0xbd,
    0x21, 0xfc, 0xdd, 0xbd, 0x9d, 0x68, 0x8a, 0x3d, 0x1e, 0x10,
    0x22, 0xbc, 0x7a, 0x10, 0xae, 0x3d, 0x81, 0xb0, 0x97, 0xbd,
    0x9b, 0x38, 0x70, 0x3c, 0x02, 0xfc, 0x30, 0x3d, 0x23, 0x7b,
    0xc1, 0x3c, 0x00, 0xdd, 0xce, 0xbd, 0xbe, 0xf2, 0x48, 0x3d,
    0xdd, 0x91, 0xcb, 0xbc, 0x43, 0xd9, 0x67, 0x3d, 0x60, 0x09,
    0x32, 0x3d, 0x25, 0xef, 0xc4, 0x3d, 0x08, 0x98, 0xab, 0xbd,
    0x17, 0x45, 0x95, 0x3c, 0x65, 0x29, 0xb8, 0x3c, 0x18, 0xf2,
    0x3c, 0x3d, 0x6c, 0x4b, 0xbc, 0x3c, 0xbb, 0xd2, 0x15, 0x3d,
    0x6c, 0x69, 0xef, 0xbc, 0xd4, 0xd4, 0x5a, 0x3c, 0xf4, 0xc0,
    0xbe, 0x3d, 0x63, 0xe5, 0x99, 0xbb, 0x97, 0xf8, 0x8d, 0xbd,
    0x6d, 0x43, 0x60, 0xbd, 0x0f, 0x1b, 0x22, 0xbd, 0x2d, 0xf6,
    0xfb, 0x3d, 0xed, 0xa2, 0xb5, 0x3d, 0x78, 0xa9, 0xc1, 0xbd,
    0xa9, 0xb1, 0x81, 0x3c, 0xf0, 0x54, 0x05, 0xbc, 0x30, 0xa4,
    0x49, 0xbd, 0x63, 0x2b, 0x64, 0x3d, 0x92, 0x34, 0xd5, 0x3b,
    0xf0, 0xfe, 0xea, 0xbd, 0xbd, 0x38, 0x1e, 0x3d, 0xc4, 0x1a,
    0xf2, 0x3c, 0x6b, 0xcb, 0x92, 0x3c, 0x05, 0xe8, 0xb4, 0xbc,
    0x97, 0x49, 0xf5, 0xbd, 0x98, 0xd6, 0x28, 0xbc, 0x1b, 0xbd,
    0x15, 0x3c, 0x0f, 0x06, 0xb5, 0x3c, 0x21, 0x27, 0xc1, 0x3d,
    0xc2, 0x8f, 0x71, 0x3d, 0xf6, 0xea, 0x13, 0x3d, 0x5a, 0x01,
    0x9a, 0xbd, 0xd7, 0x17, 0xc8, 0x3d, 0x71, 0xd3, 0x01, 0xbd,
    0xa9, 0x3b, 0xb3, 0x3d, 0x27, 0x98, 0xd2, 0x3d, 0x2c, 0x64,
    0xb0, 0x3d, 0x79, 0x33, 0xbc, 0x3d, 0x63, 0xf6, 0xc8, 0xbd,
    0xaf, 0x4b, 0xb7, 0xbd, 0x5c, 0x1d, 0x27, 0x3d, 0x28, 0xb4,
    0x90, 0xbd, 0x87, 0xf1, 0xec, 0xbd, 0xac, 0x66, 0x5a, 0xbd,
    0x9c, 0xf5, 0xac, 0xbc, 0x0b, 0xd0, 0xf2, 0x3d, 0xa3, 0x2a,
    0x89, 0x3d, 0x5c, 0xf3, 0x46, 0xbc, 0x5d, 0x83, 0xaf, 0xbd,
    0xa2, 0x20, 0xd4, 0xbd, 0x6b, 0x5d, 0xa1, 0x3d, 0x5e, 0xa2,
    0x31, 0xbd, 0x4e, 0x0d, 0x97, 0x3d, 0x32, 0xf4, 0x4f, 0x3d,
    0x1c, 0x13, 0xb5, 0xbb, 0x84, 0xf1, 0x90, 0x3d, 0xdc, 0x09,
    0x37, 0x3d, 0xc6, 0xc5, 0x1c, 0xbc, 0x12, 0x42, 0x40, 0x3d,
    0x4e, 0x9e, 0x20, 0xbd, 0x0f, 0x72, 0xac, 0x3d, 0x6c, 0x95,
    0xd2, 0xbd, 0xd9, 0x62, 0xb3, 0x3d, 0x10, 0xb2, 0xd3, 0xbd,
    0x04, 0x59, 0xff, 0xba, 0x4b, 0x17, 0xa5, 0x3c, 0x52, 0x4a,
    0x59, 0x3d, 0xed, 0x1c, 0x0f, 0xbd, 0x68, 0x89, 0x35, 0xbd,
    0x8e, 0x68, 0xd2, 0xbd, 0xb0, 0xb7, 0xe0, 0x3d, 0xf5, 0xa6,
    0xe9, 0xbd, 0x60, 0xcc, 0x48, 0x3d, 0x1c, 0x55, 0xfe, 0x3a,
    0x14, 0xcc, 0x88, 0x3c, 0xc1, 0xa3, 0xcc, 0x3d, 0x0e, 0x4e,
    0xb2, 0x3d, 0x0e, 0x1c, 0x6d, 0x3d, 0x18, 0x3b, 0x59, 0x3d,
    0x80, 0xc7, 0x2c, 0x3d, 0xe9, 0x57, 0xfb, 0x3d, 0x14, 0xc9,
    0xe1, 0xbd, 0x42, 0x51, 0xa1, 0x3d, 0xc9, 0xb6, 0x11, 0x3c,
    0x24, 0xd8, 0x58, 0x3c, 0x65, 0x3e, 0xdd, 0xbb, 0xb9, 0x34,
    0xf2, 0x3d, 0x73, 0x42, 0xe4, 0x3d, 0x14, 0x87, 0x3f, 0xbd,
    0x16, 0x17, 0xbe, 0xbc, 0x73, 0x46, 0xd6, 0xbc, 0x73, 0xdc,
    0x34, 0xbd, 0x28, 0x81, 0xba, 0xbd, 0x14, 0x08, 0xd2, 0x3d,
    0x0a, 0xf2, 0x9e, 0xbd, 0x0a, 0x24, 0x7a, 0x3d, 0x27, 0x31,
    0x44, 0xbd, 0x77, 0x74, 0x6e, 0xbd, 0xe7, 0x17, 0xf1, 0xbc,
    0x2c, 0x1e, 0xdd, 0x3c, 0x88, 0xf9, 0x4b, 0xbd, 0xb2, 0x6f,
    0x88, 0xbd, 0xbc, 0x34, 0xfe, 0x3d, 0xe2, 0xc1, 0x31, 0x3d,
    0xf4, 0x53, 0xc3, 0xbc, 0x24, 0xf9, 0xe4, 0xbd, 0x20, 0x6b,
    0x57, 0xbd, 0xef, 0x79, 0x11, 0xbd, 0x10, 0xf2, 0x41, 0x3b,
    0x9b, 0xc0, 0x89, 0x3c, 0x6c, 0x2e, 0xa6, 0x3d, 0x42, 0x6d,
    0x6f, 0xbd, 0x90, 0x6f, 0xda, 0xb8, 0x7a, 0x31, 0x73, 0x3d,
    0x20, 0xb7, 0xef, 0x3d, 0x0f, 0xde, 0x0b, 0xbe, 0x20, 0x0a,
    0x88, 0x3d, 0x77, 0x73, 0x1c, 0x3d, 0x9d, 0x32, 0x71, 0x3d,
    0x24, 0xa6, 0x2c, 0xbd, 0x42, 0xbc, 0x3c, 0x3d, 0xda, 0x11,
    0xeb, 0x3c, 0x8f, 0xa1, 0x7f, 0xbd, 0x3b, 0x63, 0x85, 0xbd,
    0x91, 0x5b, 0x09, 0x3d, 0xaf, 0xdc, 0x37, 0xbd, 0xdc, 0x6d,
    0x36, 0xbd, 0x45, 0x8f, 0xa9, 0xbd, 0xef, 0xcc, 0x65, 0x3d,
    0xf9, 0x92, 0x38, 0xbd, 0x26, 0xa1, 0xa6, 0x3d, 0xd1, 0x2b,
    0xe2, 0xbd, 0x7c, 0xbc, 0xc7, 0x3d, 0x4a, 0xdc, 0x93, 0xbd,
    0x27, 0xd8, 0xb2, 0xbd, 0xac, 0xa2, 0xd5, 0x3c, 0x5d, 0x6f,
    0x82, 0x3d, 0xb1, 0x06, 0xe8, 0xbc, 0x96, 0x9a, 0xc5, 0x3b,
    0xb1, 0xc3, 0x2f, 0x3d, 0x04, 0xd6, 0x0c, 0xbe, 0x12, 0xda,
    0x52, 0x3d, 0x02, 0xcc, 0x60, 0x3d, 0x6c, 0x37, 0x85, 0x3b,
    0x34, 0xa6, 0x16, 0xbc, 0x15, 0x73, 0xa0, 0x3d, 0x0b, 0xa3,
    0x6f, 0xbd, 0x87, 0x06, 0x08, 0xbd, 0x54, 0xa4, 0xa3, 0xb9,
    0x98, 0x39, 0x94, 0xbc, 0xad, 0x21, 0xe4, 0xbc, 0xff, 0x6e,
    0x8f, 0xbd, 0xad, 0x6a, 0xb3, 0xbb, 0x4a, 0x4f, 0x03, 0xbe,
    0x0b, 0xd1, 0xd9, 0x3d, 0xc0, 0x73, 0xbc, 0x3c, 0xcf, 0xe0,
    0x3e, 0xbd, 0xe0, 0x60, 0x9a, 0x3d, 0x14, 0x0e, 0x37, 0x3d,
    0x00, 0xa2, 0x28, 0xbd, 0xaf, 0x25, 0x76, 0x3d, 0x26, 0x26,
    0x7e, 0x3d, 0x79, 0xdc, 0xf5, 0x3d, 0x8a, 0x8c, 0x26, 0xbd,
    0x63, 0x82, 0xe0, 0xbd, 0xaf, 0xcb, 0xd1, 0xbc, 0xb1, 0xd3,
    0xbf, 0x3c, 0xa6, 0x29, 0xc3, 0xbd, 0xd3, 0x7c, 0x83, 0xbb,
    0xe7, 0x5b, 0xb5, 0x3d, 0x5f, 0x47, 0x93, 0x3d, 0x43, 0x75,
    0x36, 0x3d, 0xfe, 0x42, 0x07, 0xbd, 0x05, 0x98, 0x59, 0xbd,
    0x1b, 0x5b, 0x2e, 0x3d, 0xd8, 0xe7, 0xde, 0x3d, 0xee, 0xaf,
    0xdc, 0x3d, 0x97, 0x0b, 0x45, 0xbc, 0x6b, 0xbc, 0x85, 0xbd,
    0x3f, 0xe0, 0xd6, 0xbd, 0xa7, 0x14, 0x0f, 0xbd, 0x4b, 0xe9,
    0x88, 0x3d, 0x9a, 0xd2, 0x1b, 0x3d, 0x61, 0xbe, 0x05, 0x3d,
    0x7c, 0x54, 0x85, 0xbb, 0x85, 0x9c, 0xb8, 0xbd, 0x99, 0x01,
    0xa5, 0x3d, 0xa0, 0xe3, 0xcc, 0xbd, 0x11, 0x90, 0x6e, 0x3d,
    0x31, 0x3b, 0x71, 0xbd, 0xa5, 0xa4, 0xc1, 0x3d, 0xc9, 0x1b,
    0xbc, 0x3d, 0x49, 0x3d, 0xb0, 0xbd, 0x7b, 0x83, 0xdb, 0x3d,
    0x51, 0x85, 0x68, 0x3d, 0x2c, 0xc5, 0x2f, 0x3c, 0x46, 0x0c,
    0x74, 0x3c, 0xe2, 0xa0, 0x99, 0x3d, 0xae, 0x79, 0x39, 0x3d,
    0x94, 0xa6, 0xbc, 0x3b, 0xe8, 0xf1, 0xb8, 0x3d, 0x10, 0x82,
    0x45, 0xbd, 0x6a, 0x68, 0xdb, 0xbd, 0x71, 0x2c, 0xab, 0x3d,
    0x84, 0xbf, 0x54, 0xbd, 0x92, 0x3a, 0xd9, 0x3d, 0x47, 0x1e,
    0x56, 0x3d, 0xb2, 0x70, 0x04, 0x3e, 0x86, 0x27, 0x29, 0xbd,
    0x41, 0x0c, 0xc5, 0xbc, 0xb9, 0xb3, 0x06, 0x3d, 0x63, 0x44,
    0x3c, 0xbc, 0x40, 0x8f, 0x86, 0x3d, 0x3b, 0x90, 0x73, 0xbd,
    0x75, 0x4a, 0x56, 0xbb, 0x8e, 0xe9, 0x89, 0x3c, 0x45, 0xa4,
    0x9f, 0xbb, 0x4d, 0xa1, 0x8a, 0x3d, 0x7c, 0x6a, 0xb8, 0x3d,
    0x2e, 0xd7, 0xd6, 0x3d, 0xe7, 0x17, 0x78, 0xbd, 0x3a, 0x12,
    0x81, 0xbd, 0x79, 0x52, 0xbd, 0xbd, 0x31, 0x36, 0xa5, 0x3c,
    0xa1, 0x39, 0x2a, 0x3d, 0x86, 0x5b, 0x00, 0xbb, 0xf7, 0x82,
    0xcf, 0x3d, 0xd2, 0xa1, 0x5a, 0xbb, 0xbd, 0x33, 0x01, 0x3e,
    0x5f, 0x2b, 0x58, 0xbd, 0xad, 0x82, 0x42, 0x3d, 0x83, 0xac,
    0xaf, 0x3d, 0x33, 0x11, 0x9c, 0x3d, 0xa7, 0x0c, 0x2f, 0x3d,
    0xe6, 0xa6, 0xc6, 0xbd, 0xb5, 0xda, 0x88, 0x3c, 0x4e, 0xf0,
    0x5e, 0x3d, 0x06, 0x2c, 0x2d, 0x3e, 0x33, 0x7b, 0x36, 0xbc,
    0xc7, 0x33, 0xd4, 0xbc, 0x87, 0xc5, 0x41, 0xbd, 0x2f, 0xad,
    0x0d, 0x3e, 0x92, 0xac, 0x89, 0xbd, 0x04, 0x84, 0x5a, 0xbd,
    0xdd, 0xe1, 0xb7, 0x3d, 0x10, 0x78, 0xaa, 0x3d, 0x1f, 0xbf,
    0xd9, 0x3d, 0xcf, 0x08, 0x9c, 0xbd, 0xc9, 0xa2, 0xaf, 0x3d,
    0xa5, 0xd9, 0x24, 0xbd, 0x04, 0x30, 0x19, 0xbd, 0x77, 0x7e,
    0x3c, 0xbd, 0xf4, 0x55, 0xe3, 0x3c, 0x90, 0x7d, 0xaa, 0x3d,
    0xa9, 0x22, 0xd5, 0xbd, 0xd1, 0x8b, 0xd1, 0xbd, 0x90, 0x7f,
    0x6c, 0x3c, 0xa1, 0xf8, 0x06, 0xbd, 0xf8, 0x3b, 0x83, 0x3d,
    0xbc, 0xbb, 0x40, 0xba, 0x48, 0x74, 0x96, 0x3d, 0x1e, 0xb1,
    0x80, 0x3d, 0xc8, 0xd5, 0xa8, 0x3d, 0x2d, 0x0c, 0xc9, 0xbd,
    0xb6, 0x3d, 0xf3, 0xbd, 0x51, 0xff, 0x6e, 0xbc, 0x5c, 0xd8,
    0xe5, 0x3d, 0x18, 0xe4, 0x23, 0xbd, 0x03, 0x6e, 0x9d, 0xbd,
    0x25, 0x6e, 0x9e, 0x3b, 0xd8, 0x5b, 0x0e, 0xbd, 0x75, 0x25,
    0x0b, 0x3d, 0x05, 0x26, 0x76, 0x3d, 0xae, 0xd0, 0x24, 0x3e,
    0x0d, 0x3a, 0xc8, 0x3d, 0xde, 0xe8, 0x07, 0xbd, 0x06, 0xaf,
    0xe8, 0x3d, 0x78, 0xda, 0x04, 0x3e, 0xe7, 0x75, 0xd7, 0xbd,
    0xf7, 0x76, 0x10, 0xbe, 0xcd, 0xfc, 0x87, 0xbb, 0x66, 0x61,
    0x9a, 0x3d, 0x8c, 0xfd, 0xe2, 0xbd, 0x42, 0xfa, 0xf4, 0xbd,
    0xa2, 0x24, 0xf5, 0x3d, 0xb8, 0x93, 0xa1, 0x3d, 0x45, 0xdd,
    0x07, 0xbe, 0x70, 0x2c, 0xf8, 0xbc, 0x47, 0x4e, 0x31, 0xbc,
    0x78, 0xa0, 0x05, 0x3e, 0xba, 0x59, 0xb2, 0xbc, 0x5a, 0x8b,
    0xaa, 0xbc, 0x92, 0x66, 0xc2, 0x3d, 0x1d, 0x90, 0x2c, 0xbd,
    0x5f, 0x9d, 0x80, 0xbd, 0x43, 0xfb, 0xcc, 0x3c, 0x98, 0xbe,
    0x8b, 0xbd, 0x20, 0x14, 0xac, 0x3d, 0x7c, 0x9a, 0x5b, 0xbd,
    0xc5, 0xd8, 0xd4, 0x3d, 0x6b, 0xb6, 0x96, 0xbc, 0x97, 0x8e,
    0x3c, 0x3d, 0x57, 0xaa, 0xa3, 0xbd, 0x83, 0x80, 0xd8, 0x3d,
    0x82, 0xd4, 0x90, 0xbd, 0x9b, 0xfb, 0xa5, 0x3c, 0x40, 0xc1,
    0x99, 0xbd, 0x5a, 0x49, 0x45, 0x3d, 0xd2, 0x70, 0xda, 0xbc,
    0xe3, 0x47, 0x5d, 0x3d, 0xf1, 0xb4, 0x89, 0x3c, 0xc1, 0xa0,
    0xd2, 0xbc, 0xef, 0x6c, 0x95, 0xbd, 0x5d, 0xc5, 0x0f, 0x3e,
    0x08, 0x84, 0x3f, 0xbc, 0x25, 0xd4, 0x85, 0x3d, 0xe4, 0x16,
    0x76, 0xbd, 0x96, 0x56, 0x6b, 0xbd, 0x07, 0xac, 0x4d, 0x3d,
    0x14, 0x8e, 0xf7, 0xbd, 0xd2, 0x8c, 0x89, 0x3d, 0x96, 0x5b,
    0xa1, 0xba, 0x25, 0x95, 0x09, 0xbd, 0x0f, 0xac, 0x86, 0x3c,
    0x96, 0x06, 0x95, 0x3d, 0x88, 0x18, 0xc7, 0x3d, 0x85, 0xce,
    0x5d, 0xbd, 0x1a, 0xc9, 0xc1, 0x3d, 0xbc, 0xbf, 0xba, 0xbc,
    0x68, 0x93, 0x91, 0x3d, 0x26, 0x99, 0x06, 0xbc, 0xf8, 0xb6,
    0xb2, 0xbd, 0x5d, 0xa1, 0x92, 0x3c, 0xb6, 0x93, 0xea, 0xbd,
    0xb9, 0xfb, 0x87, 0x3d, 0x99, 0x1a, 0xb9, 0xbc, 0x24, 0x23,
    0x89, 0xbd, 0xbf, 0xed, 0x3a, 0x3e, 0xdf, 0x2d, 0x2d, 0xbc,
    0x93, 0x14, 0x94, 0x3d, 0x34, 0x2b, 0x98, 0xbb, 0x8c, 0x77,
    0x40, 0x3c, 0x38, 0xc0, 0x4a, 0x3d, 0x74, 0x6d, 0x15, 0xbe,
    0x99, 0x84, 0x1a, 0xbe, 0xd4, 0x48, 0x99, 0x3d, 0x1e, 0x57,
    0x0d, 0x3d, 0x91, 0x33, 0x0d, 0xbe, 0x25, 0xff, 0xa1, 0x3d,
    0xa3, 0xdf, 0xe4, 0xbc, 0xa9, 0x8a, 0x30, 0x3d, 0xe8, 0x40,
    0xae, 0x3d, 0x87, 0xec, 0xcf, 0x3d, 0xee, 0xa2, 0x47, 0x3e,
    0xd6, 0xf4, 0x88, 0xbd, 0xd4, 0xdd, 0x25, 0x3c, 0x22, 0xb4,
    0xce, 0x3d, 0xb3, 0xb2, 0xa2, 0x3d, 0x53, 0x20, 0x60, 0x3d,
    0x61, 0xd5, 0x5f, 0x3d, 0x1c, 0xed, 0x43, 0xbd, 0xa9, 0x0f,
    0xd6, 0xbd, 0x8d, 0xa4, 0xa4, 0x3d, 0xff, 0xf3, 0x9d, 0xbc,
    0x7f, 0xce, 0x99, 0x3d, 0x2a, 0xff, 0x5b, 0x3b, 0x83, 0x4a,
    0x96, 0x3d, 0x94, 0xf5, 0xad, 0x3d, 0xae, 0xbc, 0xe1, 0x3c,
    0xe2, 0xe2, 0x88, 0x3c, 0xac, 0xab, 0xa0, 0x3d, 0x94, 0xcc,
    0xe2, 0xbc, 0x22, 0x9a, 0xbb, 0x3d, 0xdb, 0x4c, 0xb3, 0x3d,
    0x53, 0x38, 0x10, 0xbd, 0x90, 0x8d, 0xfa, 0xbc, 0x2b, 0xc4,
    0x64, 0x3d, 0xf2, 0x68, 0xe8, 0xbc, 0xcf, 0xff, 0xe3, 0xbd,
    0x69, 0x90, 0xda, 0xbb, 0x6c, 0xcd, 0x86, 0xbd, 0x78, 0x05,
    0xde, 0xbd, 0x93, 0x24, 0x06, 0x3e, 0x59, 0x4f, 0xf3, 0x3b,
    0x97, 0x8b, 0xdf, 0x3d, 0x20, 0x36, 0xd4, 0x3d, 0x9e, 0xd5,
    0xa2, 0xbd, 0x51, 0x5f, 0xc7, 0x3d, 0x66, 0x60, 0x5b, 0x3c,
    0x45, 0x4e, 0x5d, 0xbd, 0xe4, 0x8b, 0xf6, 0xbd, 0x54, 0x73,
    0x49, 0xbd, 0x6c, 0xbc, 0x93, 0x3c, 0x6a, 0x0d, 0xef, 0x3c,
    0xc6, 0x30, 0xdf, 0xbc, 0x13, 0x31, 0xd4, 0x3d, 0xa5, 0x21,
    0x7f, 0xbd, 0xa8, 0x51, 0x00, 0xbe, 0x93, 0x75, 0x81, 0x3d,
    0x36, 0x6d, 0xb5, 0x3d, 0x67, 0x39, 0xb7, 0x3d, 0x28, 0x9c,
    0xf5, 0x3d, 0x5e, 0xb9, 0x7a, 0x3d, 0x1b, 0x6c, 0x46, 0xbd,
    0x1f, 0xc5, 0x6c, 0x3c, 0xcb, 0x7e, 0xab, 0x3d, 0x27, 0xae,
    0x9d, 0xbd, 0x35, 0x06, 0x8c, 0xbd, 0x92, 0x48, 0x97, 0xbd,
    0xa4, 0x47, 0xc5, 0xbc, 0xfe, 0xbc, 0x63, 0xbd, 0x94, 0xfd,
    0xd6, 0xbd, 0x96, 0xbd, 0xb4, 0x3d, 0x3a, 0x2d, 0x57, 0xbd,
    0x17, 0xa0, 0x92, 0xbd, 0x1a, 0xd1, 0xcc, 0xbd, 0x8a, 0xc9,
    0x04, 0x3e, 0xdd, 0x8f, 0xdf, 0xbd, 0x0b, 0x27, 0xb6, 0xbd,
    0xfc, 0x2a, 0xce, 0x3d, 0x32, 0xa4, 0xbf, 0x3d, 0xee, 0xf4,
    0x1f, 0x3d, 0xfb, 0x9f, 0xee, 0xbd, 0xe7, 0x38, 0xda, 0xbd,
    0xd3, 0x2f, 0x5b, 0xbd, 0x5f, 0x6b, 0x0e, 0xbe, 0x59, 0xd9,
    0xc0, 0x3d, 0x87, 0x60, 0xfa, 0xbd, 0xc0, 0x93, 0xf1, 0x3d,
    0x53, 0x73, 0x09, 0x3b, 0x9a, 0x00, 0x03, 0xba, 0x03, 0xab,
    0xa1, 0xbd, 0x60, 0x29, 0xc6, 0x3d, 0x6d, 0x0a, 0x53, 0x3c,
    0xfb, 0xbd, 0x0b, 0xbe, 0x6b, 0xa6, 0xe3, 0x3d, 0xfb, 0x65,
    0xf1, 0x3d, 0xc5, 0xb8, 0x15, 0xbd, 0xe9, 0xc5, 0x5e, 0x3d,
    0x90, 0x4f, 0xca, 0xbc, 0xdc, 0x28, 0xaf, 0xbd, 0x30, 0x88,
    0xbb, 0xbc, 0xfc, 0x6d, 0x95, 0x3d, 0x77, 0x99, 0xf8, 0xbd,
    0xa8, 0x4c, 0xf6, 0x3d, 0x7d, 0xd1, 0x05, 0x3e, 0x69, 0xcb,
    0x01, 0x3e, 0x7e, 0x36, 0x89, 0xbd, 0x5b, 0xcf, 0x9a, 0xbd,
    0xa0, 0x91, 0xfe, 0xbc, 0xee, 0x14, 0x1b, 0xbe, 0x5a, 0x12,
    0xc9, 0xbb, 0x0c, 0xf3, 0x57, 0x3d, 0x04, 0x48, 0xf7, 0x3b,
    0x30, 0xf2, 0xb9, 0xbd, 0x6e, 0xfd, 0xf9, 0xbd, 0x82, 0x8b,
    0x7e, 0xbd, 0x6d, 0x46, 0xb3, 0x3d, 0x39, 0x8d, 0x17, 0xbe,
    0x08, 0x85, 0x9c, 0x39, 0xaa, 0x29, 0x05, 0x3d, 0xe5, 0xc1,
    0x29, 0x3e, 0x82, 0xba, 0x85, 0xbc, 0xa9, 0x8d, 0xf1, 0xbc,
    0x59, 0xe4, 0xbe, 0x3d, 0x47, 0x8b, 0x2d, 0xbe, 0x3c, 0x35,
    0xa4, 0x3d, 0x28, 0xf1, 0x81, 0x3d, 0xd3, 0x37, 0x99, 0xbd,
    0x40, 0xcb, 0xa6, 0xbd, 0x9b, 0x11, 0x2b, 0x3e, 0x92, 0x26,
    0x11, 0x3e, 0x44, 0x88, 0xba, 0x3d, 0x77, 0x62, 0x8c, 0x3d,
    0x07, 0xee, 0x0e, 0x3e, 0x0f, 0xc2, 0x34, 0xbd, 0x72, 0x7a,
    0x5e, 0x3d, 0x22, 0x95, 0x2d, 0xbc, 0x54, 0x88, 0x8b, 0x3d,
    0x3f, 0x8a, 0x1f, 0xbd, 0x6b, 0xad, 0x78, 0xbd, 0x5a, 0xaa,
    0x65, 0xbc, 0x07, 0x12, 0x04, 0xbd, 0x5f, 0x04, 0xf9, 0x3d,
    0xba, 0xc3, 0x08, 0xbe, 0xf3, 0x11, 0xa3, 0xbd, 0x0b, 0x84,
    0xad, 0x3d, 0x35, 0xe1, 0x80, 0x3d, 0x0c, 0x1a, 0xaf, 0xbd,
    0x10, 0xa4, 0xf6, 0x3b, 0x57, 0xf7, 0x27, 0x3d, 0x4e, 0x0e,
    0x8a, 0x3d, 0xfa, 0x36, 0xb6, 0x3c, 0xaa, 0x28, 0x8a, 0x3d,
    0x8d, 0xe3, 0x75, 0xbc, 0xb6, 0xc4, 0x1b, 0x3d, 0x5a, 0x02,
    0xeb, 0xbc, 0x06, 0xb1, 0xfa, 0x3d, 0xd2, 0xca, 0x1f, 0xbd,
    0x28, 0x15, 0xbf, 0x3d, 0x46, 0xba, 0x87, 0x3c, 0x53, 0x4e,
    0xbf, 0xbc, 0xbc, 0x5d, 0xa9, 0xbd, 0x09, 0xcd, 0x63, 0xbd,
    0xab, 0xe6, 0xe7, 0x3d, 0x31, 0xaa, 0x49, 0x3d, 0x23, 0x80,
    0xa8, 0x3d, 0x00, 0xb9, 0x36, 0xbc, 0x36, 0xec, 0xd3, 0x3c,
    0x62, 0x29, 0x95, 0xbd, 0xe4, 0x57, 0xaa, 0xbc, 0x0a, 0xa5,
    0x11, 0xbd, 0xe5, 0x38, 0xe2, 0xbd, 0xc7, 0xe2, 0xca, 0x3c,
    0x89, 0x2c, 0x24, 0xbd, 0xd5, 0x96, 0x67, 0x3d, 0xd1, 0x82,
    0xd6, 0xbd, 0x2f, 0xe1, 0xc7, 0xbd, 0x18, 0x5a, 0x89, 0x3d,
    0x0f, 0xd0, 0x0f, 0x3d, 0xd8, 0xd0, 0x8f, 0x3d, 0x44, 0x33,
    0xf9, 0xbd, 0xdb, 0xf6, 0xee, 0x3d, 0xd0, 0xb5, 0xa8, 0xbd,
    0x69, 0x7c, 0x18, 0x3c, 0xb5, 0x04, 0xf0, 0x3c, 0x4c, 0x58,
    0xdb, 0x3b, 0x8f, 0x70, 0xff, 0xbc, 0x7b, 0x53, 0xf3, 0x3c,
    0xf2, 0x26, 0xa1, 0xbc, 0xfb, 0xc7, 0xcb, 0x3d, 0xba, 0x64,
    0xb5, 0xbd, 0x2f, 0x8e, 0x86, 0xbd, 0xc2, 0x44, 0x2a, 0x3d,
    0x1a, 0x30, 0x96, 0xbc, 0x2f, 0x7b, 0xc6, 0x3d, 0xd6, 0x48,
    0x61, 0x3d, 0x71, 0x50, 0x15, 0x3e, 0xab, 0xe0, 0x75, 0x3d,
    0xec, 0xe9, 0xab, 0x3d, 0xec, 0x44, 0x9d, 0x3c, 0x0f, 0x62,
    0x83, 0x3c, 0x7c, 0xc9, 0x74, 0x3d, 0xdc, 0xb4, 0x3f, 0xbd,
    0x76, 0xaa, 0x6c, 0xbd, 0xe9, 0x4a, 0x57, 0xbd, 0xa4, 0x50,
    0xb0, 0xbd, 0x7c, 0xd7, 0x4d, 0x3d, 0x53, 0x79, 0xf6, 0x3d,
    0x0b, 0x10, 0x6f, 0xbc, 0x14, 0xb8, 0x92, 0xbd, 0xb4, 0xef,
    0xb5, 0xbb, 0xc0, 0xcd, 0xe9, 0x3d, 0xda, 0xfc, 0x91, 0x3c,
    0xd4, 0x73, 0xce, 0xbd, 0x41, 0x16, 0xca, 0x3d, 0x7a, 0x82,
    0x37, 0xbd, 0xee, 0x1f, 0x3f, 0xbc, 0xa9, 0xf0, 0x70, 0x3d,
    0xa0, 0xd8, 0x4e, 0x3d, 0x3e, 0xc5, 0x0c, 0xbc, 0x35, 0xcc,
    0x8a, 0x3d, 0x1d, 0x49, 0x9c, 0xbc, 0x26, 0x47, 0xa2, 0xbd,
    0xb6, 0x9f, 0x55, 0x3c, 0xcf, 0xa2, 0xd2, 0xbc, 0x3c, 0x1d,
    0x00, 0xbc, 0xba, 0x0f, 0x58, 0xbd, 0x97, 0xbd, 0x7b, 0xbd,
    0xc9, 0xfd, 0xaa, 0xbb, 0xde, 0x11, 0x9a, 0xbd, 0x81, 0xd3,
    0x49, 0x3d, 0x28, 0x7a, 0x55, 0xbd, 0x76, 0x51, 0xb9, 0x3a,
    0x5a, 0x99, 0xb1, 0xbd, 0x97, 0x69, 0x4e, 0x3d, 0x36, 0x5e,
    0xa5, 0xbc, 0xb0, 0x7d, 0x17, 0x3e, 0x40, 0xd8, 0xa7, 0x3c,
    0xa0, 0x24, 0x04, 0xbe, 0xe5, 0xff, 0xdd, 0x3d, 0xc9, 0x5b,
    0xc6, 0x3d, 0x09, 0x8e, 0xaf, 0x3d, 0x70, 0x16, 0x65, 0xbc,
    0xec, 0xbb, 0x02, 0x3d, 0xee, 0x02, 0xa5, 0x3d, 0x97, 0xcf,
    0xe3, 0x3d, 0x5b, 0x3d, 0xf5, 0x3c, 0x37, 0x8d, 0x38, 0x3d,
    0x00, 0x75, 0xc3, 0xbd, 0x5c, 0xfd, 0xf8, 0x3c, 0x80, 0x2b,
    0xa9, 0x3d, 0xb7, 0x35, 0x2c, 0xbd, 0xf8, 0xd4, 0x59, 0xbd,
    0x8b, 0xec, 0x3c, 0xbd, 0xd6, 0x51, 0x00, 0x3e, 0x12, 0xd0,
    0x16, 0x3e, 0x3c, 0xf3, 0xe1, 0xbc, 0xad, 0x82, 0x8e, 0xbd,
    0x2c, 0xab, 0x77, 0xbd, 0x07, 0x77, 0x9d, 0xbd, 0x6c, 0x1b,
    0xc2, 0x3d, 0x32, 0xe1, 0x39, 0x3d, 0x71, 0x66, 0xad, 0xbd,
    0x3c, 0x79, 0x3e, 0xbd, 0xc5, 0xa4, 0x08, 0xbe, 0x0c, 0x5a,
    0x1e, 0xbd, 0x52, 0xdb, 0x3f, 0xbc, 0x42, 0x6f, 0xe1, 0xbd,
    0x9e, 0x60, 0xbb, 0x3d, 0x40, 0xd5, 0x91, 0x3d, 0xc5, 0x49,
    0x15, 0x3e, 0xf3, 0x05, 0x14, 0x3e, 0x1a, 0x37, 0xc2, 0x3d,
    0x6b, 0x3d, 0xba, 0x3d, 0x99, 0x0a, 0x96, 0x3c, 0xa8, 0x3c,
    0x9b, 0xbd, 0x64, 0x21, 0x55, 0x3d, 0x68, 0x6d, 0xa7, 0xbd,
    0x24, 0x22, 0x5a, 0x3d, 0xf6, 0x4c, 0x19, 0x3e, 0x27, 0xcd,
    0x53, 0x3d, 0x7a, 0x92, 0x90, 0x3d, 0x30, 0x2d, 0x11, 0xbd,
    0xb8, 0x81, 0x11, 0xbd, 0x48, 0x3f, 0x0d, 0x3e, 0x07, 0x09,
    0xbf, 0x3c, 0x42, 0x71, 0x01, 0xbe, 0xc2, 0x86, 0xe8, 0x3c,
    0xb4, 0xf1, 0x0e, 0x3d, 0x52, 0x38, 0xab, 0xbc, 0x38, 0x1f,
    0x2b, 0xbc, 0xfd, 0xb4, 0xf1, 0xbd, 0xad, 0x89, 0x11, 0xbe,
    0x73, 0x22, 0x97, 0xbc, 0x98, 0xbd, 0x71, 0xbd, 0xb3, 0x45,
    0x8a, 0xbd, 0x6b, 0x7d, 0xc2, 0xbc, 0xa7, 0xb7, 0xbc, 0xbc,
    0xbc, 0xa6, 0x59, 0xbd, 0x1b, 0x60, 0x6e, 0xbd, 0x15, 0xaa,
    0x4b, 0x3e, 0x4b, 0xfd, 0xff, 0xbc, 0x93, 0x5f, 0x01, 0x3e,
    0x70, 0x57, 0xc9, 0x3d, 0xfa, 0x77, 0xd1, 0x3d, 0xe8, 0x2f,
    0xb5, 0x3d, 0x9b, 0xca, 0x16, 0xbd, 0x83, 0x0d, 0x5d, 0x3d,
    0xb3, 0x22, 0x3c, 0xbd, 0x81, 0xb0, 0xb3, 0xbd, 0x13, 0x4f,
    0x81, 0x3d, 0xbf, 0x0a, 0xbf, 0x3d, 0xc6, 0x11, 0x8f, 0xbd,
    0x2e, 0x41, 0x73, 0xbd, 0xe1, 0x8d, 0x28, 0xbd, 0x0c, 0x8a,
    0x23, 0x3e, 0x3d, 0x7a, 0x78, 0x3d, 0x31, 0xe9, 0xff, 0x3c,
    0x80, 0x70, 0xdf, 0x3d, 0x62, 0x10, 0xc0, 0xbc, 0x8a, 0x04,
    0x46, 0xbd, 0xd6, 0x42, 0x89, 0xbd, 0x61, 0x30, 0xe1, 0xbc,
    0x53, 0x18, 0xc4, 0x3d, 0x0c, 0x4b, 0x0c, 0x3c, 0x12, 0x54,
    0x81, 0xbc, 0xef, 0x82, 0x0f, 0xbd, 0x49, 0x2d, 0x5d, 0x3d,
    0x48, 0x80, 0x1f, 0xbe, 0xec, 0x90, 0x01, 0x3e, 0x35, 0x16,
    0x80, 0xbd, 0x54, 0xc5, 0x4b, 0x3d, 0x58, 0xc9, 0xd6, 0x3d,
    0xde, 0xee, 0x9e, 0xbd, 0x05, 0xa1, 0x1c, 0xbd, 0x38, 0x1b,
    0x1b, 0x3e, 0x2a, 0x0e, 0xe4, 0xbd, 0x90, 0x61, 0x77, 0x3b,
    0x3d, 0x85, 0x6c, 0xbd, 0x0e, 0x9d, 0xcc, 0xbd, 0xa2, 0x74,
    0x72, 0xbd, 0xcd, 0xc2, 0xd2, 0xbd, 0x42, 0xea, 0xb1, 0x3d,
    0x98, 0xb9, 0x9c, 0x3d, 0x92, 0xea, 0xb4, 0xbd, 0xa9, 0x5a,
    0xa9, 0x3d, 0x8a, 0x07, 0xb2, 0x3b, 0xd2, 0xc3, 0x9a, 0x3d,
    0x4d, 0xfd, 0x90, 0x3d, 0x57, 0xb2, 0xa2, 0xbd, 0x88, 0x4a,
    0x2e, 0x3d, 0x1c, 0x7b, 0xb6, 0x3c, 0x19, 0xa1, 0xeb, 0xbc,
    0x84, 0xc6, 0x36, 0x3d, 0x05, 0x5d, 0xe7, 0xbd, 0x3b, 0xd8,
    0x89, 0x3d, 0x99, 0x34, 0x5c, 0xbd, 0xe9, 0xfd, 0xc8, 0xbd,
    0xb4, 0x97, 0xe8, 0xbd, 0xd6, 0xe4, 0xe7, 0xbb, 0x28, 0xf5,
    0xd9, 0xbc, 0x0f, 0x73, 0x1c, 0x3e, 0xbc, 0x2a, 0x7a, 0xbc,
    0x99, 0x24, 0xd5, 0x3d, 0xb9, 0x3a, 0xe3, 0xbd, 0xf0, 0x36,
    0x00, 0xbe, 0x39, 0x79, 0x57, 0x3d, 0x1d, 0x41, 0x12, 0x3d,
    0x23, 0xa7, 0xae, 0x3d, 0x73, 0x1a, 0x08, 0x3d, 0x1d, 0xe9,
    0xe1, 0x3c, 0x76, 0x23, 0xfa, 0x3b, 0xf7, 0xd5, 0xa1, 0x3d,
    0x54, 0xaa, 0xb8, 0xbd, 0xa7, 0x8f, 0x43, 0xbd, 0xf1, 0xa7,
    0x1f, 0xbd, 0xeb, 0x25, 0xcb, 0xbc, 0xc1, 0xf2, 0x88, 0x3d,
    0xa8, 0x31, 0x22, 0xbd, 0x86, 0x1c, 0xb0, 0xbd, 0x6c, 0xfe,
    0x0c, 0xbe, 0x92, 0x96, 0x77, 0x3b, 0xc2, 0x05, 0x1b, 0x3d,
    0xeb, 0x75, 0x93, 0x3c, 0x6f, 0x51, 0x78, 0xbd, 0x31, 0xc6,
    0xc6, 0xbd, 0xcf, 0x31, 0x5c, 0x3d, 0x7d, 0x8e, 0x35, 0xbd,
    0xfd, 0xc2, 0xeb, 0x3d, 0x4a, 0xac, 0xcf, 0xbd, 0xd9, 0x31,
    0x1e, 0xbe, 0x68, 0xfb, 0xd9, 0xbc, 0x8c, 0x65, 0xf5, 0x3d,
    0xb9, 0x91, 0x83, 0x3c, 0xd6, 0xb3, 0xb4, 0x3d, 0xd1, 0x86,
    0x88, 0xbd, 0x14, 0xb1, 0xea, 0x3c, 0x1f, 0x82, 0x59, 0xbd,
    0x0e, 0x24, 0x66, 0x3d, 0x53, 0x34, 0x7b, 0x3c, 0xe8, 0xe7,
    0x63, 0xbd, 0x57, 0xf3, 0x7e, 0xbd, 0xd1, 0x1a, 0x18, 0xbd,
    0x63, 0xab, 0x24, 0xbd, 0x78, 0xa9, 0xaf, 0x3c, 0x8c, 0x25,
    0xb7, 0xbb, 0x59, 0x93, 0xeb, 0xbc, 0x2f, 0x7d, 0xe1, 0x3b,
    0x2c, 0x3d, 0x24, 0xbd, 0x8a, 0xb2, 0x8c, 0x3d, 0x9e, 0x0a,
    0x13, 0x3e, 0x5c, 0x12, 0x08, 0xbd, 0x40, 0x49, 0x35, 0xbe,
    0x1a, 0xba, 0xb6, 0xbd, 0x5e, 0xb0, 0x56, 0x3d, 0x36, 0xc3,
    0x05, 0x3d, 0xff, 0x1a, 0x89, 0xbd, 0xb9, 0xd1, 0x7f, 0x3d,
    0x7b, 0x42, 0xdc, 0xbb, 0x7b, 0x1d, 0x8f, 0xbc, 0x18, 0x74,
    0xbc, 0x3c, 0xcd, 0x61, 0xa3, 0x3d, 0x63, 0x9f, 0x51, 0xbd,
    0x1a, 0x67, 0xa2, 0x3d, 0x75, 0x9a, 0xb5, 0x3d, 0xaf, 0x53,
    0x12, 0xbd, 0xc6, 0x0b, 0x35, 0xbb, 0x8b, 0x62, 0x46, 0xbd,
    0x06, 0xf5, 0xfa, 0xbd, 0x0f, 0xe0, 0x9c, 0x3d, 0x5a, 0x99,
    0x0d, 0x3d, 0xaf, 0xdb, 0x6d, 0xbd, 0x2e, 0x6b, 0x44, 0x3b,
    0x7e, 0x4b, 0xaf, 0xbd, 0xe0, 0x19, 0x03, 0x3e, 0x52, 0xb1,
    0xbd, 0xbc, 0xbc, 0x91, 0x9f, 0xbd, 0x80, 0x31, 0x9d, 0x3d,
    0x16, 0xd2, 0x14, 0x3e, 0x68, 0xb3, 0x5d, 0x3d, 0x51, 0x9b,
    0x3b, 0xbd, 0x4a, 0x4f, 0xc0, 0xbc, 0x66, 0xa1, 0x6c, 0xbd,
    0xaa, 0x8c, 0x52, 0xbd, 0x13, 0xe5, 0xd6, 0x3c, 0xa0, 0x90,
    0x9a, 0xbc, 0x91, 0xc5, 0xe4, 0x3d, 0x59, 0x31, 0x21, 0x3d,
    0x0e, 0xd0, 0x8a, 0x3d, 0x12, 0xf1, 0x49, 0xbd, 0xb1, 0x52,
    0x82, 0x3d, 0xa8, 0x2d, 0xbe, 0xbd, 0xcd, 0xae, 0xd7, 0x3d,
    0x98, 0x2f, 0xc0, 0xbc, 0x4f, 0xb5, 0x8e, 0xbd, 0x3c, 0x0f,
    0x67, 0xbd, 0xed, 0xda, 0xe7, 0xbc, 0x68, 0xb6, 0x02, 0x3e,
    0xc7, 0xa2, 0xa8, 0xbc, 0x94, 0x74, 0x95, 0xbc, 0x45, 0x1c,
    0x3a, 0x3d, 0x10, 0x6a, 0xc8, 0xbd, 0xe1, 0xe8, 0xde, 0x3d,
    0x9f, 0x68, 0xfd, 0xbc, 0xce, 0xa9, 0x80, 0x3b, 0x1d, 0x69,
    0xeb, 0xbc, 0x07, 0xc2, 0xfb, 0x3d, 0xe3, 0x4f, 0x8d, 0xbd,
    0x7f, 0x86, 0xd9, 0x3c, 0xcb, 0xd4, 0xd5, 0x3b, 0xa7, 0x3d,
    0x01, 0xbe, 0xac, 0x1b, 0x39, 0xbd, 0x3c, 0xc0, 0xb1, 0x3d,
    0x69, 0x93, 0xc3, 0x3d, 0x69, 0x97, 0xcb, 0xbd, 0xc7, 0xd5,
    0x2c, 0x3c, 0x8c, 0x58, 0xa7, 0x3d, 0x54, 0x96, 0x83, 0x3d,
    0x0e, 0x58, 0x00, 0x3e, 0xbb, 0x5c, 0x55, 0xbd, 0x02, 0x88,
    0xc9, 0xbd, 0x33, 0x52, 0x8c, 0x3d, 0x40, 0x9b, 0x9b, 0x3c,
    0xf6, 0x93, 0x20, 0xbd, 0x79, 0x4f, 0x16, 0x3e, 0xaf, 0x0c,
    0x10, 0xbd, 0xef, 0xdb, 0x41, 0xbd, 0x7f, 0x54, 0x00, 0xbd,
    0x74, 0x38, 0x97, 0x3d, 0x60, 0x3e, 0xb1, 0x3d, 0x5c, 0x82,
    0x8f, 0x3d, 0xed, 0x7e, 0xae, 0x3d, 0x12, 0x27, 0xa8, 0xbd,
    0x86, 0x4f, 0xd7, 0x3c, 0xce, 0x6f, 0x5c, 0x3c, 0x04, 0xe8,
    0x4b, 0xbc, 0x64, 0xe3, 0x77, 0x3d, 0x49, 0x17, 0xd2, 0xbc,
    0x74, 0x9f, 0x94, 0x3d, 0x89, 0xf1, 0xa9, 0x3d, 0x76, 0xeb,
    0x1d, 0x3e, 0x48, 0x07, 0xd1, 0x3d, 0xd8, 0xfd, 0xd1, 0xbd,
    0x38, 0xaa, 0x85, 0x3d, 0x06, 0x6e, 0x6c, 0xbd, 0x8c, 0x13,
    0xa8, 0x3d, 0x11, 0x55, 0xe6, 0xbc, 0x0b, 0x39, 0x5a, 0xbb,
    0x89, 0xfe, 0x89, 0xbd, 0xe0, 0x68, 0x3f, 0xbc, 0x94, 0x9d,
    0x9a, 0xbd, 0xaf, 0x29, 0xdb, 0x3d, 0x74, 0x1e, 0x30, 0xbd,
    0x08, 0xa7, 0xca, 0x3d, 0x3f, 0xe7, 0x2f, 0xbd, 0xe7, 0x75,
    0x1d, 0x3d, 0x56, 0xe7, 0xee, 0x3d, 0x0c, 0x3c, 0xc3, 0x3c,
    0x98, 0x40, 0x77, 0xbd, 0x1f, 0xc0, 0xe6, 0xbd, 0xf0, 0xba,
    0xa3, 0xbd, 0x47, 0xa1, 0xd7, 0x3d, 0x3b, 0xeb, 0xd5, 0xbd,
    0xdc, 0x56, 0x05, 0xbd, 0x41, 0xa4, 0x50, 0xbc, 0xb6, 0x02,
    0xde, 0x3b, 0xfa, 0x0f, 0x4c, 0xbd, 0xd2, 0xfd, 0x80, 0x3d,
    0xf2, 0x6e, 0xd1, 0xbc, 0x1b, 0x41, 0xb8, 0xbd, 0xdb, 0xc7,
    0x18, 0xbd, 0x02, 0x3b, 0xcf, 0xbc, 0xc8, 0xfc, 0x27, 0x3e,
    0x57, 0xe6, 0x83, 0x3d, 0xc3, 0xd3, 0xb2, 0xbd, 0xe8, 0xc8,
    0x11, 0x3d, 0xd3, 0x99, 0x9a, 0x3d, 0x50, 0xa1, 0xff, 0xbd,
    0xc1, 0xca, 0x0b, 0x3c, 0xf6, 0x93, 0xc8, 0x3d, 0x1c, 0xc2,
    0xf9, 0x3d, 0x83, 0xb6, 0xc4, 0x3d, 0x56, 0x56, 0x74, 0x3a,
    0xc4, 0x43, 0x89, 0xbc, 0x22, 0xd0, 0x2b, 0xbd, 0xd5, 0xf8,
    0x37, 0xbd, 0x5a, 0xca, 0xcf, 0x3b, 0x6a, 0xd3, 0x01, 0x3e,
    0xf0, 0x17, 0x33, 0xbd, 0xac, 0x3b, 0xde, 0x3d, 0xff, 0xec,
    0xda, 0x3d, 0xa1, 0xd2, 0x9e, 0xbd, 0x3e, 0x30, 0xee, 0x3d,
    0xa6, 0x2d, 0x6c, 0xbd, 0xc5, 0x6b, 0xb2, 0xbd, 0x77, 0xe0,
    0xcf, 0x3c, 0xc1, 0xdc, 0x01, 0xbd, 0x02, 0xc1, 0x47, 0xbd,
    0xc4, 0x1b, 0x79, 0xbd, 0x9f, 0xf3, 0xaa, 0xbd, 0x13, 0x17,
    0x18, 0x3d, 0x06, 0xd4, 0x4a, 0xbd, 0x7b, 0x41, 0x04, 0x3d,
    0xac, 0x5e, 0xdc, 0x3d, 0xdf, 0x9c, 0x87, 0x3d, 0xba, 0xf6,
    0x0d, 0x3c, 0x94, 0x3a, 0x11, 0x3c, 0x3b, 0xb4, 0x3e, 0xbc,
    0xb5, 0xf7, 0x52, 0xbd, 0x49, 0x88, 0x64, 0xbd, 0xe2, 0x82,
    0xfc, 0x3c, 0xbb, 0x56, 0x32, 0xbb, 0xbb, 0x6f, 0xc2, 0xbc,
    0x27, 0x8f, 0x3c, 0x3c, 0xde, 0x1a, 0x22, 0x3d, 0x48, 0x1f,
    0x77, 0x3d, 0x59, 0x8f, 0x6b, 0xbd, 0x59, 0x33, 0x35, 0x3b,
    0x56, 0x09, 0x0f, 0x3e, 0x32, 0xb2, 0x51, 0x3c, 0x6f, 0xd7,
    0x1f, 0x3e, 0xff, 0x93, 0x22, 0xbc, 0xef, 0x59, 0x25, 0x3c,
    0xa7, 0x79, 0x29, 0x3d, 0xfe, 0x59, 0x20, 0x3d, 0x08, 0x8a,
    0xbf, 0xbd, 0xf5, 0x41, 0xdb, 0xbd, 0xad, 0xbd, 0x1e, 0x3d,
    0xd3, 0x54, 0x4f, 0x3d, 0xcf, 0x05, 0x09, 0xbe, 0xdf, 0x26,
    0xae, 0x3c, 0x9d, 0xc2, 0xf6, 0x3d, 0x07, 0x83, 0xab, 0x3d,
    0xb9, 0x24, 0xa3, 0xbc, 0x1a, 0xff, 0x6b, 0xbd, 0x5f, 0x69,
    0xbf, 0xbd, 0xa2, 0xfc, 0x2d, 0xbb, 0xc8, 0x61, 0x16, 0xbc,
    0xf7, 0x28, 0x69, 0x3c, 0x90, 0x95, 0x08, 0x3e, 0xe6, 0x3a,
    0xb0, 0xbd, 0x28, 0xbf, 0x06, 0xbc, 0x7d, 0x8c, 0x04, 0x3d,
    0xe0, 0x9c, 0x52, 0xbd, 0xab, 0x31, 0x13, 0x3e, 0x41, 0xbd,
    0xf5, 0xbd, 0x39, 0xa1, 0xac, 0x3c, 0xb2, 0xef, 0x4e, 0xbc,
    0x49, 0x9d, 0xb6, 0x3d, 0x3b, 0xd5, 0xb4, 0xbd, 0x0d, 0x52,
    0xa2, 0xbd, 0xc9, 0xae, 0x8e, 0x3d, 0x4c, 0x00, 0x43, 0x3d,
    0x3e, 0xb6, 0xab, 0x3d, 0x0f, 0xe7, 0x8a, 0x3d, 0xe7, 0x5f,
    0x23, 0xbd, 0xe5, 0x2f, 0xac, 0xbd, 0xae, 0x18, 0xc8, 0xbd,
    0x88, 0xb2, 0x19, 0xbd, 0xc4, 0xcd, 0xc8, 0xbd, 0x0e, 0x0b,
    0x39, 0x3d, 0xa2, 0x9d, 0xb8, 0x3d, 0xed, 0x10, 0x0f, 0x3e,
    0x9d, 0xaf, 0xdb, 0x3d, 0x23, 0xd0, 0xb5, 0xbd, 0xa8, 0x84,
    0xc9, 0x3d, 0xa2, 0x02, 0x0e, 0xbe, 0x23, 0x8d, 0xab, 0xbb,
    0x21, 0x7a, 0xe3, 0x3d, 0xae, 0x48, 0x41, 0x3b, 0x8d, 0x20,
    0x4f, 0x3d, 0x30, 0x77, 0x9c, 0x3c, 0x5b, 0xea, 0x64, 0xbc,
    0x6e, 0x9b, 0x89, 0x3d, 0x48, 0x77, 0x38, 0xbb, 0x0b, 0xe9,
    0x9e, 0xbd, 0x82, 0x18, 0x20, 0x3d, 0x8f, 0x52, 0x06, 0x3c,
    0x94, 0x17, 0x9f, 0xbc, 0x26, 0xf9, 0x88, 0xbd, 0x72, 0x20,
    0xe1, 0x3d, 0x7c, 0xa5, 0xcf, 0xbd, 0x70, 0x62, 0x93, 0xbb,
    0xe0, 0xaf, 0x84, 0x3d, 0x7e, 0x5f, 0xd7, 0xbb, 0xc4, 0xdd,
    0x5e, 0xbd, 0xbe, 0xaa, 0x5e, 0xbd, 0x2c, 0xbf, 0x96, 0x3d,
    0x00, 0xfa, 0xb7, 0xbb, 0x28, 0xe9, 0x01, 0x3e, 0x39, 0xb0,
    0xa9, 0x3d, 0xf2, 0xb7, 0x8e, 0x3d, 0xb0, 0x95, 0x99, 0xbd,
    0xeb, 0xf0, 0xca, 0x3d, 0x3c, 0x0e, 0x03, 0x3e, 0x69, 0x92,
    0x7b, 0xbc, 0x26, 0xf1, 0x1a, 0x3d, 0x2a, 0xab, 0x1a, 0x3d,
    0xbd, 0x62, 0xaf, 0xbd, 0x63, 0x01, 0xe8, 0xbd, 0xb1, 0x57,
    0x89, 0xbc, 0x64, 0x45, 0x18, 0x3d, 0xdf, 0x42, 0xb9, 0x3d,
    0x5d, 0xcb, 0xb9, 0x3a, 0x1f, 0x72, 0x03, 0xbe, 0x54, 0xba,
    0x2a, 0x3d, 0xbe, 0x4f, 0x52, 0xbd, 0x27, 0x48, 0xc8, 0x3d,
    0xd6, 0x1e, 0x82, 0xbd, 0x02, 0x05, 0x83, 0x3d, 0x48, 0x3e,
    0x9a, 0x3d, 0x88, 0x77, 0xa2, 0x3d, 0xae, 0x6b, 0x1a, 0x3e,
    0x52, 0x21, 0x92, 0xbb, 0xb8, 0xe4, 0x5f, 0xbd, 0x53, 0x89,
    0x2f, 0xbd, 0x72, 0x28, 0xfa, 0xbc, 0x2e, 0x84, 0x23, 0xbc,
    0x8e, 0xb4, 0x5e, 0x3d, 0x24, 0x16, 0x05, 0x3e, 0x0b, 0xf4,
    0x09, 0x3e, 0x7d, 0x55, 0x94, 0x3c, 0x15, 0x22, 0x64, 0x3d,
    0x20, 0xa0, 0xad, 0x3d, 0xc8, 0xb1, 0x03, 0x3d, 0xf1, 0x6d,
    0x20, 0x3d, 0xa6, 0xb9, 0x9e, 0xbb, 0xed, 0xa9, 0x9f, 0x3d,
    0x9f, 0x68, 0x45, 0x3c, 0x89, 0x0c, 0xd9, 0x3d, 0xf6, 0xb9,
    0xd9, 0x3d, 0x7a, 0xac, 0x1b, 0x3e, 0x87, 0x5f, 0xfc, 0x3d,
    0xb3, 0xbc, 0x13, 0x3d, 0x41, 0xc7, 0xb5, 0x3c, 0x38, 0x24,
    0x2c, 0xbd, 0xc5, 0x20, 0x88, 0x3d, 0xa0, 0x0c, 0x5f, 0x3c,
    0x01, 0xd7, 0xcc, 0xbd, 0x19, 0x6a, 0x79, 0x3d, 0x11, 0xe1,
    0x1b, 0xbe, 0xcc, 0xb7, 0x48, 0xbc, 0x31, 0x43, 0xbe, 0x3d,
    0x82, 0x2f, 0x97, 0xbd, 0x8e, 0x36, 0x9b, 0x3d, 0xa6, 0x7f,
    0xc1, 0xbd, 0xd7, 0x70, 0xa3, 0x3d, 0xa1, 0xa2, 0x02, 0x3e,
    0x34, 0xf6, 0x0b, 0x3e, 0x4f, 0xe7, 0x1f, 0x3e, 0x2d, 0x6e,
    0x08, 0x3e, 0xaa, 0x0c, 0x1f, 0xbd, 0xc5, 0x3f, 0xef, 0xbd,
    0xeb, 0xcc, 0x4b, 0xbc, 0x68, 0xe3, 0x09, 0xbe, 0x4e, 0xc8,
    0xff, 0xbc, 0x18, 0x64, 0x0b, 0xbe, 0x91, 0x56, 0x7c, 0x3d,
    0xaa, 0xcd, 0x7a, 0xbb, 0xd2, 0x5a, 0x94, 0x3c, 0xa6, 0x74,
    0xec, 0xbc, 0xa6, 0x5c, 0xf2, 0xbc, 0xf6, 0xa4, 0x74, 0xbd,
    0x4b, 0x72, 0x58, 0xbc, 0x4e, 0xe9, 0x26, 0x3e, 0xb4, 0x55,
    0xe1, 0x3d, 0xb7, 0xb0, 0x79, 0x3a, 0x19, 0x4d, 0x94, 0x3c,
    0x04, 0xe4, 0x02, 0x3c, 0xc0, 0x9a, 0x09, 0xbd, 0x8f, 0xfb,
    0xbb, 0xbd, 0xdc, 0x2d, 0x1d, 0xba, 0xbd, 0xc5, 0xed, 0xbc,
    0xa3, 0x31, 0xa4, 0x3d, 0xa1, 0x7c, 0x11, 0x3e, 0xd3, 0x27,
    0x1b, 0xbd, 0x94, 0x73, 0xb4, 0x3d, 0x5c, 0x5c, 0x18, 0x3c,
    0x93, 0x3f, 0x1f, 0xbd, 0x15, 0xf3, 0xd8, 0xbc, 0x21, 0x5f,
    0x3c, 0x3d, 0x13, 0xf1, 0x14, 0xbe, 0x4f, 0x2b, 0x3b, 0x3d,
    0x11, 0xcd, 0x56, 0xbd, 0x78, 0xd1, 0x05, 0xbd, 0x95, 0x0c,
    0x2f, 0xbd, 0x30, 0x80, 0x03, 0x3e, 0x19, 0xd2, 0x3c, 0x3d,
    0x17, 0x4c, 0xac, 0x3d, 0xda, 0x60, 0xa0, 0x3c, 0x3f, 0xd4,
    0x45, 0x3d, 0x15, 0x66, 0xa3, 0x3c, 0xde, 0xed, 0x04, 0x3e,
    0x22, 0x12, 0x97, 0xbd, 0x30, 0xf1, 0x00, 0x3d, 0xb8, 0x4c,
    0xef, 0x3d, 0xd4, 0x76, 0xbc, 0x3d, 0xa3, 0x4a, 0xe7, 0xbc,
    0x9c, 0x19, 0x0d, 0xbc, 0x97, 0xce, 0xb2, 0x3d, 0xa3, 0x93,
    0x83, 0xbd, 0x3b, 0x91, 0x0e, 0x3d, 0xfb, 0x44, 0xb6, 0xbd,
    0xfe, 0xc5, 0x44, 0x3d, 0x28, 0x7a, 0x13, 0xbb, 0xf2, 0xbb,
    0x48, 0xbd, 0x7e, 0x0b, 0xb9, 0x3d, 0x1a, 0x7f, 0xf4, 0x3b,
    0x08, 0xd5, 0xf7, 0x3d, 0x24, 0x54, 0x8e, 0xbd, 0x3d, 0x66,
    0x68, 0xbd, 0x68, 0x67, 0x21, 0x3d, 0x97, 0x22, 0xf0, 0xbd,
    0xe0, 0x09, 0xd6, 0x3d, 0x50, 0xc6, 0xfd, 0x3d, 0x92, 0x38,
    0xa1, 0x3d, 0x5a, 0xa6, 0xe6, 0x3a, 0x77, 0xa7, 0x4a, 0x3d,
    0x46, 0x16, 0x23, 0xbe, 0x1c, 0x7a, 0xce, 0xbd, 0x94, 0xc3,
    0x8f, 0x3d, 0xcc, 0xdd, 0x27, 0xbe, 0xce, 0x21, 0x15, 0x3e,
    0x79, 0x8c, 0xd3, 0xbd, 0x00, 0x51, 0x91, 0xbd, 0x4c, 0x38,
    0x4b, 0xbd, 0xc2, 0xa9, 0x30, 0xbe, 0xb4, 0x9b, 0x5c, 0x3d,
    0xfe, 0x5c, 0x8c, 0xbd, 0xa3, 0xe7, 0xb5, 0xbd, 0x2d, 0x6b,
    0x14, 0xbd, 0x32, 0xe4, 0x32, 0x3d, 0x96, 0xc5, 0xde, 0x3d,
    0x14, 0x49, 0xa5, 0x3d, 0x14, 0x1a, 0x55, 0xbc, 0x71, 0x12,
    0x08, 0xbe, 0xff, 0x97, 0xe5, 0xbd, 0xcb, 0xd7, 0xfc, 0xbc,
    0x58, 0x02, 0xb0, 0x3d, 0x21, 0x79, 0x23, 0xbd, 0x14, 0x45,
    0x0a, 0x3e, 0x0f, 0x7d, 0x2d, 0xbd, 0xd0, 0x9a, 0xd1, 0x3b,
    0x2a, 0x8f, 0x69, 0xbd, 0x4a, 0x00, 0x89, 0xbd, 0x59, 0xfe,
    0x4b, 0xbd, 0xb2, 0xf5, 0x57, 0x3d, 0xe6, 0xc0, 0x06, 0x3e,
    0x70, 0x64, 0x7e, 0x3d, 0xde, 0xe7, 0x47, 0xbb, 0xd7, 0x82,
    0x18, 0xbe, 0xac, 0x57, 0xa6, 0xbd, 0x99, 0x72, 0x29, 0x3c,
    0x9b, 0xfe, 0xe4, 0xbd, 0x84, 0x50, 0x2f, 0x3d, 0x7c, 0xcb,
    0x13, 0x3d, 0xa7, 0x53, 0x9f, 0xbc, 0xde, 0xaf, 0x9b, 0xbd,
    0xbd, 0x8d, 0x4f, 0x3d, 0xb6, 0x18, 0xa0, 0x3d, 0xbc, 0x52,
    0xe1, 0x3c, 0x7b, 0x36, 0x36, 0x3d, 0x10, 0x0c, 0x0d, 0xbc,
    0x64, 0x95, 0xc2, 0x3c, 0x9d, 0xc6, 0x10, 0x3d, 0xf0, 0x55,
    0xf3, 0xbc, 0x99, 0x47, 0xb3, 0xbd, 0x1c, 0xa1, 0x26, 0xbe,
    0x38, 0x76, 0xd9, 0xbb, 0x43, 0xf8, 0xfd, 0xbd, 0x9c, 0xab,
    0x50, 0x3c, 0x2c, 0x14, 0x46, 0x3d, 0x37, 0x1b, 0xf6, 0x3d,
    0x7d, 0xad, 0xcc, 0x3d, 0xaa, 0x88, 0x12, 0xbe, 0xe4, 0xa2,
    0x13, 0x3e, 0x0f, 0x08, 0x2c, 0xbd, 0xfc, 0x48, 0xb3, 0x3d,
    0xa8, 0x42, 0xff, 0x3c, 0xf5, 0x2f, 0xb8, 0xbd, 0xdd, 0x1a,
    0x29, 0x3e, 0xe0, 0x55, 0x4f, 0xb9, 0x14, 0xb3, 0xe1, 0xbc,
    0x67, 0x5b, 0x8f, 0x3d, 0x01, 0x50, 0x26, 0xbe, 0x50, 0xbd,
    0x2c, 0xbd, 0x90, 0xc3, 0x11, 0xbd, 0x26, 0x98, 0x08, 0xbe,
    0x82, 0x49, 0xe9, 0xbd, 0x5a, 0x05, 0xa7, 0xbc, 0x4e, 0xbf,
    0x08, 0x3e, 0xb6, 0x0a, 0xb4, 0xbc, 0x5d, 0x1e, 0x15, 0x3d,
    0x08, 0xda, 0x18, 0x3e, 0x5e, 0xfa, 0xde, 0x3d, 0xfa, 0xf2,
    0xbf, 0x3d, 0xc1, 0xf7, 0xc8, 0xbc, 0x31, 0x80, 0xcf, 0x3d,
    0x08, 0x49, 0x17, 0xbd, 0xf6, 0xc3, 0x22, 0xbd, 0x1b, 0xcd,
    0xdc, 0xbd, 0x67, 0xc9, 0xb4, 0xbc, 0x32, 0x26, 0x4c, 0xbc,
    0x2c, 0xa4, 0x90, 0xbd, 0x2f, 0x8b, 0x2d, 0x3d, 0xfe, 0x54,
    0xe7, 0xbd, 0x2a, 0xf5, 0x30, 0x3e, 0x03, 0x8c, 0xca, 0xbc,
    0x1d, 0x4b, 0x9e, 0x3d, 0xee, 0xd3, 0xd0, 0xba, 0x17, 0x08,
    0x42, 0x3d, 0xf6, 0x27, 0xc0, 0x3d, 0x57, 0x46, 0xca, 0x3d,
    0x3e, 0xdc, 0x62, 0x3d, 0x60, 0x06, 0xa1, 0x3c, 0x0d, 0x7a,
    0xab, 0x3d, 0x83, 0x44, 0x2c, 0xbd, 0xca, 0x23, 0x4b, 0xbd,
    0x0a, 0xc1, 0xb7, 0xbd, 0x9f, 0x38, 0xdc, 0xbd, 0x9f, 0x16,
    0x95, 0xbd, 0x90, 0x14, 0x03, 0x3d, 0x9d, 0x30, 0xa8, 0x3d,
    0x3c, 0xd2, 0x5b, 0x3d, 0xc9, 0xd1, 0xe6, 0x3c, 0x4c, 0x36,
    0x97, 0x3d, 0xc9, 0x10, 0x1b, 0x3d, 0x28, 0x85, 0x39, 0x3d,
    0x85, 0x09, 0x2c, 0x3d, 0xe2, 0xf0, 0xe1, 0xbd, 0x2f, 0xe6,
    0xd3, 0xb9, 0x97, 0x2f, 0x77, 0xbc, 0xbc, 0x64, 0x36, 0xbd,
    0x3e, 0xa6, 0xe1, 0xbc, 0xaa, 0x9e, 0x80, 0x3d, 0x99, 0x90,
    0x1e, 0xbe, 0x0d, 0x70, 0x37, 0xbd, 0x41, 0x79, 0x63, 0x3d,
    0x53, 0x80, 0x81, 0x3d, 0xae, 0xb5, 0x22, 0xbc, 0x41, 0x00,
    0xa2, 0xbd, 0x6e, 0xab, 0xeb, 0x3d, 0xac, 0x73, 0x19, 0x3d,
    0xcb, 0xaf, 0xac, 0x3d, 0x3c, 0x09, 0x09, 0x3e, 0x65, 0x76,
    0x16, 0xbe, 0x43, 0x13, 0xad, 0xbd, 0xf7, 0x21, 0xc0, 0x3c,
    0xc5, 0x2b, 0x69, 0x3d, 0x8a, 0x0d, 0xba, 0xbd, 0x4b, 0xf1,
    0x06, 0xbe, 0xec, 0x15, 0xdc, 0xbd, 0x56, 0x9c, 0x6e, 0x3b,
    0x02, 0x5f, 0x01, 0x3d, 0x1d, 0xa5, 0x76, 0xbd, 0x57, 0xdb,
    0x34, 0x3d, 0x40, 0x89, 0x78, 0xbc, 0x38, 0xcb, 0xf1, 0x3c,
    0x28, 0x38, 0x21, 0x3c, 0xf2, 0x36, 0xd4, 0xbc, 0xa0, 0x58,
    0x39, 0x3b, 0x60, 0x22, 0xe0, 0xbc, 0xcc, 0x60, 0x9e, 0x3d,
    0x0f, 0x3e, 0x8c, 0x3d, 0x99, 0x13, 0x92, 0x3a, 0xc7, 0x84,
    0x43, 0xbd, 0xfc, 0x83, 0x89, 0xbd, 0x6c, 0x7d, 0x80, 0xbd,
    0x2b, 0xc8, 0x60, 0x3d, 0x66, 0xfd, 0xd9, 0xbd, 0xd4, 0xad,
    0xa4, 0xbd, 0x42, 0xbe, 0xd9, 0x3d, 0x57, 0x1f, 0x0f, 0xbd,
    0xeb, 0x06, 0x51, 0xbd, 0x9c, 0x89, 0x5a, 0x3b, 0x70, 0xf8,
    0x66, 0x3c, 0x69, 0xb3, 0x89, 0x3d, 0xb7, 0xd9, 0x0b, 0xbe,
    0xf4, 0x3f, 0xb9, 0xbd, 0x41, 0x77, 0x95, 0xbd, 0xf7, 0xed,
    0xc0, 0xbd, 0xda, 0xb7, 0xbf, 0xba, 0x42, 0x09, 0x84, 0xbd,
    0x4d, 0x69, 0x1f, 0xbe, 0x73, 0xbc, 0xa4, 0x3d, 0xf6, 0x98,
    0x12, 0xbd, 0xc0, 0xf5, 0x94, 0xbd, 0x20, 0x65, 0x60, 0x3d,
    0x39, 0x2b, 0x9b, 0xbc, 0x0b, 0x24, 0x18, 0x3d, 0x1e, 0xa2,
    0xda, 0x3b, 0x71, 0x63, 0xb9, 0x3c, 0xa8, 0x17, 0x41, 0x3d,
    0x5a, 0xcb, 0x0e, 0x3d, 0xef, 0x16, 0xd8, 0x3d, 0x4a, 0x4f,
    0x01, 0x3e, 0x7b, 0x95, 0x9e, 0xbd, 0x84, 0x1e, 0x9a, 0xbd,
    0x18, 0x3a, 0x6d, 0x3d, 0x53, 0x46, 0xf3, 0xbd, 0x54, 0xba,
    0x03, 0x3c, 0xe8, 0xfd, 0xb6, 0x3d, 0xe4, 0x79, 0x27, 0xbc,
    0x88, 0x73, 0xb4, 0x3d, 0xed, 0xb5, 0xa0, 0xbd, 0xaf, 0x12,
    0x45, 0x3d, 0x77, 0xc6, 0x99, 0x3d, 0xec, 0xa4, 0x8a, 0xbd,
    0x79, 0x5e, 0x03, 0x3d, 0x59, 0x23, 0xf5, 0x3b, 0x97, 0xf2,
    0x39, 0x3d, 0x9a, 0xfb, 0xab, 0x3d, 0xe6, 0x2d, 0xc2, 0xbd,
    0xf4, 0x95, 0xee, 0x3b, 0x38, 0xd2, 0xc5, 0xbc, 0xbd, 0xb9,
    0x8f, 0xbd, 0xba, 0x7c, 0x44, 0x3c, 0x3f, 0xb7, 0xca, 0xbd,
    0x2c, 0x94, 0x96, 0xbd, 0xe5, 0xf4, 0x8b, 0xbd, 0xae, 0xa0,
    0xf4, 0xbd, 0x09, 0xdb, 0xe9, 0x3d, 0xe1, 0xbb, 0xcf, 0x3c,
    0x55, 0x9f, 0xc2, 0x3d, 0x8e, 0x2e, 0x27, 0xbd, 0x4b, 0xb6,
    0xb5, 0x3c, 0x9c, 0xb6, 0xe7, 0x3d, 0x99, 0x66, 0x9c, 0x3c,
    0x39, 0xe0, 0xda, 0x3d, 0xb7, 0x93, 0xe5, 0x3d, 0xf7, 0xab,
    0xde, 0xbd, 0x44, 0x1d, 0x1a, 0xbe, 0xf4, 0x13, 0xb5, 0x3d,
    0xf6, 0x85, 0xd1, 0x3d, 0x02, 0xa1, 0x9a, 0x3d, 0x59, 0x1b,
    0xc3, 0xba, 0xfa, 0x2c, 0x9d, 0xbd, 0x93, 0xbb, 0xd3, 0xbc,
    0x3f, 0xe9, 0x73, 0x3d, 0xaf, 0x04, 0x8c, 0x3d, 0x5c, 0x94,
    0xbc, 0x3d, 0x73, 0xfa, 0x6d, 0x3d, 0x30, 0x2c, 0xd0, 0x3d,
    0x17, 0x64, 0x9e, 0x3d, 0x0a, 0xdb, 0xcd, 0x3d, 0xff, 0x95,
    0x5d, 0x3d, 0xc1, 0x0e, 0xcd, 0x3d, 0x43, 0x1b, 0x1b, 0xbe,
    0x1d, 0xe6, 0xe4, 0x3d, 0x31, 0x9d, 0x75, 0x3d, 0xd3, 0xde,
    0x99, 0x3d, 0xf2, 0x38, 0x64, 0x3c, 0x41, 0x9e, 0x8b, 0x3c,
    0xaa, 0xb3, 0x07, 0x3d, 0x90, 0xc7, 0x9d, 0x3d, 0x2c, 0x02,
    0x3d, 0x3d, 0x10, 0x05, 0x8a, 0xbd, 0xb6, 0x38, 0x77, 0x3d,
    0x74, 0x9d, 0xae, 0x3c, 0xbf, 0xe2, 0x85, 0x3d, 0xfa, 0x18,
    0x8e, 0x3d, 0x98, 0xcf, 0x5e, 0xbd, 0x08, 0x52, 0xf5, 0x3c,
    0x1e, 0x3c, 0x52, 0xbd, 0xbc, 0xae, 0xc6, 0x3c, 0x1d, 0xf7,
    0xbd, 0xbd, 0xf4, 0xf8, 0xc6, 0xbd, 0xd1, 0xcc, 0x80, 0xbd,
    0x09, 0xeb, 0xf0, 0x3d, 0x4f, 0xbf, 0xd9, 0x3d, 0x78, 0x9c,
    0x87, 0xbc, 0x5a, 0xcc, 0x9b, 0xbd, 0x9f, 0x8e, 0x8e, 0x3d,
    0x84, 0x8d, 0x0b, 0x3c, 0xaf, 0x93, 0xe1, 0x3d, 0xd0, 0xe7,
    0xc3, 0xbd, 0xf8, 0xa2, 0xd8, 0xbd, 0x0e, 0x4b, 0x62, 0x3d,
    0x60, 0x06, 0x56, 0xbc, 0x6b, 0xb5, 0x27, 0x3d, 0xe7, 0xfc,
    0xe2, 0x3d, 0xaa, 0x48, 0x01, 0xbd, 0xf8, 0x9c, 0x80, 0xbd,
    0x5f, 0x75, 0xe1, 0xbd, 0x88, 0x24, 0x24, 0x3c, 0x01, 0x71,
    0xb5, 0x3d, 0x66, 0xee, 0x9a, 0xbd, 0x5c, 0xcd, 0x90, 0xbd,
    0x26, 0x92, 0x16, 0xbd, 0x94, 0x99, 0xd2, 0xbd, 0xd7, 0x12,
    0x80, 0xbd, 0x14, 0x4b, 0x8e, 0x3c, 0xf3, 0x1a, 0xe6, 0xbd,
    0x90, 0x8e, 0x27, 0xbc, 0x55, 0xb2, 0xb6, 0x3c, 0xe4, 0x5a,
    0x9a, 0xbc, 0x0c, 0x20, 0xc4, 0x3b, 0x73, 0x74, 0x0c, 0xbd,
    0x57, 0x2f, 0x45, 0xbd, 0x3c, 0x1a, 0x9d, 0x3d, 0x45, 0xd5,
    0xaf, 0xbd, 0x8c, 0x33, 0x3c, 0xbd, 0x86, 0x05, 0x70, 0x3d,
    0x9f, 0xaf, 0x21, 0xbd, 0xcd, 0x79, 0xae, 0x3d, 0xd0, 0x91,
    0x95, 0x3b, 0xd0, 0x01, 0x05, 0xbd, 0xde, 0x35, 0x37, 0x3d,
    0x9c, 0xbd, 0x95, 0x3d, 0x98, 0x01, 0x5e, 0xbd, 0xaa, 0x97,
    0xcd, 0x3c, 0x0d, 0xa1, 0x74, 0x3c, 0x32, 0x7f, 0x5b, 0x3c,
    0x10, 0xb0, 0x53, 0xbc, 0x5f, 0x23, 0xc9, 0x3d, 0xc9, 0x1f,
    0xbb, 0x3d, 0x08, 0xc4, 0x2d, 0xbd, 0x18, 0xb7, 0x61, 0x3c,
    0xfc, 0x50, 0x9a, 0x3c, 0x80, 0xa1, 0x3a, 0xbd, 0x55, 0x82,
    0x98, 0xbd, 0x4a, 0x17, 0x86, 0xbd, 0x41, 0x10, 0xef, 0xbd,
    0x4a, 0x03, 0x65, 0x3d, 0x33, 0x66, 0x4d, 0x3c, 0xf8, 0xe4,
    0x57, 0xbd, 0xb8, 0x50, 0x42, 0x3d, 0x60, 0x64, 0x66, 0xbd,
    0xc8, 0x24, 0x93, 0x3c, 0x1e, 0x4d, 0x1e, 0x3d, 0x82, 0xac,
    0x8d, 0xbd, 0x32, 0x04, 0x91, 0xbd, 0x80, 0xd4, 0x80, 0x3a,
    0x40, 0xf3, 0x1a, 0xbd, 0x1f, 0xf2, 0x81, 0x3d, 0x1e, 0x33,
    0xe2, 0xbd, 0x54, 0xc7, 0x1b, 0x3d, 0x94, 0x46, 0x03, 0xbd,
    0xf6, 0x15, 0x70, 0xbd, 0xee, 0x07, 0xb6, 0xbd, 0x9e, 0x96,
    0xad, 0x3d, 0xd4, 0x0d, 0xa4, 0xbd, 0x5a, 0x89, 0x88, 0xbd,
    0xc4, 0x42, 0xf1, 0xbc, 0xe8, 0x65, 0xa9, 0xba, 0x13, 0x44,
    0xce, 0x3c, 0x6a, 0xe7, 0x82, 0x3d, 0x5f, 0xd1, 0xd9, 0xbd,
    0xc5, 0xed, 0xf2, 0xbd, 0xe2, 0x46, 0xad, 0xbd, 0x20, 0xc9,
    0x83, 0xbd, 0x9e, 0xab, 0x18, 0x3d, 0x88, 0xba, 0x0b, 0x3c,
    0x01, 0x21, 0xea, 0xbd, 0xde, 0xbc, 0x2a, 0x3d, 0x59, 0x4c,
    0x95, 0x3d, 0x4e, 0xb8, 0xd6, 0x3d, 0x18, 0xd0, 0x0c, 0xbd,
    0x9a, 0x2c, 0x5b, 0x3d, 0x1b, 0x74, 0x96, 0x3d, 0x4c, 0xcb,
    0xbc, 0x3d, 0x50, 0xb6, 0xb1, 0x3b, 0x68, 0x94, 0x52, 0xbc,
    0x40, 0xaf, 0x3d, 0xbc, 0x44, 0x85, 0xb6, 0xbc, 0xc4, 0xc5,
    0x90, 0x3c, 0x8e, 0x27, 0xe5, 0xbd, 0x5b, 0x2c, 0x20, 0x3d,
    0xd9, 0xfb, 0x1b, 0x3d, 0xfb, 0x11, 0x70, 0xbd, 0xc6, 0x50,
    0xb5, 0xbd, 0xb0, 0x0d, 0x7e, 0xbc, 0x44, 0xd9, 0x84, 0xbc,
    0xde, 0x36, 0x3a, 0xbd, 0xff, 0x8a, 0xbe, 0xbd, 0x4e, 0x7a,
    0xe5, 0x3c, 0xea, 0x4b, 0x7b, 0x3d, 0x59, 0x17, 0x26, 0x3d,
    0x67, 0x97, 0xdc, 0x3d, 0x00, 0xb7, 0x2a, 0x3b, 0x91, 0xf4,
    0xcf, 0xbd, 0x0d, 0x94, 0x6d, 0xbd, 0x9e, 0x27, 0xb1, 0xbd,
    0xfa, 0xc5, 0xd5, 0xbc, 0x9a, 0xa6, 0x07, 0xbd, 0xea, 0x67,
    0xbb, 0xbd, 0x6c, 0xd1, 0x43, 0xbd, 0xa4, 0x70, 0x5f, 0xbd,
    0xb8, 0x35, 0xe0, 0x3c, 0x0e, 0x03, 0xc8, 0xbd, 0x6a, 0x39,
    0x13, 0x3d, 0xb8, 0xd2, 0xd7, 0xbd, 0x04, 0x62, 0x6a, 0xbc,
    0x42, 0x4f, 0x37, 0xbd, 0x53, 0x5d, 0xe4, 0xbc, 0x8b, 0x10,
    0x3d, 0x3c, 0xc0, 0x16, 0xf8, 0x3c, 0xf8, 0xe2, 0x3d, 0xbd,
    0x56, 0x89, 0x47, 0xbd, 0xc4, 0x31, 0xf8, 0x3c, 0xf6, 0xc5,
    0xde, 0x3d, 0x03, 0xf4, 0xb9, 0xbd, 0x21, 0xce, 0x67, 0x3d,
    0x00, 0x6a, 0x61, 0xbd, 0x95, 0xad, 0x02, 0x3e, 0xea, 0x97,
    0x00, 0x3e, 0xdd, 0xfe, 0x77, 0xbd, 0x57, 0xa3, 0x19, 0xbd,
    0xa4, 0x9b, 0xa5, 0x3d, 0xee, 0x90, 0xc7, 0x3d, 0x6b, 0xe4,
    0xb6, 0x3d, 0x0c, 0xd3, 0x9e, 0xbd, 0x11, 0x96, 0x09, 0x3e,
    0xf2, 0x87, 0x91, 0x3c, 0x9e, 0x8a, 0x34, 0x3b, 0x30, 0x8b,
    0x2f, 0x3e, 0xf9, 0x5b, 0xd2, 0xbd, 0xeb, 0x0b, 0x7f, 0xbd,
    0x6b, 0x0d, 0x92, 0x3d, 0xdf, 0x9b, 0xe1, 0x3c, 0x55, 0x2a,
    0xb6, 0xbd, 0x68, 0x71, 0xa7, 0xbd, 0xdc, 0xdf, 0xc2, 0xbd,
    0x89, 0x37, 0x28, 0x3d, 0x5c, 0x7c, 0xce, 0x3c, 0x9c, 0x73,
    0xde, 0x3d, 0x0d, 0x9c, 0x77, 0x3d, 0x12, 0x96, 0xd6, 0x3d,
    0x91, 0x04, 0xf5, 0x3d, 0x22, 0x1a, 0xe7, 0x3d, 0xf3, 0xf4,
    0x54, 0x3c, 0x55, 0x36, 0xb1, 0x3d, 0xa3, 0x6b, 0x7b, 0xbd,
    0x85, 0xde, 0x38, 0x3d, 0xe3, 0x7c, 0xbf, 0xbc, 0xc6, 0x66,
    0xf1, 0xbd, 0x8e, 0x96, 0xdd, 0xbd, 0x19, 0x26, 0xa2, 0x3c,
    0xa7, 0x2e, 0xee, 0xbc, 0x22, 0x4f, 0xac, 0x3d, 0x37, 0xde,
    0xee, 0x3b, 0x5f, 0x2f, 0x14, 0xbe, 0x66, 0x11, 0x1b, 0xbd,
    0x98, 0x6a, 0x1f, 0xbe, 0xbe, 0x3c, 0x25, 0x3e, 0xb9, 0x26,
    0xa0, 0xbd, 0x22, 0xd4, 0x3a, 0xbd, 0xd8, 0xde, 0x8c, 0xbc,
    0x0a, 0x53, 0x0b, 0x3e, 0xbf, 0x97, 0x44, 0xbd, 0x0b, 0xa4,
    0xa9, 0x3d, 0x98, 0x7c, 0x72, 0xba, 0x6e, 0x0e, 0x5d, 0xbd,
    0x21, 0x90, 0xff, 0x3d, 0xed, 0x0c, 0x0a, 0xbe, 0x15, 0xcd,
    0x96, 0x3d, 0xf2, 0xbb, 0x49, 0x3c, 0x90, 0x00, 0x4e, 0xbb,
    0x03, 0x9b, 0x17, 0x3e, 0x14, 0x20, 0x3f, 0x3d, 0x97, 0x0b,
    0x3a, 0x3d, 0xcc, 0x6f, 0x50, 0xbc, 0x5f, 0x47, 0x99, 0x3d,
    0xa5, 0x0e, 0x93, 0x3d, 0xd1, 0x34, 0xa8, 0x3d, 0x97, 0x7a,
    0xdc, 0x3d, 0x91, 0x1d, 0x40, 0x3c, 0xfb, 0x3d, 0x50, 0x3d,
    0xf5, 0x3f, 0xd3, 0xbd, 0x69, 0xe8, 0xbb, 0x3d, 0xf5, 0x2f,
    0xbe, 0x3d, 0x13, 0xf7, 0x57, 0xbd, 0xe4, 0xfb, 0xf1, 0xbc,
    0x50, 0xac, 0x9b, 0xbd, 0xff, 0x28, 0x9f, 0xbd, 0x9e, 0x56,
    0x93, 0xbd, 0xd2, 0xbc, 0x01, 0x3e, 0x0b, 0x51, 0x53, 0x3d,
    0x5a, 0x67, 0x9f, 0xbd, 0x61, 0x8d, 0x04, 0xbe, 0x49, 0xf5,
    0x28, 0xbe, 0x95, 0x82, 0x83, 0x3d, 0x0b, 0x4a, 0x4f, 0xbc,
    0x63, 0x9d, 0xd3, 0xbd, 0xf9, 0xdd, 0x8e, 0x3c, 0xf0, 0xb8,
    0x64, 0xbd, 0xfa, 0x22, 0x53, 0xbd, 0xe8, 0xad, 0xa0, 0x3c,
    0x5f, 0x27, 0xa5, 0x3d, 0x94, 0x79, 0x9e, 0xbc, 0x3d, 0x7a,
    0x26, 0x3c, 0x05, 0x35, 0x19, 0xbe, 0x47, 0x81, 0xce, 0x3d,
    0x6c, 0xe2, 0x36, 0xbd, 0xea, 0x64, 0x89, 0xbd, 0x30, 0x9a,
    0xff, 0xbc, 0x2e, 0x89, 0x92, 0x3c, 0x56, 0xda, 0xd0, 0xbd,
    0x3a, 0x40, 0xbd, 0x3b, 0x98, 0xa3, 0x30, 0xbd, 0x39, 0xe9,
    0x5b, 0xbc, 0xb1, 0xc9, 0x05, 0x3e, 0xd6, 0xa7, 0xb1, 0xbc,
    0xe5, 0xe3, 0xc8, 0x3d, 0x17, 0xa2, 0xe6, 0xbc, 0xf7, 0x30,
    0x00, 0x3e, 0x2b, 0x12, 0x13, 0x3e, 0xbe, 0x3d, 0x04, 0x3e,
    0x27, 0x63, 0xd5, 0x3c, 0x63, 0x5e, 0xe3, 0xbc, 0x36, 0x0e,
    0xa4, 0xbd, 0xa0, 0x1d, 0x26, 0x3e, 0xd9, 0xe2, 0x5b, 0x3d,
    0x48, 0xb3, 0xcf, 0x3d, 0x7e, 0x56, 0x96, 0x3d, 0x42, 0x35,
    0x2e, 0x3d, 0xc3, 0xad, 0x17, 0x3d, 0x8d, 0x6e, 0xc5, 0x3d,
    0x2a, 0xd0, 0x05, 0x3c, 0x83, 0x7e, 0x6c, 0xbd, 0xb6, 0xab,
    0xcd, 0xbd, 0xc1, 0x7e, 0xd5, 0xbd, 0x17, 0xe4, 0x30, 0x3d,
    0x7c, 0x8a, 0x8c, 0xbc, 0xaa, 0xf0, 0x5a, 0xbd, 0x43, 0x92,
    0xab, 0x3d, 0x52, 0x8d, 0x18, 0xbd, 0x0e, 0x23, 0xe1, 0xbc,
    0xdb, 0x76, 0x94, 0xbd, 0x30, 0xd2, 0xd3, 0xbd, 0xf6, 0x1b,
    0xc3, 0xbd, 0xa2, 0x31, 0xca, 0xbd, 0x6e, 0x68, 0xb0, 0xbd,
    0x2b, 0xca, 0x08, 0xbe, 0xa4, 0xb2, 0x2c, 0x3c, 0xfa, 0x0a,
    0x64, 0x3b, 0x2b, 0x78, 0xb4, 0xbd, 0x44, 0xf8, 0xae, 0x3c,
    0xcd, 0xcf, 0x5c, 0xbd, 0x8a, 0x52, 0xf2, 0xbd, 0x9f, 0x8f,
    0x45, 0xbd, 0xb7, 0x37, 0x9b, 0xbd, 0xc4, 0xf9, 0x59, 0x3d,
    0xf3, 0xae, 0xf9, 0x3d, 0x66, 0xd8, 0xe9, 0x3c, 0x55, 0xa5,
    0xbe, 0x3c, 0x13, 0x07, 0xaf, 0x3d, 0xb8, 0xfe, 0x8a, 0xbc,
    0x92, 0x50, 0xc7, 0xbc, 0xa9, 0x83, 0xea, 0xbd, 0xb2, 0x6e,
    0x09, 0xbd, 0x7f, 0x8a, 0x9f, 0x3d, 0x26, 0xf4, 0xfd, 0x3d,
    0x47, 0x73, 0xd5, 0xbd, 0xe0, 0x52, 0x3a, 0x3c, 0x1f, 0xeb,
    0x7a, 0x3d, 0xf0, 0xe6, 0x01, 0x3d, 0xce, 0xb6, 0x5e, 0xbd,
    0x4e, 0xc7, 0x25, 0xbd, 0xee, 0x65, 0xc6, 0xbc, 0x1a, 0xed,
    0x05, 0xbe, 0xa0, 0x8c, 0x99, 0xbd, 0xc5, 0xc8, 0x15, 0xbe,
    0x44, 0x1f, 0xeb, 0xbd, 0x71, 0x93, 0xc1, 0xbd, 0x75, 0x27,
    0xee, 0xbd, 0xb9, 0xd2, 0xf2, 0x3c, 0xc8, 0xeb, 0xc0, 0xbd,
    0x82, 0x81, 0x86, 0xbd, 0x40, 0x9c, 0xfd, 0xbd, 0x35, 0x8d,
    0xff, 0x3d, 0x00, 0xc4, 0x05, 0xbb, 0x2f, 0x61, 0x07, 0x3e,
    0xaa, 0xa5, 0xde, 0xbd, 0x40, 0x1b, 0x30, 0xbd, 0xe7, 0x96,
    0x69, 0xbd, 0xdd, 0x9f, 0x79, 0x3d, 0xab, 0x91, 0x60, 0xbb,
    0xbb, 0xbc, 0x75, 0x3d, 0xa8, 0xac, 0x5f, 0x3d, 0x9f, 0x3b,
    0xc4, 0x3d, 0x53, 0x48, 0x31, 0xbd, 0x4c, 0xee, 0x9b, 0xbd,
    0x6c, 0x62, 0x99, 0x3d, 0xbb, 0x2b, 0x08, 0x3c, 0x35, 0x1b,
    0x0f, 0xbe, 0xd9, 0xe9, 0xcc, 0xbd, 0xac, 0xab, 0xe4, 0xbd,
    0x72, 0x2e, 0x44, 0xbd, 0x4a, 0xc7, 0x75, 0x3c, 0x09, 0x09,
    0xcd, 0xbd, 0x13, 0x87, 0xf0, 0x3c, 0x3e, 0x91, 0x02, 0xbd,
    0x18, 0xd4, 0x84, 0x3d, 0x6f, 0x85, 0xd1, 0xbc, 0x54, 0x94,
    0xa3, 0xbc, 0xe9, 0xb2, 0x5f, 0x3d, 0xbe, 0x95, 0x92, 0xbd,
    0x81, 0x60, 0xab, 0x3d, 0x4d, 0xee, 0x82, 0x3d, 0xc6, 0xb2,
    0x10, 0x3d, 0xd2, 0x97, 0xfe, 0x3d, 0x70, 0x8d, 0xf6, 0x3d,
    0x51, 0x7c, 0xa7, 0xbc, 0x86, 0x26, 0xd8, 0x3d, 0x98, 0x91,
    0x2a, 0x3c, 0x30, 0x61, 0xc0, 0xbd, 0xaa, 0x82, 0x23, 0x3d,
    0x30, 0xd8, 0x59, 0x3d, 0xa7, 0x11, 0x0b, 0xbd, 0x3f, 0xe6,
    0x3f, 0xbd, 0xb8, 0xc1, 0xde, 0x3c, 0x24, 0x75, 0x1c, 0xba,
    0x22, 0xcf, 0x35, 0xbd, 0xb2, 0x90, 0xa9, 0x3c, 0x7a, 0x23,
    0x3b, 0x3c, 0x3a, 0x07, 0xcd, 0x3b, 0x1b, 0x5b, 0xf8, 0x3d,
    0xfe, 0x67, 0xfe, 0x3b, 0x57, 0xe8, 0x03, 0x3e, 0xeb, 0x53,
    0x81, 0x3d, 0x17, 0x62, 0xdb, 0x3c, 0xc0, 0xb9, 0x40, 0xbd,
    0xad, 0xa7, 0xf2, 0x3c, 0xf8, 0xb1, 0x04, 0x3d, 0x06, 0x25,
    0x3e, 0x3d, 0x4b, 0x39, 0x84, 0xbd, 0x04, 0x90, 0xa6, 0xbc,
    0xf7, 0x07, 0x07, 0x3d, 0xb7, 0x9f, 0xdf, 0xbb, 0xf8, 0xda,
    0x52, 0x3d, 0x20, 0xd4, 0xb6, 0x3c, 0x4e, 0x7d, 0xaa, 0xba,
    0xe5, 0x99, 0x69, 0xbd, 0xeb, 0xc4, 0x9d, 0xbd, 0x66, 0x5a,
    0xb4, 0x3d, 0xb6, 0x4d, 0x01, 0x3e, 0xc2, 0x06, 0x99, 0xbd,
    0x62, 0x06, 0x7a, 0x3c, 0xc1, 0x5d, 0xa1, 0x3c, 0xdc, 0xf0,
    0xbd, 0x3d, 0x78, 0x78, 0xba, 0xbd, 0x53, 0xf3, 0xbc, 0x3d,
    0x48, 0x67, 0x89, 0xbd, 0xc7, 0x83, 0x29, 0xbd, 0x1f, 0x12,
    0x84, 0x3d, 0x3a, 0x62, 0x65, 0x3d, 0x85, 0x97, 0x71, 0x3b,
    0xce, 0x07, 0x81, 0xbd, 0x22, 0x7a, 0x48, 0xbd, 0xbd, 0x5e,
    0x9f, 0x3c, 0xed, 0xe0, 0x71, 0xbd, 0xc5, 0x04, 0x5a, 0xbd,
    0xd9, 0xa5, 0x0e, 0x3e, 0x47, 0x46, 0x9c, 0x3d, 0xa0, 0xdf,
    0x55, 0x3c, 0xb5, 0x88, 0x29, 0xbd, 0x39, 0xeb, 0x79, 0xbd,
    0x08, 0x48, 0x4a, 0x3d, 0xe6, 0xa3, 0x77, 0x3d, 0xf2, 0x54,
    0xc3, 0xbd, 0xc7, 0x06, 0x65, 0x3d, 0xed, 0x82, 0xca, 0x3d,
    0x90, 0x7d, 0xa6, 0x3d, 0x42, 0xe5, 0x58, 0xbd, 0xeb, 0x38,
    0x96, 0xbc, 0x90, 0x46, 0xf2, 0x3d, 0x4a, 0x4e, 0x17, 0x3e,
    0x30, 0x19, 0x57, 0xbd, 0x23, 0x39, 0x11, 0x3d, 0x22, 0x8a,
    0x55, 0x3d, 0x4c, 0xab, 0x97, 0x39, 0x22, 0x7a, 0x1d, 0x3d,
    0x32, 0x1b, 0xf5, 0x3d, 0xde, 0x31, 0xb7, 0x3d, 0x04, 0x84,
    0x65, 0x3b, 0x84, 0x19, 0xb3, 0xbd, 0x0e, 0x9d, 0x58, 0xbd,
    0x0d, 0x36, 0x02, 0x3e, 0x3b, 0x1f, 0xcf, 0x3d, 0xd9, 0xe7,
    0x94, 0x3d, 0xee, 0x07, 0xa0, 0xbb, 0x38, 0x40, 0xcb, 0x3d,
    0xfe, 0x3d, 0x67, 0x3d, 0x14, 0xd0, 0x80, 0xbd, 0x1c, 0x6b,
    0xa2, 0xbd, 0x18, 0x58, 0x5d, 0x3d, 0x20, 0x18, 0x2f, 0xbd,
    0xc4, 0x72, 0x22, 0xbd, 0xec, 0x9e, 0xb2, 0x3d, 0xe2, 0x19,
    0xa5, 0x3d, 0x56, 0x47, 0x05, 0x3b, 0xe7, 0x44, 0x11, 0xbc,
    0x4d, 0x3b, 0x09, 0x3d, 0x4f, 0x69, 0x6e, 0xbd, 0xbb, 0xcf,
    0x75, 0xbd, 0xba, 0x37, 0x3f, 0xbc, 0x29, 0xfc, 0xee, 0x3d,
    0x2c, 0x5e, 0x88, 0x3c, 0x99, 0xef, 0xad, 0x3d, 0x40, 0xeb,
    0x93, 0xbc, 0x7b, 0x18, 0xae, 0xbd, 0xc8, 0xdb, 0xa6, 0xbd,
    0x2d, 0xf1, 0x9e, 0xbd, 0x20, 0x6f, 0x3f, 0x3d, 0x4e, 0x1a,
    0xbd, 0xbc, 0xb4, 0x88, 0x51, 0xbb, 0x5d, 0x4c, 0xdf, 0x3d,
    0x28, 0xa8, 0xa5, 0xbb, 0xfb, 0x37, 0xf4, 0xba, 0x09, 0xd9,
    0x0d, 0x3d, 0x02, 0x2f, 0x91, 0x3c, 0xa0, 0x56, 0x81, 0xbd,
    0x3d, 0x54, 0x82, 0xbd, 0x05, 0x15, 0xeb, 0x3c, 0xe0, 0xce,
    0x0f, 0x3d, 0x8c, 0x0c, 0xb5, 0xbd, 0x63, 0x81, 0x80, 0x3d,
    0x89, 0x29, 0x0f, 0xbc, 0x6a, 0x03, 0x00, 0x3e, 0x15, 0x7d,
    0xe0, 0xbd, 0x3b, 0xba, 0x68, 0xbd, 0x08, 0x47, 0x7c, 0xbb,
    0x35, 0x73, 0x76, 0x3d, 0x75, 0x6b, 0x6e, 0x3c, 0xc5, 0xf0,
    0xa5, 0x3d, 0x99, 0x2b, 0x15, 0x3e, 0xa3, 0x46, 0x0c, 0x3e,
    0x8d, 0x7a, 0x44, 0x3c, 0x55, 0xba, 0xc0, 0xbd, 0xda, 0xf1,
    0x80, 0x3c, 0x74, 0x1c, 0xc1, 0x3d, 0x66, 0xba, 0x1e, 0x3d,
    0xd3, 0xf2, 0xe7, 0xbd, 0x85, 0x71, 0xc5, 0x3d, 0x22, 0xbb,
    0x8f, 0x3c, 0xd9, 0x73, 0x93, 0xbd, 0x9d, 0x3d, 0xfc, 0x3d,
    0x4a, 0x2d, 0xaa, 0xbd, 0xb1, 0x94, 0x18, 0x3d, 0x97, 0x02,
    0x97, 0xbd, 0x67, 0xb7, 0xe8, 0xbd, 0x81, 0xd5, 0xd3, 0x3d,
    0xab, 0xf7, 0x12, 0x3d, 0xab, 0x74, 0x01, 0x3e, 0xc4, 0x8d,
    0x92, 0x3c, 0xa4, 0x41, 0x2b, 0xbd, 0xdb, 0x04, 0x81, 0xbb,
    0x56, 0xa0, 0xb0, 0xbd, 0x28, 0x8b, 0x3f, 0x3d, 0xc0, 0xf6,
    0xe9, 0x3c, 0x9c, 0x7c, 0x6a, 0x3c, 0x17, 0x9a, 0xb6, 0x3d,
    0x40, 0x05, 0xca, 0x3d, 0x64, 0xf2, 0xf5, 0xbd, 0xfb, 0xa1,
    0x53, 0xbd, 0xee, 0x97, 0x8e, 0xbd, 0x97, 0xbd, 0xfc, 0xbd,
    0x6f, 0x4d, 0x45, 0x3d, 0x6c, 0xbd, 0xc6, 0x3d, 0xa2, 0x9f,
    0x88, 0x3d, 0x7e, 0x75, 0x70, 0xbd, 0xe3, 0xa2, 0x88, 0x3d,
    0x56, 0xf0, 0x0d, 0xbd, 0xa7, 0xef, 0x6d, 0xbd, 0x7b, 0x1f,
    0xf4, 0xbd, 0x52, 0x7f, 0x9c, 0x3d, 0xf0, 0xf9, 0xb6, 0x3c,
    0x24, 0x49, 0xf0, 0xbc, 0x8c, 0x4a, 0xe9, 0x3c, 0x1e, 0x40,
    0xf4, 0xbd, 0xb7, 0x10, 0xed, 0x3d, 0xf7, 0x0b, 0x02, 0xbe,
    0x15, 0x41, 0xd0, 0xbc, 0x7f, 0x92, 0xdc, 0x3d, 0xec, 0xfc,
    0x80, 0xbc, 0x45, 0x3f, 0x00, 0x3e, 0x3e, 0xb6, 0xc3, 0xbb,
    0x15, 0x8a, 0xcd, 0xbd, 0x17, 0x58, 0x81, 0xbd, 0xc3, 0x98,
    0x45, 0x3d, 0xbc, 0xfa, 0xa8, 0x3d, 0x24, 0xc0, 0x14, 0x3b,
    0x4b, 0x36, 0xa8, 0xbd, 0x1f, 0x40, 0xa3, 0x3d, 0x71, 0x2a,
    0xac, 0xbd, 0x96, 0x38, 0xcc, 0xbc, 0xa3, 0xc0, 0x30, 0xbe,
    0x16, 0xea, 0x34, 0x3d, 0xc7, 0x07, 0x09, 0x3d, 0x35, 0x90,
    0xb4, 0x3d, 0xfd, 0xd7, 0x9b, 0x3d, 0x5a, 0xe5, 0x6a, 0xbd,
    0x20, 0xf7, 0x26, 0xbd, 0x28, 0x00, 0x50, 0xbd, 0x48, 0x21,
    0x94, 0xbd, 0x19, 0xd2, 0xde, 0xbd, 0x39, 0x74, 0xea, 0xbd,
    0xfa, 0xfd, 0x83, 0xbd, 0x67, 0xdc, 0x07, 0xbd, 0x01, 0xf5,
    0x82, 0xbd, 0x0c, 0xf9, 0x96, 0x3c, 0x7e, 0x46, 0xd0, 0x3d,
    0x10, 0x5e, 0xb0, 0xbd, 0xe2, 0x4c, 0x1f, 0xbe, 0xc0, 0x35,
    0xab, 0xbc, 0x91, 0xd0, 0x9d, 0x3d, 0x60, 0x84, 0x4e, 0x3b,
    0x7d, 0xc9, 0xcb, 0x3c, 0xc9, 0x64, 0x18, 0xbd, 0x9e, 0xf1,
    0xbf, 0xbd, 0x39, 0xcd, 0xb4, 0x3d, 0xbe, 0x5a, 0xca, 0x3d,
    0x54, 0x19, 0xbe, 0xbd, 0x32, 0x55, 0x96, 0xbc, 0xe2, 0xeb,
    0x1c, 0x3d, 0x7b, 0x10, 0x55, 0x3d, 0xe2, 0xce, 0xb7, 0x3d,
    0x1a, 0x62, 0x8d, 0x3c, 0x27, 0x80, 0x8c, 0x3d, 0x27, 0x13,
    0x3e, 0xbe, 0x62, 0xb4, 0x93, 0x3d, 0xfa, 0x18, 0xa0, 0xbd,
    0xf3, 0x56, 0x08, 0xbe, 0xe1, 0x01, 0x5b, 0xbd, 0x08, 0x75,
    0x48, 0x3c, 0xd8, 0xa5, 0xb9, 0xbd, 0x1f, 0x18, 0x34, 0x3d,
