#include "network_data.h"

ai_handle ai_network_data_weights_get(void)
{

  AI_ALIGNED(4)
  static const ai_u8 s_network_weights[ 20748 ] = {
    0x73, 0xb4, 0x29, 0x3e, 0xca, 0xe4, 0x73, 0xbe, 0xff, 0x5b,
    0x4c, 0xbe, 0x30, 0x6f, 0x8a, 0x3e, 0xcd, 0x26, 0x06, 0xbe,
    0xe6, 0x7f, 0x2c, 0xbd, 0x8c, 0x56, 0xa1, 0x3e, 0xec, 0x87,
    0xb0, 0x3d, 0xc9, 0xff, 0xa9, 0x3d, 0x07, 0x42, 0x2d, 0xbd,
    0xb6, 0xfb, 0xb3, 0x3d, 0x42, 0xf6, 0x8b, 0xbe, 0xef, 0x00,
    0xf0, 0xbc, 0x6e, 0x41, 0x72, 0xbe, 0xa5, 0x0b, 0xa3, 0xbd,
    0xe8, 0xcc, 0x74, 0x3e, 0x67, 0x9f, 0x84, 0x3e, 0xee, 0x0a,
    0xe8, 0xbc, 0x6f, 0x39, 0x95, 0xbe, 0x7a, 0xc2, 0xa6, 0xbc,
    0xf3, 0x25, 0x25, 0x3e, 0x87, 0xc3, 0x8e, 0xbd, 0x4d, 0x29,
    0xc7, 0x3d, 0x2a, 0x58, 0x39, 0x3e, 0xca, 0x38, 0x44, 0x3e,
    0xba, 0x1a, 0x53, 0x3e, 0x4d, 0x59, 0x82, 0x3e, 0x54, 0xd4,
    0x7c, 0xbe, 0xa2, 0xe5, 0x79, 0xbe, 0xb2, 0x26, 0x57, 0xbe,
    0x49, 0x8a, 0x70, 0xbe, 0xe9, 0xba, 0xfe, 0xbd, 0x2b, 0x84,
    0x27, 0xbe, 0xe8, 0xe9, 0x44, 0xbd, 0x34, 0x7d, 0x03, 0x3b,
    0xdf, 0x01, 0xfb, 0xbd, 0x43, 0x67, 0x76, 0xbe, 0xbf, 0x1a,
    0x8d, 0xbe, 0x60, 0x3d, 0xd1, 0xbd, 0x5d, 0x13, 0x3f, 0xbe,
    0x3d, 0x2b, 0x41, 0x3d, 0xac, 0xf8, 0x86, 0x3e, 0x6f, 0xd3,
    0xa0, 0xbc, 0x33, 0x29, 0x1a, 0xbe, 0xf5, 0x02, 0x9e, 0x3e,
    0x54, 0x62, 0x92, 0x3e, 0xf0, 0xdc, 0x83, 0xbd, 0x42, 0x61,
    0x5e, 0x3e, 0x40, 0x6a, 0x05, 0x3d, 0xb3, 0x87, 0x57, 0x3e,
    0x96, 0xb3, 0x7b, 0xbd, 0xf9, 0x50, 0x78, 0x3e, 0x91, 0xce,
    0x90, 0xbe, 0x90, 0xe4, 0x48, 0xbe, 0x94, 0xc4, 0x92, 0x3d,
    0xb6, 0x7f, 0xb1, 0xbc, 0xde, 0x45, 0x67, 0x3e, 0xd3, 0xc8,
    0x81, 0xbe, 0x1c, 0x4c, 0x40, 0xbd, 0xd7, 0x58, 0xfe, 0x3d,
    0x4d, 0x6b, 0x34, 0x3d, 0x60, 0xaf, 0xe9, 0x3d, 0x28, 0x7f,
    0x8a, 0x3e, 0x87, 0x92, 0x9b, 0x3e, 0x62, 0xbf, 0x09, 0x3e,
    0xfb, 0x19, 0xc4, 0x3d, 0x5f, 0xb7, 0x00, 0x3e, 0x12, 0x2b,
    0xf0, 0x39, 0x1b, 0x47, 0x1b, 0xbd, 0xa8, 0x6f, 0xbf, 0xbd,
    0x5a, 0x4d, 0xbd, 0xbd, 0x0a, 0x06, 0x91, 0xbd, 0xae, 0x52,
    0x81, 0xbd, 0x14, 0x37, 0xf0, 0x3d, 0x80, 0xd8, 0x85, 0xbe,
    0x4f, 0x5c, 0x64, 0xbd, 0x43, 0xd7, 0x86, 0x3e, 0x97, 0x65,
    0x24, 0xbe, 0xcd, 0x6e, 0x9f, 0xbe, 0x08, 0xfa, 0x3e, 0xbe,
    0xec, 0xb1, 0x56, 0xbe, 0x8d, 0x34, 0x5f, 0xbe, 0x11, 0xd4,
    0x78, 0x3e, 0x95, 0xb4, 0xd2, 0xbd, 0xe2, 0xc5, 0x53, 0xbe,
    0xf7, 0xc7, 0x6f, 0x3e, 0xbc, 0xda, 0x37, 0xbd, 0x0e, 0x55,
    0x20, 0xbe, 0x5d, 0xde, 0x29, 0x3e, 0xf1, 0xbb, 0xf7, 0xbd,
    0x78, 0x07, 0x77, 0xbe, 0x53, 0x68, 0x81, 0x3e, 0x36, 0x0d,
    0xcf, 0xbb, 0x7d, 0x6e, 0xb9, 0x3d, 0x73, 0x04, 0x15, 0xbe,
    0xab, 0x86, 0x4b, 0xbe, 0x72, 0x82, 0xb6, 0xbd, 0xfd, 0x5d,
    0x7c, 0x3e, 0x54, 0x86, 0x01, 0xbe, 0x68, 0x58, 0x6f, 0x3e,
    0x8c, 0xa0, 0x41, 0x3e, 0x1e, 0x89, 0x9b, 0x3b, 0x70, 0xb4,
    0x2e, 0x3e, 0xd2, 0x34, 0x72, 0x3d, 0x86, 0x91, 0x6f, 0x3e,
    0xc8, 0x4f, 0x9a, 0xbd, 0x9e, 0x92, 0xa9, 0x3d, 0x35, 0xcb,
    0x05, 0xbd, 0xe5, 0x99, 0x8a, 0xbe, 0x98, 0x53, 0x4e, 0xbe,
    0xfc, 0x7e, 0x74, 0xbd, 0x80, 0xcc, 0xb0, 0xbd, 0x00, 0xe9,
    0x40, 0xbe, 0x0b, 0x0e, 0x44, 0xbd, 0xa5, 0xed, 0x96, 0x3c,
    0x1a, 0x6a, 0x29, 0xbd, 0x26, 0x4e, 0x24, 0xbd, 0x6f, 0xd8,
    0x87, 0xbd, 0x34, 0x93, 0xc3, 0xbc, 0x2d, 0xb1, 0x3d, 0xbd,
    0x3f, 0xcd, 0x2b, 0x3e, 0x05, 0x84, 0xf9, 0x3d, 0x9e, 0xc1,
    0xe3, 0xbc, 0x4d, 0x67, 0x46, 0x3e, 0x6c, 0x75, 0x39, 0x3e,
    0x69, 0x67, 0x6e, 0x3e, 0x63, 0xbf, 0x35, 0xbe, 0x7e, 0x36,
    0xc2, 0xbd, 0x1c, 0xd7, 0x11, 0xbe, 0xf9, 0x78, 0xf0, 0xbd,
    0x71, 0xdb, 0xed, 0xbd, 0x1e, 0xee, 0xff, 0xbd, 0x21, 0x6a,
    0x5c, 0x3e, 0xe3, 0xe9, 0xdf, 0x3d, 0xc2, 0xcc, 0x9e, 0xbd,
    0x13, 0x31, 0x05, 0xbe, 0x3d, 0x4a, 0x22, 0xbd, 0x9f, 0x06,
    0xcb, 0xbd, 0x95, 0x16, 0x23, 0xbe, 0x05, 0x88, 0x04, 0xbe,
    0xee, 0x65, 0xb9, 0x3d, 0xa8, 0xfe, 0x71, 0xbe, 0x56, 0xe4,
    0x15, 0xbe, 0x44, 0x25, 0x3d, 0xbd, 0xbb, 0xa2, 0xbc, 0x3d,
    0x9e, 0x5f, 0x66, 0x3d, 0x10, 0xb7, 0xe4, 0xbb, 0xde, 0x2e,
    0x74, 0x3c, 0x78, 0x2c, 0xb1, 0x3c, 0x7d, 0x3f, 0x06, 0x3c,
    0x68, 0x95, 0x91, 0x3d, 0xb1, 0xfd, 0x47, 0x3c, 0xfb, 0xdd,
    0x82, 0x3d, 0x8c, 0x94, 0x44, 0x3d, 0x97, 0xbe, 0x92, 0x3d,
    0x31, 0x03, 0xb1, 0x3c, 0x8d, 0x69, 0xb4, 0x3d, 0xa7, 0xeb,
    0xce, 0xbb, 0xda, 0x44, 0x84, 0x3d, 0x6d, 0x6d, 0x7d, 0x3c,
    0x89, 0xeb, 0x0a, 0x3e, 0x04, 0xf9, 0x2f, 0x3d, 0x21, 0xa0,
    0xfa, 0xbd, 0x2a, 0x0e, 0xdb, 0x3c, 0x30, 0x7c, 0x86, 0xbd,
    0x31, 0x43, 0xa4, 0xbc, 0xc8, 0x79, 0x96, 0x3c, 0x5c, 0x6d,
    0x68, 0xbc, 0x68, 0xe4, 0x9c, 0x3c, 0x04, 0xf3, 0x3f, 0x3e,
    0x12, 0x6c, 0x35, 0x3e, 0x05, 0x67, 0x02, 0x3e, 0xf7, 0x33,
    0x45, 0xbe, 0xf6, 0x4e, 0x73, 0x3d, 0x54, 0x39, 0x25, 0x3c,
    0x34, 0x10, 0xfd, 0xbd, 0x96, 0x7e, 0xb9, 0x3c, 0x95, 0x0e,
    0x5d, 0xbd, 0x99, 0xa5, 0x86, 0x3d, 0xab, 0x67, 0x39, 0x3c,
    0x98, 0xcc, 0xc8, 0xbd, 0xcd, 0xe8, 0x3b, 0x3d, 0x5f, 0xdc,
    0x58, 0x3d, 0xbd, 0xac, 0xed, 0xbb, 0x1f, 0xbc, 0xdd, 0x3c,
    0x8c, 0x15, 0x34, 0xbe, 0x4c, 0x90, 0xa1, 0x3d, 0x51, 0x12,
    0x04, 0x3e, 0x2f, 0xbe, 0x50, 0x3d, 0x96, 0x13, 0x87, 0xbd,
    0x89, 0xa8, 0xf8, 0x3d, 0xc9, 0x46, 0xbb, 0xbb, 0x84, 0xb4,
    0xdb, 0x3d, 0xbb, 0xf0, 0xb4, 0x3d, 0x2d, 0x3c, 0x8c, 0x3b,
    0x17, 0x04, 0xbb, 0x3d, 0xe2, 0xef, 0x38, 0xbd, 0x65, 0x55,
    0xe2, 0x3c, 0x65, 0x5c, 0x2d, 0xbd, 0xc1, 0x86, 0xd0, 0x3b,
    0x78, 0x08, 0x11, 0xbc, 0x68, 0xa2, 0x09, 0x39, 0x2d, 0x81,
    0x17, 0x3e, 0xf8, 0xc7, 0x11, 0x3a, 0xb2, 0x9a, 0xf1, 0x3d,
    0xcc, 0x3a, 0x28, 0xbd, 0x7b, 0x79, 0xed, 0x3d, 0x72, 0xa2,
    0x07, 0x3e, 0x3f, 0x22, 0x58, 0xbd, 0x65, 0x3e, 0x36, 0xbc,
    0x6c, 0xb0, 0x02, 0xbe, 0xff, 0xda, 0x08, 0xbe, 0x7a, 0x2c,
    0xa0, 0xbd, 0x6c, 0xe3, 0x89, 0xbc, 0xcd, 0xc7, 0xca, 0x3d,
    0x6f, 0xf8, 0x44, 0x3d, 0xf1, 0x58, 0xc3, 0xbc, 0x97, 0x43,
    0xec, 0xbb, 0xc7, 0x68, 0xef, 0x3c, 0x58, 0xa9, 0x2f, 0xbd,
    0x5f, 0xf1, 0x2f, 0xbd, 0x77, 0x75, 0xa7, 0xbc, 0x64, 0xba,
    0x0a, 0xbd, 0x04, 0xe6, 0x9f, 0x3c, 0xfa, 0x64, 0x9c, 0x3d,
    0xb3, 0xb2, 0xa5, 0x3d, 0xa1, 0xe1, 0x07, 0xbd, 0x25, 0x5b,
    0x9b, 0xbd, 0xfe, 0xa3, 0x65, 0xbd, 0xfe, 0x2b, 0xdb, 0xbc,
    0x35, 0x1d, 0x71, 0xbc, 0xaf, 0x46, 0x43, 0x3d, 0xb6, 0x40,
    0xdd, 0xbb, 0x48, 0x37, 0x2f, 0x3d, 0xa3, 0x1d, 0xd5, 0xbc,
    0x0a, 0x14, 0xca, 0xbd, 0x62, 0x28, 0x17, 0xbe, 0xbe, 0x6e,
    0x05, 0x3b, 0x30, 0xbd, 0xb2, 0x3d, 0x7a, 0x5e, 0x3e, 0xbe,
    0xd9, 0x2b, 0xb2, 0x3d, 0xdb, 0xa6, 0x34, 0x3e, 0x20, 0x42,
    0x3d, 0x39, 0xaf, 0xfc, 0x3b, 0xbd, 0xcf, 0xf9, 0x58, 0x3d,
    0x7b, 0x26, 0x68, 0xbd, 0xbb, 0x04, 0xcd, 0x3b, 0x89, 0xcc,
    0x08, 0xbd, 0xe6, 0xd9, 0x8b, 0x3d, 0xdb, 0x61, 0x1e, 0xbe,
    0x94, 0xf5, 0x1a, 0x3e, 0x50, 0xa0, 0x8c, 0xbd, 0xfd, 0x9a,
    0x73, 0xbd, 0x64, 0xf0, 0xb5, 0x3d, 0x06, 0x1e, 0x51, 0xbc,
    0x9a, 0xa4, 0xf2, 0xbd, 0x05, 0x87, 0x01, 0xbe, 0xfe, 0x74,
    0x3c, 0xbd, 0x31, 0xd7, 0x3d, 0x3d, 0x5d, 0xf3, 0xf3, 0x3c,
    0xa9, 0xc3, 0x62, 0xbd, 0x61, 0x91, 0xd3, 0xbd, 0x4f, 0xc0,
    0xde, 0xbc, 0x96, 0x22, 0x78, 0xbc, 0xad, 0x63, 0x53, 0x3d,
    0x33, 0xdc, 0x31, 0x3e, 0x75, 0x29, 0xab, 0x3d, 0x84, 0xd5,
    0x5b, 0xbd, 0xee, 0x10, 0xbe, 0x3d, 0x9d, 0xe4, 0x13, 0xbe,
    0xdb, 0x02, 0xb2, 0x3c, 0x62, 0xde, 0xb9, 0x3c, 0xbb, 0x51,
    0x67, 0xbd, 0x5d, 0x20, 0xc2, 0xbd, 0xba, 0x08, 0xe1, 0xbc,
    0xf3, 0x41, 0x8a, 0x3d, 0x61, 0x4c, 0x73, 0xbd, 0xe0, 0x9e,
    0x9f, 0xbd, 0x86, 0x01, 0x3c, 0xba, 0xcd, 0x2c, 0xc9, 0x3d,
    0x78, 0x8f, 0xd7, 0x3d, 0x26, 0x7a, 0xf2, 0x3c, 0x62, 0x91,
    0x8b, 0x3d, 0x6a, 0xd5, 0xc7, 0x3c, 0x99, 0xbd, 0xa5, 0xbc,
    0xfa, 0x00, 0x27, 0xbd, 0x62, 0x7a, 0xa1, 0x3b, 0x32, 0xf8,
    0x2d, 0xbc, 0x4e, 0x60, 0x89, 0xbd, 0xa9, 0x1c, 0xfd, 0x3d,
    0x7b, 0x1f, 0x9e, 0x3c, 0x79, 0xac, 0xc6, 0xbd, 0x4b, 0x43,
    0x01, 0x3e, 0x1a, 0xc8, 0x77, 0x3a, 0x05, 0x59, 0x11, 0x3d,
    0x00, 0x5b, 0xc4, 0x3d, 0xcc, 0x40, 0x97, 0x3d, 0x84, 0xea,
    0xd0, 0x3d, 0x5b, 0xbc, 0x03, 0xbd, 0x48, 0xa2, 0xc1, 0xbb,
    0xf6, 0x01, 0xe3, 0xbc, 0xbd, 0x55, 0x6c, 0xbd, 0xb3, 0x73,
    0x0b, 0xbd, 0xfc, 0x53, 0xb6, 0xbd, 0x5e, 0x8c, 0x79, 0xbb,
    0xfc, 0xa1, 0xcd, 0x3d, 0xf2, 0x8c, 0xb4, 0xbd, 0x22, 0x78,
    0xd3, 0x3b, 0xd9, 0x72, 0x13, 0x3e, 0xc8, 0x09, 0xb1, 0x3b,
    0x99, 0xc6, 0x30, 0xbc, 0x94, 0xcd, 0xdd, 0x3d, 0x2d, 0xa9,
    0x76, 0x3d, 0xad, 0x3b, 0x1d, 0xbe, 0xeb, 0x9f, 0xbb, 0x3c,
    0xd9, 0x82, 0xb5, 0x3d, 0xfe, 0x87, 0x01, 0x3e, 0x16, 0x3e,
    0x85, 0x3d, 0x79, 0x0d, 0x8f, 0xbd, 0xe0, 0x9a, 0x2f, 0x3e,
    0xed, 0x8c, 0xc4, 0x3b, 0x28, 0x77, 0x9b, 0xbc, 0xb0, 0xcd,
    0x8b, 0xbc, 0xbe, 0xed, 0xa5, 0xbd, 0x0b, 0x99, 0xd5, 0xbd,
    0x36, 0xce, 0x66, 0xbc, 0xd0, 0x66, 0xd1, 0xbd, 0x98, 0xae,
    0x94, 0x3d, 0x9e, 0x06, 0xd8, 0x3d, 0x12, 0xf5, 0x0b, 0x3e,
    0xf7, 0xcc, 0x02, 0x3e, 0x7b, 0x4f, 0xf9, 0x3c, 0xc2, 0x43,
    0xf5, 0xbd, 0x7c, 0x50, 0xfe, 0xbd, 0x36, 0x08, 0x02, 0xbe,
    0x1a, 0x10, 0xe0, 0x3c, 0x45, 0x80, 0x1d, 0xbd, 0xed, 0x86,
    0xd5, 0xbc, 0x4f, 0x5e, 0xe6, 0xbd, 0x70, 0x4d, 0x4d, 0x3d,
    0x47, 0xf5, 0x44, 0xbd, 0xe8, 0x25, 0xc6, 0xb9, 0xa7, 0x83,
    0x92, 0x3c, 0xa6, 0x33, 0x15, 0x3d, 0xaa, 0x17, 0x0a, 0x3c,
    0xf1, 0x8b, 0x33, 0xbe, 0xb8, 0x98, 0x2a, 0xbe, 0xe1, 0x0c,
    0x0c, 0xbe, 0x6e, 0x43, 0x66, 0x3d, 0x55, 0x8c, 0xaf, 0xbd,
    0x53, 0x0e, 0x95, 0x3c, 0x67, 0x81, 0xe9, 0x3d, 0x6f, 0xa6,
    0x2f, 0xbd, 0x12, 0x32, 0x19, 0xbe, 0xb8, 0x17, 0x91, 0x3d,
    0xdb, 0xf2, 0xe5, 0x3d, 0x39, 0x20, 0x21, 0x3e, 0x74, 0xb6,
    0x26, 0x3b, 0xb9, 0xd1, 0xc9, 0xbd, 0x15, 0x93, 0x62, 0x3d,
    0x1a, 0x9b, 0x5b, 0x3d, 0xbb, 0x19, 0x30, 0xbe, 0x8a, 0x48,
    0x41, 0xbe, 0xbb, 0x7a, 0x33, 0x3d, 0xf4, 0xf5, 0x9c, 0x3d,
    0x02, 0x45, 0x1d, 0xbd, 0x8b, 0x6e, 0xf3, 0xbd, 0x53, 0xbd,
    0x92, 0x3d, 0x46, 0x2d, 0xc7, 0xbd, 0xe1, 0x39, 0x55, 0xbe,
    0x5b, 0x2a, 0x0c, 0x3e, 0xaa, 0x0e, 0xb7, 0x3c, 0x36, 0xad,
    0xd1, 0x3d, 0x99, 0x4f, 0xc2, 0x3b, 0x16, 0x80, 0x0d, 0x3d,
    0xe9, 0x45, 0xea, 0xbd, 0xcd, 0x76, 0x9c, 0xbd, 0x0e, 0xc7,
    0xa6, 0x3d, 0xae, 0x97, 0x9e, 0x3d, 0x1b, 0xae, 0x9d, 0xbb,
    0xd2, 0xf4, 0x94, 0x3c, 0x89, 0x54, 0xce, 0xbd, 0x34, 0x79,
    0x85, 0xbd, 0x21, 0x61, 0x83, 0x3d, 0x7a, 0x50, 0x47, 0xbb,
    0x4d, 0x61, 0x17, 0xbe, 0xea, 0x26, 0x0e, 0x3d, 0xb7, 0x57,
    0x0d, 0xbd, 0x04, 0xa3, 0xb1, 0x3d, 0xc5, 0x7e, 0xe5, 0x3d,
    0xcc, 0xa9, 0x0f, 0xbd, 0x75, 0xa4, 0xf6, 0x3d, 0xb6, 0xe4,
    0xf3, 0xbc, 0x0b, 0x1b, 0xb4, 0x3c, 0x16, 0x7c, 0x55, 0xbe,
    0x05, 0xf3, 0xe2, 0x3d, 0x2a, 0xae, 0xc4, 0x3a, 0xdf, 0x2a,
    0xc4, 0xbc, 0x54, 0x6f, 0x0f, 0xbe, 0xb0, 0x47, 0x4e, 0xbd,
    0x55, 0x2b, 0x8b, 0x3b, 0x94, 0x4a, 0x1b, 0xbd, 0x06, 0x1b,
    0x1e, 0x3c, 0xeb, 0xaa, 0xa0, 0x3d, 0xf2, 0xe9, 0x94, 0x3d,
    0x6e, 0x13, 0x72, 0xbe, 0xc4, 0xf2, 0xc5, 0x3d, 0x41, 0x46,
    0xfa, 0xbd, 0x82, 0xa8, 0x26, 0xbd, 0xdc, 0x53, 0xfc, 0xbd,
    0xe4, 0x86, 0x7b, 0xbd, 0xe6, 0x24, 0x02, 0xbe, 0xd7, 0xad,
    0xa4, 0xbd, 0x75, 0xd4, 0xb6, 0x3c, 0xa0, 0xd5, 0x9b, 0x3d,
    0xe0, 0x14, 0x5e, 0xbd, 0xde, 0x1c, 0xa9, 0xbd, 0x9c, 0x8e,
    0xb2, 0xbd, 0x4a, 0x7d, 0xba, 0x3d, 0x08, 0xb6, 0xbe, 0x3d,
    0x1f, 0xe6, 0x4f, 0x3d, 0xd5, 0x83, 0xcc, 0x3d, 0x42, 0xe9,
    0xc8, 0x3b, 0x57, 0xa3, 0xb4, 0xbd, 0xf9, 0xab, 0x12, 0xbd,
    0x17, 0x1a, 0x16, 0x3c, 0x94, 0xe3, 0x58, 0x3d, 0x8a, 0xca,
    0xdd, 0x3d, 0xbe, 0xfe, 0x91, 0x3b, 0x7c, 0x18, 0xef, 0xbd,
    0x5b, 0x0f, 0xf4, 0x3d, 0xdb, 0xa2, 0x35, 0xbc, 0xc9, 0x03,
    0x82, 0x3d, 0x1e, 0x84, 0x52, 0x3d, 0x5d, 0x51, 0x1a, 0xbe,
    0xfc, 0x33, 0x63, 0x3d, 0x35, 0x37, 0xcb, 0x3d, 0xa4, 0xbd,
    0xe9, 0x3b, 0x64, 0x71, 0x12, 0xbe, 0x51, 0xdc, 0xf0, 0x3d,
    0x09, 0x94, 0x91, 0x3d, 0x60, 0x31, 0x6a, 0xbc, 0xf5, 0x88,
    0x44, 0x3d, 0x30, 0x86, 0xed, 0xbd, 0xf6, 0xe5, 0x57, 0xbd,
    0xc0, 0x5f, 0x0b, 0xbe, 0xcb, 0x03, 0x57, 0xbd, 0x4e, 0x22,
    0x33, 0xbb, 0xa1, 0x4f, 0x59, 0x3d, 0x6e, 0xe2, 0xdb, 0xbd,
    0xb1, 0x46, 0xe1, 0xbd, 0x72, 0x4c, 0x80, 0xbc, 0xc4, 0x43,
    0x1d, 0xbe, 0xfa, 0x53, 0xf2, 0x3a, 0xa4, 0x16, 0xad, 0xbc,
    0x5e, 0x4b, 0xc5, 0xbd, 0x52, 0x40, 0x6b, 0x3c, 0x43, 0x6f,
    0xec, 0x3d, 0x63, 0x9a, 0xa8, 0x3d, 0x45, 0xf1, 0xd6, 0xbd,
    0x9d, 0xb4, 0x11, 0xbc, 0x09, 0x76, 0x1d, 0x3d, 0x01, 0x16,
    0xb5, 0x3d, 0xa0, 0xea, 0xc2, 0x3c, 0x5f, 0xd4, 0x55, 0x3e,
    0x58, 0xde, 0xac, 0x3d, 0x8c, 0xd5, 0xea, 0x3c, 0x0a, 0x45,
    0xa2, 0xbd, 0xfe, 0xea, 0x8e, 0x3d, 0xe2, 0x07, 0x26, 0x3e,
    0x46, 0x4a, 0xd1, 0xbd, 0x7d, 0x8c, 0xf3, 0x3d, 0xad, 0x53,
    0x8e, 0xbd, 0x3b, 0x31, 0xec, 0x3d, 0x55, 0x60, 0x24, 0x3e,
    0x95, 0xc6, 0xad, 0x3d, 0x7b, 0x19, 0xc5, 0xbc, 0x6c, 0x64,
    0x96, 0xba, 0x6c, 0x7d, 0xda, 0xbd, 0x00, 0x33, 0xb2, 0xbd,
    0x5f, 0xa6, 0xd7, 0xbd, 0x4f, 0x7b, 0xa7, 0x3b, 0x38, 0x1f,
    0x0d, 0xbd, 0xe2, 0xfb, 0x23, 0xbd, 0x5f, 0x62, 0xaa, 0x3b,
    0xae, 0x4b, 0x90, 0xbd, 0x0e, 0xc7, 0x89, 0x3c, 0xe8, 0x6c,
    0x23, 0xbd, 0xec, 0xa0, 0x6e, 0xbc, 0x59, 0x85, 0x98, 0xbd,
    0x5e, 0x87, 0xcc, 0xbd, 0xda, 0xc6, 0xbd, 0xbc, 0x7e, 0x34,
    0x8d, 0xbd, 0xb5, 0xb2, 0xc1, 0xbd, 0x02, 0xd7, 0x79, 0xbd,
    0xe5, 0xb6, 0x47, 0xbd, 0xa8, 0x8c, 0x3f, 0x3d, 0xd6, 0x0c,
    0x05, 0xbe, 0xf4, 0x01, 0xd8, 0xbd, 0x39, 0xd0, 0xd5, 0x3d,
    0x7e, 0x22, 0x8c, 0xbb, 0xe6, 0x38, 0x39, 0xbc, 0x2a, 0xa0,
    0x0f, 0x3c, 0x43, 0x28, 0xed, 0xbd, 0xb0, 0xe4, 0x9f, 0xb8,
    0x8f, 0xdd, 0x03, 0xbd, 0xd0, 0x8e, 0x52, 0xbd, 0x7e, 0xd0,
    0x33, 0xbd, 0xdc, 0x65, 0xf4, 0x3d, 0xa7, 0x39, 0x5a, 0xbe,
    0xcc, 0xab, 0x5e, 0xbd, 0xa9, 0x23, 0x95, 0x3c, 0x17, 0xa2,
    0x83, 0x3c, 0x22, 0x3a, 0x88, 0xbd, 0xde, 0x9a, 0xd1, 0x3d,
    0x08, 0xab, 0x2e, 0x3d, 0x61, 0x8e, 0xae, 0x3d, 0xc4, 0x44,
    0xb6, 0xbd, 0x3f, 0xc1, 0xbc, 0x3b, 0xde, 0x8b, 0xbb, 0x3d,
    0x29, 0xc5, 0x2d, 0xbd, 0xb9, 0xd5, 0xdc, 0x3d, 0x92, 0x7a,
    0xb2, 0xba, 0xf4, 0x83, 0x7e, 0x3c, 0x05, 0xf3, 0x7a, 0x3d,
    0xe1, 0x8f, 0x37, 0x3c, 0x8e, 0x7b, 0x4f, 0xbd, 0x12, 0x34,
    0xb5, 0x3d, 0x5e, 0x3f, 0x78, 0x3d, 0x00, 0x30, 0xc3, 0xbd,
    0x21, 0x6a, 0x0f, 0x3e, 0x2e, 0xe7, 0x9c, 0xbd, 0x02, 0x15,
    0x0a, 0x3d, 0xe0, 0x72, 0x24, 0x3c, 0x4a, 0x7f, 0xff, 0x3d,
    0xf4, 0x6e, 0xf8, 0xbc, 0x4c, 0x2d, 0x92, 0x3c, 0xdc, 0xd2,
    0xe2, 0xbc, 0x09, 0x81, 0x19, 0xbe, 0xe4, 0x2c, 0x6c, 0xbc,
    0x7d, 0x7e, 0xa1, 0xbd, 0x90, 0x3c, 0x0b, 0x3e, 0xf2, 0x75,
    0x08, 0x3c, 0xc2, 0x5f, 0x39, 0x3c, 0xf6, 0xca, 0x0a, 0x3c,
    0x37, 0xc7, 0x22, 0xbb, 0x04, 0x9d, 0x24, 0x3d, 0xc4, 0x86,
    0xb1, 0x3c, 0x5f, 0x72, 0x9f, 0xbd, 0xa4, 0x36, 0x6c, 0x3d,
    0x52, 0x34, 0x19, 0x3e, 0xdc, 0xbb, 0x02, 0x3c, 0x8c, 0x84,
    0x02, 0x3e, 0xe0, 0x0a, 0x13, 0xbe, 0xaf, 0x1c, 0xd3, 0xbd,
    0xc9, 0x63, 0x46, 0xbe, 0x53, 0xa6, 0x43, 0xbd, 0x17, 0xad,
    0x3d, 0x3d, 0x3f, 0x66, 0x48, 0xbd, 0x5a, 0x01, 0x75, 0x3c,
    0x1a, 0xe3, 0xbe, 0x3d, 0x3b, 0x81, 0x26, 0x3d, 0xd6, 0xe3,
    0x4d, 0xbb, 0xb9, 0xa7, 0x42, 0xbc, 0x0a, 0x80, 0xe0, 0xbd,
    0x26, 0x59, 0xb6, 0xbc, 0xa2, 0x37, 0xb4, 0xbc, 0xf4, 0xa0,
    0xd9, 0x3c, 0x3c, 0xca, 0x10, 0x3d, 0x9d, 0xeb, 0x89, 0x3d,
    0x1f, 0x90, 0xde, 0xbb, 0xa5, 0xfb, 0x45, 0xbc, 0xaa, 0xec,
    0x31, 0x3d, 0x41, 0x8e, 0xb0, 0xbd, 0x33, 0xd1, 0xa8, 0x3c,
    0xe9, 0xb1, 0xb6, 0x3d, 0x1f, 0xda, 0x80, 0x3d, 0xab, 0x0a,
    0x5f, 0x3b, 0xd2, 0x31, 0xba, 0x3c, 0xf1, 0xf6, 0x61, 0xbc,
    0x7a, 0xbf, 0x1f, 0xbe, 0x3b, 0x36, 0xa0, 0x3c, 0x46, 0x43,
    0x63, 0xbc, 0xc7, 0xed, 0xac, 0x3d, 0x4d, 0x66, 0x4e, 0xbc,
    0x9c, 0x76, 0x13, 0xbe, 0x3c, 0xf4, 0x72, 0xbd, 0x73, 0x86,
    0x40, 0x3c, 0x9a, 0xfd, 0x47, 0xbd, 0xa5, 0xe5, 0x1e, 0x3c,
    0x34, 0x38, 0x6e, 0x3c, 0x4a, 0x00, 0x61, 0xbd, 0xce, 0x42,
    0x1d, 0x3e, 0x71, 0xa1, 0xa9, 0xbd, 0x2e, 0xcf, 0xb6, 0xbd,
    0x44, 0xd3, 0x64, 0xbe, 0x35, 0x2f, 0xd5, 0xbd, 0x0d, 0x57,
    0x40, 0x3d, 0xe2, 0xe6, 0x50, 0xbd, 0xf1, 0x68, 0xa4, 0x3d,
    0x21, 0xf1, 0x16, 0xbe, 0x5e, 0x52, 0x2e, 0xbe, 0x0d, 0x12,
    0x37, 0xbe, 0xa5, 0x55, 0x9e, 0xbd, 0xc8, 0x6b, 0x45, 0xbd,
    0xa3, 0x47, 0x40, 0xbd, 0x4f, 0x7d, 0x30, 0xbe, 0xe7, 0x6a,
    0x94, 0xbc, 0xbf, 0xf3, 0xf0, 0x3c, 0xc3, 0x1d, 0x8d, 0x3d,
    0xf8, 0xba, 0xa6, 0x3d, 0x7d, 0x2a, 0x8d, 0x3d, 0xdc, 0x1d,
    0x00, 0x3d, 0x6e, 0x8f, 0x04, 0xbe, 0xc4, 0x23, 0xea, 0xbc,
    0x5c, 0x6b, 0x60, 0x3d, 0x15, 0x21, 0xd2, 0x3c, 0x2b, 0x7f,
    0x2a, 0xbd, 0x9c, 0x30, 0xba, 0x3b, 0xed, 0x72, 0xb4, 0xbc,
    0x1f, 0xdb, 0x9e, 0xbd, 0xcf, 0x92, 0xb7, 0x3d, 0x98, 0xe2,
    0xea, 0x3b, 0x0a, 0x6e, 0x36, 0x3d, 0xc6, 0x77, 0xf3, 0xbc,
    0xb6, 0x08, 0xef, 0x3d, 0x54, 0xba, 0x7d, 0x3d, 0xfc, 0xa6,
    0x03, 0x3a, 0xda, 0x45, 0x49, 0x3e, 0xe6, 0xf7, 0x1a, 0x3c,
    0x1f, 0x28, 0x54, 0xbd, 0x52, 0x14, 0x5d, 0xbd, 0xca, 0xe3,
    0x99, 0xbd, 0x6b, 0x6e, 0xe3, 0x3d, 0x5e, 0x0d, 0x9c, 0x3d,
    0x03, 0x2c, 0xe8, 0xbd, 0xee, 0xaf, 0x60, 0x3c, 0x92, 0xbc,
    0x96, 0xbd, 0x50, 0x89, 0xd9, 0x3d, 0x07, 0xed, 0xd7, 0x3d,
    0xcc, 0x6c, 0x3a, 0xbd, 0x7a, 0x42, 0xba, 0x3c, 0xe6, 0x16,
    0xd9, 0xbb, 0x24, 0xc1, 0x07, 0x3c, 0x34, 0x01, 0x13, 0xbd,
    0x06, 0x4e, 0xd4, 0x3c, 0xc8, 0x3b, 0xd0, 0x3d, 0xe2, 0xfd,
    0xd6, 0x3d, 0x19, 0x87, 0x1f, 0xbe, 0xe0, 0x54, 0xca, 0x3d,
    0x38, 0x1e, 0xdc, 0xbd, 0x12, 0x6a, 0xdd, 0x3d, 0x40, 0xa2,
    0x15, 0xbe, 0xba, 0xed, 0xab, 0xbd, 0x48, 0x4f, 0x71, 0xbd,
    0xdf, 0xa8, 0x05, 0xbd, 0x4c, 0xd0, 0x14, 0xbe, 0xfb, 0x15,
    0xeb, 0xbd, 0x6f, 0xa1, 0x24, 0xbb, 0x95, 0x55, 0xea, 0xbd,
    0x07, 0x61, 0xbe, 0xbd, 0x3d, 0x78, 0x45, 0x3c, 0xb1, 0x64,
    0xb0, 0x3d, 0xd2, 0x0c, 0x7d, 0x3d, 0xe6, 0xe4, 0xe9, 0x3d,
    0x50, 0xc0, 0x10, 0x3d, 0x94, 0xbe, 0x3c, 0xbd, 0x4f, 0x23,
    0x16, 0xbc, 0x27, 0x25, 0xe5, 0xbd, 0xe8, 0x6b, 0x01, 0x3d,
    0xa4, 0x71, 0x5f, 0xbd, 0x57, 0x3e, 0x3a, 0xbe, 0x1c, 0x8c,
    0x68, 0x3d, 0x8a, 0x78, 0xb9, 0xbd, 0x66, 0x92, 0xe6, 0x3c,
    0xe1, 0x5b, 0xdb, 0xbd, 0x89, 0x97, 0xb0, 0xbc, 0xdb, 0xf1,
    0xa5, 0x3d, 0xfa, 0x13, 0x2b, 0x3c, 0xae, 0xca, 0x24, 0x3b,
    0x9c, 0x0a, 0x02, 0xbc, 0xb3, 0xfe, 0xdd, 0xbd, 0xfa, 0x53,
    0x5e, 0x3d, 0xcf, 0xc9, 0x18, 0x3d, 0xb9, 0xed, 0x28, 0x3d,
    0x5a, 0x89, 0x22, 0xbe, 0x42, 0xa1, 0xb2, 0x3b, 0xa2, 0x20,
    0x93, 0x3b, 0x49, 0x63, 0x2d, 0xbe, 0x19, 0x80, 0x68, 0xbd,
    0x63, 0x2a, 0xfe, 0xbc, 0xde, 0xb0, 0xb8, 0xbd, 0x7f, 0xd6,
    0x87, 0xbd, 0x7b, 0x63, 0x72, 0xbd, 0x75, 0x2c, 0x0d, 0x3e,
    0xae, 0xbc, 0x02, 0xbb, 0x66, 0x56, 0x15, 0xbd, 0x1a, 0xae,
    0x29, 0x3e, 0x71, 0xe7, 0x6d, 0x3d, 0x02, 0x1a, 0xf8, 0xbc,
    0x25, 0x90, 0xe1, 0x3d, 0xcc, 0xc9, 0x5e, 0x3d, 0x1c, 0xca,
    0x74, 0xbc, 0x48, 0x89, 0xb4, 0xbd, 0x09, 0xeb, 0x81, 0x3d,
    0x08, 0x07, 0x73, 0x3a, 0x5e, 0x72, 0x0d, 0xbe, 0x6f, 0x13,
    0x83, 0x3d, 0xaf, 0xbd, 0xbe, 0xba, 0xa1, 0x70, 0x4d, 0xbd,
    0xf0, 0xdb, 0x9e, 0x3a, 0x99, 0x92, 0x80, 0x3d, 0x22, 0x62,
    0x7b, 0xbd, 0x02, 0x02, 0xfc, 0x3c, 0xd0, 0x06, 0x8c, 0xbc,
    0xcd, 0xd2, 0x00, 0xbe, 0xf8, 0x88, 0x90, 0x3d, 0x91, 0x71,
    0x80, 0x3c, 0x77, 0x04, 0x1d, 0xbc, 0x47, 0x6d, 0x83, 0xbc,
    0xdb, 0x26, 0xf8, 0x3d, 0x36, 0x27, 0xb0, 0x3c, 0x7e, 0x72,
    0x91, 0xbd, 0xc8, 0x54, 0x0b, 0x3e, 0x1d, 0xfd, 0xef, 0x3d,
    0x84, 0xea, 0x7a, 0x3b, 0xfe, 0x56, 0x01, 0x3d, 0xfe, 0x20,
    0x53, 0x3d, 0x76, 0xe8, 0x32, 0xbc, 0xa7, 0xb0, 0xe4, 0xbd,
    0x77, 0x23, 0xb2, 0x3b, 0x52, 0xa2, 0xad, 0xbd, 0x65, 0xae,
    0xc9, 0x3d, 0xf9, 0x98, 0x30, 0xbe, 0x6f, 0x6b, 0xd2, 0xbc,
    0x8e, 0xb5, 0xa6, 0x3d, 0x3d, 0x7a, 0x8a, 0xbc, 0x76, 0xc9,
    0xe6, 0x3d, 0x19, 0x8d, 0xc6, 0xbb, 0x31, 0x2b, 0x46, 0x3c,
    0x6f, 0x5a, 0x82, 0x3d, 0xc9, 0x2f, 0xea, 0x3d, 0x1d, 0x9b,
    0x1b, 0x3e, 0x04, 0xf7, 0x8d, 0x3d, 0x83, 0x43, 0x16, 0x3d,
    0x45, 0x78, 0x47, 0x3c, 0xa9, 0x00, 0x09, 0xbd, 0xba, 0x43,
    0x3d, 0xbd, 0x11, 0x06, 0x08, 0xbd, 0xec, 0xea, 0xe0, 0xbd,
    0xc9, 0xea, 0xd3, 0x3c, 0x0c, 0xaf, 0x37, 0x3b, 0x67, 0x7e,
    0x4a, 0x3d, 0xb0, 0x05, 0xd2, 0x3d, 0xb9, 0x59, 0x0f, 0xbd,
    0x2f, 0x12, 0xda, 0xbd, 0x5a, 0x3c, 0xd8, 0x3c, 0xaa, 0xa6,
    0x12, 0x3d, 0x09, 0x88, 0x48, 0x3d, 0x5f, 0x96, 0x16, 0xbd,
    0x4b, 0x49, 0x0b, 0xbe, 0x07, 0x06, 0xf6, 0x3d, 0xf5, 0xcb,
    0xfc, 0xbd, 0xef, 0x2b, 0xe8, 0x3c, 0x96, 0x68, 0x5a, 0xbc,
    0xf4, 0x9d, 0x17, 0xbd, 0x61, 0xbf, 0xbd, 0x3d, 0x90, 0x08,
    0x43, 0xbd, 0x78, 0xd9, 0x2a, 0x3c, 0x2d, 0xb2, 0x0f, 0xbc,
    0x37, 0x3d, 0x00, 0x3c, 0xb2, 0x74, 0xc7, 0xbd, 0x7f, 0x56,
    0x5c, 0xbc, 0x9f, 0x68, 0x34, 0xbe, 0x59, 0x34, 0xa9, 0xbd,
    0x18, 0x91, 0x90, 0x3d, 0x63, 0x09, 0xb5, 0x3d, 0x2f, 0xcf,
    0x36, 0xbd, 0x65, 0x7a, 0x26, 0x3d, 0x46, 0x85, 0x73, 0xbd,
    0xab, 0xb6, 0xc3, 0xbd, 0x3f, 0x25, 0xd9, 0x3d, 0xc6, 0x60,
    0x1b, 0xbd, 0xd2, 0x83, 0xcd, 0xbc, 0x18, 0x5d, 0x95, 0x3d,
    0xe6, 0xe6, 0x2e, 0x3c, 0xb1, 0xea, 0xd4, 0x3d, 0x67, 0x77,
    0x67, 0x3c, 0xe4, 0x67, 0x3f, 0xbd, 0xd1, 0x87, 0x24, 0x3c,
    0x91, 0x4f, 0xb9, 0x3d, 0x9b, 0xe8, 0x3c, 0xbe, 0x1d, 0x6b,
    0x05, 0x3e, 0x3f, 0x6c, 0xc8, 0x3c, 0x45, 0xe8, 0xa1, 0x3b,
    0xac, 0x6a, 0x4b, 0x3d, 0xcd, 0x17, 0xd5, 0x3c, 0xa4, 0x8e,
    0x71, 0xbd, 0x80, 0x6b, 0xc6, 0xbd, 0x41, 0x21, 0xce, 0x3c,
    0x13, 0x71, 0x0c, 0xbe, 0x2d, 0x70, 0x23, 0xbd, 0xe2, 0x90,
    0xce, 0x3c, 0x93, 0xd6, 0x64, 0x3d, 0xdc, 0x7d, 0x00, 0xbe,
    0xca, 0x5c, 0x48, 0x3d, 0x89, 0x2f, 0x1d, 0x3c, 0xa1, 0x97,
    0xee, 0xbd, 0x37, 0x74, 0xce, 0x3d, 0x16, 0x9f, 0xfb, 0xbc,
    0x4a, 0xbb, 0x9a, 0xbd, 0x32, 0x67, 0x6a, 0xbd, 0xf9, 0xc5,
    0x01, 0xbe, 0xc1, 0xb9, 0x43, 0xbd, 0xbf, 0x6a, 0xfd, 0xbc,
    0xfa, 0xd6, 0xd8, 0x3d, 0x6a, 0xf7, 0xcb, 0xbd, 0xfc, 0x28,
    0xd3, 0x3d, 0x9d, 0xca, 0xb0, 0x3d, 0xda, 0x8e, 0x4b, 0xbc,
    0x0a, 0x55, 0x66, 0xbd, 0x50, 0xb7, 0x82, 0xbd, 0x28, 0xb1,
    0x31, 0x3c, 0x9e, 0xca, 0x8b, 0xbd, 0xab, 0xa3, 0x16, 0xbd,
    0x30, 0xfc, 0xef, 0x3d, 0x78, 0x3f, 0xa2, 0x3d, 0xf7, 0xab,
    0xe7, 0x3d, 0xfa, 0xa2, 0xd7, 0xbd, 0x34, 0xca, 0x9d, 0xbc,
    0x75, 0xa1, 0xce, 0x3d, 0xe6, 0x07, 0xef, 0x3d, 0x2d, 0x3a,
    0x7d, 0x3d, 0xab, 0x3a, 0xed, 0xbd, 0x9b, 0xab, 0x1f, 0x3e,
    0x24, 0x27, 0x81, 0x3b, 0xf6, 0x44, 0x51, 0xbc, 0x08, 0xa2,
    0x14, 0x3e, 0xec, 0xba, 0x8b, 0x3d, 0x94, 0x25, 0xdb, 0x3c,
    0x62, 0x41, 0x5f, 0xbd, 0xe7, 0xe2, 0x64, 0xbd, 0x98, 0xb2,
    0xfe, 0xbd, 0x6a, 0xc6, 0xa1, 0xbd, 0xc0, 0x98, 0xac, 0x3d,
    0x4f, 0x10, 0xdb, 0x3d, 0x2d, 0xaf, 0xa6, 0xbd, 0xab, 0xcb,
    0xde, 0xbd, 0xf1, 0x18, 0x3b, 0xbd, 0xe4, 0x49, 0xa7, 0xbd,
    0xda, 0x28, 0x91, 0xbd, 0x47, 0xf2, 0xc2, 0x3d, 0x63, 0x72,
    0x23, 0xbd, 0xbd, 0x48, 0xf2, 0x3d, 0xeb, 0x78, 0x21, 0xbd,
    0x1c, 0x9d, 0xc4, 0x3d, 0x1f, 0xf0, 0xff, 0x3d, 0x4a, 0xaa,
    0x6b, 0xbd, 0x0e, 0x98, 0xcf, 0xbd, 0x12, 0x1b, 0x49, 0xbd,
    0x6a, 0x4f, 0x9b, 0xbd, 0xb8, 0xed, 0xfe, 0xbd, 0x5d, 0x1e,
    0xa8, 0x3d, 0x6f, 0x4d, 0x72, 0xbd, 0x46, 0x52, 0x41, 0xbe,
    0xce, 0x98, 0xc4, 0xbc, 0xaf, 0xc8, 0xfa, 0x3d, 0x77, 0x51,
    0x04, 0x3d, 0xd3, 0x97, 0x0b, 0xbe, 0x34, 0xb4, 0x2c, 0xbe,
    0xb5, 0x28, 0x04, 0x3d, 0x60, 0x6c, 0x4e, 0xbd, 0x57, 0x0e,
    0x1b, 0xbd, 0x4a, 0x1f, 0x8c, 0x3d, 0x69, 0x83, 0xb8, 0x3d,
    0x82, 0x98, 0xf2, 0x3d, 0xa7, 0x0c, 0xdc, 0x3d, 0x84, 0xc9,
    0xad, 0x3d, 0x12, 0x20, 0x22, 0x3d, 0xd3, 0x73, 0xbe, 0xbb,
    0xf8, 0xc5, 0x60, 0x3d, 0x2a, 0x4b, 0x20, 0x3e, 0xef, 0x58,
    0xc5, 0xbd, 0xe9, 0x96, 0x08, 0x3e, 0xe2, 0x32, 0xb0, 0xbd,
    0x31, 0x6e, 0xe6, 0x3c, 0x07, 0xad, 0x9a, 0x3d, 0x64, 0xaa,
    0x05, 0xbe, 0xdd, 0x6a, 0xff, 0xbd, 0xc2, 0x32, 0x26, 0xbe,
    0xc9, 0x3f, 0x80, 0xbd, 0x1d, 0xf3, 0xb8, 0x3d, 0x98, 0x38,
    0x53, 0xbd, 0xde, 0xb1, 0xc9, 0x3b, 0x1a, 0x47, 0xd4, 0x3d,
    0xa8, 0x06, 0x8c, 0xbd, 0x71, 0xef, 0x23, 0xbd, 0x50, 0x57,
    0x48, 0xbd, 0x60, 0xb5, 0x33, 0x3c, 0x64, 0xc4, 0x88, 0x3d,
    0x5b, 0xb9, 0x4e, 0x3d, 0x6e, 0xf0, 0x88, 0x3d, 0x1b, 0xcf,
    0x17, 0xbe, 0xc2, 0x10, 0xb4, 0x3d, 0x77, 0x6e, 0x3f, 0xbd,
    0x13, 0x5f, 0xb7, 0x3c, 0x4b, 0x1a, 0x27, 0x3d, 0x74, 0x80,
    0xe4, 0xbd, 0x1a, 0x27, 0x91, 0xbd, 0xca, 0x4f, 0xed, 0x3d,
    0x2e, 0x84, 0x32, 0x3e, 0x5e, 0x32, 0x20, 0xbd, 0xbc, 0x6a,
    0x00, 0xbe, 0x17, 0xa4, 0x08, 0xbe, 0x0d, 0x9c, 0x7b, 0xbd,
    0x27, 0x0b, 0xdd, 0xbc, 0xed, 0x24, 0x10, 0xbe, 0xa9, 0x26,
    0x4d, 0xbe, 0x4c, 0x80, 0x3b, 0xbe, 0xe3, 0x67, 0x3d, 0xbd,
    0x2a, 0xf1, 0x0c, 0xbe, 0xfb, 0x34, 0xaa, 0xbd, 0x9d, 0x20,
    0xb4, 0xbd, 0xc0, 0xff, 0x09, 0x3d, 0xf4, 0xab, 0x2e, 0xbe,
    0xb3, 0x81, 0x21, 0x3d, 0xb7, 0x69, 0x50, 0xbe, 0x03, 0xb5,
    0x78, 0xbd, 0x7d, 0xef, 0x42, 0xbe, 0x94, 0x3b, 0x04, 0xbe,
    0x96, 0xd9, 0x43, 0x3d, 0x79, 0x8c, 0x5b, 0xbd, 0xd9, 0xaa,
    0x15, 0x3d, 0xef, 0xc3, 0x4a, 0x3d, 0xdc, 0x00, 0x4a, 0xbb,
    0xe5, 0xd1, 0x3c, 0x3d, 0xd3, 0x1b, 0xd1, 0xbd, 0xdd, 0x90,
    0xd0, 0xbd, 0xb1, 0x0f, 0xe9, 0xbd, 0xfa, 0x27, 0xb9, 0xbd,
    0x07, 0x1c, 0x15, 0xbe, 0xc4, 0x01, 0x01, 0xbe, 0x04, 0x27,
    0x81, 0x3c, 0x04, 0xb7, 0xa2, 0xbc, 0x6e, 0xe4, 0x01, 0x3d,
    0xfe, 0x1b, 0x77, 0xbd, 0x5a, 0x58, 0x94, 0x3d, 0x84, 0x50,
    0x04, 0xbe, 0xb8, 0xdf, 0x03, 0x3e, 0xec, 0x93, 0x1b, 0x3e,
    0x4d, 0xf8, 0x18, 0x3e, 0x3a, 0xf2, 0x30, 0x3e, 0x4b, 0xb2,
    0xcf, 0xbc, 0x9e, 0xe3, 0x12, 0xbe, 0x95, 0x2d, 0xe6, 0x3d,
    0x12, 0xdf, 0x2d, 0x3e, 0xe7, 0xb8, 0x81, 0xbd, 0x28, 0xec,
    0xa9, 0x3d, 0x72, 0x2a, 0xfe, 0xbb, 0x8a, 0xea, 0xa4, 0xbd,
    0xe1, 0x14, 0x66, 0x3d, 0x7b, 0xee, 0x64, 0xbd, 0x64, 0x5e,
    0x90, 0x3d, 0x11, 0x2d, 0x1b, 0x3d, 0xda, 0xa5, 0x0c, 0xbd,
    0x3b, 0xcd, 0x32, 0xbd, 0xbe, 0x4f, 0x20, 0x3d, 0x85, 0x80,
    0x43, 0x3e, 0xa6, 0x4b, 0x19, 0xbe, 0x06, 0x50, 0x43, 0x3d,
    0x9b, 0xda, 0x1d, 0xbd, 0xf7, 0xf3, 0x82, 0x3d, 0xd9, 0x97,
    0x9c, 0xbd, 0xc0, 0x1f, 0x83, 0xbc, 0x91, 0xbe, 0xc5, 0xbb,
    0x8a, 0x96, 0xa5, 0x3d, 0x9e, 0x35, 0x73, 0xbd, 0x2e, 0x6f,
    0xed, 0xbc, 0x29, 0x8c, 0x1e, 0x3d, 0x24, 0x06, 0xb4, 0x3d,
    0xca, 0xf6, 0x48, 0xbd, 0x81, 0xa8, 0x01, 0xbd, 0x71, 0x17,
    0x66, 0xbc, 0x8e, 0xcc, 0xa4, 0xbd, 0x20, 0x21, 0x35, 0x3d,
    0xeb, 0x44, 0x9a, 0x3d, 0xb5, 0xc4, 0xe1, 0x3b, 0xe0, 0xa9,
    0x89, 0xbd, 0x4e, 0xcb, 0xac, 0xbd, 0xf7, 0x8c, 0xca, 0xbc,
    0xe0, 0x02, 0xb2, 0xbc, 0xe0, 0x0a, 0x2e, 0xbd, 0x39, 0x83,
    0x43, 0xbc, 0x70, 0x13, 0x84, 0x3d, 0x5b, 0x4e, 0xcf, 0x3b,
    0xbe, 0xb9, 0x0f, 0x3e, 0x92, 0x20, 0x98, 0x3d, 0x7e, 0x05,
    0x49, 0x3d, 0x5b, 0x45, 0x88, 0x3d, 0x6c, 0x82, 0xb8, 0x3a,
    0x79, 0x89, 0x65, 0xbd, 0x3e, 0xf1, 0x4e, 0x3c, 0x9d, 0x25,
    0x5d, 0x3d, 0x25, 0xef, 0x5d, 0x3d, 0xe9, 0xf0, 0x20, 0x3e,
    0x0e, 0xb0, 0xee, 0xbd, 0xb8, 0xba, 0x19, 0x3e, 0x98, 0x5e,
    0xe5, 0x3d, 0x3a, 0x34, 0x85, 0xbd, 0x00, 0x9f, 0x79, 0xbd,
    0x74, 0xd2, 0x42, 0x3d, 0x69, 0xad, 0x4c, 0x3d, 0x84, 0x4f,
    0x95, 0xbd, 0x0d, 0xe7, 0x08, 0x3d, 0x2e, 0x0f, 0x0d, 0xbe,
    0x8a, 0x9a, 0x9d, 0xbd, 0x60, 0x73, 0x8a, 0xbd, 0x4c, 0x3e,
    0x25, 0x3e, 0xcb, 0x50, 0xcb, 0x3d, 0x1c, 0x7b, 0x46, 0x3d,
    0xa5, 0xeb, 0x16, 0x3c, 0x14, 0x03, 0xe9, 0xbd, 0xde, 0x3d,
    0x83, 0xbd, 0xf4, 0xbf, 0x1b, 0x3e, 0x9f, 0x1c, 0xe0, 0x3c,
    0x24, 0xd1, 0xa8, 0x3b, 0x2b, 0xeb, 0x81, 0xbd, 0x2b, 0xec,
    0x0d, 0xbd, 0xee, 0xbe, 0xe6, 0x3c, 0xed, 0x16, 0xfd, 0xbd,
    0x63, 0x35, 0x16, 0xbd, 0x8b, 0x12, 0x3d, 0xbe, 0x9b, 0xba,
    0xad, 0x3d, 0x8e, 0x15, 0x59, 0x3a, 0xb8, 0x71, 0x6b, 0xbc,
    0xcc, 0xdb, 0x0c, 0x3d, 0x0c, 0xc3, 0x82, 0x3d, 0xf7, 0x03,
    0xac, 0xbd, 0x35, 0xe7, 0xa7, 0xbc, 0x41, 0xd0, 0x04, 0xbe,
    0xa3, 0xa1, 0x51, 0x3c, 0x8c, 0xd6, 0xc1, 0x3d, 0xd4, 0x1d,
    0x9f, 0x3b, 0x74, 0xfb, 0x93, 0x3d, 0x17, 0x6e, 0x12, 0xbe,
    0x7c, 0xcd, 0xfe, 0x3d, 0xed, 0xea, 0x56, 0x3d, 0xff, 0x15,
    0x6a, 0xbc, 0x9d, 0x4c, 0x00, 0x3e, 0xdb, 0x2d, 0xc5, 0x3c,
    0xce, 0x26, 0x3c, 0xbd, 0x33, 0x42, 0x39, 0x3b, 0x1f, 0x1c,
    0xb2, 0x3c, 0x24, 0x8d, 0x98, 0xbd, 0x66, 0x9c, 0x33, 0x3c,
    0xb2, 0x83, 0x03, 0xbb, 0x34, 0x35, 0x31, 0xbc, 0x95, 0x3d,
    0x94, 0x3d, 0x76, 0x79, 0x69, 0xbd, 0x75, 0x9e, 0x04, 0xbe,
    0x30, 0xe0, 0xff, 0x3c, 0xd1, 0xd4, 0xed, 0xbd, 0x12, 0x8b,
    0x75, 0x3c, 0x87, 0x14, 0x9d, 0xbd, 0x1b, 0x5c, 0xc3, 0xbd,
    0x00, 0xfb, 0x94, 0x3d, 0x5c, 0xe5, 0x35, 0xbe, 0xd3, 0xfe,
    0x0e, 0x3e, 0x38, 0xd6, 0x00, 0xbe, 0x76, 0xf2, 0x1b, 0x3c,
    0x41, 0xe2, 0x88, 0x3d, 0xd1, 0xca, 0xd4, 0x3d, 0xf8, 0x8f,
    0x65, 0xbd, 0x94, 0x50, 0xf3, 0x3d, 0x86, 0x56, 0x59, 0xbd,
    0xa2, 0xa4, 0x00, 0x3d, 0xf4, 0x7a, 0xb7, 0xbd, 0xf5, 0xc3,
    0x48, 0x3e, 0x73, 0x8b, 0x63, 0xbd, 0x59, 0x79, 0x90, 0xbd,
    0xb1, 0x06, 0x13, 0x3d, 0x78, 0x59, 0x05, 0x3e, 0x54, 0xc7,
    0x15, 0x3e, 0xb5, 0xb5, 0xef, 0xbd, 0x9a, 0x2e, 0xc5, 0x3c,
    0x8c, 0x43, 0xbd, 0xbd, 0x6a, 0x63, 0x1c, 0xbd, 0x7d, 0x83,
    0x7e, 0xbd, 0x52, 0xeb, 0x74, 0xbd, 0x80, 0xca, 0x34, 0x3e,
    0xdb, 0xc4, 0xba, 0xbd, 0xfc, 0x35, 0x81, 0x3c, 0x56, 0x7c,
    0xb3, 0xbb, 0x4a, 0xdd, 0x76, 0xbd, 0x04, 0xcc, 0xb6, 0xbc,
    0xa7, 0x5b, 0x9c, 0x3d, 0x98, 0xfe, 0x9e, 0x3d, 0xd9, 0x5d,
    0x7c, 0xbd, 0x79, 0x02, 0x6f, 0xbd, 0x10, 0x8e, 0x7d, 0xbd,
    0x9c, 0xc6, 0x39, 0x3b, 0x62, 0x31, 0xe7, 0xbd, 0xb4, 0xb1,
    0x74, 0xbd, 0x73, 0x3c, 0x0c, 0x3e, 0x8c, 0xbd, 0x54, 0x3d,
    0xed, 0x82, 0x09, 0x3d, 0x9a, 0x8c, 0x08, 0xbe, 0x47, 0x3e,
    0x8f, 0xbd, 0x0a, 0x9d, 0x91, 0x3d, 0xb8, 0xa8, 0x68, 0x3c,
    0x64, 0x7c, 0x7e, 0xbc, 0x55, 0x41, 0x24, 0x3d, 0x98, 0x6d,
    0xa4, 0x3d, 0xb7, 0xc2, 0x2e, 0xbc, 0x1d, 0x7a, 0x68, 0x3d,
    0xbd, 0x24, 0xcd, 0xbc, 0xa0, 0xde, 0x1b, 0xbd, 0xa4, 0xf8,
    0x88, 0xbd, 0xcc, 0xcd, 0xcc, 0x3c, 0x3a, 0xaa, 0x00, 0x3e,
    0xa1, 0xac, 0xb0, 0xbd, 0xda, 0x02, 0xf1, 0xbd, 0xc8, 0xdf,
    0x10, 0x3e, 0x04, 0x0d, 0x33, 0x3c, 0xbe, 0xf0, 0x10, 0x3e,
    0x48, 0x71, 0x0c, 0xbe, 0xba, 0x32, 0x53, 0x3d, 0xa9, 0x85,
    0x71, 0x3c, 0x59, 0x42, 0x9c, 0x3c, 0xca, 0x24, 0x33, 0x3d,
    0x6b, 0xf1, 0x20, 0xbd, 0xbe, 0x4d, 0xdf, 0xb9, 0xec, 0x0c,
    0xea, 0xbc, 0xa5, 0x46, 0x09, 0x3d, 0x74, 0xdb, 0x33, 0x3d,
    0xe5, 0x28, 0x0e, 0x3e, 0x3e, 0x7e, 0x03, 0xbd, 0x7a, 0x71,
    0x5d, 0x3d, 0x96, 0x67, 0x39, 0x3e, 0xfc, 0xf9, 0x6a, 0x3d,
    0x02, 0x1c, 0x6c, 0x3d, 0x5c, 0x04, 0x92, 0x3d, 0x3e, 0x91,
    0xd8, 0x3d, 0x53, 0x6e, 0x10, 0x3d, 0x02, 0x2f, 0xea, 0xbd,
    0x1e, 0x61, 0x1c, 0xbd, 0x93, 0xe2, 0x2e, 0xbe, 0xf0, 0xb6,
    0x04, 0x3e, 0x26, 0x51, 0xb8, 0x3d, 0x17, 0x5d, 0xbb, 0x3c,
    0xdf, 0xf0, 0x85, 0xbd, 0xba, 0x94, 0xfe, 0xbd, 0x97, 0xae,
    0xcb, 0x3d, 0x6e, 0x59, 0x2f, 0x3d, 0xea, 0x13, 0x94, 0x3d,
    0x37, 0x98, 0xd0, 0xbd, 0xd8, 0x8e, 0xb1, 0xbc, 0x22, 0x8b,
    0x3c, 0x3d, 0x3e, 0xf1, 0xf8, 0xbc, 0x07, 0x2b, 0xc1, 0xbd,
    0x76, 0xa2, 0x39, 0xbd, 0x58, 0x03, 0x04, 0xbe, 0x51, 0xa8,
    0x3e, 0xbe, 0x39, 0x16, 0x7f, 0xbd, 0xe1, 0x7a, 0x0d, 0x3d,
    0x1d, 0xa1, 0x06, 0x3e, 0x1a, 0x6f, 0x59, 0xbb, 0x6d, 0xb6,
    0xab, 0x3a, 0x22, 0x27, 0x23, 0x3e, 0x28, 0xd0, 0x20, 0xbb,
    0x90, 0x0c, 0x9b, 0xbc, 0x89, 0xac, 0xba, 0xbc, 0x38, 0x1e,
    0x82, 0x3d, 0x46, 0x0f, 0xa6, 0xbd, 0xb2, 0x4e, 0x3d, 0x3c,
    0x5b, 0x90, 0x9d, 0xbd, 0x9d, 0x82, 0xef, 0x3d, 0xec, 0x08,
    0xff, 0x3d, 0x9c, 0x7a, 0x21, 0x3e, 0x57, 0x97, 0x64, 0x3c,
    0xcd, 0xad, 0x2a, 0x3d, 0x1a, 0xdf, 0xf7, 0xbd, 0x80, 0x37,
    0x22, 0x3e, 0xe7, 0x8d, 0x80, 0x3d, 0xc6, 0x3a, 0xe0, 0xbd,
    0x20, 0xd5, 0x1a, 0xbe, 0x0c, 0x4d, 0x9d, 0xbd, 0x60, 0xf8,
    0xeb, 0xbc, 0xd7, 0x05, 0x07, 0xbe, 0x31, 0x32, 0x18, 0xbe,
    0x2e, 0x9b, 0xd7, 0xbc, 0x97, 0x89, 0x1d, 0xbd, 0xc9, 0x02,
    0x02, 0xbe, 0x2b, 0xc1, 0xfd, 0x3d, 0x38, 0x9a, 0xa4, 0x3c,
    0x0f, 0xad, 0xf5, 0x3c, 0x3d, 0x8d, 0xf2, 0x3c, 0x13, 0x63,
    0x07, 0xbe, 0x19, 0x26, 0x67, 0x3d, 0x97, 0xd3, 0xf7, 0xbd,
    0x93, 0x9b, 0x4b, 0xbc, 0x45, 0xd1, 0x5b, 0x3c, 0x59, 0x1f,
    0x09, 0x3d, 0x20, 0x7a, 0x06, 0xbe, 0x8e, 0x38, 0xda, 0x3c,
    0x67, 0xed, 0x04, 0x3d, 0xf3, 0xde, 0x99, 0x3b, 0x8b, 0x46,
    0xc4, 0x3d, 0xa9, 0x38, 0x0d, 0xbe, 0xc7, 0x9b, 0x17, 0xbe,
    0x88, 0x75, 0xfa, 0xbd, 0xb7, 0xfe, 0xbd, 0x3d, 0x76, 0xbe,
    0x19, 0xbe, 0x81, 0x22, 0x97, 0xbd, 0x0e, 0x2d, 0x84, 0xbd,
    0x61, 0x0d, 0x22, 0xbe, 0x9c, 0xdb, 0x24, 0xbd, 0x08, 0x7a,
    0x33, 0x3d, 0xa0, 0x18, 0xc2, 0xbc, 0xd5, 0xbf, 0xb5, 0x3c,
    0x3d, 0x0d, 0x06, 0x3e, 0x75, 0x74, 0x17, 0xbe, 0x7a, 0xc1,
    0x0b, 0x3e, 0x57, 0xb1, 0x80, 0x3b, 0x5d, 0xf9, 0x69, 0x3c,
    0xf0, 0x69, 0xb3, 0xbc, 0x8f, 0x17, 0x97, 0xbc, 0x47, 0xf4,
    0xf4, 0xbd, 0x28, 0xd1, 0x04, 0x3e, 0x98, 0x10, 0x20, 0xbe,
    0xd8, 0x37, 0x04, 0x3e, 0x05, 0x5f, 0x22, 0x3d, 0xa4, 0x01,
    0xd5, 0x3d, 0xd4, 0xce, 0x57, 0xbd, 0x03, 0x67, 0x90, 0xbd,
    0xc6, 0xb3, 0xce, 0xbc, 0x1d, 0x26, 0xb9, 0x3d, 0x58, 0x74,
    0x0e, 0x3e, 0x16, 0x10, 0x59, 0xbd, 0x36, 0xb3, 0x0a, 0x3e,
    0x16, 0xdf, 0x67, 0xbc, 0x23, 0xfb, 0x08, 0x3e, 0xf0, 0xaa,
    0xaf, 0x3d, 0xdf, 0x11, 0xd9, 0x3d, 0x00, 0x60, 0x74, 0x36,
    0x7a, 0xcb, 0xe5, 0x3c, 0x45, 0x75, 0xdb, 0x3d, 0x34, 0x64,
    0x6b, 0xbd, 0x15, 0x8f, 0x72, 0xbd, 0x4d, 0xf8, 0x90, 0xbd,
    0xf2, 0x1f, 0xf4, 0xbc, 0x92, 0xc7, 0xe9, 0xbc, 0xfb, 0xb4,
    0xbc, 0xbd, 0x5f, 0x3b, 0x8c, 0x3b, 0x6a, 0x34, 0x19, 0xbe,
    0x97, 0x89, 0x57, 0xbd, 0x38, 0x65, 0xfb, 0x3d, 0xa2, 0x2a,
    0x24, 0x3e, 0xf7, 0xee, 0xac, 0xbd, 0xb1, 0x12, 0xa3, 0xbd,
    0x3e, 0xc1, 0x63, 0xbd, 0x11, 0x7b, 0x09, 0x3d, 0x7d, 0x47,
    0x8e, 0x3b, 0x34, 0xef, 0x85, 0xbd, 0xc5, 0xde, 0x0b, 0xbe,
    0xf9, 0x61, 0x14, 0xbe, 0xea, 0x25, 0x8a, 0x3c, 0xfc, 0x52,
    0x43, 0x3d, 0xfd, 0xc6, 0xbb, 0x3d, 0x74, 0x22, 0xf0, 0xbd,
    0x02, 0x12, 0x1b, 0x3e, 0x58, 0x6e, 0x2d, 0xbe, 0x93, 0x7c,
    0x87, 0x3d, 0x20, 0x1d, 0x80, 0xbc, 0xc0, 0xc2, 0x98, 0x3c,
    0xdc, 0x6e, 0x43, 0x3d, 0x30, 0xf6, 0x8d, 0x3d, 0x80, 0xf4,
    0xaa, 0x3d, 0x53, 0xa3, 0x1c, 0x3d, 0x89, 0x42, 0x05, 0xbe,
    0xee, 0xc7, 0x57, 0xbc, 0x2b, 0x79, 0x29, 0xbd, 0xc5, 0xa2,
    0x14, 0xbc, 0x84, 0x2d, 0x03, 0xbe, 0x94, 0xb8, 0xc9, 0xbd,
    0x03, 0xfa, 0x7c, 0xbd, 0x5f, 0x45, 0xa0, 0x3b, 0x99, 0x44,
    0xdd, 0x3c, 0x3e, 0x12, 0x43, 0xbd, 0x24, 0x0f, 0x9c, 0x3d,
    0xba, 0xa0, 0x53, 0x3d, 0x6b, 0xeb, 0xc1, 0x3d, 0x91, 0xad,
    0x0d, 0x3d, 0x2a, 0xf7, 0x3c, 0xbd, 0xc7, 0xfc, 0x84, 0x3d,
    0x35, 0x47, 0xaf, 0xbd, 0x9a, 0x2e, 0xed, 0x3b, 0x39, 0xde,
    0x0f, 0xbe, 0x2b, 0x35, 0x65, 0xbe, 0x72, 0x8d, 0x2b, 0xbd,
    0xd2, 0x97, 0x2b, 0x3d, 0x59, 0x61, 0xd3, 0x3d, 0x9c, 0x4f,
    0xfc, 0x3c, 0x6e, 0x16, 0xb7, 0x3d, 0x9a, 0x91, 0xa2, 0x3c,
    0xb3, 0x7c, 0x6b, 0x3d, 0x0c, 0x6d, 0x5b, 0xbd, 0x0a, 0x14,
    0x1d, 0xbe, 0xb2, 0x53, 0xd8, 0xbc, 0x15, 0x4a, 0x3c, 0xbe,
    0xe6, 0x0b, 0xbd, 0x3d, 0x76, 0x6b, 0xf3, 0x3d, 0xc8, 0xa6,
    0x02, 0x3e, 0x85, 0xd5, 0x04, 0x3d, 0xd4, 0x98, 0x94, 0xbd,
    0x6f, 0x1b, 0x83, 0x3d, 0xe6, 0xe8, 0x0a, 0xbe, 0x72, 0x11,
    0x24, 0xbe, 0x28, 0x54, 0x68, 0x3d, 0x1c, 0x4a, 0x60, 0xbd,
    0x36, 0x4c, 0x0c, 0xbc, 0x64, 0xc0, 0x85, 0xbe, 0xf3, 0xcc,
    0x89, 0xbd, 0x4f, 0x34, 0xad, 0xbd, 0x1f, 0x48, 0x02, 0xbe,
    0xcc, 0x2f, 0x40, 0x3d, 0x95, 0x2c, 0xe4, 0x3d, 0x51, 0xca,
    0x16, 0xbd, 0x69, 0xea, 0xfc, 0x3d, 0x15, 0x63, 0xcd, 0x3d,
    0xf4, 0xb7, 0x2b, 0x3d, 0x96, 0x59, 0x09, 0xbd, 0x85, 0x02,
    0xbe, 0x3d, 0x81, 0x3b, 0xf8, 0x3c, 0x5d, 0x5b, 0x23, 0x3c,
    0x9b, 0x32, 0x02, 0x3d, 0x15, 0xe6, 0x58, 0xbd, 0xa0, 0x1f,
    0x6c, 0xbd, 0x44, 0x76, 0x3b, 0x3e, 0xb5, 0xa7, 0x9f, 0x3d,
    0x80, 0xd5, 0xb4, 0x3d, 0x4e, 0xb6, 0x84, 0xbd, 0xbf, 0xe5,
    0xbb, 0x3d, 0xe7, 0x11, 0xa8, 0x3d, 0x6e, 0x12, 0x23, 0xbb,
    0xf3, 0x59, 0x06, 0x3e, 0x30, 0xf3, 0xee, 0x39, 0x90, 0x43,
    0xa1, 0xbd, 0x63, 0x55, 0xa5, 0x3c, 0x10, 0x3f, 0x0a, 0x3c,
    0x15, 0xc2, 0x71, 0xbd, 0xa1, 0x1e, 0xb3, 0x3c, 0x94, 0x38,
    0xf7, 0xbd, 0xa0, 0xd6, 0x17, 0x3e, 0xb0, 0x70, 0x73, 0x3d,
    0xd8, 0x63, 0xa9, 0x3c, 0x1e, 0x2a, 0x02, 0x3d, 0x50, 0x26,
    0x8c, 0x3b, 0x4a, 0x89, 0x19, 0xbd, 0xe0, 0xe5, 0x13, 0xba,
    0x62, 0x5b, 0x24, 0xbe, 0x71, 0xc3, 0x01, 0xbd, 0x7f, 0xc8,
    0xf5, 0x3d, 0xb4, 0x5f, 0xe6, 0xbd, 0xda, 0x9f, 0xec, 0x3c,
    0x5f, 0x27, 0x24, 0x3d, 0x6b, 0xca, 0x45, 0xbd, 0x53, 0xc5,
    0x58, 0x3d, 0x9d, 0x3a, 0x81, 0xbc, 0xd1, 0x37, 0x6e, 0xbd,
    0xf4, 0x56, 0x36, 0x3c, 0x97, 0x71, 0x02, 0x3d, 0x14, 0xda,
    0x39, 0xbd, 0x23, 0xd0, 0xa1, 0x3d, 0x81, 0x9b, 0x6f, 0xbe,
    0x12, 0xec, 0x73, 0xbc, 0x76, 0x93, 0x32, 0xbd, 0x2b, 0xad,
    0x76, 0xbd, 0x90, 0x93, 0x3b, 0xbe, 0x7d, 0x63, 0x0f, 0xbe,
    0xb6, 0x12, 0x2e, 0x3d, 0xb8, 0x55, 0xa6, 0xbd, 0x2b, 0x6e,
    0x12, 0xbe, 0x0e, 0x57, 0xed, 0xbc, 0xae, 0x80, 0x59, 0x3d,
    0x62, 0x14, 0x05, 0xbe, 0x4a, 0x53, 0xb5, 0xbd, 0x70, 0x9b,
    0x56, 0xbd, 0x5c, 0xd2, 0x18, 0xbe, 0xe0, 0xe3, 0xe6, 0x3d,
    0x26, 0x0e, 0x21, 0xbe, 0xc4, 0x02, 0x4b, 0x3d, 0xb6, 0x68,
    0x27, 0xbe, 0xa2, 0x23, 0x0d, 0xbd, 0x0e, 0x8a, 0xf3, 0x3c,
    0x4b, 0x64, 0x91, 0x3d, 0xa0, 0x1d, 0x9d, 0x3c, 0x0c, 0xa8,
    0xcc, 0xbd, 0x5b, 0x90, 0x73, 0x3c, 0x5c, 0x25, 0x96, 0xbd,
    0xb8, 0x5f, 0xde, 0xbd, 0xae, 0x2f, 0x36, 0xbd, 0x25, 0x77,
    0x78, 0x3d, 0x6f, 0xd2, 0xf6, 0xbd, 0x56, 0x37, 0x62, 0x3d,
    0x56, 0xd6, 0x22, 0x3d, 0xdf, 0x2a, 0xb8, 0x3d, 0xd8, 0x09,
    0x24, 0x39, 0x28, 0x6d, 0xfd, 0xbd, 0x6f, 0xcd, 0xef, 0xbd,
    0xd0, 0xff, 0xc1, 0x3a, 0x91, 0x2d, 0x1a, 0x3d, 0x0d, 0x0b,
    0x86, 0x3c, 0x19, 0x05, 0x9b, 0xbd, 0x8a, 0x41, 0xf3, 0xbb,
    0x7a, 0x9d, 0x97, 0x3d, 0x65, 0x0a, 0xed, 0xbc, 0x1d, 0x05,
    0x1c, 0xbd, 0xf2, 0xc0, 0x4e, 0xbd, 0x4c, 0x01, 0x9e, 0x3d,
    0x7c, 0xea, 0xc5, 0x3d, 0x82, 0xfa, 0xd5, 0xbd, 0x33, 0x71,
    0xd4, 0x3c, 0x04, 0xf6, 0x00, 0x3d, 0x35, 0xf6, 0xc3, 0x3d,
    0xb1, 0x85, 0xe7, 0x3d, 0xe5, 0xa6, 0xdf, 0x3b, 0xa3, 0xd3,
    0xe3, 0x3d, 0x5e, 0x15, 0xfd, 0x3d, 0xe8, 0xe4, 0x9b, 0xbc,
    0xe9, 0xa5, 0x9d, 0x3d, 0xc7, 0x74, 0x16, 0x3d, 0x7a, 0x58,
    0x9a, 0x3d, 0xbc, 0x47, 0x11, 0xbb, 0x42, 0xb8, 0x52, 0xbd,
    0x71, 0x5d, 0x48, 0xbd, 0x3b, 0x97, 0xe0, 0xbd, 0x37, 0x4b,
    0x98, 0x3d, 0x49, 0x82, 0x21, 0x3d, 0x25, 0x8d, 0xb0, 0x3d,
    0x8d, 0x05, 0x39, 0xbc, 0x73, 0x37, 0x4a, 0xbd, 0xbe, 0xc9,
    0x25, 0x3e, 0xdb, 0xee, 0x86, 0xbd, 0xb5, 0x13, 0x25, 0x3e,
    0xed, 0x2f, 0x88, 0xbd, 0xc4, 0x49, 0x01, 0x3e, 0x5c, 0xf7,
    0xac, 0xbd, 0xf7, 0xb0, 0x97, 0xbd, 0x42, 0x35, 0xda, 0xbd,
    0x75, 0xc0, 0x56, 0xbd, 0x00, 0x1c, 0xff, 0xba, 0xdc, 0xc7,
    0x07, 0x3e, 0x8f, 0xc7, 0x32, 0x3e, 0x39, 0x64, 0xc3, 0xbb,
    0xdf, 0xa6, 0x73, 0xbd, 0x8b, 0xe2, 0x14, 0x3d, 0xed, 0x41,
    0x94, 0xbd, 0xfc, 0x85, 0x18, 0xbe, 0x64, 0x47, 0xd8, 0x3c,
    0x5e, 0xe7, 0x44, 0xbd, 0xfb, 0x36, 0xc5, 0xbd, 0x28, 0x13,
    0xd2, 0x3c, 0x05, 0xbd, 0x13, 0xbe, 0x99, 0xb0, 0xa0, 0x3d,
    0x04, 0xec, 0x9e, 0x3d, 0x0c, 0x73, 0x10, 0xbd, 0xfb, 0xae,
    0xa1, 0xbd, 0x8c, 0x7b, 0x9d, 0xbd, 0x92, 0x1e, 0x05, 0xbe,
    0xc9, 0xe8, 0x74, 0x3d, 0xe1, 0x71, 0x48, 0x3d, 0xf2, 0xb5,
    0x63, 0x3d, 0xb1, 0xa3, 0xb1, 0xbd, 0x4d, 0x99, 0x87, 0x3d,
    0x1c, 0x65, 0xe5, 0xbd, 0xf9, 0xa8, 0xff, 0x3c, 0x11, 0xdd,
    0x0d, 0x3d, 0xbb, 0x56, 0x7a, 0xbd, 0xa5, 0xd1, 0x7d, 0x3c,
    0xf8, 0x53, 0x9c, 0x3c, 0x1a, 0x51, 0x5c, 0x3b, 0x55, 0x9c,
    0xcf, 0x3d, 0x0f, 0x41, 0xe6, 0xbd, 0xa0, 0x5e, 0x0c, 0xbd,
    0x52, 0x86, 0xf4, 0xbd, 0x9c, 0x2c, 0xe8, 0xbd, 0xed, 0x7c,
    0xf8, 0xbb, 0xcc, 0x6a, 0x01, 0x3e, 0xcc, 0x9d, 0xb2, 0x3c,
    0xef, 0xd6, 0x64, 0x3d, 0x0a, 0xc7, 0xc9, 0xba, 0xab, 0xfc,
    0x09, 0x3e, 0xe5, 0x5b, 0xc1, 0x3d, 0x25, 0x31, 0xa1, 0x3c,
    0x8f, 0xf6, 0x0c, 0x3e, 0xd1, 0x84, 0x05, 0x3e, 0x80, 0xfa,
    0xe9, 0x3d, 0x21, 0x06, 0x32, 0x3e, 0x5e, 0xda, 0xe3, 0xbd,
    0x35, 0xac, 0x0d, 0x3e, 0x43, 0x94, 0xff, 0x3c, 0xbc, 0xa2,
    0x0f, 0x3e, 0x08, 0x09, 0xcd, 0x3d, 0xfb, 0x7c, 0x3f, 0xbd,
    0xae, 0xc2, 0x0f, 0x3d, 0x1e, 0x5a, 0x36, 0x3d, 0x55, 0x17,
    0xb9, 0x3d, 0xbf, 0x3a, 0xa5, 0x3c, 0x56, 0xb1, 0x09, 0xbe,
    0x41, 0xa6, 0xd8, 0x3d, 0xc4, 0x6b, 0x5d, 0x3d, 0x0e, 0x2c,
    0x85, 0xbd, 0x7e, 0x6e, 0xcd, 0x3d, 0xda, 0xf6, 0xaa, 0x3d,
    0x6c, 0x28, 0x9e, 0xbb, 0x1b, 0x66, 0xc6, 0x3d, 0x17, 0x07,
    0x0e, 0xbe, 0xc5, 0xc6, 0x6a, 0x3d, 0x3e, 0x6d, 0xad, 0x3d,
    0x1f, 0xdc, 0xe1, 0xbd, 0x09, 0xb6, 0x13, 0x3c, 0x6b, 0x59,
    0x06, 0xbe, 0x3e, 0xb9, 0x86, 0xbd, 0x77, 0x26, 0xd8, 0xbb,
    0x1e, 0xc4, 0x10, 0x3d, 0x57, 0x5b, 0xe0, 0x3d, 0x8b, 0x5e,
    0x1c, 0xbd, 0xa4, 0xa2, 0xb6, 0x3d, 0xa2, 0x3e, 0x8d, 0xbc,
    0xaf, 0x80, 0x91, 0x3d, 0x46, 0xbe, 0x02, 0xbe, 0x5f, 0xef,
    0x85, 0x3c, 0xaf, 0xda, 0x3b, 0x3d, 0x97, 0x8d, 0x0f, 0x3d,
    0xe6, 0x1a, 0x1c, 0x3d, 0xf1, 0xe8, 0x86, 0x3d, 0xbe, 0x87,
    0x10, 0xbe, 0x5b, 0x8a, 0xdc, 0xbd, 0xf4, 0x7f, 0x4f, 0xbd,
    0x1a, 0xeb, 0xb7, 0xbd, 0xc6, 0xd1, 0xdc, 0x3d, 0x2b, 0xbc,
    0x43, 0x3d, 0xaa, 0xf1, 0xdd, 0x3d, 0x95, 0x86, 0x1b, 0x3e,
    0x9a, 0xeb, 0x06, 0xbd, 0x64, 0xc0, 0x7b, 0x3d, 0x4c, 0x6c,
    0xc3, 0x3c, 0x75, 0x8f, 0xa3, 0x3d, 0xc1, 0xff, 0x1f, 0xbd,
    0x26, 0x7f, 0x05, 0x3d, 0x94, 0x99, 0x37, 0x3d, 0x0a, 0x77,
    0x84, 0xbc, 0xf4, 0x99, 0x5c, 0xbd, 0xc9, 0x82, 0xb6, 0x3d,
    0xbb, 0xc6, 0x7e, 0x3d, 0x7d, 0xe2, 0x30, 0xbd, 0xb8, 0x1d,
    0x79, 0x3d, 0x3d, 0x2d, 0xaa, 0x3b, 0xc8, 0x93, 0x22, 0x3d,
    0xc6, 0x2a, 0xbb, 0x3d, 0x43, 0xfc, 0xdc, 0x3d, 0x20, 0xca,
    0xe1, 0x3d, 0x45, 0x9e, 0x19, 0x3c, 0x81, 0x4a, 0x21, 0xbd,
    0x03, 0x35, 0x25, 0x3d, 0xd1, 0xe6, 0x8b, 0x3d, 0xc5, 0x95,
    0x58, 0xbc, 0x22, 0x3d, 0x22, 0x3c, 0xa0, 0x2b, 0xec, 0xbd,
    0x6c, 0x6d, 0x33, 0xbd, 0x15, 0xdb, 0x7a, 0xbd, 0xb6, 0xcf,
    0xc0, 0xbc, 0x2b, 0x15, 0x2c, 0xbe, 0x6e, 0x7a, 0xb4, 0xbd,
    0x06, 0x0f, 0x89, 0x3d, 0x15, 0xb4, 0xc1, 0xbc, 0x19, 0x74,
    0x3b, 0x3d, 0x00, 0xb8, 0x32, 0xbd, 0xe5, 0x4f, 0x86, 0x3d,
    0xb7, 0xe9, 0x86, 0xbd, 0x6e, 0xff, 0x9a, 0x3d, 0x70, 0xb2,
    0x32, 0xbd, 0x0f, 0xd8, 0x35, 0x3d, 0x58, 0x9d, 0x62, 0x3d,
    0x70, 0x5d, 0xb6, 0x3c, 0x3a, 0xfe, 0x2e, 0xbe, 0x02, 0x7a,
    0x95, 0x3d, 0xf7, 0x6b, 0x22, 0xbe, 0xe9, 0x33, 0xe8, 0x39,
    0xf6, 0x82, 0xf8, 0xbc, 0x44, 0xe5, 0x04, 0xbe, 0x61, 0xb2,
    0x68, 0x3d, 0x3b, 0x49, 0x85, 0xbc, 0x5c, 0x68, 0x9e, 0x3d,
    0x88, 0x2e, 0xf9, 0xbd, 0x3d, 0x60, 0x42, 0x3d, 0x69, 0xc8,
    0xf9, 0xbd, 0x87, 0xc1, 0x13, 0xbe, 0xe3, 0x71, 0xc9, 0x3d,
    0xc8, 0x92, 0x10, 0xbe, 0xf6, 0x82, 0xbc, 0xbb, 0x58, 0xb0,
    0xc4, 0x3d, 0x6b, 0x08, 0xab, 0x3d, 0x1c, 0x59, 0x8c, 0x3c,
    0xbf, 0x2c, 0x0f, 0x3e, 0x29, 0x20, 0xe8, 0x3c, 0x74, 0x14,
    0xac, 0xbc, 0x72, 0xb3, 0x1e, 0x3e, 0xb9, 0xc5, 0x8d, 0x3d,
    0x41, 0x11, 0x11, 0x3d, 0xf6, 0x2f, 0x65, 0x3d, 0x6e, 0x5f,
    0xcd, 0xbc, 0x23, 0xa6, 0xab, 0x3b, 0x99, 0x2b, 0x9b, 0x3d,
    0xec, 0x2b, 0x67, 0xbd, 0xa8, 0x15, 0x18, 0xbc, 0xf7, 0x18,
    0xbd, 0xbc, 0xf7, 0x29, 0x2c, 0x3d, 0xa8, 0x90, 0x3d, 0xbd,
    0x76, 0xa6, 0x6e, 0x3d, 0x97, 0x38, 0x21, 0x3d, 0x66, 0x53,
    0x01, 0xbe, 0x05, 0xe7, 0x24, 0x3e, 0x56, 0x54, 0xb1, 0x3d,
    0xc9, 0xe9, 0xb7, 0xbd, 0x10, 0x8f, 0xe8, 0xbd, 0x4b, 0x1b,
    0x60, 0xbc, 0xaa, 0xab, 0x60, 0xbd, 0x5d, 0x1a, 0x97, 0xbd,
    0xe1, 0x98, 0x76, 0x3d, 0x23, 0x65, 0x58, 0xbd, 0xb0, 0x54,
    0xd4, 0xbd, 0x0e, 0x52, 0x52, 0xbe, 0x98, 0xec, 0xbe, 0xbc,
    0xc5, 0xb1, 0x90, 0xbd, 0x72, 0x55, 0xc5, 0x3d, 0x06, 0x13,
    0x0b, 0xbe, 0x22, 0x42, 0xb8, 0xbc, 0xc6, 0x6c, 0x79, 0x3c,
    0xad, 0xc2, 0xf0, 0xbc, 0xdd, 0x2a, 0x93, 0xbc, 0x9a, 0x2c,
    0x6f, 0xbd, 0xca, 0x1b, 0x82, 0x3d, 0x5f, 0x33, 0xce, 0x3d,
    0xdc, 0xdc, 0xdb, 0x3d, 0x4d, 0xc6, 0x92, 0xbd, 0xee, 0xdb,
    0x8a, 0xbc, 0x7a, 0xb4, 0xcb, 0x3d, 0xcd, 0x52, 0xaf, 0xbd,
    0x55, 0xaf, 0xac, 0x3d, 0xa5, 0x0d, 0x09, 0xbc, 0x21, 0x8f,
    0xe1, 0xbd, 0xd9, 0xe1, 0x32, 0x3d, 0xb9, 0xe6, 0x75, 0xbd,
    0x10, 0xdf, 0xa4, 0xbc, 0x6a, 0x35, 0x3d, 0xbd, 0x81, 0x1a,
    0x35, 0x3e, 0x0d, 0xce, 0x9d, 0x3d, 0x35, 0x48, 0x39, 0x3d,
    0xd9, 0x1b, 0x61, 0xbd, 0x97, 0x6b, 0x48, 0x3c, 0x81, 0x02,
    0x04, 0xbe, 0xee, 0x59, 0x6b, 0x3d, 0x15, 0xc2, 0xf0, 0x3d,
    0x17, 0x99, 0x4f, 0xbd, 0x34, 0x69, 0xa4, 0xbd, 0xc2, 0x95,
    0x18, 0xbd, 0xcf, 0x94, 0x61, 0xbd, 0xd4, 0xa0, 0xd0, 0x3c,
    0xa5, 0xeb, 0x4b, 0xbe, 0x37, 0x60, 0xf0, 0xbd, 0xef, 0xba,
    0xaa, 0xbb, 0xd5, 0x3b, 0xca, 0x3d, 0x07, 0x53, 0x83, 0xbd,
    0xf1, 0x17, 0x0c, 0xbe, 0xa1, 0x77, 0xaa, 0x3c, 0x1e, 0xb5,
    0x12, 0xbd, 0x8e, 0xda, 0x68, 0xbd, 0xa9, 0x86, 0x8b, 0xbd,
    0x09, 0xb6, 0x47, 0xbe, 0x2e, 0x85, 0x6e, 0xbd, 0x86, 0x14,
    0x53, 0x3c, 0xe0, 0xfe, 0xcf, 0x3d, 0x68, 0x33, 0xce, 0x3d,
    0x78, 0x46, 0xce, 0xbc, 0xc5, 0x3c, 0x05, 0x3e, 0xa0, 0xdb,
    0xa9, 0xbd, 0xda, 0xb9, 0xd7, 0xbc, 0x7c, 0x8a, 0x02, 0xbc,
    0xcb, 0x15, 0x6b, 0xbd, 0x04, 0x02, 0x46, 0x3a, 0x72, 0xc9,
    0xaa, 0x3b, 0xd8, 0x6a, 0x8f, 0x3c, 0xa6, 0x56, 0x04, 0x3d,
    0xe5, 0x5f, 0x0b, 0x3d, 0x63, 0x0f, 0x0a, 0x3d, 0xcc, 0x00,
    0x2d, 0x3b, 0x6d, 0xb8, 0x99, 0xbd, 0x61, 0xe5, 0xac, 0x3d,
    0x85, 0xbb, 0x34, 0xbd, 0x33, 0x53, 0xa4, 0x3c, 0xb4, 0xab,
    0x29, 0x3d, 0x94, 0xac, 0x96, 0xbd, 0x6a, 0xc2, 0x27, 0xbd,
    0x27, 0x55, 0xd6, 0x3c, 0xcf, 0x1a, 0x24, 0x3e, 0xd5, 0xba,
    0x86, 0xbd, 0x11, 0xe8, 0x77, 0x3d, 0x1e, 0x27, 0x40, 0xbd,
    0x66, 0x4c, 0x90, 0xbd, 0xf7, 0xdb, 0xad, 0x3c, 0x61, 0x3e,
    0x9b, 0x3c, 0x27, 0x66, 0xd7, 0xbd, 0xd9, 0xd5, 0xbe, 0xbd,
    0x2c, 0xf0, 0x87, 0x3d, 0x12, 0x92, 0x47, 0x3d, 0xb6, 0x05,
    0x10, 0xbd, 0xf6, 0x0f, 0xdf, 0xbd, 0xcb, 0xd4, 0x22, 0x3d,
    0x39, 0x10, 0x77, 0xbd, 0x3e, 0x06, 0x68, 0x3d, 0x71, 0xf0,
    0x99, 0x3d, 0x28, 0x2f, 0x17, 0xbe, 0x7d, 0xbc, 0x38, 0xbd,
    0x33, 0x84, 0x06, 0xbe, 0x03, 0x82, 0x38, 0x3d, 0x5a, 0xc6,
    0xea, 0xbd, 0x62, 0x44, 0x9c, 0xbd, 0x4b, 0xba, 0xb4, 0x3d,
    0x4c, 0xb8, 0xdf, 0xbd, 0x09, 0x8d, 0x8e, 0xbd, 0x0d, 0xf0,
    0x63, 0xbd, 0x78, 0x6d, 0x0d, 0xbe, 0xb7, 0xb6, 0x51, 0x3d,
    0x65, 0xdb, 0x3a, 0x3b, 0xc6, 0x83, 0xb5, 0x3d, 0x25, 0x69,
    0x3c, 0x3c, 0x8b, 0x5c, 0x72, 0x3d, 0x54, 0x45, 0x27, 0xbe,
    0x09, 0x64, 0xac, 0x3d, 0x72, 0xa6, 0x00, 0xbe, 0x66, 0x99,
    0x78, 0x3b, 0x5c, 0x83, 0xc7, 0xbc, 0x5d, 0x51, 0x11, 0x3e,
    0x7f, 0xdd, 0xff, 0x3d, 0x05, 0x7c, 0xa4, 0xbc, 0x3d, 0x39,
    0x45, 0x3d, 0x3f, 0x05, 0x68, 0xbd, 0x83, 0xf3, 0xb0, 0x3d,
    0xa8, 0x46, 0x34, 0x3d, 0x1c, 0x8f, 0x0a, 0xbe, 0x2d, 0x58,
    0x4d, 0xbe, 0x9b, 0x52, 0x40, 0xbe, 0x05, 0x09, 0x37, 0xbd,
    0x02, 0x2e, 0xd4, 0xbb, 0x79, 0x98, 0x2e, 0xbc, 0x49, 0x58,
    0x1f, 0x3e, 0xfd, 0xfe, 0x67, 0x3c, 0x48, 0x60, 0x34, 0x3d,
    0x8b, 0x8a, 0x52, 0xbc, 0x0c, 0x60, 0x45, 0x3e, 0x2f, 0xbe,
    0xda, 0xbd, 0xc0, 0xd3, 0xf8, 0x3c, 0x6e, 0x40, 0x88, 0xbc,
    0xdd, 0x50, 0xd0, 0x3c, 0xe0, 0x34, 0x7d, 0xbd, 0x3e, 0xe9,
    0x22, 0x3d, 0xcb, 0xe4, 0x35, 0xbe, 0xec, 0x2e, 0x98, 0xbd,
    0xd5, 0x3a, 0x9b, 0x3b, 0x0f, 0x3e, 0x18, 0xbc, 0x46, 0xdb,
    0xfe, 0xbb, 0x3c, 0xc3, 0xfc, 0x3c, 0x4f, 0xda, 0xc6, 0xbd,
    0x06, 0xad, 0xb3, 0x3c, 0x31, 0x29, 0xef, 0x3a, 0xcc, 0xbe,
    0x25, 0xbd, 0x1e, 0x65, 0x76, 0xbb, 0x0a, 0xb8, 0xd7, 0xbc,
    0x89, 0x48, 0x71, 0x3d, 0xdb, 0x07, 0x93, 0xbd, 0xf5, 0x76,
    0xc3, 0x3d, 0x04, 0xfa, 0x79, 0x3d, 0xe2, 0x17, 0x2f, 0x3d,
    0xc4, 0x2e, 0xfd, 0x3c, 0xb1, 0x62, 0x9a, 0x3d, 0x70, 0xce,
    0xb8, 0x3d, 0xea, 0x93, 0x00, 0xbe, 0x3f, 0xad, 0x54, 0xbd,
    0x75, 0x4f, 0xdf, 0x3c, 0x70, 0x57, 0x3b, 0x3d, 0xb8, 0x3f,
    0x09, 0xbd, 0x69, 0x94, 0xac, 0xbd, 0x98, 0x17, 0xd6, 0xbd,
    0x96, 0x09, 0x74, 0xbe, 0x41, 0x9f, 0xc1, 0x3d, 0x7a, 0x92,
    0x88, 0x3c, 0x8d, 0x6c, 0x0b, 0xbe, 0xa1, 0xb8, 0x2f, 0x3e,
    0x35, 0x6d, 0x8a, 0xbd, 0xca, 0xbe, 0x3b, 0xbe, 0x6a, 0xf9,
    0x38, 0xbc, 0x31, 0x88, 0xa8, 0x3d, 0xc8, 0xcb, 0x6d, 0xbd,
    0xf9, 0xec, 0xa1, 0x3c, 0x8d, 0x8f, 0x1f, 0xbe, 0xbd, 0x1c,
    0xcc, 0x3c, 0xc8, 0x29, 0x4b, 0xbd, 0x46, 0xb0, 0x18, 0xbe,
    0xc6, 0xc2, 0x3f, 0xbd, 0xc7, 0x75, 0x0d, 0x3d, 0x02, 0x04,
    0xdf, 0xbc, 0xbd, 0x75, 0x7c, 0xbd, 0x9f, 0x75, 0xbb, 0xbd,
    0xa0, 0xa6, 0xfa, 0xbc, 0x46, 0x18, 0x7d, 0xbd, 0x46, 0x48,
    0x21, 0xbe, 0x3f, 0xc1, 0x7d, 0xbd, 0x94, 0xfa, 0xda, 0x3d,
    0xfc, 0x86, 0x1c, 0xbe, 0x13, 0x73, 0x43, 0x3b, 0x0b, 0x6c,
    0x0a, 0xbe, 0x9c, 0xf2, 0x36, 0x3d, 0xe5, 0x4b, 0x3f, 0x3e,
    0x26, 0x5d, 0x56, 0xbd, 0xbc, 0x53, 0x50, 0xbd, 0x6c, 0xbb,
    0xa1, 0x3b, 0x81, 0xa8, 0xd0, 0x3d, 0x3e, 0xbf, 0x92, 0xbd,
    0xc1, 0x29, 0xa8, 0x3d, 0x19, 0x9c, 0xfb, 0xbd, 0x55, 0x94,
    0x07, 0xbd, 0x43, 0xd6, 0xa0, 0xbc, 0x23, 0xc3, 0x14, 0x3e,
    0xef, 0x56, 0x07, 0xbe, 0xd4, 0xf0, 0xaa, 0xbc, 0x40, 0x57,
    0x8b, 0x3c, 0xc8, 0x48, 0x30, 0xbd, 0xbc, 0x9a, 0xf8, 0xbc,
    0xa1, 0x53, 0x10, 0x3e, 0x55, 0x13, 0xa7, 0x3d, 0x4b, 0x16,
    0x26, 0xbe, 0x73, 0x0f, 0xba, 0x3d, 0x2b, 0xaf, 0x47, 0x3c,
    0x52, 0xb5, 0xad, 0x3d, 0xf5, 0xf1, 0x59, 0xbe, 0x57, 0xa1,
    0x51, 0x3d, 0x10, 0xbc, 0xae, 0xbd, 0x4b, 0x93, 0x23, 0xbd,
    0x43, 0x7a, 0xe3, 0xbc, 0x27, 0xd2, 0x0b, 0x3d, 0xab, 0x30,
    0x5a, 0xbb, 0x38, 0x4d, 0x10, 0xbe, 0x75, 0xc0, 0x5d, 0x3b,
    0xc4, 0xa5, 0xca, 0x3d, 0x3c, 0x9b, 0x1c, 0x3d, 0x5b, 0x9a,
    0xec, 0x3c, 0x2b, 0xde, 0x01, 0xbe, 0x18, 0x32, 0x36, 0xbd,
    0x96, 0x4b, 0xd7, 0x3d, 0x7a, 0xb4, 0x58, 0xbe, 0xd3, 0x0b,
    0xc0, 0xbd, 0x0a, 0x6f, 0x2e, 0xbd, 0xa4, 0x2e, 0x48, 0x3d,
    0x18, 0xa0, 0xf8, 0x3c, 0x29, 0x14, 0x31, 0x3c, 0x49, 0x0d,
    0x0b, 0xbd, 0xa9, 0x8a, 0xf8, 0x3d, 0x73, 0x00, 0xce, 0xbd,
    0xa2, 0x6e, 0xae, 0xbd, 0x83, 0xe3, 0x11, 0x3d, 0xce, 0x53,
    0xce, 0x3d, 0xd0, 0xf7, 0x8d, 0x3d, 0xa4, 0x79, 0x3a, 0x3d,
    0x10, 0xbb, 0x9c, 0x3d, 0x52, 0x15, 0xb8, 0xbc, 0x2a, 0x2c,
    0xb9, 0x3c, 0x47, 0x1e, 0xee, 0xbd, 0x1a, 0x5e, 0x57, 0xbc,
    0x16, 0x2f, 0x64, 0x3d, 0x9a, 0xff, 0x0e, 0x3d, 0x02, 0x58,
    0xa2, 0x3d, 0xab, 0x0a, 0x11, 0xbd, 0xb1, 0x8c, 0xb3, 0xbd,
    0x92, 0x3e, 0x83, 0xbd, 0xc9, 0x6c, 0xa1, 0xbd, 0xce, 0x74,
    0x83, 0x3d, 0xeb, 0xda, 0x37, 0x3b, 0x3f, 0xb7, 0x2c, 0xbe,
    0x36, 0x76, 0xaa, 0x3c, 0x36, 0xe0, 0x9c, 0xbd, 0x5a, 0x6e,
    0xce, 0xbc, 0x80, 0x4a, 0x97, 0xbd, 0xed, 0x09, 0x25, 0xbd,
    0xa0, 0x1c, 0xad, 0xbd, 0x26, 0xde, 0x1a, 0x3d, 0x36, 0xad,
    0xcb, 0x3d, 0x73, 0x5f, 0x1c, 0x3e, 0xde, 0x20, 0x74, 0xbd,
    0x9b, 0xd0, 0xdc, 0xbd, 0x7a, 0xf8, 0xb3, 0xbd, 0xbb, 0x34,
    0x8e, 0xbd, 0x30, 0xee, 0x77, 0x3d, 0xa4, 0x1a, 0xc2, 0x3d,
    0x4f, 0x2a, 0xd0, 0xbc, 0x6e, 0x6a, 0xea, 0xbb, 0xf0, 0xf0,
    0xd9, 0xba, 0xd9, 0x4e, 0xae, 0x3c, 0xbc, 0x97, 0xf1, 0xbc,
    0xa2, 0x1b, 0xfb, 0xbd, 0xf0, 0x1f, 0xd8, 0x3d, 0xd2, 0xb2,
    0xd8, 0xbd, 0x0d, 0xa2, 0xb7, 0x3d, 0x37, 0x24, 0x18, 0xbd,
    0xca, 0xb9, 0xad, 0xbd, 0xa6, 0x74, 0x7d, 0x3d, 0x9a, 0xa2,
    0x81, 0xbd, 0x9b, 0x7d, 0xa5, 0xbc, 0x94, 0x2c, 0x17, 0x3e,
    0x97, 0xef, 0xfd, 0xbc, 0xa0, 0xea, 0x56, 0xbd, 0x34, 0xb2,
    0xc0, 0xbb, 0xbd, 0xb4, 0xd0, 0x3d, 0x83, 0x06, 0xf2, 0xbc,
    0xd1, 0x77, 0x15, 0xbe, 0xec, 0x90, 0x7b, 0x3d, 0xc1, 0xeb,
    0x06, 0xbe, 0xc5, 0xd5, 0x1b, 0x3d, 0x64, 0xe8, 0x17, 0x3d,
    0x17, 0x1c, 0xc0, 0xbd, 0xe6, 0xc7, 0x13, 0xbd, 0x24, 0xd7,
    0x5a, 0xbb, 0x89, 0xa8, 0xfd, 0x3c, 0xfd, 0x13, 0x8f, 0x3d,
    0x28, 0xa9, 0x9d, 0x3c, 0x52, 0xfa, 0x11, 0xbb, 0xb5, 0xa3,
    0x11, 0x3e, 0x39, 0x70, 0xe6, 0x3d, 0x83, 0x49, 0x0f, 0xbe,
    0x32, 0x0b, 0x0c, 0xbe, 0x88, 0x4b, 0x0b, 0xbe, 0xbe, 0x49,
    0x78, 0x3d, 0xd4, 0xc5, 0xd2, 0xbd, 0x6a, 0xde, 0x7d, 0x3d,
    0xa6, 0x62, 0x00, 0x3c, 0xe5, 0xe3, 0x26, 0x3c, 0xf2, 0x54,
    0xe0, 0xbd, 0x97, 0xe9, 0xcb, 0xbd, 0xcf, 0xd9, 0x4c, 0x3b,
    0xe5, 0x5f, 0x8a, 0x3d, 0xd9, 0x3a, 0x8b, 0x3d, 0xb4, 0x2d,
    0x0c, 0x3e, 0xaf, 0x16, 0x0c, 0xbd, 0x9f, 0x1f, 0xaa, 0xbd,
    0x56, 0x8a, 0x8e, 0xbc, 0x14, 0x4c, 0x64, 0x3d, 0x9a, 0x78,
    0x1e, 0xbc, 0x1e, 0x33, 0xb7, 0xbc, 0x40, 0xd6, 0xf8, 0xbc,
    0x47, 0x41, 0xe3, 0x3c, 0xe5, 0x93, 0xfc, 0xbd, 0xb6, 0xb4,
    0x08, 0xbd, 0xcf, 0xb7, 0x34, 0xbe, 0xe3, 0xd4, 0xf4, 0x3d,
    0x0c, 0xbb, 0x59, 0x3d, 0xf2, 0xb2, 0xad, 0x3d, 0x14, 0x08,
    0xb5, 0x3d, 0xb1, 0x8b, 0xf0, 0xba, 0xbd, 0x6e, 0x7f, 0xbd,
    0xc6, 0x1c, 0x9c, 0xbd, 0xcc, 0x25, 0xaf, 0x3d, 0x17, 0x36,
    0x1a, 0x3e, 0xc7, 0x6e, 0x05, 0xbe, 0x39, 0xd3, 0x87, 0xbd,
    0xf2, 0x61, 0x47, 0xbe, 0x0d, 0x37, 0x85, 0x3d, 0xd8, 0x5b,
    0xb8, 0x3b, 0xc0, 0x7c, 0xe4, 0x3d, 0xe2, 0xbb, 0x3a, 0xbe,
    0xcc, 0x27, 0x7d, 0xbc, 0xd8, 0xca, 0x33, 0x3d, 0x1a, 0x7e,
    0x05, 0x3e, 0xe5, 0x9e, 0xf2, 0xbb, 0x2a, 0xb1, 0xea, 0x3d,
    0x60, 0xf3, 0x17, 0x3e, 0x9f, 0x5d, 0x32, 0x3d, 0xca, 0x8d,
    0xce, 0xbd, 0x2b, 0x44, 0x96, 0x3c, 0x2c, 0x6c, 0x06, 0xbe,
    0x3f, 0x28, 0x48, 0xbc, 0x1e, 0x87, 0xb7, 0xbd, 0x7a, 0x1c,
    0xba, 0xbd, 0xc3, 0x72, 0x15, 0xbe, 0x21, 0xff, 0xac, 0xbd,
    0x19, 0x44, 0x3d, 0x3c, 0x48, 0xfa, 0x60, 0xbd, 0x5d, 0xcc,
    0x30, 0x3e, 0x49, 0x8c, 0x21, 0xbe, 0x4d, 0x5a, 0x70, 0xbd,
    0x1c, 0xce, 0x01, 0x3d, 0xe2, 0x71, 0x43, 0x3e, 0x79, 0xf1,
    0xcf, 0x3d, 0x0d, 0x39, 0xc2, 0xbd, 0x8c, 0x46, 0x26, 0x3e,
    0xf1, 0xe6, 0x90, 0x3d, 0x6a, 0x19, 0xb7, 0xbd, 0x9b, 0x91,
    0x54, 0x3d, 0xe3, 0xc1, 0x63, 0xbe, 0x59, 0x54, 0xe2, 0xbd,
    0x88, 0xef, 0x17, 0x3c, 0x50, 0x43, 0xf3, 0x3c, 0x73, 0xf6,
    0x6f, 0xbd, 0x6c, 0x96, 0xac, 0x3d, 0x67, 0xc9, 0xac, 0x3c,
    0x9e, 0x25, 0xf9, 0xbd, 0x70, 0xc8, 0xa8, 0x3d, 0x30, 0xdd,
    0x8b, 0xbc, 0x5c, 0x20, 0x63, 0x3d, 0x85, 0xdd, 0xbf, 0x3d,
    0xde, 0x31, 0x30, 0x3d, 0x08, 0xfc, 0xc2, 0xbc, 0xb7, 0x74,
    0x6b, 0xbd, 0x66, 0x42, 0x2f, 0x3d, 0xfa, 0xf5, 0x9e, 0x3d,
    0xbb, 0x52, 0x8e, 0x3d, 0xd8, 0x69, 0x43, 0xbd, 0x1f, 0xaf,
    0xbf, 0xbc, 0xc2, 0x91, 0xb5, 0xbd, 0x97, 0x7d, 0xdd, 0x3d,
    0x86, 0x04, 0x5f, 0x3d, 0xac, 0x57, 0x82, 0x3c, 0x1b, 0x04,
    0x15, 0xbe, 0xea, 0x3a, 0x62, 0x3d, 0xc6, 0x86, 0xd2, 0xbb,
    0xb7, 0x9d, 0xc8, 0xbd, 0x0f, 0xd9, 0x1c, 0xbe, 0xc8, 0x9b,
    0x1b, 0xbe, 0x0d, 0xc3, 0x86, 0xbd, 0xf5, 0x64, 0x9a, 0xbc,
    0x7e, 0x94, 0xb2, 0xbd, 0x5a, 0xf8, 0xf6, 0xbd, 0x93, 0xa4,
    0x13, 0xbe, 0x11, 0x76, 0xe9, 0xbd, 0xe1, 0x4d, 0x9b, 0x3d,
    0xeb, 0x2c, 0x1d, 0xbe, 0xe8, 0x34, 0xb3, 0xbc, 0xfe, 0x1d,
    0x5d, 0xbd, 0x87, 0x5f, 0xa8, 0xbd, 0x29, 0xb3, 0x0b, 0xbe,
    0x9e, 0xba, 0xad, 0xbd, 0xc4, 0xcf, 0x52, 0x3d, 0x65, 0xbc,
    0xdd, 0xbd, 0x09, 0xfd, 0xf4, 0xbd, 0x8f, 0x16, 0x88, 0x3b,
    0xb5, 0x8f, 0xb2, 0x3d, 0x61, 0x8e, 0x42, 0x3d, 0xe7, 0x2a,
    0x2a, 0x3d, 0x31, 0xdc, 0xd6, 0x3d, 0xf5, 0x70, 0x93, 0x3d,
    0x2e, 0xb9, 0xe1, 0xbd, 0x71, 0x3d, 0xf3, 0xbd, 0x8f, 0x8e,
    0xf9, 0xbd, 0xd1, 0xe2, 0x10, 0xbd, 0x53, 0xda, 0xf4, 0x3d,
    0xbc, 0xf0, 0xc0, 0x3d, 0x1c, 0x6e, 0xac, 0x3d, 0x78, 0x85,
    0x03, 0xbe, 0x44, 0x0b, 0x5c, 0xbd, 0x00, 0xdb, 0x92, 0x3d,
    0x9d, 0x29, 0xaf, 0x3d, 0x64, 0x74, 0xac, 0xba, 0xdb, 0xc7,
    0x18, 0x3e, 0xc7, 0x56, 0x1e, 0x3c, 0x14, 0xb0, 0xf5, 0x3d,
    0x7a, 0x09, 0x77, 0x3d, 0x52, 0x25, 0x5e, 0xbc, 0x4b, 0x20,
    0xc9, 0xbd, 0xae, 0xc7, 0x41, 0x3d, 0xba, 0x39, 0xb0, 0x3c,
    0xdd, 0x87, 0xc5, 0x3d, 0x1f, 0xa2, 0xfd, 0xbd, 0xce, 0xd4,
    0xcc, 0xbc, 0x36, 0xe6, 0x11, 0xbe, 0xea, 0x08, 0x54, 0xbd,
    0xe6, 0xe4, 0xda, 0x3c, 0xc5, 0x88, 0x76, 0x3c, 0xd6, 0xe1,
    0x6f, 0x3d, 0x94, 0xa1, 0x0e, 0x3d, 0x7f, 0x75, 0x47, 0xbd,
    0x4e, 0x88, 0x0c, 0xbe, 0x08, 0xfa, 0x66, 0x3d, 0x79, 0xd6,
    0x77, 0xbd, 0x02, 0x65, 0x02, 0x3e, 0x78, 0xd5, 0x27, 0xbe,
    0xb7, 0x7f, 0x02, 0x3d, 0x30, 0x95, 0x11, 0x3d, 0xf8, 0xf1,
    0xba, 0x3c, 0x54, 0xa9, 0xb0, 0x3c, 0x6a, 0xb0, 0x8f, 0xbd,
    0xad, 0x19, 0xe1, 0xbd, 0xb9, 0x80, 0xdb, 0x3d, 0x2a, 0x6e,
    0x1c, 0xbe, 0x2a, 0x5f, 0x99, 0x3d, 0x22, 0x5d, 0x19, 0xbd,
    0xea, 0x2c, 0xd1, 0xbb, 0xcf, 0x7d, 0x19, 0xbd, 0xbb, 0xe3,
    0xd2, 0x3a, 0x32, 0x01, 0x2c, 0xbc, 0x7e, 0x53, 0xcd, 0x3d,
    0x25, 0xe1, 0xa3, 0x3c, 0x5c, 0xcf, 0x2a, 0x3d, 0x27, 0xfd,
    0x08, 0xbe, 0xeb, 0xd8, 0x1a, 0x3d, 0x7b, 0x7b, 0xd2, 0xbd,
    0xc3, 0xd0, 0x9f, 0x3d, 0xa0, 0x8d, 0xfb, 0x3c, 0x40, 0x2b,
    0x47, 0xbc, 0xeb, 0xdc, 0xa9, 0xbd, 0x23, 0x36, 0x2c, 0xbe,
    0x78, 0xdc, 0xae, 0x3d, 0xcd, 0xf9, 0xf7, 0x3c, 0x81, 0x78,
    0x65, 0xbd, 0x6a, 0x10, 0x96, 0xbd, 0x95, 0xd5, 0x9b, 0xbd,
    0x18, 0x80, 0x16, 0x3d, 0xb5, 0xd7, 0x0b, 0x3d, 0x74, 0x41,
    0x1f, 0xbd, 0x39, 0xf6, 0x03, 0xbe, 0x13, 0x67, 0x63, 0xbe,
    0x46, 0xa3, 0xa0, 0xbd, 0x3e, 0x1c, 0x86, 0xbd, 0xaf, 0xb7,
    0xa2, 0xbd, 0xb9, 0xe9, 0xd4, 0x3d, 0x94, 0x26, 0x83, 0xbd,
    0x69, 0xe0, 0x6f, 0xbc, 0x2a, 0xb7, 0x15, 0x3e, 0x2d, 0xad,
    0xb1, 0x3d, 0xa5, 0xe7, 0x30, 0x3e, 0xc9, 0x43, 0xc1, 0x3d,
    0xc5, 0x1c, 0x15, 0xbe, 0x5c, 0xe9, 0x08, 0xbe, 0xee, 0x82,
    0xd4, 0xbd, 0x6c, 0xc9, 0xa7, 0xbd, 0x67, 0x08, 0xa7, 0x3d,
    0xcb, 0xb5, 0x10, 0xbe, 0xb3, 0x9d, 0x09, 0xbe, 0x59, 0x47,
    0x7c, 0xbd, 0xea, 0x8c, 0xa8, 0x3d, 0x9c, 0xd0, 0x35, 0xbc,
    0xc8, 0xbc, 0x3c, 0xbd, 0xe8, 0x28, 0xf7, 0x3c, 0x3c, 0x61,
    0x02, 0x3e, 0x8b, 0xbb, 0x8b, 0xbc, 0x4b, 0x89, 0x61, 0x3d,
    0x12, 0x82, 0x66, 0xbd, 0xb3, 0x25, 0x99, 0xbd, 0x85, 0x27,
    0x9d, 0xbd, 0x75, 0x05, 0x8c, 0x3c, 0xc5, 0x7c, 0x0a, 0x3e,
    0x5c, 0xd6, 0x9f, 0xbc, 0xd5, 0xc8, 0xab, 0xbd, 0xa7, 0x9f,
    0x13, 0xbe, 0x4a, 0x5a, 0xf8, 0xbb, 0xa2, 0xe9, 0x7a, 0x3d,
    0x52, 0xfe, 0x24, 0xbe, 0x1c, 0x34, 0x4b, 0x3d, 0x40, 0x9b,
    0x11, 0xbe, 0xbc, 0x41, 0xa0, 0x3d, 0x7c, 0x91, 0x3f, 0x3c,
    0x10, 0x14, 0x47, 0x3d, 0x98, 0x62, 0xaf, 0x3d, 0x10, 0x10,
    0x1c, 0x3d, 0xfc, 0x77, 0xca, 0x3d, 0xa6, 0xef, 0xc6, 0xbd,
    0x73, 0xa0, 0xd4, 0xbd, 0x5f, 0xdd, 0x18, 0x3e, 0x8b, 0x27,
    0xc1, 0x3c, 0xc3, 0xab, 0xd9, 0xbd, 0x02, 0xf5, 0x0d, 0xbd,
    0x88, 0xe6, 0xba, 0xbd, 0x32, 0x4e, 0xe5, 0x3d, 0x7e, 0xf3,
    0xff, 0x3d, 0x11, 0xbb, 0x0f, 0x3e, 0xd3, 0x2e, 0xe2, 0x3d,
    0x59, 0xb9, 0x34, 0x3e, 0x70, 0x73, 0xfc, 0x3d, 0xbe, 0x1c,
    0xd9, 0x3a, 0x80, 0xef, 0x9f, 0xbd, 0xd3, 0x3e, 0x07, 0xbe,
    0x27, 0x5e, 0x92, 0x3d, 0xaa, 0xcf, 0x20, 0x3e, 0x51, 0x1b,
    0x35, 0xba, 0xa1, 0x2e, 0xa4, 0x3d, 0x20, 0xf8, 0x66, 0xbc,
    0x5f, 0x42, 0xaa, 0xbd, 0xd1, 0x06, 0x0a, 0xbd, 0x20, 0x62,
    0x1e, 0x3d, 0x82, 0x85, 0x9d, 0x3d, 0x0d, 0x92, 0xe7, 0x3b,
    0xaa, 0x4c, 0xf8, 0x3d, 0x52, 0xd4, 0x45, 0x3d, 0x7d, 0x26,
    0x86, 0x3d, 0xa3, 0xaf, 0x90, 0x3d, 0xec, 0x32, 0xe8, 0xbd,
    0x8a, 0xff, 0x0f, 0x3e, 0x28, 0x0d, 0x02, 0xbe, 0x5c, 0xb6,
    0xcf, 0xbd, 0x3c, 0x35, 0xd8, 0x3d, 0x3e, 0xa8, 0xc5, 0xbd,
    0xc2, 0x1d, 0xec, 0xbb, 0xd9, 0xb5, 0xd7, 0xbd, 0xa0, 0x93,
    0x7d, 0xbd, 0x96, 0xfd, 0xcd, 0xbd, 0x68, 0x21, 0x00, 0x3d,
    0x80, 0x4b, 0x07, 0xbe, 0x0b, 0xa9, 0x7d, 0xbe, 0x5f, 0x86,
    0xd1, 0xbd, 0x72, 0x62, 0xc1, 0xbd, 0xd9, 0x05, 0xa2, 0x3d,
    0xfd, 0x25, 0xe8, 0xbd, 0xb1, 0x97, 0x70, 0xbd, 0xa2, 0xa4,
    0x49, 0xbc, 0x33, 0xa9, 0x1a, 0xbe, 0xe3, 0xbe, 0x36, 0x3e,
    0x35, 0xdd, 0xb5, 0xbd, 0x89, 0xc8, 0x40, 0xbe, 0xe6, 0x0f,
    0x10, 0xbd, 0x5a, 0xd0, 0x82, 0x3c, 0x04, 0x34, 0x81, 0x3c,
    0x86, 0x97, 0x37, 0x3b, 0x5a, 0x74, 0x90, 0xbd, 0x99, 0xe6,
    0x90, 0xbd, 0xd0, 0x36, 0x82, 0xbd, 0x8d, 0x70, 0xed, 0x3d,
    0xa9, 0x92, 0x06, 0xbe, 0x90, 0x0e, 0x99, 0x3b, 0xb1, 0x9a,
    0xa2, 0xbd, 0x29, 0x1d, 0x49, 0xbd, 0xeb, 0x77, 0x1c, 0xbd,
    0xa7, 0x76, 0xbf, 0xbd, 0x0a, 0x10, 0xfe, 0x3c, 0x12, 0x6a,
    0xd9, 0xbc, 0xf6, 0x13, 0xde, 0xbc, 0x42, 0xee, 0xa9, 0xbd,
    0xd2, 0x6e, 0xaa, 0xbd, 0x16, 0x80, 0x3f, 0x3d, 0x93, 0x7e,
    0x78, 0xbc, 0x0a, 0x46, 0x03, 0xbc, 0x34, 0xb6, 0x60, 0xbd,
    0x46, 0xd9, 0x7e, 0xbd, 0x1a, 0x7f, 0x14, 0xbc, 0xb5, 0x1a,
    0xc9, 0x3c, 0xe1, 0x36, 0x3d, 0x3d, 0xb8, 0x71, 0xf9, 0x3d,
    0x14, 0x0c, 0xe7, 0xbc, 0xab, 0xac, 0x4a, 0xbd, 0x83, 0xc8,
    0xec, 0x3c, 0x12, 0x06, 0x10, 0x3d, 0xed, 0x7f, 0x85, 0xbd,
    0xb1, 0xd1, 0x94, 0xbb, 0x58, 0xbd, 0x97, 0x3c, 0x22, 0x4f,
    0xc6, 0x3d, 0x05, 0x6c, 0x95, 0x3d, 0x3e, 0x0e, 0xc6, 0xbd,
    0x68, 0xc4, 0x37, 0xbe, 0x5b, 0x3e, 0x9a, 0xbd, 0xea, 0x69,
    0x8e, 0x3d, 0x53, 0x9f, 0x1a, 0xbe, 0x91, 0x22, 0x47, 0xbd,
    0x7c, 0xa0, 0xe5, 0xbc, 0xb1, 0x14, 0xb6, 0xbd, 0xd3, 0x86,
    0xc6, 0x3d, 0xd7, 0xd4, 0xd8, 0xbd, 0x06, 0x9a, 0xec, 0xbd,
    0xbe, 0xa5, 0x4e, 0x3d, 0x5d, 0x00, 0xf0, 0x3b, 0xd3, 0xe9,
    0x98, 0xbc, 0x69, 0x3f, 0x7d, 0x3d, 0xbf, 0xa2, 0xdc, 0x3d,
    0x3a, 0x27, 0x05, 0xbe, 0x33, 0xa7, 0xc0, 0xbc, 0xe2, 0xd4,
    0x7a, 0xbc, 0xe2, 0x0d, 0xb2, 0xbd, 0x6a, 0xfa, 0xd4, 0x3d,
    0x1c, 0xde, 0x1e, 0xbe, 0x2e, 0xa0, 0x3a, 0xbd, 0x21, 0x0a,
    0x4a, 0x3d, 0x8b, 0x1a, 0xe1, 0x3d, 0xc2, 0x5f, 0x96, 0x3c,
    0x4a, 0x49, 0x89, 0x3d, 0xe0, 0xc8, 0xe7, 0x3d, 0xd1, 0xd5,
    0x60, 0x3d, 0x51, 0x97, 0x5c, 0xbd, 0xe8, 0xf1, 0x45, 0x3c,
    0xab, 0xf5, 0x53, 0xbd, 0x28, 0x33, 0x34, 0xbd, 0x9b, 0xca,
    0x00, 0x3e, 0x75, 0xfc, 0x2c, 0x3d, 0xa3, 0x1c, 0xb6, 0xbd,
    0xa6, 0x70, 0xab, 0xbc, 0x06, 0x1c, 0x2b, 0xbd, 0x60, 0x9f,
    0xb6, 0x3d, 0x3a, 0xeb, 0x83, 0xbd, 0xf5, 0x1a, 0x4d, 0xbd,
    0x1a, 0x5e, 0x83, 0x3d, 0xcc, 0x13, 0xe4, 0xbd, 0xf7, 0x72,
    0x18, 0x3b, 0xb6, 0x37, 0x5c, 0xba, 0x96, 0x7d, 0xc8, 0xbd,
    0xc1, 0x7f, 0x88, 0xbd, 0x1d, 0xcb, 0x86, 0xbd, 0xf1, 0x7d,
    0x95, 0x3d, 0xa0, 0x86, 0xbf, 0x3c, 0x53, 0xc5, 0x25, 0x3d,
    0xc6, 0x78, 0x85, 0x3d, 0x18, 0x22, 0x85, 0x3c, 0x30, 0x39,
    0x4c, 0x3d, 0x29, 0xe8, 0x7c, 0xbd, 0x9d, 0x74, 0x04, 0x3d,
    0x8c, 0x83, 0x59, 0x3b, 0x36, 0xcc, 0x91, 0x3d, 0xde, 0x3c,
    0x19, 0x3c, 0x68, 0xaf, 0x17, 0x3e, 0xb8, 0x46, 0xfe, 0x3d,
    0x11, 0x9f, 0x99, 0xbb, 0x69, 0xec, 0x72, 0x3d, 0x89, 0x3c,
    0xe9, 0x3c, 0xf8, 0x12, 0xbd, 0x3c, 0xba, 0xf0, 0x9c, 0x3d,
    0xe3, 0xc3, 0x86, 0x3c, 0x8d, 0xc1, 0xd1, 0x3c, 0xe5, 0x85,
    0xb9, 0x3c, 0xa1, 0x3d, 0x4a, 0x3d, 0xb0, 0x71, 0x2f, 0xbd,
    0xbd, 0x82, 0x21, 0xbd, 0xd2, 0x62, 0x95, 0x3d, 0xdb, 0xc2,
    0x1f, 0xbe, 0x5a, 0x98, 0x43, 0x3c, 0x4a, 0x2c, 0xa8, 0x3d,
    0x8f, 0x80, 0x42, 0xbd, 0x0a, 0xbb, 0xe1, 0x3c, 0xd2, 0xda,
    0xa0, 0x3d, 0x0c, 0x94, 0xa0, 0x3c, 0xa3, 0x74, 0x2a, 0x3e,
    0x94, 0x8d, 0x0b, 0x3e, 0x2a, 0x2e, 0x0a, 0x3d, 0xd1, 0x68,
    0xa2, 0x3d, 0x11, 0xb8, 0x39, 0xbd, 0x78, 0x31, 0x69, 0x3d,
    0x3a, 0xe2, 0x1a, 0xbe, 0xf5, 0x72, 0x64, 0xbd, 0xdf, 0xa6,
    0x38, 0x3d, 0x9c, 0x0d, 0xe6, 0xbd, 0xf7, 0xfe, 0xb9, 0xbd,
    0x55, 0x5f, 0xb8, 0xbd, 0x10, 0x4b, 0x34, 0xbd, 0x9c, 0x60,
    0x8d, 0xbd, 0x0b, 0xb6, 0x12, 0x3e, 0xeb, 0xf2, 0x8c, 0xbc,
    0x49, 0x4f, 0xad, 0x3d, 0x45, 0xa7, 0x00, 0x3e, 0x23, 0x65,
    0x08, 0xbe, 0xd6, 0x9a, 0xd4, 0x3d, 0xaa, 0x1a, 0x3e, 0xbd,
    0xd5, 0xb2, 0x30, 0x3c, 0xd5, 0x26, 0xb2, 0xbc, 0x55, 0x6b,
    0xfd, 0xbd, 0xd4, 0x65, 0x03, 0xbe, 0x99, 0x9f, 0x2c, 0x3c,
    0x5d, 0x53, 0xa5, 0x3d, 0x83, 0x84, 0xb9, 0xbd, 0xf5, 0xb0,
    0xdb, 0x3d, 0x7d, 0x63, 0x0f, 0x3d, 0xab, 0x5a, 0xb7, 0x3d,
    0x37, 0xde, 0xcb, 0xbd, 0xd8, 0x73, 0x82, 0x3d, 0x24, 0x0a,
    0xf2, 0x3d, 0xa3, 0xfa, 0x42, 0xbd, 0x74, 0x89, 0x23, 0x3d,
    0xee, 0x9e, 0x66, 0xbd, 0xcd, 0x53, 0x8c, 0x3d, 0x09, 0x8e,
    0x79, 0xbd, 0x2f, 0xa4, 0x12, 0x3d, 0xc8, 0x9d, 0x92, 0xbd,
    0x6b, 0xa0, 0xc0, 0xbd, 0x27, 0x08, 0xda, 0xbd, 0xe2, 0x7e,
    0x7b, 0x3d, 0x9a, 0xff, 0x1e, 0xbe, 0xe9, 0xcd, 0x4e, 0xbd,
    0xb8, 0x79, 0x47, 0xbc, 0x5a, 0x98, 0xbf, 0xbd, 0xa5, 0x2d,
    0xc3, 0xba, 0x82, 0x46, 0x52, 0x3d, 0x38, 0x4a, 0xe9, 0x3d,
    0xe5, 0x5b, 0xb8, 0xbc, 0x74, 0xe7, 0x02, 0x3e, 0xb6, 0xf8,
    0x65, 0x3d, 0xb0, 0xe5, 0x02, 0xbe, 0x71, 0x45, 0x37, 0x3d,
    0xad, 0x28, 0x83, 0x3c, 0xb1, 0xd3, 0x01, 0xbe, 0x50, 0x9d,
    0x11, 0xbb, 0x99, 0xec, 0x40, 0xbc, 0x6f, 0xdc, 0x11, 0xbe,
    0x27, 0x5a, 0xc0, 0xbd, 0xc8, 0x11, 0x5b, 0x3d, 0xf9, 0x8a,
    0x6c, 0xbc, 0x5c, 0x54, 0xaf, 0x3d, 0xd6, 0xea, 0x5d, 0x3d,
    0x89, 0x71, 0x9f, 0x3c, 0xbc, 0x0f, 0x21, 0xbc, 0x15, 0xa1,
    0xc3, 0x3d, 0xa4, 0x97, 0x94, 0x3d, 0x38, 0x3f, 0x2a, 0x3b,
    0x91, 0xef, 0x99, 0xbd, 0xa1, 0x84, 0x9b, 0xbd, 0x35, 0x11,
    0x04, 0xbe, 0x15, 0x80, 0x05, 0xbd, 0x4f, 0x77, 0x8b, 0xbd,
    0x66, 0xef, 0x3a, 0xbd, 0x73, 0xaf, 0xa4, 0xbc, 0x08, 0xe4,
    0xd2, 0x3d, 0x31, 0xb6, 0xac, 0xbc, 0x92, 0xe9, 0x4b, 0x3d,
    0xa1, 0x60, 0xf3, 0x3c, 0x2e, 0x44, 0x1a, 0x3d, 0xf6, 0x18,
    0xca, 0xbd, 0x4e, 0x2c, 0x9e, 0x3d, 0xc4, 0xc7, 0x50, 0xbd,
    0x28, 0x0b, 0x8a, 0x3c, 0x64, 0x0e, 0xf3, 0x3c, 0x00, 0x58,
    0x29, 0x3d, 0x19, 0x82, 0x4e, 0xbd, 0xdc, 0xfe, 0x3c, 0xbd,
    0x49, 0xaa, 0xa3, 0x3d, 0x7d, 0xe1, 0x9b, 0xbd, 0x7e, 0x44,
    0xeb, 0xbc, 0x43, 0x90, 0x8f, 0xbd, 0x2c, 0xbb, 0x44, 0x3d,
    0xfd, 0x2e, 0xf2, 0xbd, 0xb0, 0x69, 0xe5, 0x3d, 0x30, 0x52,
    0x90, 0x3b, 0x0d, 0x70, 0x8e, 0xbc, 0x73, 0xe6, 0xb3, 0x3c,
    0xf8, 0x31, 0x4c, 0xbd, 0x19, 0x5c, 0x41, 0x3d, 0xb6, 0x10,
    0x78, 0x3d, 0x6d, 0x25, 0x7d, 0x3b, 0x40, 0xee, 0x70, 0xbd,
    0xf0, 0x55, 0x44, 0x3d, 0x20, 0x01, 0xa8, 0x3d, 0x4e, 0x35,
    0xf9, 0xbd, 0x68, 0x48, 0xca, 0x3c, 0x8a, 0x75, 0xec, 0xbd,
    0x43, 0x8d, 0x00, 0xbe, 0x00, 0x32, 0x7b, 0xbc, 0x23, 0xe7,
    0x23, 0x3e, 0x91, 0x8e, 0xd0, 0xbd, 0x63, 0xbc, 0x88, 0x3c,
    0x50, 0x4a, 0xca, 0x3d, 0x7f, 0xa9, 0x0c, 0x3e, 0xf3, 0xa8,
    0x2b, 0x3d, 0x77, 0xdc, 0x1c, 0xbd, 0x36, 0x82, 0x0d, 0x3e,
    0xbe, 0x10, 0x2a, 0x3d, 0x2f, 0x52, 0xea, 0x3d, 0xea, 0x44,
    0x94, 0xbd, 0x07, 0x73, 0x9b, 0xbd, 0xf6, 0xb3, 0x3f, 0x3d,
    0xae, 0xb4, 0x34, 0x3d, 0x58, 0xf7, 0x5d, 0xbd, 0xad, 0x0e,
    0xb1, 0x3d, 0x0a, 0x8e, 0xe5, 0xbd, 0xb8, 0x3b, 0x11, 0x3e,
    0x02, 0x45, 0x39, 0x3d, 0x19, 0xa9, 0x62, 0xbd, 0xd7, 0x30,
    0x5c, 0x3d, 0x1e, 0x0c, 0x38, 0xbc, 0xec, 0x55, 0x30, 0x3d,
    0x8c, 0x58, 0x10, 0xbd, 0x71, 0x6d, 0x8f, 0x3d, 0x06, 0xee,
    0xe2, 0xbd, 0xe7, 0xab, 0x9b, 0xbd, 0xf9, 0x02, 0x7b, 0xbd,
    0x56, 0xbf, 0x7c, 0xbd, 0x06, 0x78, 0x86, 0xbd, 0x3d, 0xf4,
    0x96, 0x3d, 0xbd, 0x54, 0xf2, 0xbd, 0x7f, 0xea, 0x28, 0xbd,
    0xb5, 0x21, 0x81, 0x3d, 0x8d, 0x0f, 0xb4, 0x3d, 0x57, 0xce,
    0x38, 0x3d, 0x66, 0x84, 0xb4, 0xbd, 0x86, 0xb2, 0xa8, 0x3d,
    0xda, 0x77, 0x86, 0x3d, 0xce, 0xd6, 0x00, 0x3e, 0xcc, 0xac,
    0x65, 0xbd, 0x2d, 0x2c, 0x96, 0xbd, 0xa0, 0x65, 0x8a, 0x3d,
    0x7d, 0x19, 0x92, 0xbd, 0xee, 0x67, 0x8b, 0x3b, 0xa4, 0x02,
    0x00, 0x3e, 0x17, 0x46, 0x94, 0xbd, 0xdc, 0x56, 0x97, 0xbd,
    0x75, 0x5f, 0x57, 0x3d, 0x97, 0x65, 0x08, 0x3e, 0xe5, 0x76,
    0x45, 0x3d, 0xf0, 0x65, 0x95, 0x3d, 0x3c, 0xb1, 0x5c, 0xbd,
    0xd7, 0x73, 0xb9, 0x3d, 0xfe, 0x62, 0x4b, 0xbc, 0x67, 0xe9,
    0x0e, 0x3e, 0xec, 0x33, 0xdf, 0x3c, 0x1d, 0x77, 0x15, 0xbe,
    0x7b, 0xf1, 0xa5, 0xbd, 0xba, 0x99, 0x57, 0xbc, 0x0a, 0x5a,
    0x07, 0x3d, 0x77, 0x0a, 0xbd, 0xbd, 0xb1, 0x13, 0x86, 0x3d,
    0x6b, 0x62, 0x41, 0x3b, 0x5e, 0x8e, 0x68, 0xbe, 0x78, 0xe5,
    0x0a, 0xbe, 0xc8, 0x91, 0xdf, 0x3d, 0x3a, 0x69, 0x4f, 0x3d,
    0x6c, 0x4a, 0xb5, 0xbd, 0x35, 0xa1, 0xcb, 0x3d, 0xa1, 0xa9,
    0xc2, 0x3d, 0x35, 0xdf, 0x52, 0x3d, 0x05, 0xc6, 0xe4, 0x3d,
    0xbe, 0x15, 0x98, 0x3d, 0xa7, 0x73, 0x56, 0xbd, 0x69, 0x2c,
    0x8f, 0xbd, 0x76, 0x62, 0xce, 0xbd, 0x33, 0x26, 0x7a, 0xbd,
    0xcb, 0x17, 0xb9, 0xbd, 0xfe, 0x5c, 0x28, 0xbe, 0xac, 0x0c,
    0x7d, 0x3d, 0xbc, 0x6f, 0xf9, 0x3d, 0xd1, 0x11, 0x56, 0x3d,
    0x30, 0x7b, 0x8b, 0x3d, 0xc1, 0x6c, 0xc3, 0x3d, 0xa6, 0xd1,
    0xd9, 0x3d, 0x76, 0xf3, 0x38, 0xbd, 0x11, 0xef, 0x01, 0x3e,
    0x76, 0x14, 0x91, 0xbd, 0x9a, 0x81, 0x32, 0x3b, 0x3b, 0xfb,
    0x7b, 0xbd, 0x5f, 0xbe, 0xa9, 0xbd, 0x8a, 0x29, 0xa6, 0x3d,
    0x1c, 0x2f, 0xa9, 0xbd, 0xde, 0x9d, 0x9b, 0xbd, 0x91, 0xd3,
    0x71, 0x3d, 0x41, 0xba, 0x02, 0xba, 0x52, 0x56, 0x6d, 0x3c,
    0xd9, 0xbe, 0x5d, 0xbd, 0xa7, 0xc4, 0xe2, 0x3d, 0xb2, 0xe8,
    0xa5, 0xbd, 0xc2, 0xcc, 0xd3, 0xbb, 0x68, 0x73, 0xe4, 0x3c,
    0x39, 0x96, 0x23, 0xbe, 0xc1, 0x06, 0xcf, 0xbd, 0x30, 0x5d,
    0x84, 0xbd, 0x47, 0x2e, 0x20, 0xbe, 0xc7, 0x33, 0x2f, 0x3d,
    0xe5, 0x0a, 0xc4, 0xbd, 0xc8, 0x23, 0xf8, 0x3a, 0x89, 0x59,
    0xb1, 0x3d, 0x91, 0xf0, 0x02, 0xbe, 0x61, 0xec, 0xbd, 0xbd,
    0x3c, 0x8e, 0x55, 0xbd, 0x35, 0x70, 0x54, 0x3d, 0x8e, 0x94,
    0x42, 0xbe, 0x93, 0x62, 0x2d, 0xbd, 0xef, 0x06, 0x39, 0xbe,
    0x2f, 0xec, 0xdd, 0xbd, 0xa6, 0x34, 0xce, 0xbd, 0x09, 0xde,
    0xb0, 0xbc, 0xc7, 0xfb, 0xcd, 0xbd, 0x77, 0x50, 0x55, 0xbe,
    0xc7, 0xcf, 0x3e, 0xbe, 0x11, 0x0c, 0xec, 0xbd, 0x54, 0x23,
    0x88, 0x3d, 0x0d, 0xb5, 0x3c, 0x3d, 0x72, 0xaf, 0xc9, 0x3d,
    0xb2, 0x87, 0xf0, 0x3d, 0x67, 0x46, 0xec, 0xbd, 0x45, 0x08,
    0x90, 0x3d, 0xdd, 0x5a, 0x40, 0xbe, 0x02, 0xd1, 0xb5, 0xbd,
    0xc7, 0x1a, 0x3b, 0xbe, 0x5b, 0xe1, 0x6e, 0xbd, 0x02, 0xef,
    0x86, 0xbc, 0x6e, 0xff, 0xd0, 0x3d, 0x88, 0x3a, 0x93, 0xbd,
    0xdf, 0x9e, 0x58, 0x3d, 0x3a, 0x73, 0xaf, 0x3d, 0x8a, 0xdc,
    0x4f, 0x3e, 0x95, 0xe3, 0xec, 0xbd, 0xa6, 0xde, 0x2e, 0x3c,
    0x42, 0x0a, 0x70, 0xbc, 0xa8, 0xdd, 0x6f, 0xbd, 0xfc, 0x27,
    0x0f, 0x3e, 0x32, 0xdb, 0x91, 0xbd, 0xeb, 0xa8, 0x98, 0x3c,
    0x92, 0x74, 0x0f, 0xbe, 0xee, 0xfe, 0x1c, 0xbe, 0x68, 0xd2,
    0xdc, 0xbc, 0x89, 0x77, 0xfd, 0xbd, 0x06, 0x5d, 0x8e, 0x3d,
    0xf7, 0x65, 0x0f, 0xbd, 0x73, 0x3c, 0x2c, 0xbe, 0x5f, 0x25,
    0x82, 0x3c, 0x2e, 0x63, 0x84, 0xbc, 0x4d, 0x59, 0x89, 0x3d,
    0x5e, 0x36, 0x22, 0x39, 0xa3, 0xd5, 0xd7, 0xbc, 0x0e, 0x28,
    0xed, 0xbc, 0x2b, 0x50, 0xf1, 0xbd, 0x28, 0x9a, 0x82, 0xbd,
    0x20, 0x04, 0x3b, 0xbe, 0xfc, 0x2a, 0xad, 0x3d, 0x98, 0xc8,
    0x48, 0xbd, 0xd6, 0x66, 0x0d, 0x3d, 0xaf, 0x82, 0x49, 0x3d,
    0xc2, 0xc6, 0xab, 0x3b, 0x46, 0x62, 0xad, 0xbd, 0x79, 0xbb,
    0x0d, 0xbd, 0x1d, 0x55, 0x09, 0xbe, 0x2e, 0x80, 0x23, 0xbe,
    0x9d, 0xf0, 0x4e, 0x3d, 0x40, 0x87, 0xfe, 0xbd, 0xcf, 0x04,
    0xae, 0xbd, 0x75, 0x53, 0xc4, 0xbd, 0x61, 0xb3, 0x0d, 0x3c,
    0x43, 0xf6, 0x4d, 0x3b, 0xf2, 0x9c, 0xe1, 0xbd, 0xaa, 0xa5,
    0x07, 0x3e, 0x7a, 0x38, 0xe7, 0x3c, 0xea, 0x73, 0x1c, 0xbe,
    0xe9, 0x79, 0x9c, 0xbc, 0xd3, 0x6b, 0x97, 0xbd, 0xba, 0xcf,
    0x25, 0x3e, 0x8a, 0x49, 0x10, 0xbb, 0x9f, 0xf1, 0x82, 0x3d,
    0xbb, 0xe8, 0x1c, 0xbd, 0xe8, 0x1c, 0xe4, 0x3d, 0x24, 0xcc,
    0x0e, 0xbd, 0x38, 0xd3, 0x60, 0x3b, 0x4e, 0xca, 0xb8, 0xbb,
    0xf6, 0x59, 0x87, 0x3d, 0x13, 0x7e, 0x7b, 0x3c, 0xc9, 0xf8,
    0xa4, 0x3d, 0xbc, 0xbe, 0x1e, 0xbe, 0x5c, 0x82, 0x00, 0xbd,
    0x58, 0xc8, 0xba, 0x3d, 0xdf, 0x99, 0x6d, 0xbe, 0xd0, 0xed,
    0x21, 0xbd, 0x48, 0x42, 0x8f, 0xbd, 0x0d, 0xff, 0xa7, 0x3d,
    0xc5, 0xdb, 0x96, 0x3d, 0x2c, 0x1a, 0x2f, 0xbe, 0xef, 0xe4,
    0xbe, 0x3d, 0x36, 0x1e, 0x23, 0x3d, 0x9c, 0x1e, 0xf5, 0x3d,
    0x96, 0x23, 0x41, 0xbc, 0x97, 0x99, 0xb1, 0xbd, 0xbb, 0xf6,
    0x2d, 0xbd, 0xd1, 0xb7, 0xf4, 0x3d, 0x0c, 0xe5, 0x11, 0xbe,
    0xd5, 0xcf, 0xd7, 0x3d, 0x08, 0xa4, 0x99, 0x3d, 0x5f, 0x75,
    0x4b, 0x3c, 0x16, 0xa7, 0x2b, 0x3e, 0x50, 0xac, 0x01, 0x3d,
    0x18, 0x93, 0x87, 0x3c, 0xfb, 0x7a, 0xaf, 0x3d, 0x72, 0x81,
    0x0b, 0x3e, 0x1c, 0xdc, 0x80, 0x3d, 0xc7, 0x42, 0xd4, 0xbd,
    0x3b, 0xba, 0xaa, 0x3d, 0x17, 0x97, 0xae, 0x3d, 0xe9, 0x0e,
    0x15, 0x3d, 0xc4, 0x45, 0xba, 0x3d, 0x22, 0x40, 0x48, 0xbd,
    0x4a, 0xa9, 0x60, 0xbc, 0x00, 0x39, 0xcc, 0x3d, 0x48, 0xeb,
    0x1e, 0xbe, 0x02, 0x0e, 0xdb, 0x3d, 0x0d, 0x8a, 0x40, 0x3d,
    0xbb, 0x34, 0x03, 0x3e, 0xa1, 0x88, 0x49, 0xbb, 0x3c, 0x69,
    0x70, 0x3d, 0x68, 0x43, 0xc1, 0xbd, 0xe9, 0xa0, 0x06, 0x3d,
    0x5e, 0x89, 0x8b, 0x3d, 0xe3, 0x2d, 0x12, 0x3e, 0x56, 0x85,
    0xb3, 0xbd, 0x1a, 0x76, 0xcc, 0xbd, 0x3b, 0x1c, 0xa3, 0xbd,
    0x1d, 0x1a, 0xc0, 0xbd, 0xa9, 0x0d, 0xbe, 0x3c, 0x6c, 0x7a,
    0xed, 0xbd, 0xeb, 0x74, 0xf2, 0xbc, 0x1e, 0x6a, 0x9c, 0xbb,
    0x23, 0x2f, 0x26, 0xbe, 0x12, 0xf4, 0xeb, 0xbc, 0xad, 0x43,
    0x06, 0x3c, 0x12, 0x09, 0x05, 0x3e, 0xfa, 0xc3, 0x6f, 0xbb,
    0xb7, 0xca, 0x51, 0xbd, 0xa0, 0x14, 0x41, 0xbd, 0x28, 0x12,
    0xc9, 0xbc, 0xbe, 0x45, 0x4f, 0xbe, 0x1c, 0x3a, 0x2a, 0xbe,
    0xb6, 0x1e, 0xdd, 0x3d, 0x3b, 0x6c, 0x43, 0x3d, 0x21, 0x70,
    0xa0, 0x3d, 0xec, 0x42, 0x04, 0xbd, 0x2e, 0xe8, 0xba, 0xbd,
    0x47, 0x2d, 0xf1, 0x3d, 0x88, 0xc7, 0x55, 0xbd, 0xbe, 0x35,
    0xa3, 0x3d, 0xff, 0x22, 0x15, 0xbd, 0xa8, 0x2f, 0x78, 0x3c,
    0xfa, 0x83, 0x63, 0x3d, 0x23, 0xb4, 0xb5, 0xbd, 0x8f, 0xc6,
    0x85, 0xbd, 0x52, 0x82, 0x8a, 0xbc, 0xb6, 0x15, 0xaa, 0x3c,
    0x77, 0x9d, 0xbc, 0xbc, 0x6d, 0x0b, 0x46, 0xbd, 0x03, 0x38,
    0xc9, 0x3c, 0xe0, 0xfe, 0x25, 0x3d, 0x99, 0x06, 0x6b, 0xbd,
    0xda, 0xa3, 0x55, 0x3d, 0xeb, 0x35, 0x93, 0x3d, 0x2c, 0x06,
    0x1f, 0x3d, 0x1b, 0x9c, 0x94, 0xbd, 0x44, 0x27, 0x38, 0x3d,
    0xbf, 0x7b, 0x00, 0xbd, 0xc0, 0xd4, 0x17, 0xbc, 0x6f, 0xb4,
    0x0b, 0xbe, 0xe1, 0xb0, 0xbc, 0xbd, 0x63, 0x87, 0x97, 0xbd,
    0x92, 0x8e, 0x90, 0xbd, 0x32, 0x1c, 0x8e, 0xbd, 0x01, 0xd4,
    0xd6, 0xbd, 0xc0, 0xc8, 0xa0, 0x3d, 0xa1, 0x8c, 0x92, 0xbd,
    0x8f, 0x91, 0x84, 0xbd, 0x97, 0x56, 0x9b, 0x3d, 0xbc, 0x34,
    0x27, 0x3d, 0x32, 0xa0, 0x3a, 0xbe, 0x9a, 0x5c, 0x29, 0x3e,
    0xe2, 0x36, 0x8f, 0x3c, 0x65, 0x73, 0x4c, 0x3e, 0x37, 0xb4,
    0x19, 0x3e, 0xb2, 0xcc, 0x91, 0x3d, 0x13, 0x43, 0xdb, 0x3d,
    0x0c, 0x30, 0xcc, 0x3b, 0xed, 0xee, 0x06, 0x3e, 0xee, 0x9d,
    0x0c, 0xbe, 0x24, 0xbf, 0xab, 0xbc, 0x7f, 0x8e, 0x90, 0x3c,
    0x62, 0x7d, 0x1b, 0x3e, 0x0a, 0xc0, 0x5b, 0x3c, 0x95, 0x36,
    0x8f, 0xbc, 0xdf, 0xf5, 0x8a, 0x3c, 0xf8, 0x02, 0x77, 0xbd,
    0xa7, 0x09, 0xb4, 0xbd, 0xce, 0x70, 0x9a, 0x3d, 0x14, 0xc2,
    0x44, 0xbe, 0x99, 0xf3, 0x4c, 0x3e, 0x37, 0xdc, 0x0d, 0xbe,
    0x01, 0x7c, 0x44, 0x3e, 0x4c, 0xe5, 0x77, 0x3d, 0x35, 0xc5,
    0x32, 0x3d, 0xd0, 0xd2, 0x08, 0xb7, 0x23, 0xe1, 0x95, 0xbc,
    0xe4, 0x5b, 0x00, 0xbe, 0x1b, 0xc7, 0xaa, 0x3c, 0x61, 0x7b,
    0x31, 0xbe, 0xe5, 0xd4, 0x68, 0xba, 0xe2, 0x54, 0xfd, 0xbc,
    0x58, 0x09, 0xc5, 0xbc, 0xe8, 0xdc, 0x2c, 0x3e, 0xe3, 0x83,
    0x90, 0xbd, 0xa1, 0xc4, 0xcc, 0x3d, 0x9a, 0xa6, 0x80, 0xbd,
    0x52, 0xc6, 0x31, 0x3e, 0xe3, 0x76, 0x9e, 0x3d, 0xa0, 0x25,
    0x0d, 0xbe, 0x8c, 0xf8, 0x77, 0xbc, 0xcc, 0x8b, 0x6b, 0xbe,
    0x00, 0x96, 0xb1, 0xbb, 0x1e, 0xa6, 0xdd, 0xbd, 0x85, 0xce,
    0x4e, 0xbc, 0x89, 0x62, 0x46, 0xbe, 0xf0, 0x43, 0xb8, 0x3c,
    0xdf, 0x19, 0xd9, 0xbd, 0xe4, 0xc8, 0xa1, 0xbd, 0x48, 0x58,
    0x62, 0xbd, 0x36, 0xf0, 0x55, 0xbc, 0x9b, 0xf6, 0x12, 0xbe,
    0x97, 0x77, 0x6f, 0xbd, 0x1c, 0x22, 0x4f, 0xbd, 0x29, 0x58,
    0xe9, 0x3d, 0x30, 0x6e, 0x9d, 0xbd, 0x20, 0x73, 0x0c, 0x3e,
    0xfc, 0x0b, 0x38, 0x3d, 0xdb, 0x53, 0x8b, 0xbc, 0xe3, 0x67,
    0x5d, 0x3d, 0xb1, 0x71, 0xcd, 0xbd, 0xc2, 0xea, 0x40, 0x3d,
    0x79, 0x63, 0xbe, 0xbc, 0x29, 0xe8, 0x91, 0x3c, 0x52, 0xba,
    0x6c, 0xbd, 0x7f, 0x49, 0x87, 0xbd, 0x3a, 0xf8, 0x0b, 0xbc,
    0x3f, 0x9b, 0x34, 0xbd, 0xa7, 0xee, 0xce, 0x3c, 0x5a, 0xfe,
    0x9d, 0xbd, 0xa9, 0xb2, 0xd6, 0x3d, 0xac, 0xe2, 0xa7, 0x3d,
    0x59, 0x7b, 0x0c, 0xbe, 0xda, 0xb9, 0xe9, 0xbd, 0xc0, 0xbe,
    0x01, 0xbd, 0xa3, 0x63, 0x71, 0x3d, 0xf0, 0xa5, 0xcc, 0xbc,
    0x1d, 0xfe, 0x56, 0xbd, 0xea, 0x81, 0x9a, 0xbc, 0x04, 0xd6,
    0xe3, 0xbd, 0x3b, 0xb5, 0x78, 0x3c, 0xc0, 0x85, 0x2c, 0x3b,
    0x07, 0x19, 0xe2, 0x3c, 0x77, 0x34, 0x0a, 0x3e, 0xab, 0x29,
    0xc0, 0xbd, 0xb8, 0x0f, 0x25, 0x3d, 0xdc, 0x91, 0x9a, 0x3d,
    0xf7, 0xc4, 0x12, 0x3c, 0xde, 0x18, 0x42, 0x3d, 0x04, 0x65,
    0xb6, 0x3d, 0x02, 0xd2, 0x0f, 0x3d, 0x6f, 0x36, 0x86, 0x3c,
    0xc3, 0xa3, 0x0b, 0x3e, 0x5d, 0x33, 0x43, 0xbd, 0xb8, 0x4e,
    0xad, 0x3d, 0xf3, 0x99, 0xec, 0x3d, 0x0e, 0xa3, 0x99, 0xbd,
    0x6d, 0xe2, 0x07, 0xbe, 0xde, 0x46, 0xa2, 0x3d, 0x37, 0x30,
    0x8e, 0x3d, 0x95, 0x81, 0xdd, 0xbc, 0x96, 0xe6, 0x09, 0xbc,
    0xcb, 0xc2, 0x0a, 0xbd, 0x91, 0x0f, 0xcd, 0x3d, 0xb7, 0x63,
    0x78, 0x3b, 0xde, 0x3f, 0x94, 0xbd, 0x17, 0xdc, 0x64, 0xbc,
    0xae, 0x4f, 0xaf, 0x3d, 0x41, 0xe8, 0x00, 0xbe, 0x0e, 0x25,
    0x67, 0xbb, 0x30, 0x69, 0xae, 0xbc, 0xbb, 0x99, 0xca, 0x3d,
    0x2b, 0xed, 0x0b, 0xbe, 0x17, 0x7d, 0x1a, 0x3c, 0x76, 0x26,
    0x01, 0x3d, 0xe7, 0x31, 0xfd, 0xbd, 0xaf, 0x37, 0xd5, 0x3c,
    0xe5, 0x0f, 0xa7, 0xbc, 0xf6, 0xb1, 0x29, 0xbe, 0x97, 0x95,
    0x2a, 0xbd, 0x3a, 0x7d, 0x21, 0xbc, 0xef, 0x2a, 0x96, 0x3d,
    0x39, 0xdc, 0x18, 0xbe, 0x95, 0x57, 0x42, 0xbc, 0xc8, 0x74,
    0xd8, 0xbd, 0x2b, 0x6e, 0x86, 0xbd, 0xf0, 0x44, 0xbe, 0x3c,
    0xd6, 0x57, 0x03, 0xbd, 0xfd, 0xbd, 0x22, 0xbd, 0x3d, 0xae,
    0x42, 0x3e, 0xbb, 0xd1, 0xd0, 0xbd, 0x45, 0xb3, 0x14, 0xbd,
    0x02, 0x30, 0x90, 0x3d, 0x30, 0xfb, 0x4d, 0x3d, 0x59, 0xe8,
    0x64, 0xbd, 0x06, 0xe9, 0x30, 0xbd, 0xfd, 0x60, 0xa0, 0x3c,
    0x6b, 0xd6, 0x23, 0xbd, 0x68, 0xe6, 0x81, 0xbb, 0xf3, 0x5b,
    0xe0, 0x3c, 0x6c, 0xbb, 0x32, 0xbd, 0xca, 0x4b, 0xe1, 0xbd,
    0x6b, 0x06, 0x87, 0xbc, 0xa1, 0xb9, 0x98, 0xbd, 0x7d, 0x1a,
    0xb1, 0x3d, 0xa4, 0x8f, 0xe5, 0x3c, 0xe7, 0x4e, 0x23, 0xbd,
    0xb6, 0xc0, 0xe7, 0x3d, 0xfd, 0x92, 0x67, 0x3d, 0x78, 0x3e,
    0xb1, 0xbd, 0x01, 0xe7, 0xb1, 0x3c, 0x46, 0x8f, 0xcb, 0x3d,
    0xd0, 0xc0, 0xb9, 0x3d, 0x8c, 0x08, 0x19, 0x3e, 0x4f, 0x0e,
    0x4a, 0x3d, 0xaf, 0xd8, 0x43, 0x3e, 0x8b, 0xa3, 0x77, 0x3c,
    0x38, 0xdb, 0x77, 0x3d, 0x49, 0x13, 0xc9, 0x3c, 0x53, 0x25,
    0xc4, 0x3d, 0x49, 0x8b, 0x7d, 0x3d, 0xcf, 0x2d, 0xd6, 0x3d,
    0x62, 0x54, 0x88, 0x3b, 0xc3, 0x88, 0xa8, 0x3c, 0xa1, 0x51,
    0x82, 0x3d, 0x49, 0x43, 0xdd, 0x3d, 0x2f, 0x78, 0x55, 0x3d,
    0xe4, 0xe0, 0xdd, 0x3c, 0xf8, 0x90, 0xb7, 0x3d, 0x7a, 0x16,
    0x34, 0x3e, 0x72, 0x91, 0xf3, 0xbc, 0xad, 0xbc, 0x48, 0x3d,
    0xed, 0x3d, 0x41, 0xbb, 0x71, 0x90, 0xf1, 0x3b, 0xa0, 0xc1,
    0x35, 0xbc, 0x91, 0x28, 0xcd, 0x3d, 0x51, 0x6c, 0x8b, 0x3d,
    0x28, 0x05, 0x48, 0xbd, 0xa0, 0xd2, 0xb8, 0x3d, 0x3b, 0x4d,
    0x63, 0x3d, 0x5f, 0x58, 0x02, 0x3d, 0x93, 0xfb, 0x1d, 0x3e,
    0x88, 0xbe, 0xf0, 0xbd, 0x4f, 0x66, 0x5c, 0xbd, 0x7f, 0x22,
    0x2f, 0x3d, 0x61, 0x82, 0x42, 0x3e, 0x65, 0x8a, 0x15, 0xbc,
    0xd3, 0x9f, 0x10, 0x3e, 0xf5, 0xa0, 0x00, 0xbe, 0xb4, 0xa0,
    0x4c, 0x3e, 0xf0, 0x35, 0xfc, 0x3d, 0xe3, 0xae, 0xa2, 0xbb,
    0x77, 0x09, 0x58, 0xba, 0x0b, 0xe5, 0x12, 0xbd, 0x1d, 0x96,
    0x8a, 0xbd, 0x05, 0xd6, 0x78, 0x3d, 0x28, 0xf6, 0x06, 0x3d,
    0xc2, 0x27, 0xe3, 0xbd, 0xca, 0xfc, 0x9e, 0xbd, 0x15, 0xae,
    0xe5, 0x3c, 0xd0, 0xe7, 0x0e, 0xbd, 0x65, 0x45, 0x60, 0x3d,
    0x67, 0xa7, 0xf9, 0xbd, 0xad, 0xae, 0x94, 0xbd, 0x6b, 0xd4,
    0x3b, 0x3d, 0xce, 0xfa, 0xb8, 0xbd, 0xdb, 0xa8, 0x8e, 0x3d,
    0x9d, 0xd8, 0xb4, 0xbd, 0x9b, 0xba, 0xfd, 0x3c, 0xfc, 0x95,
    0xa5, 0x3d, 0x40, 0x1f, 0x03, 0xbe, 0x50, 0x8d, 0x43, 0x3d,
    0x8b, 0x7c, 0xff, 0xbd, 0xb8, 0x59, 0xb3, 0xbd, 0x6e, 0x4d,
    0x57, 0xbd, 0xb7, 0x9e, 0x03, 0x3d, 0xd2, 0xf6, 0x06, 0xbe,
    0x9c, 0xe4, 0xd1, 0xbc, 0xfe, 0xae, 0x8d, 0xbd, 0x09, 0xbc,
    0x38, 0xbd, 0xd3, 0x51, 0xac, 0x3d, 0x6c, 0xf4, 0x39, 0xbc,
    0xd3, 0x5c, 0x68, 0xbd, 0xa4, 0x83, 0xe8, 0x3d, 0x75, 0xf3,
    0x78, 0x3c, 0x2e, 0x66, 0x8d, 0xbd, 0xeb, 0x93, 0x28, 0xbd,
    0xa4, 0xc8, 0x66, 0x3d, 0xe7, 0x32, 0xce, 0xbc, 0x76, 0x50,
    0xa3, 0xbd, 0x27, 0xbd, 0xc8, 0xbd, 0xd7, 0xaa, 0x24, 0xbd,
    0xc0, 0x0f, 0x9c, 0xbd, 0x5a, 0xec, 0x19, 0xbe, 0xae, 0x98,
    0xa4, 0xbc, 0x3d, 0xbe, 0xf7, 0xbd, 0xc9, 0x0f, 0x0b, 0x3e,
    0xbf, 0xfc, 0xad, 0x3d, 0x7e, 0xb9, 0x09, 0xbd, 0x3c, 0xc9,
    0x83, 0x3d, 0xb4, 0x8d, 0xe6, 0xbc, 0x6f, 0x1b, 0x20, 0x3d,
    0xdc, 0xbc, 0x58, 0xbc, 0x1b, 0x4c, 0x11, 0xbd, 0x7d, 0x48,
    0xfc, 0x3d, 0x80, 0xf4, 0xaf, 0x3d, 0x87, 0x78, 0x3c, 0x3d,
    0x07, 0xfd, 0xe8, 0xbd, 0x96, 0x2c, 0x81, 0xbc, 0x57, 0xe8,
    0xb2, 0x3c, 0x0c, 0x61, 0x48, 0xbd, 0x89, 0x42, 0xbd, 0xbd,
    0x26, 0x03, 0x58, 0x3d, 0xfc, 0x53, 0xb8, 0xbb, 0x91, 0x33,
    0x80, 0x3c, 0x58, 0xb9, 0x96, 0xbd, 0xc4, 0x47, 0xb9, 0xbd,
    0xb8, 0x85, 0x89, 0xbd, 0x6b, 0x13, 0xea, 0xbd, 0x99, 0xf0,
    0x9d, 0xbd, 0xd1, 0x09, 0xc5, 0x3d, 0x90, 0xbe, 0xc6, 0xbd,
    0xc0, 0x4b, 0xde, 0xba, 0xcd, 0x1c, 0xa1, 0xbd, 0x25, 0xfc,
    0x4b, 0xbe, 0x80, 0x45, 0x24, 0xbd, 0x2a, 0x75, 0xd9, 0x3d,
    0x1a, 0x1b, 0x06, 0xbd, 0x6a, 0x18, 0xcc, 0x3d, 0x56, 0x8f,
    0x41, 0xbe, 0xcd, 0xdb, 0xb7, 0xbd, 0x17, 0xd1, 0xf5, 0x3c,
    0xbc, 0xfd, 0x41, 0x3c, 0xfd, 0x64, 0x5c, 0x3d, 0xb6, 0xbd,
    0xd2, 0xbc, 0x11, 0x1d, 0x9f, 0x3d, 0x99, 0x79, 0xf5, 0x3d,
    0x61, 0x71, 0x35, 0x3c, 0x26, 0x18, 0x64, 0x3d, 0x43, 0x04,
    0xe1, 0xbd, 0xcb, 0x8e, 0x00, 0xbd, 0xe1, 0x71, 0x8a, 0xbc,
    0xa1, 0x40, 0x29, 0xbd, 0xf3, 0xc3, 0x5a, 0x3d, 0x43, 0x7b,
    0xad, 0x3d, 0x54, 0xeb, 0xd8, 0x3c, 0x61, 0x6e, 0x20, 0x3b,
    0xda, 0x50, 0xf6, 0x3b, 0xbd, 0xe7, 0x2f, 0xbd, 0xd9, 0xe4,
    0xcb, 0xbd, 0xfb, 0xe6, 0x9a, 0x3d, 0xa2, 0x78, 0x19, 0xbe,
    0xb4, 0xfa, 0xe4, 0xbc, 0xbf, 0x40, 0x98, 0x3d, 0xb2, 0xc1,
    0xd1, 0x3d, 0x57, 0x4c, 0x72, 0x3c, 0x37, 0x9f, 0x6e, 0xbc,
    0x00, 0x38, 0xfd, 0x34, 0x73, 0x6b, 0x9c, 0xbc, 0x1c, 0xcb,
    0xa7, 0x3c, 0x41, 0xd7, 0x8b, 0xbb, 0x55, 0x5e, 0xf7, 0x3d,
    0xbb, 0xc0, 0x92, 0xbb, 0xc9, 0xf5, 0xe9, 0xbd, 0xcd, 0x72,
    0x08, 0xbe, 0x30, 0x2b, 0x80, 0xbd, 0x62, 0x2e, 0x33, 0xbb,
    0x8a, 0x49, 0xf4, 0xbd, 0x1f, 0x5a, 0xcb, 0x3d, 0x0d, 0x95,
    0xa1, 0x3d, 0x9b, 0x70, 0x39, 0x3d, 0x84, 0xbd, 0x8d, 0xbd,
    0x1a, 0x2d, 0xc8, 0x3d, 0x3c, 0x00, 0x1b, 0x3e, 0x5c, 0xc2,
    0x78, 0x3d, 0xb3, 0xb4, 0x63, 0x3d, 0x20, 0xa1, 0xcd, 0xbd,
    0xc4, 0xe9, 0xed, 0x3d, 0x05, 0x2a, 0xd3, 0x3b, 0xf7, 0xf8,
    0x2c, 0xbd, 0x64, 0xb8, 0x0b, 0xbd, 0x8d, 0x60, 0xab, 0xbd,
    0x44, 0x9b, 0x85, 0x3d, 0x96, 0xcc, 0x63, 0x3d, 0xe0, 0x36,
    0xfe, 0x3d, 0x9c, 0xfd, 0x21, 0xbc, 0x14, 0x34, 0x2f, 0x3e,
    0xdc, 0x30, 0xdf, 0xbd, 0x00, 0xb3, 0xce, 0x3d, 0x76, 0xd3,
    0x50, 0x3d, 0xbe, 0x90, 0xef, 0x3d, 0xad, 0x1e, 0xc2, 0xbd,
    0x03, 0x0f, 0x6d, 0xbd, 0x2b, 0x57, 0xae, 0x3d, 0x8c, 0x84,
    0x2b, 0xbd, 0xaf, 0x9d, 0x1d, 0xbe, 0x7c, 0x92, 0xc1, 0xbd,
    0x3a, 0xc0, 0xd3, 0x3c, 0xe1, 0xa9, 0x83, 0x3c, 0x0c, 0x2a,
    0x3c, 0x3c, 0x57, 0x8a, 0xb3, 0xbd, 0xe2, 0x7b, 0x7d, 0xbc,
    0xc3, 0x9d, 0xc8, 0xbd, 0xc8, 0x02, 0xc6, 0xbc, 0xdb, 0x84,
    0x1f, 0x3e, 0xee, 0x09, 0x2c, 0x3d, 0x65, 0x0d, 0xc9, 0xbc,
    0x4a, 0xc4, 0x8b, 0x3d, 0xf3, 0x80, 0xee, 0x3c, 0x77, 0x87,
    0xa8, 0x3a, 0x25, 0x17, 0x1a, 0xbd, 0xb8, 0xcd, 0xbf, 0x3d,
    0xb1, 0xb2, 0x00, 0xbd, 0xc8, 0xbc, 0xc8, 0x3b, 0x55, 0x2b,
    0x0d, 0xbc, 0x60, 0xce, 0x8b, 0xbd, 0x83, 0x47, 0x13, 0x3d,
    0x6e, 0x6c, 0x64, 0xbd, 0x6e, 0xdb, 0x22, 0xbe, 0x97, 0x60,
    0xa2, 0x3c, 0x16, 0x87, 0xc4, 0x3d, 0xb3, 0xbb, 0x9c, 0x3d,
    0x63, 0x81, 0xd1, 0xbd, 0x12, 0xaf, 0xaa, 0xbd, 0x34, 0x25,
    0xac, 0xbd, 0x2a, 0x84, 0x44, 0xbd, 0x90, 0xdb, 0x14, 0x3d,
    0x1c, 0x0b, 0x6d, 0x3b, 0x6b, 0x97, 0xe1, 0xbd, 0xf5, 0x45,
    0xf5, 0x3c, 0x9c, 0xad, 0x39, 0xbd, 0xcb, 0x3a, 0xb5, 0x3c,
    0x1a, 0x48, 0x06, 0xbe, 0x9b, 0xad, 0xd4, 0x3c, 0x5d, 0xf9,
    0x75, 0xbd, 0xc8, 0x0b, 0x6b, 0x3d, 0x80, 0x68, 0xa6, 0x3c,
    0xea, 0xc9, 0xd8, 0x3d, 0x15, 0x7a, 0x86, 0xbd, 0x84, 0xb2,
    0xd2, 0xbd, 0x54, 0x8e, 0xc5, 0xbc, 0xf8, 0x6a, 0x9a, 0xbd,
    0x12, 0x0f, 0xc1, 0x3c, 0xd7, 0x08, 0xc3, 0xbd, 0xdc, 0x50,
    0x63, 0x3d, 0x4c, 0x84, 0x26, 0x3e, 0xfa, 0x06, 0xc7, 0xbc,
    0x07, 0xae, 0xe0, 0x3d, 0x51, 0x8e, 0xcd, 0xbd, 0xa0, 0x92,
    0x33, 0x3d, 0xb7, 0x62, 0x1f, 0xbe, 0xae, 0x3d, 0x36, 0x3d,
    0x27, 0x22, 0xd2, 0x3c, 0x85, 0x93, 0xe8, 0x3d, 0x9d, 0xa3,
    0x41, 0x3d, 0xb4, 0xd1, 0x17, 0x3d, 0x1e, 0x24, 0x89, 0x3d,
    0xc3, 0xa7, 0x14, 0x3e, 0x2b, 0x46, 0xbb, 0x3c, 0xed, 0x2e,
    0x98, 0x3d, 0xcc, 0xb7, 0x87, 0x3d, 0xac, 0x47, 0x09, 0x3e,
    0x40, 0xb0, 0x03, 0xbb, 0x75, 0x20, 0x98, 0xbd, 0x65, 0xab,
    0x83, 0xbd, 0x1b, 0x83, 0x93, 0xbb, 0x74, 0xbd, 0x2f, 0x3d,
    0x63, 0x6b, 0x3a, 0xbb, 0xc3, 0xe0, 0x2c, 0x3e, 0xf1, 0x77,
    0xe7, 0x3d, 0x74, 0xfc, 0xc7, 0xbd, 0xf6, 0xa0, 0x04, 0x3c,
    0x2d, 0x7d, 0x32, 0x3d, 0x02, 0x83, 0xe9, 0x3d, 0x08, 0x97,
    0xa4, 0x3d, 0x8d, 0xe5, 0x95, 0x3c, 0xee, 0xcc, 0xfa, 0x3d,
    0xe4, 0x8c, 0x87, 0xbd, 0x75, 0x66, 0x01, 0x3e, 0x22, 0x8a,
    0x83, 0x3d, 0xb8, 0x9d, 0x4c, 0x3d, 0x74, 0x47, 0x21, 0x3e,
    0x3e, 0x3b, 0x39, 0xbd, 0x87, 0x66, 0xfe, 0x3d, 0x80, 0x16,
    0x90, 0x3d, 0xe5, 0x85, 0x1f, 0x3e, 0xef, 0x6d, 0x83, 0xbd,
    0x4f, 0xc6, 0x18, 0x3d, 0x46, 0xbd, 0x00, 0xbc, 0xc3, 0x74,
    0x91, 0xbd, 0x8f, 0xe9, 0x59, 0x3d, 0xcb, 0xe4, 0x08, 0x3e,
    0x64, 0xc3, 0x40, 0x3c, 0xba, 0x76, 0x65, 0x3d, 0x8e, 0x6d,
    0xe2, 0x3c, 0x91, 0xe4, 0x7c, 0x3d, 0x46, 0x54, 0x11, 0xbe,
    0xbe, 0xe0, 0x34, 0x3c, 0x40, 0x88, 0x82, 0x3d, 0xe9, 0x5a,
    0xce, 0xbd, 0xc7, 0x53, 0x23, 0xbc, 0x0e, 0x04, 0x9e, 0xbd,
    0x85, 0xef, 0xc3, 0x3d, 0x4f, 0x4c, 0x34, 0xbd, 0xc8, 0x84,
    0x46, 0x3d, 0x4f, 0x49, 0x22, 0xbd, 0x79, 0xe7, 0xad, 0xbd,
    0xf6, 0x82, 0x87, 0x3c, 0x4b, 0xce, 0x8d, 0xbc, 0x79, 0xc7,
    0xe7, 0x3c, 0x19, 0x17, 0xe3, 0xbb, 0x2c, 0x67, 0x23, 0x3c,
    0x55, 0x53, 0x9b, 0x3c, 0x22, 0x80, 0x98, 0xbd, 0x62, 0x70,
    0x5a, 0xbd, 0x68, 0xb7, 0x37, 0xbe, 0x0e, 0xeb, 0x94, 0xbd,
    0x99, 0x18, 0xf0, 0x3d, 0xda, 0x60, 0x72, 0xbd, 0xcd, 0xbb,
    0x47, 0x3d, 0x3a, 0xd9, 0x04, 0x3e, 0xf0, 0x15, 0x03, 0x3e,
    0xdd, 0x8a, 0x59, 0xbc, 0x50, 0xb3, 0xf4, 0x3c, 0x67, 0x2d,
    0x95, 0x3d, 0x38, 0x51, 0xa7, 0xbd, 0x29, 0x8f, 0xfb, 0x3d,
    0x48, 0x76, 0x95, 0xbd, 0x73, 0x69, 0xd7, 0xbd, 0xb3, 0xd4,
    0xed, 0x3c, 0x22, 0xfc, 0x97, 0x3d, 0xe8, 0xa1, 0x56, 0x3c,
    0xd6, 0x5a, 0xbd, 0xbd, 0xc6, 0x90, 0x18, 0x3e, 0xdb, 0x0b,
    0xf2, 0xbc, 0x00, 0xae, 0x29, 0x3e, 0x30, 0x28, 0xb3, 0x3d,
    0x4b, 0xa2, 0x04, 0xbb, 0x99, 0xd1, 0xcd, 0xbd, 0xd7, 0x5b,
    0x77, 0xbd, 0xfd, 0xa4, 0xd6, 0x3c, 0x64, 0x3d, 0xeb, 0xbc,
    0x30, 0x35, 0x69, 0xbd, 0x15, 0xed, 0x67, 0x3d, 0x31, 0xb9,
    0x18, 0x3d, 0x52, 0xe2, 0xa2, 0x3d, 0x95, 0xbe, 0xb1, 0x3c,
    0x07, 0xd1, 0xf9, 0xbc, 0xf9, 0xf5, 0xc1, 0xbd, 0xc3, 0x16,
    0x11, 0x3d, 0x42, 0x7f, 0x63, 0x3d, 0xee, 0xd7, 0x90, 0x3b,
    0x44, 0x64, 0xd7, 0xbd, 0x67, 0xe2, 0x3d, 0xbd, 0xea, 0x53,
    0xf8, 0x3d, 0xe2, 0x74, 0x0c, 0x3d, 0x5b, 0xaf, 0x64, 0xbd,
    0xf9, 0x11, 0x15, 0xbd, 0x31, 0x28, 0xff, 0x3a, 0xbf, 0x8f,
    0x22, 0xbe, 0xf4, 0x60, 0xac, 0x3d, 0x89, 0xe3, 0xa6, 0xbd,
    0xf5, 0x50, 0x86, 0xbd, 0x93, 0x22, 0xa7, 0x3c, 0x83, 0x58,
    0x21, 0xbe, 0xe6, 0xf6, 0x5e, 0x3d, 0xa8, 0xaa, 0xb4, 0x3d,
    0xea, 0x2f, 0x4d, 0xbd, 0x2c, 0x1c, 0xaf, 0xbb, 0x59, 0x31,
    0x2a, 0xbd, 0x22, 0x46, 0xaf, 0xbc, 0x8a, 0x9e, 0x2a, 0x3d,
    0xce, 0x46, 0x78, 0x3c, 0x6d, 0xef, 0x50, 0xbc, 0x42, 0x1a,
    0x20, 0xbe, 0x2a, 0x6c, 0x4a, 0xbd, 0x62, 0x13, 0xb2, 0xbd,
    0x40, 0xb8, 0x2b, 0xbc, 0xee, 0x3d, 0xe3, 0x3b, 0xe0, 0x12,
    0x2b, 0xbe, 0x7a, 0xea, 0x2c, 0xbd, 0xcc, 0xb6, 0xff, 0xbc,
    0xcd, 0x83, 0x4d, 0x3d, 0xe9, 0xe6, 0x21, 0xbd, 0xc2, 0x0b,
    0xc2, 0x3c, 0xb4, 0xfb, 0xaf, 0x3c, 0x83, 0xf5, 0xcd, 0xbd,
    0xbd, 0xa9, 0xc5, 0xbd, 0x9a, 0x71, 0xd7, 0xbd, 0xb5, 0x81,
    0xbb, 0xbd, 0xcc, 0x3b, 0x37, 0xbd, 0x27, 0x38, 0xc1, 0xbd,
    0x5c, 0xf3, 0x8b, 0x3d, 0xa9, 0x4a, 0x34, 0xbd, 0xe8, 0x50,
    0xb6, 0xbd, 0x5e, 0x39, 0xd9, 0x3d, 0xec, 0xec, 0x87, 0x3d,
    0x21, 0x37, 0x19, 0x3e, 0xa9, 0x24, 0x27, 0xbd, 0xd4, 0x04,
    0x8d, 0xbb, 0x86, 0x84, 0x11, 0xbe, 0x99, 0x35, 0xa7, 0x3c,
    0x4f, 0x06, 0x1d, 0x3e, 0x3e, 0xb8, 0xdb, 0x3d, 0x51, 0xe0,
    0x86, 0x3b, 0x27, 0x62, 0x16, 0xbe, 0xa1, 0x4e, 0x35, 0x3d,
    0x35, 0x80, 0x07, 0xbe, 0xf1, 0x2e, 0x27, 0xbe, 0xa6, 0x56,
    0x16, 0x3e, 0xe1, 0x57, 0x9b, 0x3d, 0x0f, 0x56, 0x83, 0xbd,
    0x1e, 0x1b, 0x0b, 0x3e, 0x80, 0xe4, 0x08, 0x3d, 0x49, 0x2a,
    0xe7, 0x3d, 0xeb, 0x65, 0x17, 0x3d, 0x53, 0x67, 0x80, 0xbd,
    0xfa, 0xc1, 0x07, 0xbc, 0x3a, 0x45, 0xd8, 0x3d, 0x3c, 0xcb,
    0x07, 0x3c, 0x2a, 0x7a, 0x21, 0x3d, 0x85, 0xb9, 0x5a, 0x3c,
    0xb4, 0x50, 0xe5, 0xbd, 0xb7, 0x3b, 0xa5, 0xbd, 0xd7, 0xf6,
    0x1e, 0x3e, 0x2f, 0xdf, 0x03, 0x3e, 0x13, 0x83, 0x14, 0xbd,
    0xb9, 0x3d, 0xc1, 0x3d, 0x83, 0x0d, 0x41, 0x3e, 0xc7, 0xcf,
    0x16, 0x3e, 0x17, 0x0a, 0x16, 0xbd, 0x1f, 0x83, 0xd2, 0xbc,
    0xcd, 0xd1, 0xea, 0xbc, 0xa5, 0xbb, 0x1b, 0xbd, 0xba, 0xe3,
    0x15, 0xbd, 0x67, 0xd6, 0xe1, 0xbd, 0x98, 0xae, 0x2a, 0x3e,
    0x7a, 0x47, 0x61, 0x3d, 0xd9, 0x29, 0x4c, 0x3d, 0xb5, 0x08,
    0xfe, 0x3d, 0x18, 0x66, 0x02, 0xbd, 0x7b, 0x17, 0x77, 0x3d,
    0x9a, 0xe5, 0xf2, 0xbd, 0xd6, 0x9b, 0x2b, 0xbd, 0xb2, 0x13,
    0x09, 0xbe, 0x2a, 0x50, 0x4f, 0xbd, 0x61, 0x96, 0xbb, 0x3d,
    0xa5, 0x14, 0x9d, 0xbd, 0xc5, 0x67, 0x21, 0xbd, 0x0f, 0x1d,
    0x31, 0x3e, 0x44, 0xff, 0x17, 0x3d, 0xe2, 0x62, 0xc2, 0x3d,
    0x43, 0x2c, 0xc1, 0x3d, 0x89, 0xed, 0xbc, 0x3b, 0x10, 0xa5,
    0xa0, 0xbd, 0x0d, 0x8a, 0x80, 0xbd, 0x8b, 0x0f, 0xcf, 0x3c,
    0x20, 0xe1, 0xc2, 0xbd, 0x38, 0xd0, 0xea, 0xbc, 0x3c, 0xbd,
    0x23, 0xbb, 0x44, 0x60, 0xcf, 0xbd, 0x3a, 0x2a, 0x3d, 0xbe,
    0xcd, 0x14, 0xb3, 0x3c, 0x01, 0x48, 0xc4, 0xbd, 0x0a, 0xb2,
    0x8c, 0x3d, 0x90, 0xdf, 0xe5, 0x3d, 0x78, 0x07, 0x94, 0x3d,
    0xfc, 0xcd, 0x40, 0xbc, 0xa0, 0x7a, 0x8c, 0x3d, 0x3f, 0x07,
    0xff, 0x3d, 0x8c, 0xb4, 0x30, 0x3c, 0xca, 0x9f, 0x82, 0xbd,
    0xdd, 0x60, 0x99, 0xbd, 0x3d, 0x3d, 0xbc, 0x3d, 0xc8, 0xef,
    0xf3, 0x3d, 0x11, 0x0a, 0xcd, 0xbd, 0x68, 0xc2, 0x0b, 0xbe,
    0x89, 0x49, 0x9f, 0xbd, 0x78, 0x77, 0x35, 0x3b, 0x08, 0x98,
    0xec, 0xbc, 0xd1, 0xc6, 0x0b, 0xbc, 0x32, 0xf4, 0x75, 0x3d,
    0x78, 0x31, 0x12, 0xbe, 0xce, 0xda, 0x08, 0x3e, 0xb0, 0xe4,
    0xc1, 0x3c, 0xe9, 0xf9, 0x03, 0x3e, 0x4d, 0x89, 0x99, 0x3d,
    0x20, 0x42, 0x37, 0xbc, 0x0c, 0x61, 0x92, 0x3d, 0x84, 0xfa,
    0x5a, 0x3d, 0x63, 0xef, 0x24, 0x3d, 0x38, 0x12, 0x84, 0xbd,
    0x37, 0x97, 0x94, 0x3c, 0x09, 0x9d, 0xd8, 0xbb, 0x94, 0x47,
    0x97, 0x3d, 0xbb, 0xd5, 0xf0, 0xbc, 0x59, 0x51, 0x05, 0x3d,
    0xd0, 0x58, 0x79, 0xbd, 0x99, 0xdd, 0xde, 0x3d, 0xcf, 0x83,
    0x14, 0xbe, 0x48, 0xd3, 0x94, 0xbc, 0xd8, 0xb0, 0x00, 0x3c,
    0xad, 0x9a, 0xda, 0xbd, 0x95, 0xb2, 0x6c, 0xbd, 0x70, 0xda,
    0xd0, 0x3d, 0x49, 0x7d, 0xd9, 0xbd, 0x7d, 0x9f, 0x34, 0x3b,
    0xc8, 0x87, 0x55, 0xbd, 0xe2, 0xfa, 0xc4, 0xbd, 0x15, 0x2e,
    0xbd, 0xbd, 0xfb, 0x80, 0xc9, 0xbb, 0x0a, 0x48, 0x33, 0xbe,
    0x67, 0x0e, 0x07, 0x3d, 0x32, 0x37, 0x84, 0xbd, 0xf0, 0x70,
    0xbb, 0x3b, 0x6e, 0xd4, 0x93, 0xbc, 0x5c, 0x75, 0xd9, 0xbd,
    0x36, 0xe4, 0x95, 0x3d, 0x91, 0xe3, 0xa1, 0xbd, 0x91, 0x5d,
    0x1e, 0x3d, 0xa9, 0xf9, 0x13, 0xbd, 0x7c, 0x63, 0x20, 0x3e,
    0x7d, 0xc2, 0x84, 0x3d, 0x2d, 0x7e, 0x55, 0x3d, 0x81, 0x3d,
    0x0d, 0xbe, 0x6e, 0xcf, 0x3d, 0xbe, 0x79, 0x4f, 0x46, 0x3c,
    0xc9, 0xc7, 0x53, 0xbc, 0x30, 0x33, 0x49, 0x3d, 0xe0, 0x96,
    0x3a, 0xbd, 0x34, 0x00, 0x8a, 0xbd, 0xff, 0x10, 0x3d, 0x3d,
    0xb1, 0xec, 0xdb, 0x3d, 0x86, 0xe8, 0x6b, 0xbd, 0x32, 0x11,
    0xcd, 0x3c, 0xe5, 0xe8, 0xb6, 0x3d, 0x45, 0xc1, 0x2e, 0x3e,
    0x95, 0x85, 0xad, 0xbd, 0x92, 0x84, 0x89, 0x3d, 0x8a, 0xf6,
    0xe1, 0x3c, 0xa2, 0x2b, 0x35, 0xbe, 0x32, 0x9f, 0x4c, 0x3d,
    0xa3, 0x0e, 0xf8, 0x3c, 0xf5, 0xbf, 0xfd, 0x3d, 0xc2, 0x48,
    0x89, 0xbd, 0x6a, 0x0a, 0xd8, 0xbc, 0x03, 0x44, 0x08, 0xbd,
    0xbe, 0x88, 0x66, 0xbd, 0x08, 0x1b, 0x03, 0xbe, 0x83, 0xaa,
    0x03, 0x3d, 0x4e, 0xa2, 0x54, 0xba, 0x4a, 0x0c, 0x2f, 0xbd,
    0x7d, 0xa7, 0x34, 0xbe, 0xe9, 0x52, 0x66, 0xbc, 0xe4, 0xd7,
    0xdc, 0x3c, 0x55, 0x2f, 0x01, 0x3c, 0xba, 0xa8, 0xd5, 0xbd,
    0xf5, 0x9a, 0xdd, 0xbc, 0x75, 0xd2, 0xd0, 0x3c, 0xa2, 0xd9,
    0xba, 0x3d, 0x2e, 0x9a, 0x50, 0xbb, 0x27, 0x62, 0xee, 0x3d,
    0x97, 0x1d, 0xf5, 0xbb, 0xf2, 0x36, 0x0b, 0xbe, 0x3f, 0xb8,
    0xe7, 0x3d, 0x3e, 0x55, 0x7c, 0xbd, 0x35, 0x2c, 0x16, 0xbd,
    0xc8, 0x34, 0x36, 0x3d, 0x5e, 0x5b, 0x51, 0xbd, 0xcc, 0x57,
    0x11, 0x3e, 0xff, 0x23, 0x87, 0x3c, 0x46, 0xe9, 0xce, 0xbc,
    0x65, 0x2f, 0x6f, 0x3d, 0x93, 0x26, 0x15, 0x3e, 0xed, 0xb8,
    0x28, 0xbd, 0x83, 0xa2, 0x1e, 0xbd, 0xe0, 0xb6, 0x77, 0xbd,
    0xa4, 0x50, 0x05, 0x3e, 0x3d, 0x7e, 0xa7, 0xbd, 0x10, 0xd0,
    0xce, 0x3d, 0xab, 0x4b, 0x0f, 0xbd, 0xb1, 0xb4, 0x01, 0x3d,
    0x7e, 0xb9, 0x87, 0xbd, 0x75, 0x0f, 0xe1, 0xbb, 0x70, 0x67,
    0x16, 0xbd, 0x6b, 0xe2, 0xab, 0xbc, 0x58, 0xf2, 0xc7, 0x3c,
    0xe6, 0xfe, 0x38, 0xbd, 0x41, 0xba, 0x28, 0xbe, 0xda, 0x67,
    0x00, 0xbe, 0x3d, 0x98, 0x54, 0xbd, 0x0a, 0xb8, 0x29, 0x3d,
    0x22, 0x4c, 0x91, 0xbd, 0x94, 0x1f, 0x32, 0xbc, 0xfc, 0x1a,
    0xb4, 0xba, 0x49, 0x70, 0xbb, 0x3c, 0x98, 0x8d, 0x4f, 0x3e,
    0xee, 0x21, 0x99, 0x3d, 0xd9, 0xd4, 0x33, 0x3e, 0x67, 0xa0,
    0x91, 0x3c, 0x14, 0x71, 0xa9, 0xbd, 0xc9, 0x7f, 0x25, 0xbe,
    0x01, 0x8e, 0xb0, 0xbd, 0x2a, 0xc1, 0xa6, 0x3d, 0x80, 0xe2,
    0xa6, 0xbd, 0x2d, 0x79, 0xb6, 0xbc, 0x68, 0xa8, 0xce, 0x3c,
    0xaf, 0x5b, 0xad, 0x3d, 0x1d, 0xb0, 0x0c, 0xbc, 0x4b, 0x52,
    0x86, 0x3d, 0x05, 0x44, 0x0f, 0x3e, 0x5f, 0xbe, 0x6e, 0x39,
    0xdc, 0x64, 0x02, 0xbe, 0xfe, 0xd3, 0x9a, 0x3d, 0xd7, 0x5f,
    0xa6, 0xbd, 0x2f, 0x44, 0xa4, 0x3d, 0xec, 0x51, 0x12, 0xbe,
    0xbd, 0x4e, 0x3d, 0xbd, 0xa5, 0x02, 0x0b, 0xbe, 0xaa, 0x73,
    0x6c, 0xbd, 0x16, 0xe1, 0x3d, 0xbd, 0x1c, 0x52, 0x83, 0xbd,
    0x67, 0x7e, 0xad, 0xbd, 0x90, 0x4f, 0xcd, 0x3d, 0x75, 0xda,
    0x6f, 0xbd, 0x56, 0x16, 0x2d, 0xbd, 0x75, 0xbb, 0x79, 0xbc,
    0xb6, 0xa9, 0x27, 0xbe, 0x15, 0xd2, 0x46, 0xbe, 0x1f, 0x32,
    0x1f, 0xbd, 0xad, 0x14, 0xa6, 0xbd, 0x6a, 0xdf, 0x3c, 0xbc,
    0xc6, 0xe8, 0x94, 0x3d, 0xcc, 0x9a, 0x06, 0xbd, 0xb8, 0xf9,
    0x82, 0xbd, 0x29, 0x8b, 0xd0, 0xbc, 0x6a, 0x9a, 0x95, 0xbd,
    0xb7, 0x70, 0x09, 0xbe, 0xd8, 0x87, 0x96, 0x3d, 0xd8, 0xa4,
    0x36, 0xbe, 0xbe, 0x70, 0x33, 0xbd, 0xd9, 0x6c, 0x69, 0xbe,
    0xe9, 0x01, 0xa1, 0xbd, 0x2f, 0x16, 0x1b, 0xbc, 0xea, 0xd5,
    0x02, 0x3e, 0x01, 0xcb, 0x48, 0xbe, 0x6c, 0x62, 0x01, 0xbe,
    0xcc, 0x63, 0xc1, 0xbc, 0x54, 0xc5, 0xa2, 0x3d, 0x87, 0x89,
    0x96, 0xbd, 0x4b, 0xf1, 0xd4, 0x3d, 0xc4, 0xd6, 0xc5, 0x3c,
    0xa0, 0xb5, 0xc5, 0xbd, 0x36, 0xab, 0xff, 0xbc, 0xd1, 0x89,
    0xdc, 0x3d, 0x13, 0xe4, 0x9f, 0xbd, 0x99, 0x33, 0xea, 0xbd,
    0xa5, 0x8b, 0x6c, 0x3d, 0x54, 0x0a, 0xd1, 0xbd, 0x67, 0xe9,
    0x70, 0xbd, 0xff, 0xbe, 0x5c, 0xbd, 0x3f, 0xc5, 0xea, 0xbc,
    0x8e, 0x4d, 0xdb, 0xbd, 0xfc, 0x91, 0x24, 0x3d, 0x3a, 0x42,
    0x85, 0x3d, 0xf9, 0x21, 0x0f, 0x3e, 0x61, 0x77, 0x39, 0xbe,
    0xa6, 0x24, 0xe7, 0xbc, 0x1e, 0xce, 0x96, 0x3d, 0xdd, 0x01,
    0x72, 0xbc, 0x8d, 0xa6, 0x1d, 0xbd, 0x4f, 0x7e, 0x08, 0xbd,
    0x8e, 0xd9, 0x7e, 0xbb, 0x22, 0x8f, 0x09, 0xbe, 0x9b, 0x70,
    0x8c, 0xbc, 0xa1, 0x70, 0x9c, 0x3d, 0x76, 0x14, 0x76, 0x3d,
    0x24, 0x44, 0x43, 0x3c, 0xa8, 0xc5, 0xae, 0x3d, 0x6e, 0x48,
    0x1a, 0xbe, 0x18, 0x1b, 0x76, 0xbc, 0x3b, 0x94, 0xf3, 0x3d,
    0xa4, 0x0d, 0xca, 0x3d, 0xf8, 0x5e, 0xb2, 0x3d, 0xc3, 0x90,
    0xf2, 0x3d, 0xa3, 0x18, 0xce, 0x3d, 0x8a, 0xce, 0x2d, 0x3d,
    0x1c, 0x0a, 0x16, 0xbd, 0xdc, 0x25, 0x59, 0xbc, 0x67, 0xdd,
    0x86, 0x3d, 0xe5, 0xda, 0x56, 0x3d, 0x18, 0x16, 0x2f, 0x3e,
    0xec, 0x81, 0x11, 0xbd, 0x20, 0x02, 0xcf, 0x3d, 0x18, 0x0f,
    0x45, 0x3b, 0x47, 0x3c, 0x89, 0x3d, 0x04, 0x8f, 0xff, 0xbd,
    0xa0, 0x4f, 0x01, 0x3c, 0x74, 0xed, 0xce, 0xbd, 0xc4, 0x9a,
    0xe8, 0x3d, 0xec, 0xdb, 0xa2, 0xbc, 0xb1, 0x73, 0x2c, 0xbd,
    0x9b, 0xe5, 0xd5, 0xbd, 0xe2, 0x8e, 0xe2, 0x3c, 0xe2, 0x6d,
    0xad, 0x3d, 0x7e, 0xb1, 0x47, 0x3d, 0xf7, 0xda, 0xbe, 0xbd,
    0x32, 0x91, 0xf2, 0x3c, 0xac, 0x49, 0xb2, 0xbc, 0xaf, 0x69,
    0x3f, 0x3e, 0x80, 0x92, 0x8a, 0xbc, 0x9f, 0xd5, 0x05, 0x3d,
    0xf0, 0x94, 0x97, 0xbd, 0x78, 0x0d, 0x27, 0x3e, 0x72, 0x29,
    0xdf, 0xbd, 0x46, 0x83, 0x0b, 0x3d, 0xf3, 0x3f, 0x93, 0x3d,
    0xd4, 0x9e, 0x1d, 0x3d, 0xab, 0x09, 0x78, 0x3d, 0x16, 0x2b,
    0x98, 0x3b, 0x1f, 0xda, 0xde, 0xbc, 0xa9, 0xa5, 0x29, 0xbd,
    0xf2, 0x00, 0xa7, 0xbd, 0x25, 0x93, 0x02, 0x3c, 0x78, 0xff,
    0xcb, 0xba, 0x59, 0x59, 0x20, 0x3e, 0x41, 0xdf, 0xfe, 0xbc,
    0x16, 0xb5, 0x06, 0xbd, 0x33, 0x3e, 0xf2, 0xbd, 0x74, 0x09,
    0x91, 0x3d, 0x07, 0x46, 0xf1, 0xbd, 0x4d, 0xce, 0x09, 0x3d,
    0xb2, 0x05, 0x74, 0xbd, 0x2a, 0x5c, 0x0e, 0x3e, 0x10, 0xaf,
    0x07, 0xbc, 0xf2, 0x7d, 0xa5, 0x3d, 0xae, 0xf8, 0x29, 0x3e,
    0xda, 0x44, 0xb9, 0xbd, 0x5a, 0x50, 0xa7, 0xbd, 0xb3, 0x33,
    0x64, 0xbd, 0x05, 0x4d, 0x06, 0x3e, 0x99, 0x65, 0xa9, 0x3c,
    0xa3, 0x19, 0xb3, 0xbc, 0xa0, 0xff, 0x46, 0x3b, 0xf5, 0x17,
    0x69, 0xbd, 0xf2, 0xb9, 0x8f, 0x3d, 0xba, 0xb9, 0x53, 0xbd,
    0x1b, 0x1e, 0x4a, 0xbd, 0x40, 0xfe, 0x24, 0xbe, 0xc3, 0x93,
    0xdf, 0x3d, 0x30, 0x64, 0x00, 0x3e, 0x51, 0xd8, 0xce, 0x3c,
    0x6c, 0xe4, 0x3b, 0xbd, 0xe7, 0xdd, 0x0c, 0xbe, 0x25, 0xf8,
    0x45, 0xbd, 0xc1, 0x61, 0x1f, 0x3e, 0xea, 0xfe, 0x4d, 0x3e,
    0x2c, 0xc6, 0xab, 0x3c, 0xb6, 0x64, 0xb7, 0xbd, 0x5c, 0x8c,
    0x3d, 0xbd, 0x5b, 0x0f, 0xd4, 0xbd, 0xd8, 0xad, 0x64, 0x3d,
    0x3e, 0x8a, 0xb9, 0xbd, 0x19, 0xba, 0x74, 0xbd, 0x4c, 0x1b,
    0xc4, 0x3c, 0xd6, 0xf7, 0x4b, 0x3e, 0x97, 0x8a, 0x2d, 0xbc,
    0xcb, 0xce, 0x8a, 0x3d, 0x10, 0xee, 0xfc, 0x3d, 0x05, 0x6a,
    0xe4, 0x3d, 0x3c, 0xec, 0x90, 0xbd, 0x25, 0x98, 0xad, 0xbd,
    0xff, 0x6e, 0x87, 0xbd, 0xf5, 0xd9, 0x8d, 0x3d, 0x4b, 0xae,
    0x0f, 0xbd, 0x49, 0x0c, 0xf6, 0xbd, 0x24, 0x67, 0x12, 0x3e,
    0x69, 0xaf, 0x6d, 0xbc, 0xf2, 0xb1, 0x12, 0x3e, 0x7d, 0x32,
    0x2a, 0xbb, 0xac, 0x26, 0x18, 0xbe, 0x72, 0xda, 0x0f, 0xbd,
    0xce, 0xa1, 0x0f, 0x3d, 0x68, 0x23, 0xa7, 0x3d, 0x34, 0x38,
    0xf8, 0x3d, 0xed, 0x34, 0x12, 0xbd, 0xe6, 0x21, 0x70, 0x3d,
    0x2e, 0x2e, 0xee, 0xbb, 0xd8, 0xe4, 0xe2, 0xbd, 0x30, 0x02,
    0x80, 0x3d, 0xcb, 0x67, 0x42, 0x3d, 0x37, 0x3e, 0x63, 0xbd,
    0x49, 0x2c, 0x05, 0xbd, 0x80, 0xfe, 0x0a, 0xbe, 0x69, 0xe1,
    0x40, 0x3d, 0x6e, 0x9b, 0x05, 0xbe, 0xc7, 0x60, 0x31, 0xbd,
    0xdc, 0xbc, 0x1b, 0xbe, 0xa7, 0xdc, 0xf4, 0x3d, 0x48, 0x68,
    0x76, 0x3d, 0x18, 0x38, 0x1b, 0x3c, 0x85, 0x33, 0x91, 0x3c,
    0x6e, 0x84, 0x7b, 0xbd, 0xfb, 0x3b, 0x3b, 0xbd, 0x4e, 0xdd,
    0x74, 0x3d, 0x36, 0xb4, 0xfa, 0x3a, 0xf3, 0x70, 0x00, 0x3e,
    0x7d, 0x57, 0xf8, 0xbb, 0x80, 0x52, 0x3e, 0x3d, 0x0e, 0x90,
    0xea, 0xbb, 0x21, 0x2c, 0x28, 0xbb, 0xca, 0x6f, 0xc5, 0xbd,
    0xec, 0x45, 0xb4, 0xbd, 0x47, 0xd7, 0x81, 0xbd, 0xce, 0xff,
    0x97, 0x3d, 0xe1, 0x40, 0x16, 0xbd, 0xee, 0x45, 0xcf, 0x3d,
    0x13, 0xb6, 0x52, 0x3d, 0x95, 0x41, 0xaa, 0x3b, 0x70, 0x98,
    0xca, 0xba, 0x26, 0xa2, 0x3b, 0x3d, 0x27, 0xaf, 0x37, 0xbe,
    0xc3, 0xd0, 0x1e, 0xbd, 0xc6, 0xc4, 0x89, 0xbd, 0xf2, 0xd0,
    0xc4, 0xbd, 0xe0, 0xc1, 0xe0, 0xbd, 0x6c, 0xea, 0xdf, 0xbc,
    0xfa, 0x20, 0x31, 0x3d, 0xb6, 0xb7, 0x0e, 0xbd, 0x84, 0xfe,
    0xe0, 0x3c, 0x5b, 0x73, 0x0d, 0xbc, 0x15, 0xca, 0x53, 0x3c,
    0x18, 0x37, 0xe5, 0xbc, 0x5a, 0x1d, 0x3e, 0xbd, 0xb9, 0x83,
    0x95, 0xbd, 0x74, 0x34, 0x26, 0xbe, 0x46, 0xd0, 0xa4, 0xbc,
    0xbd, 0xd7, 0x31, 0xbd, 0x6a, 0x23, 0xb9, 0x3d, 0x54, 0xf6,
    0x05, 0x3d, 0xb3, 0x31, 0x7b, 0xbd, 0x52, 0xa8, 0x82, 0x3d,
    0xee, 0x3b, 0x2e, 0xbd, 0x0c, 0xfe, 0xaa, 0xbd, 0x87, 0x67,
    0xfe, 0xbd, 0x0c, 0x8a, 0x2d, 0xbe, 0x55, 0xb7, 0xb9, 0xbb,
    0xfa, 0xf4, 0xee, 0x3c, 0xc4, 0x65, 0xb4, 0x3d, 0x88, 0x93,
    0x57, 0x3d, 0x44, 0xa9, 0x7f, 0x3d, 0x39, 0xec, 0xba, 0x3d,
    0x1c, 0x3f, 0xd7, 0x3c, 0x69, 0x0d, 0x2c, 0x3d, 0x82, 0x18,
    0x86, 0xbd, 0x20, 0xc2, 0x60, 0xbd, 0xa5, 0x71, 0xe9, 0x3d,
    0x22, 0x17, 0x82, 0x3c, 0xb6, 0xbf, 0xc9, 0x3c, 0xe9, 0xb2,
    0xef, 0x3d, 0x13, 0xc2, 0x5e, 0xbd, 0xb0, 0xc5, 0x2d, 0xbd,
    0x22, 0x8f, 0xca, 0x3d, 0xd9, 0x2b, 0xac, 0xbd, 0xae, 0x04,
    0x67, 0xbd, 0x5c, 0xbd, 0xb5, 0xbd, 0xe9, 0x2a, 0x5f, 0xbd,
    0x70, 0x43, 0x20, 0xbe, 0xe6, 0xdf, 0x97, 0xbd, 0x7c, 0x96,
    0xb1, 0x3b, 0x5f, 0xc4, 0x1d, 0xbd, 0xf3, 0x31, 0x43, 0xbe,
    0x1b, 0x3d, 0x1d, 0xbe, 0xa8, 0x82, 0x06, 0xbe, 0x69, 0xd6,
    0x56, 0xbc, 0x1e, 0xd6, 0xf8, 0xbc, 0xaa, 0x90, 0x32, 0xbd,
    0x1c, 0x7d, 0x21, 0xbd, 0x26, 0x5c, 0x6c, 0x3d, 0x5e, 0x82,
    0xbb, 0x3c, 0xe8, 0x15, 0xb4, 0xbd, 0x06, 0x3e, 0xf0, 0xbd,
    0x62, 0xd2, 0x12, 0x3e, 0xae, 0xb0, 0xbe, 0x3c, 0x39, 0x97,
    0x37, 0x3d, 0xd3, 0x4a, 0x40, 0x3d, 0xdf, 0x7e, 0x86, 0xbb,
    0x76, 0x0d, 0x4c, 0xbd, 0x37, 0x72, 0x63, 0xbc, 0xea, 0x01,
    0x24, 0x3d, 0x67, 0x1f, 0x34, 0xbe, 0x3a, 0x3c, 0x90, 0x3c,
    0xde, 0x8d, 0x96, 0x3c, 0x62, 0x9a, 0x0f, 0xbe, 0x3b, 0xe3,
    0x29, 0x3d, 0xf8, 0xc5, 0x44, 0xbe, 0x90, 0xcc, 0x8a, 0x3d,
    0xce, 0xe4, 0x89, 0xbd, 0xa8, 0x3e, 0x83, 0x3c, 0xe8, 0x92,
    0x16, 0x3e, 0xa0, 0xf0, 0x9e, 0x3c, 0x4c, 0xa0, 0xb6, 0xbd,
    0x1e, 0x9d, 0xbc, 0x3d, 0x80, 0xf7, 0xea, 0x3c, 0x42, 0x81,
    0xb7, 0x3d, 0xb4, 0xa7, 0x12, 0xbd, 0x1d, 0xd2, 0xe1, 0x3a,
    0x50, 0x2d, 0xc3, 0xbc, 0x8c, 0x17, 0xb3, 0xbd, 0x66, 0x48,
    0x99, 0x3d, 0x2e, 0xc1, 0xd9, 0x3c, 0x36, 0x2a, 0x03, 0x3e,
    0x4b, 0xf2, 0xf1, 0xbd, 0xd9, 0x04, 0xfa, 0x3d, 0x0c, 0xeb,
    0xd4, 0x3d, 0x37, 0x7c, 0x1c, 0xbe, 0xb6, 0x24, 0xeb, 0x3d,
    0xc2, 0x78, 0xd6, 0x3d, 0xba, 0x0f, 0xd0, 0xbc, 0x3b, 0x64,
    0x85, 0x3c, 0xee, 0xbb, 0xf2, 0xbd, 0x67, 0xc4, 0x40, 0xbb,
    0x21, 0x3b, 0xca, 0x3d, 0xad, 0x6f, 0xe6, 0x3d, 0xbc, 0x9d,
    0x23, 0x3c, 0x55, 0xb6, 0x8f, 0x3d, 0x4b, 0xbb, 0xa0, 0xbd,
    0xc6, 0xe5, 0x81, 0xbc, 0xf7, 0x51, 0x64, 0xbd, 0x24, 0x3a,
    0x83, 0x3c, 0x57, 0x47, 0x22, 0x3e, 0x48, 0xf7, 0xa7, 0xbd,
    0xb5, 0x99, 0x86, 0xbc, 0xd8, 0xb9, 0x94, 0x3d, 0x28, 0x22,
    0x5f, 0xbd, 0x95, 0x0e, 0x03, 0xbe, 0x49, 0x24, 0x34, 0xbd,
    0x82, 0x3d, 0xf1, 0x3d, 0x13, 0xf7, 0xe8, 0x3d, 0x93, 0xf7,
    0x26, 0xbb, 0xbd, 0x0a, 0x3f, 0xbc, 0xc0, 0x35, 0xb1, 0x3d,
    0x07, 0x4d, 0xf1, 0xbd, 0xd2, 0xde, 0x9e, 0x3c, 0x05, 0xeb,
    0x1d, 0xbe, 0x3d, 0x27, 0xa0, 0x3c, 0xd9, 0x17, 0x7d, 0x3c,
    0xf5, 0xb5, 0x3e, 0x3d, 0x53, 0x49, 0xab, 0x3d, 0xb0, 0xf3,
    0xa5, 0x3d, 0x48, 0x61, 0x68, 0x3d, 0x4b, 0xdd, 0xcc, 0xbc,
    0x05, 0x97, 0x15, 0xbd, 0xfe, 0x4b, 0xae, 0x3d, 0x80, 0x21,
    0xbb, 0xbb, 0x95, 0xe9, 0x0e, 0x3e, 0x08, 0xec, 0xb9, 0xbc,
    0xf6, 0xc6, 0x73, 0xbc, 0xa9, 0x2a, 0x6c, 0xbe, 0x43, 0xde,
    0xcf, 0xbd, 0x56, 0x94, 0xf6, 0xbd, 0x37, 0x07, 0xab, 0xbc,
    0x12, 0x11, 0x97, 0x3d, 0x9a, 0x31, 0x23, 0x3d, 0xe6, 0xc7,
    0x89, 0xbd, 0x62, 0xdb, 0xda, 0x3d, 0xed, 0xf5, 0xe5, 0x3d,
    0xb1, 0x98, 0x45, 0x3c, 0x09, 0xde, 0xf4, 0xbd, 0x1b, 0xf7,
    0x8b, 0xbd, 0xa2, 0x1f, 0x67, 0xbd, 0x40, 0xf5, 0x4b, 0xbc,
    0x99, 0x61, 0x36, 0xbd, 0x30, 0x27, 0x2f, 0x3d, 0x33, 0xea,
    0xa8, 0x3c, 0x8d, 0x7d, 0x82, 0xbd, 0x28, 0x0c, 0x61, 0xbd,
    0x16, 0x7b, 0x4d, 0x3d, 0x4d, 0x1e, 0xea, 0xbd, 0xc9, 0xcc,
    0xde, 0xbd, 0xea, 0xea, 0xfd, 0xbd, 0xde, 0xb2, 0x1b, 0x3d,
    0xeb, 0x7d, 0x34, 0xbb, 0x5c, 0xeb, 0x03, 0xbd, 0x38, 0x48,
    0xf1, 0xbc, 0x20, 0x70, 0x67, 0x3d, 0x6a, 0x90, 0xd4, 0xbc,
    0x6c, 0x04, 0x93, 0x3c, 0x8a, 0x7a, 0x73, 0xbd, 0x21, 0x3d,
    0x0a, 0xbd, 0x49, 0x69, 0x3e, 0xbc, 0xb4, 0xbe, 0xa1, 0x3c,
    0x30, 0x1e, 0x9e, 0xbc, 0xf9, 0x38, 0x17, 0x3d, 0x22, 0xb9,
    0x6d, 0xbd, 0x57, 0xfb, 0x91, 0xbd, 0x9c, 0xa9, 0x64, 0xbd,
    0x24, 0x16, 0x2a, 0xbd, 0xab, 0x63, 0x35, 0xbd, 0x00, 0x70,
    0x01, 0xbd, 0x5a, 0x02, 0x82, 0xbd, 0x76, 0xa1, 0xd4, 0x3d,
    0xba, 0x77, 0x46, 0x3c, 0x60, 0xcc, 0x8d, 0xbc, 0xb9, 0x90,
    0x96, 0xbd, 0xad, 0x1b, 0xa5, 0xbc, 0xe9, 0x22, 0x4d, 0xbc,
