#include "network_data.h"

ai_handle ai_network_data_weights_get(void)
{

  AI_ALIGNED(4)
  static const ai_u8 s_network_weights[ 23692 ] = {
    0xfb, 0xdd, 0xca, 0x3d, 0x29, 0xbb, 0x2c, 0xbc, 0x17, 0x0c,
    0x22, 0xbe, 0xe5, 0xb2, 0x8c, 0x3d, 0xc1, 0x10, 0x1c, 0xbe,
    0x86, 0x3e, 0x89, 0xbc, 0xf9, 0x03, 0x30, 0x3d, 0x32, 0x24,
    0xe6, 0xbd, 0x4f, 0xb5, 0x2c, 0x3b, 0x9b, 0x11, 0x16, 0x3e,
    0x30, 0x54, 0xc0, 0xbd, 0x7c, 0xc3, 0x23, 0xbe, 0x83, 0x46,
    0x9d, 0xbd, 0x67, 0x63, 0x16, 0xbd, 0x30, 0x93, 0x2e, 0x3d,
    0xa0, 0x17, 0x03, 0xbe, 0x75, 0x61, 0x6f, 0x3d, 0x84, 0x7f,
    0x1a, 0x3c, 0x71, 0x25, 0x05, 0x3e, 0x2d, 0x70, 0x7c, 0x3d,
    0xe9, 0x59, 0x2e, 0x3a, 0xa3, 0xe1, 0x57, 0x3c, 0x79, 0x27,
    0x37, 0x3c, 0x1f, 0x11, 0x95, 0x3d, 0xdd, 0x37, 0xc7, 0x3d,
    0x17, 0x47, 0xc1, 0x3c, 0x23, 0x29, 0x5c, 0xbd, 0x65, 0x4e,
    0x3c, 0x3e, 0x62, 0xab, 0xea, 0xbd, 0xcd, 0xa3, 0xf6, 0x3c,
    0x2c, 0xad, 0x07, 0x3e, 0x06, 0x71, 0xb4, 0x3d, 0xa0, 0x7a,
    0xe0, 0x3d, 0x3c, 0x7e, 0x43, 0xbc, 0x8e, 0xdc, 0x05, 0xbe,
    0x5b, 0x34, 0xf6, 0xbd, 0x8e, 0x97, 0x3a, 0xbe, 0x27, 0x61,
    0x32, 0xbe, 0xe3, 0x8b, 0x92, 0x3c, 0x23, 0x4d, 0xf8, 0xbd,
    0x9c, 0x67, 0x98, 0xbd, 0x7d, 0x59, 0x04, 0x3e, 0xc3, 0x28,
    0xc6, 0x3d, 0x3e, 0x5a, 0x69, 0x3e, 0x52, 0xdb, 0xd9, 0xbc,
    0x7a, 0x28, 0x46, 0xbe, 0x7f, 0xb8, 0xe7, 0xbd, 0x6c, 0xcd,
    0x8c, 0x3d, 0x86, 0x1f, 0xce, 0xbb, 0x1b, 0x23, 0x16, 0xbe,
    0xe4, 0xcc, 0x0d, 0xbe, 0x2f, 0x17, 0x9c, 0x3c, 0x35, 0x59,
    0xba, 0xbd, 0xde, 0x52, 0x50, 0xbd, 0x01, 0xca, 0x21, 0x3e,
    0xa1, 0x17, 0x91, 0xbd, 0x9f, 0x84, 0x06, 0x3e, 0xac, 0x3b,
    0x1f, 0xbe, 0xad, 0x62, 0x7a, 0xbd, 0x4b, 0xb0, 0x5f, 0xbd,
    0x69, 0xc6, 0x00, 0x3e, 0x12, 0x57, 0x3e, 0xbe, 0x64, 0xf9,
    0xeb, 0x3d, 0xf7, 0xaf, 0x08, 0xbe, 0x6e, 0xa1, 0x43, 0xbd,
    0xa3, 0x53, 0xfe, 0xbd, 0x07, 0x3c, 0xf5, 0x3d, 0x22, 0xc4,
    0xea, 0xbc, 0x9f, 0x6a, 0xb4, 0xbd, 0x99, 0xad, 0x57, 0x3d,
    0x9d, 0x9e, 0x22, 0xbe, 0xcf, 0x08, 0xfe, 0xbd, 0x71, 0xaf,
    0x34, 0xbe, 0xf1, 0x42, 0x3f, 0xbe, 0x7f, 0x40, 0x22, 0x3e,
    0x43, 0xfa, 0x0e, 0xbe, 0x51, 0xe2, 0x7a, 0x3c, 0xca, 0xa6,
    0x9c, 0xbc, 0xf2, 0x30, 0x5a, 0x3d, 0x3e, 0x86, 0x94, 0xbb,
    0x60, 0x96, 0x6f, 0x3c, 0x48, 0xa6, 0x98, 0x3d, 0x0b, 0xa4,
    0x2d, 0xbe, 0xec, 0x30, 0xe5, 0xbd, 0xa4, 0x52, 0x00, 0xbe,
    0xb7, 0xe9, 0xc5, 0xbc, 0x48, 0xd8, 0x00, 0xbe, 0x0a, 0xcb,
    0x2f, 0x3c, 0x9e, 0x87, 0x53, 0xbd, 0xdf, 0xfe, 0x27, 0xbe,
    0x85, 0x68, 0x24, 0xbe, 0x80, 0x14, 0x2b, 0x3e, 0xca, 0xa3,
    0x35, 0x3e, 0xc5, 0x91, 0xf2, 0x3d, 0xcc, 0xa2, 0x50, 0xbe,
    0x96, 0xd5, 0x44, 0x3d, 0x9f, 0xdd, 0x01, 0x3e, 0x26, 0xb8,
    0x39, 0xbd, 0x4d, 0x6a, 0xb5, 0xb9, 0xf1, 0x8b, 0x11, 0xbe,
    0xe1, 0x11, 0x23, 0xbe, 0xdb, 0x1f, 0x0b, 0x3e, 0x8f, 0x7d,
    0xce, 0xbc, 0x0a, 0x16, 0x57, 0xbb, 0xd8, 0x4b, 0xac, 0x3d,
    0x40, 0x9c, 0x61, 0x3d, 0x50, 0xc0, 0x35, 0x3d, 0x74, 0x37,
    0x05, 0xbe, 0xe6, 0x98, 0x06, 0xbd, 0x6e, 0x84, 0xa6, 0x3d,
    0x5f, 0xa1, 0x1f, 0x3d, 0xa6, 0xfd, 0x98, 0x3d, 0x32, 0x78,
    0x0b, 0x3e, 0x33, 0x40, 0xe8, 0x3d, 0x73, 0xa6, 0x17, 0xbe,
    0x06, 0xa1, 0x15, 0xbe, 0x8c, 0x56, 0xf1, 0x3d, 0x62, 0x4f,
    0xdb, 0xbd, 0xab, 0x71, 0x03, 0x3e, 0x27, 0xd9, 0xc4, 0xbc,
    0x07, 0x4f, 0x02, 0xbe, 0xf9, 0xb5, 0x05, 0xbe, 0xf5, 0x34,
    0x15, 0x3e, 0x52, 0x57, 0x15, 0x3e, 0x68, 0xbf, 0xc1, 0x3d,
    0x1b, 0x44, 0xfd, 0x3d, 0x78, 0xf9, 0x10, 0x3e, 0x8a, 0xf2,
    0xc1, 0x3d, 0xda, 0x4d, 0x94, 0xbc, 0x6a, 0x94, 0x57, 0x3d,
    0xea, 0xfa, 0x0a, 0x3e, 0xdf, 0xad, 0xee, 0xbd, 0x0a, 0x8c,
    0x5a, 0x3d, 0xb6, 0x48, 0x4c, 0xba, 0xc2, 0x9c, 0x02, 0xbe,
    0x88, 0x73, 0x18, 0x3d, 0x5c, 0xab, 0x05, 0x3c, 0xd2, 0x52,
    0xd3, 0x3d, 0x30, 0x0e, 0x26, 0x3d, 0xab, 0xe0, 0x55, 0x3e,
    0x09, 0x9e, 0x24, 0x3b, 0x61, 0x87, 0xf8, 0xbd, 0x2e, 0xf0,
    0x6f, 0xbd, 0xe9, 0xb8, 0x43, 0x3d, 0x91, 0x30, 0x54, 0x3d,
    0xed, 0x7e, 0xb3, 0xbc, 0x73, 0x26, 0xdd, 0xbc, 0x81, 0x30,
    0x87, 0xbc, 0x0d, 0x66, 0x34, 0x3b, 0xdf, 0x2e, 0x8f, 0xbb,
    0xf5, 0x90, 0xa4, 0xbc, 0x53, 0xda, 0xc4, 0xbb, 0x25, 0x89,
    0x5f, 0x3d, 0xfd, 0xa0, 0x1e, 0xbd, 0xbc, 0x91, 0x71, 0xbc,
    0xe4, 0x4e, 0x94, 0x3c, 0xd2, 0xd2, 0xa9, 0x3b, 0x60, 0x50,
    0x9b, 0xbc, 0xbe, 0xbc, 0x66, 0xbd, 0xce, 0xda, 0xb2, 0x3c,
    0xef, 0xaa, 0x80, 0x3c, 0x3a, 0xe4, 0x87, 0x3d, 0xf1, 0x93,
    0xdf, 0xbc, 0x58, 0x26, 0x8f, 0xbc, 0x1d, 0x4a, 0x5f, 0x3b,
    0xae, 0xab, 0xc8, 0x3d, 0xe1, 0x7f, 0x36, 0xbd, 0xc0, 0x9e,
    0x35, 0x3d, 0xee, 0x2a, 0xc9, 0x3c, 0x33, 0xbb, 0x87, 0x3d,
    0xea, 0xf0, 0x57, 0x3d, 0xa1, 0x79, 0xc4, 0x3c, 0x66, 0x4f,
    0x7a, 0x3d, 0xb1, 0xd6, 0x44, 0x3d, 0xf9, 0x91, 0xa7, 0xbd,
    0x2c, 0x24, 0x92, 0xbc, 0xab, 0x2a, 0x60, 0x3d, 0x33, 0x63,
    0xf2, 0x3c, 0x9a, 0xfe, 0x39, 0xbb, 0xf5, 0x42, 0xe6, 0x3c,
    0xb2, 0xd0, 0x46, 0x3d, 0x0c, 0xc6, 0x58, 0x3d, 0xf9, 0x32,
    0x42, 0x3d, 0x13, 0x78, 0x98, 0xbd, 0x28, 0x59, 0x86, 0xbd,
    0xcd, 0xd9, 0xed, 0xbd, 0xba, 0x3a, 0xd5, 0xbb, 0x08, 0x37,
    0x1d, 0x3d, 0x01, 0x57, 0x50, 0x3d, 0x23, 0xa2, 0xf8, 0xbd,
    0x51, 0xa9, 0x98, 0x3d, 0xc9, 0x99, 0x82, 0x3c, 0xc0, 0x43,
    0x6c, 0x3d, 0x9b, 0x1e, 0x83, 0xbd, 0xd1, 0x05, 0x5b, 0xbd,
    0xe4, 0x1b, 0xe9, 0xbd, 0xe7, 0x6a, 0x7a, 0x3d, 0xdb, 0xef,
    0x69, 0xbd, 0x89, 0xd6, 0x4c, 0xbb, 0xd4, 0xa9, 0xc6, 0x3d,
    0xdf, 0xbd, 0x2b, 0x3b, 0x3b, 0x15, 0x94, 0x3d, 0x06, 0x42,
    0xd0, 0xbd, 0x37, 0x93, 0xcb, 0x3d, 0xcd, 0x7f, 0x17, 0xbc,
    0x53, 0x15, 0xf0, 0xbd, 0x30, 0xb0, 0xec, 0xbd, 0x52, 0xb7,
    0xd5, 0xbd, 0xcc, 0x10, 0x9d, 0xbd, 0x98, 0xb3, 0xf1, 0xbb,
    0xa5, 0x29, 0xbc, 0x3d, 0xc0, 0x9d, 0x34, 0xbc, 0xbe, 0x8a,
    0x07, 0xbe, 0xc8, 0x7d, 0x1b, 0xbd, 0x17, 0xaf, 0xbe, 0xbd,
    0xf6, 0x35, 0xc3, 0x3d, 0x3a, 0x9c, 0xc2, 0xbd, 0xb4, 0xb2,
    0x7f, 0xbd, 0x9f, 0x17, 0xdf, 0x3d, 0x70, 0xf6, 0xa7, 0xbd,
    0x65, 0x46, 0x0c, 0xbd, 0xf2, 0x80, 0xdf, 0xbd, 0xff, 0xe6,
    0xe7, 0xbd, 0x01, 0x4c, 0xd6, 0xbd, 0xc1, 0xa1, 0xc4, 0xbd,
    0x42, 0x5d, 0x84, 0x3d, 0x4c, 0x81, 0x7f, 0x3d, 0xaf, 0x93,
    0x2d, 0xbc, 0x20, 0x58, 0x81, 0x3d, 0x34, 0xf8, 0xf7, 0xbc,
    0x7f, 0xaf, 0x01, 0x3d, 0x4f, 0xc3, 0xc1, 0xbd, 0xb7, 0x04,
    0xcf, 0xbd, 0x01, 0x0d, 0xe2, 0xbd, 0x96, 0x05, 0x23, 0x3d,
    0xcb, 0x74, 0xbb, 0xbd, 0x2a, 0x6c, 0x03, 0x3d, 0x39, 0xd5,
    0x80, 0xbd, 0x9d, 0xda, 0xf4, 0xbd, 0x9b, 0x5b, 0x45, 0x3d,
    0xc2, 0xc8, 0xe0, 0xbc, 0x4d, 0x80, 0x37, 0xbd, 0x34, 0xf5,
    0xc2, 0x3c, 0x56, 0x19, 0xdb, 0xbd, 0xc5, 0x33, 0xf3, 0xbd,
    0xc5, 0x7b, 0x8f, 0x3d, 0xae, 0xdb, 0xfc, 0x3c, 0xcc, 0xaa,
    0xc3, 0xbc, 0x64, 0x0b, 0xb3, 0xbd, 0xa0, 0xb7, 0xb8, 0xbd,
    0xf9, 0xa0, 0x0a, 0xbe, 0x82, 0x77, 0xe6, 0xbb, 0xf2, 0x3d,
    0x31, 0x3d, 0xbf, 0xe5, 0xef, 0xbd, 0x19, 0x87, 0xad, 0x3d,
    0x2a, 0x10, 0xa6, 0xbd, 0x4f, 0xad, 0x34, 0x3c, 0x1f, 0xe1,
    0x15, 0x3c, 0xac, 0x45, 0xa9, 0xbc, 0x8b, 0x60, 0x24, 0x3d,
    0xe8, 0x84, 0x0f, 0x3d, 0x6d, 0x86, 0xab, 0x3d, 0xac, 0xca,
    0xf2, 0x3d, 0xcf, 0x31, 0xae, 0xbd, 0xb1, 0x18, 0x3b, 0x3d,
    0x2a, 0x26, 0x47, 0x3d, 0x08, 0x1d, 0xf5, 0x3d, 0xfc, 0xc9,
    0x30, 0x3d, 0x50, 0x46, 0x64, 0xbd, 0x4d, 0xbf, 0x11, 0x3d,
    0x53, 0x19, 0xad, 0x3d, 0xb2, 0x4a, 0xb3, 0x3b, 0xb9, 0x4c,
    0x1e, 0xbd, 0x16, 0xbe, 0xb6, 0xbd, 0xcd, 0x86, 0xb0, 0xbd,
    0xda, 0xfa, 0xb8, 0x3d, 0xad, 0x9e, 0x5c, 0x3d, 0xc8, 0x34,
    0x83, 0xbd, 0x2c, 0x0c, 0x31, 0x3d, 0x3c, 0x6c, 0xba, 0x39,
    0x7c, 0xd1, 0x81, 0x3c, 0x0f, 0x0f, 0x6a, 0x3a, 0x9b, 0xef,
    0x01, 0xbe, 0x1b, 0x61, 0x77, 0xbc, 0x48, 0x58, 0x18, 0x3c,
    0x52, 0xc6, 0x3a, 0x3d, 0xf8, 0x9a, 0xba, 0x3c, 0x9b, 0x32,
    0x9a, 0xbd, 0xc8, 0xbc, 0xd0, 0xbd, 0x53, 0xbb, 0xdc, 0xbd,
    0x0b, 0x41, 0xa0, 0x3d, 0x0b, 0xe5, 0x42, 0x3c, 0x83, 0x63,
    0xd2, 0x3d, 0x98, 0x37, 0xdb, 0x3d, 0x51, 0xe3, 0xcc, 0x3d,
    0x9f, 0x02, 0xd0, 0x3d, 0x48, 0x9b, 0xde, 0xbd, 0xc2, 0x6a,
    0x29, 0x3d, 0x74, 0x14, 0x43, 0xbd, 0xdb, 0x6e, 0x2e, 0xbc,
    0xca, 0xf7, 0xad, 0xbd, 0x04, 0x31, 0x6c, 0x3d, 0x65, 0xf3,
    0x5b, 0xbb, 0x5c, 0x86, 0xe6, 0xbc, 0x12, 0x90, 0x2f, 0x3d,
    0x22, 0x84, 0xc1, 0xbd, 0x5d, 0xd0, 0xc2, 0x3d, 0xec, 0xa4,
    0xaa, 0xbd, 0x02, 0x2f, 0x4d, 0xbc, 0x89, 0x29, 0x31, 0xbc,
    0xe5, 0x8c, 0x95, 0xbd, 0x3d, 0x1c, 0xab, 0x3d, 0xc5, 0x20,
    0x4f, 0x3c, 0xe4, 0x9a, 0x93, 0x3d, 0x26, 0x96, 0x73, 0x3d,
    0xba, 0x27, 0xd1, 0xbd, 0x54, 0x91, 0xca, 0xbd, 0x5b, 0x58,
    0xb3, 0xbd, 0xb1, 0x91, 0xf0, 0xbd, 0x38, 0xaa, 0xee, 0xbd,
    0x2c, 0x57, 0x76, 0xbc, 0xed, 0x60, 0xd4, 0xbd, 0xec, 0x50,
    0xdf, 0x3c, 0x6a, 0x56, 0xc7, 0xbd, 0x56, 0x16, 0x99, 0x3d,
    0x34, 0x81, 0xe1, 0xbd, 0x54, 0xaf, 0x00, 0x3d, 0x6c, 0x13,
    0xcf, 0x3d, 0xef, 0xbb, 0x86, 0xbd, 0x29, 0x02, 0xbf, 0xbd,
    0x12, 0x5c, 0x8a, 0xbd, 0x82, 0xcb, 0x3f, 0xbd, 0x9f, 0x4e,
    0x00, 0xbd, 0xbc, 0xf8, 0x24, 0xbd, 0xf7, 0xe8, 0x55, 0xbd,
    0x97, 0x33, 0x59, 0xbc, 0xbd, 0x71, 0x21, 0xbd, 0xbc, 0x66,
    0x1d, 0x3b, 0x9f, 0xa4, 0x08, 0x3d, 0x1d, 0xf3, 0xd9, 0x3c,
    0xe5, 0xc6, 0x4b, 0xbd, 0x93, 0x92, 0x45, 0xbd, 0x74, 0x62,
    0x3f, 0x3d, 0x9d, 0xd4, 0x17, 0x3d, 0x33, 0xf6, 0x0b, 0x3d,
    0x11, 0x4f, 0x5a, 0xbc, 0x66, 0x83, 0xd1, 0x3d, 0xbf, 0x9b,
    0x78, 0xbd, 0xf1, 0x07, 0x00, 0xbe, 0x0b, 0x87, 0x21, 0xbd,
    0x5a, 0x5a, 0xc8, 0x3d, 0xed, 0x3a, 0xb4, 0xbc, 0x6b, 0x9f,
    0x6a, 0xbd, 0x30, 0x38, 0x97, 0xbd, 0xb9, 0x62, 0xbf, 0x3d,
    0xaf, 0x56, 0xdc, 0xbc, 0x44, 0x95, 0xb7, 0xbc, 0x65, 0x7b,
    0x42, 0x3d, 0xfe, 0xb7, 0x9a, 0xbd, 0x46, 0xf9, 0xda, 0xbd,
    0x05, 0xaf, 0x41, 0xbd, 0x23, 0xc4, 0x72, 0x3d, 0x4d, 0xb1,
    0x0d, 0x3d, 0x5c, 0xac, 0xed, 0x3c, 0x67, 0xec, 0x1a, 0xbd,
    0x3f, 0x48, 0x9f, 0x3d, 0xa5, 0x25, 0xff, 0xbc, 0x7a, 0x09,
    0xe6, 0xbd, 0x17, 0x91, 0xe9, 0xbd, 0xc6, 0xa9, 0x8f, 0x3d,
    0x64, 0x3a, 0xc6, 0xbd, 0x4e, 0x67, 0xb8, 0xbd, 0x16, 0x4a,
    0xdd, 0x3c, 0x60, 0x13, 0x01, 0xbc, 0x01, 0xb1, 0x75, 0x3d,
    0x42, 0x67, 0xff, 0x3c, 0x0d, 0x91, 0xde, 0x3c, 0x03, 0x17,
    0xdb, 0xbd, 0xf4, 0xea, 0x71, 0x3d, 0x88, 0xa2, 0x88, 0x3d,
    0x8a, 0xee, 0x8a, 0xbd, 0xbb, 0x32, 0xef, 0xbc, 0xca, 0x94,
    0xdc, 0x3d, 0x9c, 0xef, 0x97, 0x3d, 0xf0, 0x9e, 0x0a, 0xbc,
    0xd6, 0xf4, 0xa7, 0x3d, 0xe4, 0x56, 0x4b, 0xbd, 0x37, 0x37,
    0x02, 0x3d, 0x6d, 0xa4, 0xa4, 0xbd, 0x2a, 0x2f, 0x91, 0x3d,
    0xe7, 0x81, 0xa9, 0xbd, 0x4a, 0xbf, 0xb1, 0x3c, 0x16, 0x14,
    0xd1, 0xbc, 0xe1, 0x59, 0xd6, 0x3d, 0x33, 0xa4, 0x8d, 0xbc,
    0x2c, 0x62, 0x84, 0xbd, 0xdb, 0x6e, 0xd5, 0x3d, 0x74, 0x51,
    0xc0, 0xbd, 0xb3, 0x22, 0x9b, 0xbc, 0x34, 0xed, 0xd6, 0xbd,
    0x90, 0x1d, 0x94, 0xbd, 0x38, 0x56, 0xf8, 0xba, 0x36, 0xad,
    0x9e, 0x3d, 0x02, 0xa6, 0x8e, 0x3d, 0x50, 0x23, 0x11, 0xbe,
    0x6b, 0x90, 0xc6, 0xbd, 0xa4, 0xb8, 0x5c, 0xbd, 0xa0, 0xca,
    0x88, 0x39, 0x3e, 0x07, 0xd6, 0xbd, 0xc3, 0x36, 0xd9, 0xbd,
    0x70, 0x5a, 0xcf, 0xbd, 0xf6, 0xe8, 0xa8, 0xbc, 0xf5, 0xf2,
    0xbb, 0x3d, 0x40, 0x1a, 0xd1, 0x3d, 0x54, 0x1c, 0x9a, 0x3d,
    0xc2, 0x0c, 0x9a, 0xbd, 0x8d, 0x15, 0x00, 0xbe, 0x2e, 0x66,
    0x29, 0xbd, 0x52, 0xd5, 0xc5, 0xbd, 0x53, 0xc8, 0xad, 0xbd,
    0x98, 0xce, 0x0c, 0xbe, 0xcd, 0x24, 0x63, 0x3d, 0x05, 0x9a,
    0x78, 0xbd, 0x0b, 0x07, 0x99, 0xbb, 0x92, 0x6e, 0x97, 0x3c,
    0xff, 0x27, 0xb8, 0xbd, 0x5d, 0x46, 0xe5, 0x3d, 0x63, 0x91,
    0x8c, 0x3d, 0x67, 0x70, 0x80, 0xbd, 0xc7, 0xc7, 0x14, 0xbd,
    0x66, 0x7b, 0xcf, 0x3d, 0xbb, 0xc3, 0x98, 0x3d, 0x6a, 0x7c,
    0x9a, 0x3d, 0x66, 0x0b, 0x07, 0xbe, 0x70, 0xf9, 0x7d, 0xbd,
    0x41, 0xbd, 0x3b, 0xbd, 0xec, 0x8c, 0x78, 0xbc, 0xae, 0x9c,
    0xe0, 0xbd, 0x30, 0x1e, 0xd1, 0x3d, 0xa2, 0x94, 0x31, 0x3d,
    0xde, 0x58, 0xa1, 0xbd, 0xd0, 0xa6, 0x83, 0x3d, 0x96, 0xaa,
    0xb6, 0xbd, 0xad, 0x07, 0x80, 0x3d, 0x7b, 0x31, 0xfd, 0x3c,
    0x3a, 0x32, 0x4b, 0xbd, 0xe8, 0x3a, 0xfa, 0xbc, 0x20, 0x83,
    0xa6, 0x3d, 0x47, 0x49, 0xe9, 0x3d, 0x04, 0x1e, 0xbf, 0x3d,
    0xbb, 0x7c, 0x10, 0xbd, 0xfb, 0x3e, 0xae, 0x3c, 0x35, 0x11,
    0x85, 0x3d, 0xc4, 0x86, 0xc9, 0x3c, 0x85, 0xa2, 0xde, 0x3d,
    0xdc, 0xfd, 0x5d, 0xbd, 0x16, 0x9d, 0xc9, 0xbd, 0xb8, 0x45,
    0x4a, 0x3d, 0xbc, 0x66, 0x16, 0x3d, 0xdd, 0xaf, 0x99, 0xbd,
    0x95, 0x45, 0x2b, 0x3b, 0x1d, 0xd5, 0x3b, 0xbd, 0x65, 0x0c,
    0x8f, 0xbc, 0x26, 0x87, 0x06, 0x3d, 0x77, 0xbb, 0x77, 0xbd,
    0x38, 0xdd, 0x35, 0x3b, 0x34, 0x95, 0x9b, 0x3d, 0x46, 0xa1,
    0xd8, 0x3d, 0x87, 0x80, 0xda, 0x3d, 0xc8, 0x7e, 0xd8, 0xbd,
    0x41, 0x08, 0x5c, 0x3d, 0x9f, 0x0b, 0x96, 0x3d, 0xe2, 0xc0,
    0x9a, 0x3d, 0xf7, 0xf9, 0x0b, 0x3d, 0x9b, 0xed, 0xa6, 0x3c,
    0x05, 0x89, 0xa6, 0x3b, 0x47, 0xb6, 0xd8, 0xbd, 0xde, 0x16,
    0xa2, 0x3c, 0x80, 0x17, 0xdd, 0xbd, 0x70, 0x1d, 0x9a, 0xbd,
    0x37, 0x02, 0xec, 0x3c, 0x0a, 0xb5, 0x2d, 0xbd, 0x01, 0xf0,
    0x10, 0x3d, 0x8f, 0x74, 0xd5, 0x3d, 0xd0, 0xd6, 0x53, 0x3d,
    0x10, 0x09, 0xbc, 0xbd, 0xac, 0x80, 0xc5, 0x3c, 0xca, 0x7f,
    0x04, 0xbe, 0x3c, 0x67, 0xad, 0xbd, 0x89, 0x31, 0x0f, 0xbd,
    0xb2, 0xd6, 0x23, 0x3d, 0xb6, 0x14, 0xc9, 0x3d, 0x5c, 0xe9,
    0x8f, 0x3d, 0xfa, 0x28, 0x6e, 0x3d, 0xc2, 0x53, 0x85, 0xbd,
    0x0b, 0x51, 0xd5, 0xbd, 0xbc, 0x70, 0xf5, 0xbd, 0x44, 0x42,
    0x03, 0x3d, 0x82, 0x8f, 0x82, 0xbd, 0x6b, 0x13, 0xa6, 0x3b,
    0xa0, 0x5d, 0x61, 0xbd, 0x6d, 0xed, 0xb7, 0x3d, 0xb3, 0xf4,
    0xd5, 0x3d, 0x81, 0xfa, 0xea, 0xbd, 0x1d, 0xab, 0x5e, 0x3c,
    0x14, 0x91, 0xc7, 0x3c, 0xba, 0x41, 0xf4, 0xbb, 0x6f, 0x85,
    0xd4, 0xbd, 0xb9, 0x34, 0x4d, 0x3d, 0x64, 0x60, 0x5c, 0x3c,
    0x8c, 0xf8, 0x34, 0x3d, 0xdf, 0xae, 0x8a, 0x3d, 0x8c, 0x43,
    0xa8, 0xbd, 0xfa, 0x0a, 0xba, 0x3c, 0xa8, 0xb5, 0xd7, 0x3d,
    0xee, 0x3f, 0xdb, 0x3d, 0xed, 0xce, 0x5f, 0xbd, 0xea, 0x5b,
    0x09, 0xbe, 0x4d, 0xc9, 0x3f, 0x3d, 0xe7, 0x3d, 0x17, 0x3d,
    0x0a, 0x9e, 0x9a, 0x3d, 0x76, 0x55, 0x98, 0x3d, 0x09, 0xd6,
    0xa2, 0xbc, 0xe8, 0x0d, 0x8d, 0xbd, 0x6d, 0xba, 0x71, 0x3d,
    0x79, 0x7b, 0xc9, 0x3d, 0x2b, 0xfc, 0xcc, 0x3c, 0x10, 0x85,
    0x92, 0xbd, 0x41, 0x42, 0x08, 0xbe, 0x65, 0x77, 0x8d, 0xbd,
    0x7e, 0x49, 0xb7, 0xbc, 0xbf, 0x30, 0xd4, 0x3d, 0x8c, 0xe9,
    0xfc, 0x3c, 0x0a, 0x14, 0x2e, 0x3c, 0x38, 0x72, 0xa1, 0x3d,
    0x4f, 0x9b, 0x92, 0xbd, 0x5f, 0xa7, 0x4f, 0x3d, 0xd4, 0x90,
    0xc7, 0x3b, 0x9b, 0xa0, 0x89, 0x3d, 0x31, 0x67, 0x86, 0xbd,
    0x30, 0x5a, 0xe5, 0xbd, 0x1c, 0x6d, 0xd1, 0xbd, 0xa4, 0xbf,
    0xac, 0xbd, 0xf2, 0x2f, 0xbf, 0x3d, 0x5b, 0xd6, 0xa4, 0x3a,
    0x65, 0x2e, 0x17, 0xbd, 0x06, 0x94, 0x02, 0xbe, 0xf8, 0x20,
    0xa8, 0xbb, 0xb8, 0x31, 0xf3, 0x3c, 0x9d, 0x73, 0x02, 0xbe,
    0xc2, 0xf0, 0xf2, 0x3c, 0x09, 0xde, 0x0c, 0x3d, 0x32, 0x15,
    0xda, 0x3d, 0x21, 0xab, 0x98, 0x3d, 0x30, 0x71, 0x58, 0x3c,
    0x2a, 0xef, 0xbb, 0xbd, 0x50, 0x7f, 0x53, 0x3c, 0x18, 0x39,
    0x61, 0xbc, 0x05, 0x14, 0x37, 0x3d, 0xa2, 0xb1, 0xf9, 0xbd,
    0xed, 0x26, 0x80, 0xbd, 0x7d, 0x72, 0x15, 0xbe, 0x26, 0x4b,
    0xce, 0xbd, 0xd8, 0x11, 0x6c, 0x3d, 0x7f, 0xbb, 0x6d, 0x3d,
    0x75, 0xb7, 0xd6, 0xbc, 0x52, 0xf4, 0x83, 0xbd, 0x6b, 0x80,
    0x11, 0x3d, 0x9b, 0x58, 0x3e, 0x3d, 0xe7, 0x0e, 0x48, 0x3d,
    0x2b, 0x4b, 0x24, 0x3d, 0xf0, 0x50, 0x32, 0xbd, 0x00, 0xe8,
    0x03, 0xbd, 0x1b, 0x9a, 0xd6, 0xbd, 0xca, 0x1e, 0xa9, 0x3c,
    0xe8, 0x8d, 0xe0, 0x3c, 0xdb, 0x3a, 0xee, 0xbd, 0xa1, 0xde,
    0x17, 0xbd, 0x26, 0xc7, 0x84, 0xbd, 0x72, 0xf4, 0xec, 0x3c,
    0x68, 0x6b, 0xab, 0x3d, 0x95, 0xfa, 0x28, 0xbd, 0xe9, 0x29,
    0x38, 0x3d, 0x1b, 0xe1, 0x9c, 0x3d, 0x68, 0xb8, 0xdd, 0xbd,
    0x30, 0xa7, 0x87, 0x3d, 0x18, 0x67, 0x10, 0xbe, 0xef, 0x71,
    0x86, 0xbd, 0xcd, 0x85, 0xdc, 0xbd, 0x5b, 0x37, 0x46, 0xbd,
    0x78, 0x81, 0xca, 0x3c, 0xe5, 0xeb, 0xc6, 0xbd, 0x49, 0x76,
    0x06, 0xbe, 0x11, 0x9a, 0x68, 0x3d, 0x87, 0x96, 0x6c, 0xbd,
    0x80, 0x82, 0x9c, 0x3d, 0x54, 0xbf, 0xbb, 0xbd, 0x2a, 0x07,
    0x09, 0x3b, 0xbb, 0x33, 0xc1, 0xbd, 0xa8, 0x3d, 0x3c, 0x3d,
    0x4a, 0x47, 0xc1, 0xbd, 0x03, 0xbd, 0xc8, 0xbd, 0x9a, 0x30,
    0x94, 0x3d, 0xb7, 0x33, 0x6d, 0xbd, 0x23, 0xe3, 0x7e, 0x3d,
    0x2e, 0xf9, 0xa3, 0xbc, 0x75, 0x71, 0x70, 0x3d, 0xee, 0xa5,
    0x8f, 0xbd, 0xc0, 0x3c, 0xa6, 0x3d, 0xa5, 0xf0, 0xaf, 0xbd,
    0x0a, 0x15, 0x85, 0x3d, 0xfd, 0x7d, 0x15, 0x3d, 0x72, 0xaf,
    0x3c, 0xbb, 0x1f, 0x77, 0x7b, 0xbd, 0x13, 0x6e, 0x4b, 0xbd,
    0x9c, 0x9d, 0x9c, 0x3d, 0x2d, 0xd7, 0xb7, 0xbd, 0x59, 0x4e,
    0x00, 0xbe, 0x1c, 0x1b, 0x3c, 0x3d, 0xb2, 0xf2, 0xb3, 0xbd,
    0x3c, 0x77, 0x8d, 0xbd, 0x65, 0x4f, 0x94, 0xbd, 0xba, 0x9f,
    0xc1, 0xbd, 0x28, 0x41, 0x05, 0x3c, 0xaf, 0x26, 0xe1, 0x3d,
    0x26, 0x28, 0xd8, 0x3d, 0x00, 0x2c, 0x81, 0x3c, 0x14, 0x3a,
    0x2a, 0xbc, 0xf8, 0x54, 0x18, 0xbc, 0x16, 0xe8, 0x54, 0x3d,
    0x55, 0xf6, 0x1c, 0xbd, 0x2a, 0x06, 0x98, 0x3d, 0x38, 0xf9,
    0x0d, 0x3d, 0xa2, 0xcb, 0xcb, 0x3d, 0x64, 0x5a, 0x80, 0xbd,
    0xf4, 0xcc, 0x06, 0x3e, 0xa2, 0x58, 0x00, 0xbe, 0x2f, 0x05,
    0xcc, 0xbd, 0x2c, 0x5b, 0xa4, 0x3d, 0x40, 0xd2, 0x98, 0xbd,
    0xa3, 0x6d, 0x99, 0x3d, 0x8d, 0xdc, 0x07, 0xbe, 0x53, 0xbd,
    0x33, 0x3d, 0x89, 0x66, 0x7b, 0xbd, 0x13, 0x29, 0x9e, 0x3d,
    0xb4, 0x14, 0xe9, 0xbd, 0xdd, 0xc8, 0xce, 0xbd, 0xd2, 0xb0,
    0xbd, 0x3c, 0x8a, 0x08, 0xb2, 0x3d, 0x6a, 0x55, 0xba, 0xbc,
    0x82, 0x62, 0xb2, 0x3c, 0x5c, 0xdc, 0x03, 0xbe, 0xbe, 0x2a,
    0xc0, 0x3d, 0xfa, 0x50, 0x38, 0x3d, 0x2b, 0x53, 0x0f, 0x3c,
    0x5c, 0x80, 0xd6, 0xbd, 0x4b, 0x9c, 0x87, 0xbd, 0xd3, 0x39,
    0xb7, 0xbc, 0x30, 0x01, 0xd1, 0xbc, 0x59, 0x21, 0x97, 0xbc,
    0x72, 0x26, 0x84, 0xbd, 0x62, 0x95, 0x0c, 0xbd, 0xd7, 0x62,
    0xd5, 0xbd, 0xc5, 0xde, 0x11, 0xbd, 0x6a, 0x57, 0xe4, 0xbd,
    0x4e, 0x32, 0x4a, 0x3c, 0xb5, 0xc9, 0xa9, 0x3c, 0xfd, 0xf5,
    0x1e, 0x3d, 0x45, 0x72, 0xd4, 0xbd, 0x01, 0xe6, 0xe2, 0x3d,
    0x80, 0xfd, 0x9b, 0x3d, 0x19, 0x8e, 0xe9, 0xbd, 0xd4, 0xe7,
    0x83, 0xbd, 0x53, 0x06, 0xb8, 0xbd, 0x08, 0x8b, 0xdc, 0x3b,
    0x3a, 0x82, 0x11, 0xbe, 0x45, 0xf0, 0xc2, 0x3d, 0x72, 0x7e,
    0x9d, 0xbd, 0xed, 0x50, 0xd6, 0x3d, 0x03, 0x95, 0xb5, 0xbd,
    0xf7, 0xa1, 0xd5, 0xbd, 0xd0, 0x38, 0x9d, 0xbd, 0xeb, 0x90,
    0xcc, 0xbd, 0x4a, 0x16, 0x13, 0xbd, 0x13, 0xe0, 0x29, 0x3c,
    0x46, 0xd6, 0x02, 0x3d, 0x83, 0x9f, 0x33, 0xbc, 0x26, 0xbc,
    0x42, 0x3d, 0xbe, 0x44, 0x84, 0xbd, 0x0f, 0x26, 0xfc, 0xbd,
    0x42, 0x9b, 0xd3, 0xbd, 0x64, 0x8a, 0x82, 0xbd, 0x25, 0x60,
    0x7a, 0x3c, 0xac, 0x4f, 0x92, 0xbd, 0x9c, 0x38, 0xf0, 0x3d,
    0x90, 0x7b, 0xcb, 0xbd, 0x82, 0x97, 0x84, 0x3c, 0x33, 0x40,
    0x48, 0xbd, 0xb7, 0xd7, 0x4e, 0x3d, 0x68, 0xa3, 0xb5, 0xbd,
    0x54, 0x9f, 0x52, 0xbd, 0x62, 0x84, 0xd4, 0xbd, 0xf5, 0xe1,
    0x93, 0xbd, 0x5d, 0x10, 0xa6, 0xbc, 0xa5, 0xe4, 0x6d, 0xbd,
    0x73, 0x8f, 0x43, 0xbd, 0xda, 0xf8, 0xb7, 0x3c, 0x42, 0x4c,
    0xb7, 0x3d, 0xe5, 0xe1, 0xcb, 0x3d, 0xa7, 0x7b, 0xea, 0xbd,
    0xb0, 0xf4, 0x9b, 0xbb, 0xca, 0xaa, 0x77, 0xbd, 0x22, 0x2f,
    0x80, 0xbc, 0xda, 0xfd, 0xdd, 0xbc, 0xb7, 0x6a, 0xc3, 0xbc,
    0xcd, 0x46, 0x2c, 0xbd, 0x15, 0xa0, 0x4e, 0x3d, 0x04, 0x58,
    0xaf, 0xbd, 0x9b, 0xb6, 0xa9, 0x3d, 0x1f, 0xeb, 0x3b, 0x3d,
    0x2a, 0x68, 0x6a, 0x3d, 0xf0, 0xed, 0xb6, 0xbd, 0x80, 0xf3,
    0xb6, 0x3d, 0x62, 0x8c, 0xd5, 0xbc, 0x99, 0x91, 0xa7, 0xbd,
    0x92, 0xd5, 0x64, 0x3d, 0x7f, 0xac, 0xbc, 0xbd, 0xf5, 0x54,
    0x93, 0xbd, 0x54, 0x55, 0x04, 0xbe, 0xee, 0x5d, 0xc3, 0xbd,
    0x0d, 0xdd, 0xf4, 0x3d, 0xa2, 0x99, 0x2a, 0xbb, 0xc6, 0xa9,
    0xa3, 0xbd, 0x77, 0x79, 0x3f, 0x3d, 0x2e, 0xd0, 0xa2, 0x3d,
    0x14, 0x9e, 0xe4, 0xbb, 0xda, 0x8f, 0x59, 0x3b, 0xbf, 0xfe,
    0x42, 0xbd, 0x08, 0xf3, 0x6c, 0x3d, 0xae, 0x08, 0x71, 0x3d,
    0xa0, 0x07, 0xe7, 0x3d, 0x0d, 0x53, 0xde, 0x3d, 0xc3, 0xed,
    0x17, 0x3d, 0x98, 0x06, 0x2b, 0x3d, 0x0d, 0xcd, 0xdd, 0xbd,
    0x02, 0x8c, 0x8a, 0x3b, 0xf3, 0x03, 0x34, 0xbc, 0x0e, 0xbf,
    0x91, 0xbd, 0xe8, 0xa0, 0xc3, 0x3c, 0xd3, 0xff, 0x2c, 0x3d,
    0x77, 0xff, 0xa6, 0x3d, 0x35, 0xb3, 0xe6, 0x3d, 0x72, 0x9b,
    0x32, 0xbd, 0x7c, 0x73, 0x6f, 0xbb, 0x4d, 0xdd, 0xfe, 0xbb,
    0x56, 0xe1, 0xa9, 0xbd, 0x78, 0xad, 0xdf, 0x3d, 0x24, 0x11,
    0xb1, 0xbd, 0x21, 0x5b, 0xaf, 0xbc, 0xed, 0x75, 0xaf, 0xbd,
    0x9a, 0x0b, 0xeb, 0x3d, 0xc7, 0xeb, 0x7c, 0x3d, 0xbf, 0x5b,
    0x91, 0xbd, 0xa8, 0x0b, 0x48, 0x3d, 0x7e, 0x2d, 0xa9, 0xbd,
    0x73, 0x99, 0x55, 0x3d, 0x53, 0xd3, 0xa4, 0x3d, 0x16, 0xb1,
    0xb1, 0xbd, 0xb7, 0x84, 0x9d, 0xbd, 0x80, 0xf3, 0x5e, 0xbd,
    0x9c, 0x5c, 0x38, 0xbd, 0x60, 0x42, 0xdc, 0xbd, 0x14, 0x11,
    0x6b, 0xbd, 0x51, 0x60, 0xd7, 0x3c, 0x48, 0x5c, 0x32, 0xbd,
    0x0e, 0x8f, 0x12, 0x3d, 0x93, 0x04, 0x91, 0x3d, 0x87, 0x76,
    0xb4, 0x3d, 0x38, 0xd5, 0xc8, 0xbd, 0xc5, 0x2d, 0xb9, 0x3d,
    0x4c, 0x3f, 0x41, 0x3c, 0xdc, 0x75, 0x8e, 0x3d, 0xdd, 0xb9,
    0x85, 0xbc, 0x15, 0xd4, 0xa9, 0x3d, 0xac, 0xd0, 0xa0, 0x3d,
    0x8c, 0x18, 0x96, 0x3d, 0xf7, 0x03, 0x4c, 0x3d, 0x46, 0xc3,
    0xb1, 0xbd, 0xc2, 0xda, 0xb4, 0xbd, 0x1a, 0xe6, 0x91, 0x3d,
    0xb6, 0x80, 0xe2, 0x3d, 0xd3, 0x6f, 0xc8, 0x3d, 0xf6, 0x49,
    0x60, 0x3d, 0xa0, 0x79, 0xb7, 0xbc, 0x18, 0xd6, 0x96, 0x3d,
    0xad, 0x6d, 0x84, 0xbd, 0x7a, 0xff, 0x40, 0x3d, 0x5e, 0x19,
    0xa8, 0xbd, 0xda, 0x15, 0xed, 0xbc, 0x43, 0xbe, 0xb2, 0xbd,
    0x33, 0xfc, 0x2a, 0xbd, 0x4a, 0x87, 0xf7, 0x3c, 0x2b, 0x48,
    0xa4, 0x3b, 0x79, 0x12, 0x4a, 0x3d, 0x4a, 0x28, 0x51, 0x3b,
    0xd3, 0xd7, 0x04, 0x3d, 0xc6, 0x40, 0x2c, 0xbd, 0x9a, 0x2d,
    0x8e, 0xbd, 0x90, 0x47, 0xc5, 0x3d, 0xfc, 0x16, 0x94, 0xbd,
    0x85, 0x34, 0x2c, 0x3d, 0x87, 0x6e, 0xd8, 0xbd, 0x3c, 0x18,
    0xee, 0xbd, 0x62, 0x03, 0x90, 0x3d, 0x10, 0x90, 0xc2, 0x3d,
    0x03, 0xd6, 0xaf, 0x3d, 0x3f, 0x23, 0x7e, 0x3d, 0x0d, 0xa9,
    0x93, 0x3d, 0x89, 0x0c, 0xd2, 0x3d, 0x5e, 0x4c, 0xd6, 0xbc,
    0x8d, 0x32, 0xf2, 0xbd, 0xfb, 0x84, 0xe7, 0xbc, 0xb0, 0x4e,
    0x63, 0x3c, 0x26, 0x6c, 0xe6, 0xbd, 0xbf, 0xa1, 0xee, 0xbd,
    0xb8, 0x40, 0x9f, 0xbd, 0xa5, 0xe1, 0x87, 0x3d, 0xa1, 0x22,
    0x00, 0xbe, 0x71, 0xc3, 0x44, 0x3d, 0x0a, 0x15, 0x2f, 0xbd,
    0x6b, 0x9a, 0x76, 0x3d, 0x22, 0xfb, 0x8b, 0xbd, 0xf1, 0xfd,
    0xbd, 0xbd, 0x1f, 0x6a, 0x54, 0xbd, 0x25, 0xf1, 0x7b, 0xbd,
    0x43, 0x06, 0xcf, 0x3c, 0x40, 0xf0, 0x15, 0xbd, 0xdf, 0xa3,
    0x32, 0xbd, 0xad, 0x01, 0x4f, 0xbd, 0xda, 0x3c, 0x81, 0x3d,
    0xac, 0x6c, 0x15, 0xbd, 0x03, 0xe2, 0x0e, 0x3c, 0xc7, 0x14,
    0xed, 0xbd, 0x15, 0x27, 0x8a, 0xbd, 0xd0, 0x85, 0xf5, 0xbd,
    0xf8, 0x6c, 0x50, 0x3d, 0x22, 0x5f, 0x90, 0x3d, 0xe2, 0x83,
    0x14, 0xbd, 0x29, 0xf4, 0xdb, 0xbd, 0xeb, 0xcb, 0x4a, 0x3c,
    0x70, 0x68, 0x63, 0xbd, 0x4c, 0x36, 0xe0, 0xbd, 0x0a, 0x4d,
    0xe4, 0xbc, 0x25, 0xb3, 0x58, 0xbd, 0x27, 0x8a, 0x9e, 0xbc,
    0xf7, 0xd8, 0x5b, 0xbd, 0x2b, 0x55, 0xbd, 0xbb, 0xfd, 0x3e,
    0xd3, 0xbd, 0x76, 0xd5, 0xeb, 0xbd, 0xbb, 0xfe, 0xe9, 0xbd,
    0xa1, 0xc4, 0x30, 0x3a, 0x4c, 0xcf, 0x85, 0xbd, 0x7c, 0x64,
    0x91, 0xbd, 0x0c, 0x15, 0xbe, 0x3d, 0xb9, 0x22, 0x8b, 0x3d,
    0xf4, 0x8d, 0x0e, 0xbe, 0x22, 0xc7, 0x4a, 0x3c, 0x63, 0xd5,
    0xbe, 0x3d, 0xd4, 0x48, 0x8d, 0xbc, 0xa6, 0xd1, 0x4c, 0x3d,
    0x81, 0x56, 0xec, 0x3d, 0xaf, 0xc0, 0x41, 0x3d, 0x6f, 0x76,
    0xa2, 0x3c, 0xbb, 0x30, 0xbc, 0xbb, 0x4b, 0x77, 0x43, 0xbd,
    0xa4, 0x03, 0x94, 0x3c, 0x01, 0x54, 0x1b, 0xbc, 0x05, 0x4b,
    0x1e, 0xbe, 0x70, 0x3c, 0x49, 0xbd, 0x3f, 0xbe, 0x67, 0xbc,
    0x73, 0xa6, 0x3b, 0xbd, 0xca, 0x11, 0xee, 0xbb, 0x15, 0x70,
    0xf7, 0x3c, 0x54, 0xbc, 0x8b, 0xbd, 0x31, 0xf9, 0xa6, 0xbc,
    0x95, 0xc4, 0x6a, 0x3d, 0xd8, 0x58, 0xa2, 0x3d, 0xca, 0x30,
    0xf3, 0xbd, 0x3d, 0x0f, 0x91, 0xbd, 0x99, 0x5c, 0xb0, 0xbd,
    0x23, 0x07, 0xaf, 0x3d, 0x9a, 0xf8, 0x7e, 0xbc, 0xb8, 0x8f,
    0xd7, 0x3d, 0x70, 0x9a, 0x84, 0xbd, 0x33, 0xb2, 0xc4, 0x3d,
    0x45, 0x36, 0x00, 0x3d, 0xb9, 0xa5, 0x04, 0x3d, 0xa0, 0xa4,
    0x22, 0x3d, 0x42, 0x0d, 0x04, 0xbc, 0x45, 0xee, 0xc5, 0xbd,
    0xbd, 0x1b, 0xd0, 0xbd, 0xb9, 0xc6, 0x3b, 0xbd, 0x1f, 0x28,
    0xef, 0xbd, 0xd4, 0x92, 0xb3, 0x3d, 0xbe, 0xb1, 0xa1, 0x3b,
    0x76, 0x0e, 0xea, 0x3c, 0xbc, 0xc5, 0xcc, 0xbc, 0x13, 0xab,
    0xda, 0xbd, 0xc1, 0x31, 0xca, 0xbd, 0x3f, 0xef, 0xa6, 0x3c,
    0xab, 0xfa, 0x7f, 0xbc, 0x62, 0x6b, 0xe5, 0xbd, 0x26, 0xd2,
    0xac, 0xbd, 0x16, 0xd3, 0xfb, 0xbd, 0x31, 0x52, 0x9c, 0x3d,
    0xbd, 0x5f, 0xef, 0xbc, 0x66, 0x50, 0xdb, 0x3d, 0xa4, 0xa8,
    0x1a, 0x3a, 0x7a, 0x0b, 0x8e, 0xbd, 0x7c, 0x64, 0x01, 0x3c,
    0x2c, 0x24, 0x0b, 0xbe, 0x33, 0x8c, 0x23, 0xbc, 0x5c, 0x40,
    0x35, 0xbd, 0x41, 0xc8, 0x91, 0x3d, 0xa1, 0x32, 0x63, 0xbc,
    0xb9, 0x6e, 0x7a, 0xba, 0xa8, 0x54, 0xc1, 0xbd, 0xd4, 0x8f,
    0x7e, 0xbd, 0xb4, 0x67, 0x5a, 0xbc, 0xa8, 0x6e, 0x5d, 0xbd,
    0x8e, 0xbb, 0xeb, 0x3c, 0xd0, 0x6c, 0x1a, 0x3d, 0x4a, 0x90,
    0xa0, 0x3c, 0x0b, 0x1d, 0x2e, 0xbd, 0x6f, 0x3a, 0xe1, 0xbd,
    0x26, 0x09, 0x46, 0x3c, 0xcd, 0x9c, 0x15, 0x3c, 0x02, 0xc2,
    0xed, 0x3c, 0xa3, 0x74, 0xb0, 0x3d, 0x3d, 0x6d, 0xbb, 0xbd,
    0xa5, 0x57, 0x1a, 0x3c, 0xe3, 0xf9, 0xb3, 0x3b, 0x33, 0x2c,
    0x8f, 0x3d, 0x17, 0xc9, 0x28, 0x3d, 0xa2, 0x5d, 0xd0, 0xbd,
    0x59, 0x4c, 0xcd, 0x3c, 0xb7, 0x90, 0xf9, 0xbb, 0xe7, 0xe4,
    0xaa, 0xbd, 0x09, 0x65, 0xfd, 0x3c, 0x9f, 0x13, 0x58, 0x3c,
    0xe5, 0xb2, 0x3c, 0xbd, 0xad, 0x38, 0x97, 0x3d, 0xc9, 0x8a,
    0x98, 0xbd, 0x45, 0x20, 0xa4, 0x3c, 0xbf, 0x6e, 0xe7, 0x3d,
    0xb6, 0xb5, 0x13, 0xbe, 0xf0, 0xbb, 0x39, 0x3b, 0xc5, 0x78,
    0xce, 0xbd, 0x55, 0x45, 0x9d, 0xbd, 0x7d, 0x7f, 0x92, 0xbc,
    0xa7, 0x31, 0xae, 0xbd, 0x09, 0x38, 0xe4, 0x3b, 0xfc, 0x8a,
    0xe0, 0xbd, 0xfe, 0x6b, 0x41, 0x3d, 0xc9, 0x55, 0xa5, 0x3c,
    0x4b, 0xe5, 0xb1, 0xbd, 0x4a, 0xc0, 0xb9, 0xbd, 0x91, 0x9e,
    0x5e, 0x3b, 0x15, 0x8b, 0x8e, 0x3d, 0x6f, 0x34, 0x38, 0x3d,
    0xa1, 0xb7, 0xe6, 0x3d, 0x2d, 0x8a, 0xad, 0xbd, 0xa9, 0x19,
    0x86, 0xbd, 0x01, 0x66, 0x5b, 0x3d, 0x65, 0x1f, 0xa5, 0x3d,
    0x9c, 0x32, 0xd3, 0x3d, 0x64, 0xc8, 0x70, 0xbb, 0xbc, 0x75,
    0x44, 0x3d, 0xf1, 0x66, 0x52, 0xbd, 0x57, 0xa9, 0x35, 0x3d,
    0xdd, 0x36, 0xcc, 0xbc, 0xb3, 0x2e, 0xc9, 0x3d, 0x18, 0xdb,
    0x77, 0xbd, 0x67, 0xb9, 0x96, 0xbb, 0xf5, 0x8f, 0xd8, 0xbc,
    0x73, 0x81, 0x07, 0x3c, 0xa4, 0xab, 0x61, 0xbd, 0xe0, 0xb7,
    0x7a, 0x3d, 0x77, 0x70, 0xcb, 0xbd, 0x15, 0xa8, 0x3d, 0xbd,
    0xa3, 0x61, 0xb9, 0x3d, 0x79, 0x82, 0xbb, 0x3d, 0x8e, 0xcd,
    0xf2, 0x3b, 0xbb, 0xd2, 0x7e, 0x3d, 0x43, 0xca, 0xd4, 0xbd,
    0x4f, 0x42, 0x5d, 0xbd, 0x1c, 0x23, 0x07, 0xbe, 0xf8, 0x40,
    0xc5, 0xbc, 0xd1, 0x60, 0x08, 0x3c, 0x8f, 0x52, 0x30, 0xbd,
    0x26, 0x01, 0x88, 0x3d, 0xbb, 0xce, 0xaa, 0xbd, 0x5e, 0xc9,
    0x51, 0x3d, 0xe4, 0xbf, 0xac, 0xbd, 0x5d, 0xa3, 0x72, 0x3d,
    0xc7, 0xf5, 0x4f, 0x3d, 0xa1, 0x9a, 0x9b, 0x3d, 0x7e, 0x13,
    0xb8, 0x3d, 0x96, 0x97, 0x81, 0xbd, 0x16, 0x3d, 0xd6, 0xbc,
    0x9d, 0xeb, 0xba, 0xbd, 0x4d, 0xac, 0xbe, 0x3d, 0x8b, 0x2e,
    0x04, 0xbc, 0xbf, 0x74, 0x23, 0x3d, 0xc6, 0x9d, 0x02, 0x3c,
    0x9b, 0x73, 0x29, 0x3d, 0x19, 0x33, 0x41, 0x3d, 0xe3, 0xdc,
    0xc2, 0xbd, 0x64, 0x6b, 0xf2, 0xbc, 0x63, 0x72, 0x6c, 0x3c,
    0x9f, 0x30, 0xf1, 0x3d, 0xbc, 0xf0, 0x1f, 0xbd, 0xf5, 0xb9,
    0xd2, 0xbd, 0x01, 0xe6, 0x17, 0xbd, 0x49, 0xe3, 0x6f, 0x3d,
    0x3d, 0x29, 0x90, 0xbd, 0x5b, 0x8f, 0x3a, 0x3d, 0xd8, 0xd1,
    0x67, 0xbc, 0x66, 0x7f, 0xb9, 0x3d, 0xf9, 0x49, 0x12, 0xbe,
    0xd2, 0xe3, 0x83, 0x3d, 0x62, 0xff, 0x9e, 0xbd, 0x85, 0xe4,
    0x06, 0xbb, 0xd6, 0x2a, 0xdc, 0xbc, 0x84, 0xcb, 0x97, 0xbd,
    0xc3, 0xf1, 0xf6, 0xbd, 0x4f, 0x4b, 0xcb, 0x3d, 0xc1, 0x1d,
    0x2a, 0xbd, 0xea, 0xee, 0xe4, 0xba, 0x2f, 0x68, 0xa4, 0x3d,
    0xd0, 0x2f, 0xd0, 0x3b, 0xa9, 0xa5, 0x0d, 0x3d, 0x9c, 0x90,
    0x02, 0xbe, 0x31, 0x80, 0xba, 0xbd, 0xa9, 0x1f, 0x6d, 0xbd,
    0x31, 0xf7, 0x6a, 0xbd, 0x79, 0x12, 0xed, 0xbd, 0xf8, 0x30,
    0xc1, 0x3d, 0xb4, 0xb5, 0xfd, 0xbd, 0x8a, 0xd3, 0x12, 0xbd,
    0x9f, 0x5c, 0x2e, 0x3d, 0x8c, 0xc7, 0xbc, 0x3b, 0x88, 0x9b,
    0x1d, 0x3d, 0xe4, 0xc8, 0xca, 0xbd, 0x04, 0x48, 0x69, 0x3d,
    0x84, 0x3c, 0x8e, 0xbc, 0xf8, 0x25, 0x19, 0xbe, 0x68, 0xf7,
    0x15, 0xbe, 0x6b, 0x3a, 0xf9, 0x3b, 0xe7, 0xf9, 0xc7, 0xbc,
    0x8f, 0x78, 0x1a, 0x3d, 0xf3, 0xf3, 0x96, 0xbd, 0xc0, 0x8b,
    0x84, 0xbc, 0x9f, 0x17, 0x37, 0xbd, 0xab, 0xf0, 0x7e, 0xbd,
    0xb4, 0x7a, 0x22, 0x3c, 0xaf, 0xcf, 0x91, 0xbd, 0x29, 0x51,
    0x28, 0xbd, 0x4b, 0x6a, 0x40, 0xbd, 0x91, 0xb5, 0xb1, 0xbd,
    0x36, 0x09, 0xc4, 0x3d, 0x07, 0x25, 0x99, 0x3d, 0x46, 0xcf,
    0xbc, 0xbc, 0x95, 0x85, 0x83, 0x3d, 0x6f, 0x00, 0x96, 0xbd,
    0x07, 0x67, 0x5e, 0x3d, 0xfe, 0x15, 0x35, 0xbd, 0x7e, 0xee,
    0xf3, 0x3c, 0xd6, 0x30, 0xba, 0xbc, 0xe2, 0x15, 0x7b, 0xbd,
    0xfb, 0x97, 0x25, 0x3d, 0x9a, 0xa7, 0x75, 0x3d, 0xa8, 0xa6,
    0x8a, 0x3d, 0xca, 0xcd, 0x3f, 0xbc, 0xf5, 0x99, 0x30, 0x3d,
    0xbc, 0xd4, 0xee, 0xbd, 0xc4, 0x38, 0xcb, 0xbd, 0x9e, 0x3f,
    0xb2, 0x3d, 0x6d, 0x3c, 0x56, 0x3d, 0xc5, 0xbf, 0x0e, 0x3d,
    0x61, 0xc9, 0xea, 0x3c, 0x57, 0x52, 0x13, 0xbc, 0x60, 0x08,
    0xb7, 0x3d, 0xc7, 0xf4, 0x41, 0x3d, 0x01, 0x14, 0x9f, 0x3d,
    0xd2, 0x55, 0xb1, 0x3d, 0x3b, 0xff, 0xd3, 0x3c, 0xa7, 0x49,
    0x08, 0xbd, 0x59, 0x0f, 0x9e, 0x3c, 0xd4, 0x7b, 0x19, 0x3d,
    0xb0, 0xfd, 0xc3, 0x3d, 0x17, 0xf7, 0x77, 0x3d, 0x82, 0xe8,
    0x59, 0x3d, 0x3f, 0x90, 0x83, 0xbd, 0x59, 0x3a, 0xd3, 0x3c,
    0x0a, 0xdf, 0x9d, 0xbd, 0xfa, 0x2d, 0x82, 0x3d, 0xd2, 0x9d,
    0xc3, 0x3d, 0x0b, 0x47, 0x35, 0xbd, 0x09, 0x38, 0x3f, 0x3d,
    0x9a, 0xbd, 0x30, 0xbc, 0x3a, 0x4e, 0xa8, 0xbd, 0x9e, 0x5d,
    0x45, 0xbd, 0x29, 0x8f, 0x10, 0xbe, 0x03, 0xd4, 0x95, 0x3d,
    0x46, 0xac, 0xbd, 0x3c, 0x35, 0xd1, 0xe8, 0xbc, 0xe1, 0x16,
    0x5e, 0x3c, 0x46, 0xab, 0xfb, 0x3c, 0xd8, 0xe7, 0xe8, 0xbd,
    0x2b, 0x7a, 0x71, 0x3d, 0xae, 0x09, 0xab, 0xbd, 0x28, 0x83,
    0xd5, 0xbd, 0x34, 0x9b, 0x04, 0xbe, 0xa9, 0x38, 0x68, 0xbd,
    0xb0, 0x7a, 0xad, 0xbd, 0xe6, 0xf5, 0xa0, 0xbd, 0x8f, 0x60,
    0x97, 0xbd, 0x59, 0x52, 0xac, 0x3d, 0xf7, 0x8c, 0x58, 0x3d,
    0xd2, 0x69, 0xfc, 0xbd, 0x69, 0x25, 0xb8, 0x3d, 0x1d, 0xa2,
    0xc3, 0xbd, 0xae, 0x0c, 0x9d, 0xbc, 0x5b, 0xf1, 0x59, 0x3d,
    0x53, 0x80, 0x51, 0x3d, 0xf4, 0x81, 0xd3, 0xbd, 0x89, 0x7d,
    0xe1, 0x3d, 0xf5, 0x32, 0x87, 0x3d, 0xa2, 0x3d, 0x9e, 0xbd,
    0x98, 0x99, 0x76, 0xbd, 0xd9, 0x73, 0x18, 0x3e, 0x8c, 0xa0,
    0xcf, 0xbd, 0x27, 0x85, 0x08, 0xbc, 0xa5, 0x9b, 0xed, 0x3c,
    0x8d, 0x48, 0xea, 0x3c, 0x60, 0x14, 0xf2, 0x3b, 0x89, 0xcc,
    0xc1, 0xbd, 0xdf, 0xd0, 0xa9, 0x3c, 0x97, 0x17, 0xab, 0x3d,
    0xe7, 0x55, 0x2d, 0x3d, 0xab, 0x9d, 0x94, 0xbd, 0x41, 0x40,
    0x11, 0xbe, 0x44, 0x3d, 0x7b, 0xbd, 0x24, 0xa5, 0xa9, 0xbd,
    0x74, 0x3f, 0x7b, 0xbc, 0x76, 0x87, 0xdf, 0xbd, 0x11, 0xe1,
    0xe5, 0xbd, 0x3a, 0x29, 0xf0, 0x3d, 0x13, 0x3d, 0x78, 0xbd,
    0x60, 0x0d, 0xea, 0xbc, 0xba, 0x87, 0x8e, 0xbc, 0xb8, 0x6c,
    0x91, 0x3c, 0x72, 0xa8, 0xae, 0xbd, 0x9a, 0x90, 0xee, 0x3d,
    0xa9, 0x8c, 0x98, 0xbd, 0xf5, 0xb5, 0x01, 0xbd, 0x96, 0x9a,
    0x6a, 0xbd, 0x0c, 0x99, 0x5a, 0xbc, 0xd5, 0x4c, 0xde, 0x3c,
    0x10, 0x16, 0xbd, 0xbd, 0x88, 0x2a, 0x4e, 0xbd, 0x35, 0x67,
    0xbd, 0x3d, 0x36, 0xe5, 0x15, 0xbb, 0x60, 0xe4, 0x58, 0xbd,
    0x02, 0xb0, 0xb6, 0x3c, 0x87, 0x68, 0xbc, 0xbd, 0x63, 0x1f,
    0x4d, 0x3d, 0x65, 0xd9, 0x7f, 0xba, 0x0d, 0xf7, 0x86, 0x3d,
    0xac, 0x6e, 0xe1, 0xbd, 0x19, 0x5b, 0xe6, 0x3d, 0x16, 0x89,
    0xe4, 0x3b, 0x75, 0x43, 0x2c, 0xbd, 0x69, 0x6b, 0xf2, 0xbd,
    0xbc, 0x19, 0x7d, 0x3d, 0x94, 0x57, 0x9a, 0x3d, 0xdf, 0xb5,
    0x82, 0x3d, 0x31, 0x6f, 0x8c, 0xbd, 0x70, 0xc8, 0x02, 0xbe,
    0xdf, 0x40, 0x82, 0x3d, 0x76, 0x40, 0xee, 0xbc, 0xd7, 0xbe,
    0xa4, 0xbb, 0xc3, 0xc4, 0x0d, 0xbb, 0x48, 0x4e, 0x06, 0x3d,
    0xea, 0x86, 0xee, 0xbd, 0xf6, 0x35, 0xf4, 0xbd, 0x98, 0x8f,
    0xb6, 0x3d, 0xf2, 0xac, 0x86, 0x3d, 0xad, 0x58, 0x0a, 0xbd,
    0x2c, 0x9d, 0x29, 0x3d, 0x93, 0x19, 0xc8, 0x3c, 0x1f, 0x1d,
    0xb3, 0xbb, 0x8e, 0x21, 0xd6, 0xbd, 0xdf, 0x33, 0x4f, 0x3d,
    0xfd, 0x8e, 0x9c, 0xbd, 0x75, 0x21, 0x14, 0xbe, 0x69, 0x18,
    0x76, 0x3d, 0x13, 0x1a, 0x8e, 0x3d, 0x22, 0x2d, 0x12, 0xbd,
    0xa7, 0xac, 0xf2, 0xbc, 0xc9, 0xd6, 0xa7, 0x3d, 0xbc, 0x2b,
    0x9d, 0xbd, 0x6b, 0x6c, 0xa5, 0x3d, 0x42, 0x51, 0xf3, 0xbd,
    0x68, 0xbc, 0xae, 0xbd, 0x70, 0x81, 0xb2, 0x3d, 0x5c, 0x2d,
    0x80, 0x3d, 0x8c, 0x31, 0xae, 0xbd, 0xb6, 0xe4, 0xc6, 0xbd,
    0x78, 0x6b, 0xb3, 0x3d, 0x05, 0xe0, 0x47, 0xbc, 0x32, 0x19,
    0xc9, 0x3c, 0xc8, 0x63, 0xac, 0xbd, 0xd3, 0x19, 0xf0, 0xbb,
    0xd1, 0xfa, 0x48, 0xbd, 0x28, 0xfc, 0xc0, 0x3d, 0x11, 0xfc,
    0x48, 0x3d, 0x9e, 0x66, 0xde, 0x3c, 0x6b, 0x22, 0x21, 0xbd,
    0xb7, 0xbc, 0xbe, 0xbd, 0x31, 0x7a, 0x45, 0xbc, 0x11, 0xc6,
    0xb6, 0xbc, 0x51, 0x47, 0x34, 0xbd, 0x30, 0xae, 0xc1, 0x3d,
    0xc9, 0xdb, 0x86, 0x3c, 0x5c, 0xf0, 0x59, 0x3d, 0x2e, 0xc9,
    0x39, 0x3d, 0x70, 0x4e, 0x67, 0x3d, 0xd6, 0x94, 0x40, 0x3d,
    0xce, 0x21, 0x1d, 0x3d, 0xbf, 0x22, 0x66, 0x3b, 0xf4, 0xc4,
    0x8d, 0xbd, 0x47, 0x10, 0x03, 0x3d, 0x5f, 0xb3, 0xaf, 0xbd,
    0xe4, 0x3b, 0x1b, 0xbd, 0xe3, 0xb7, 0x85, 0xbc, 0x8d, 0x73,
    0x72, 0xbd, 0x07, 0x01, 0x86, 0x3d, 0xad, 0x8e, 0x9f, 0xbc,
    0x3d, 0x59, 0xae, 0x3d, 0x33, 0x6a, 0x40, 0xbd, 0xbd, 0x55,
    0xa7, 0x3d, 0x81, 0x62, 0xf1, 0xbc, 0x14, 0xc9, 0x0d, 0xbe,
    0xcb, 0xba, 0x46, 0xbd, 0x17, 0xb4, 0x3b, 0xbd, 0x9c, 0xe7,
    0xd6, 0xbd, 0xf8, 0x6b, 0x11, 0x3b, 0xc4, 0xd6, 0x8a, 0xbd,
    0x8a, 0x1d, 0xed, 0x3c, 0x19, 0xa2, 0xb1, 0x3d, 0xb7, 0xe7,
    0x93, 0xbc, 0x1d, 0x3e, 0x8e, 0x3d, 0xe6, 0xc7, 0x25, 0xbd,
    0x6d, 0xa7, 0xe8, 0x3d, 0xd9, 0x48, 0xb2, 0x3c, 0xdf, 0x72,
    0xb2, 0x3c, 0x03, 0xc6, 0xb0, 0x3d, 0xba, 0x94, 0xdd, 0x3d,
    0x4f, 0xad, 0x90, 0x3d, 0xc2, 0x40, 0xd6, 0xbd, 0x67, 0x03,
    0xe9, 0xbd, 0x16, 0x32, 0x84, 0xbd, 0xc8, 0x80, 0xba, 0x3d,
    0x62, 0xd3, 0x12, 0x3d, 0x74, 0xde, 0x61, 0xbd, 0xce, 0x96,
    0x30, 0xbd, 0x3b, 0xc7, 0x45, 0x3b, 0x0b, 0x9d, 0x7a, 0xbd,
    0xfe, 0x98, 0xaf, 0xbd, 0xd6, 0x3d, 0x98, 0x3d, 0xfa, 0xc1,
    0xbe, 0x3d, 0xc8, 0x9c, 0x13, 0xbc, 0xc0, 0x24, 0xcf, 0x3c,
    0x8e, 0xf5, 0xe3, 0x3d, 0xc3, 0xa6, 0x8a, 0xbd, 0xee, 0x1a,
    0xc5, 0x3d, 0x89, 0x33, 0x1e, 0x3c, 0x65, 0x73, 0xfc, 0xbc,
    0x76, 0xa7, 0x4b, 0xbc, 0x43, 0x7b, 0x77, 0xbc, 0xcb, 0x1a,
    0x6d, 0x3d, 0xa4, 0x81, 0x02, 0xbe, 0x9a, 0xda, 0x1f, 0x3c,
    0xcc, 0x89, 0x52, 0x3d, 0x67, 0x91, 0x83, 0x3d, 0x16, 0xb5,
    0xa3, 0x3c, 0x0d, 0x54, 0x3b, 0xbd, 0x7f, 0xdf, 0x5a, 0xbd,
    0x85, 0xce, 0xf4, 0x3b, 0x24, 0x95, 0x61, 0xbc, 0x55, 0x21,
    0x04, 0xbe, 0xdf, 0x7e, 0xd2, 0x3d, 0xe5, 0xb1, 0x96, 0xbd,
    0x93, 0xa2, 0x83, 0xbd, 0x13, 0xa8, 0x42, 0xbd, 0xac, 0xc8,
    0x05, 0x3c, 0x71, 0x29, 0x9a, 0xbc, 0x02, 0xc7, 0xa7, 0xbd,
    0x0a, 0xdb, 0xac, 0xbc, 0x58, 0x7b, 0xc5, 0x3d, 0xfc, 0x2e,
    0xad, 0x3d, 0x92, 0xbe, 0x91, 0xbd, 0x9f, 0x7b, 0xaa, 0x3d,
    0x53, 0xbe, 0x3a, 0xbd, 0x02, 0x6f, 0xb1, 0x3d, 0xf7, 0x0c,
    0xb8, 0xbd, 0x6b, 0x16, 0xc2, 0xbd, 0xd5, 0xb4, 0xf6, 0xbc,
    0x47, 0x44, 0x18, 0xbd, 0x1d, 0x19, 0x9e, 0xbd, 0xc6, 0x79,
    0x9d, 0xbb, 0x1d, 0xea, 0xc6, 0xbd, 0x4e, 0x55, 0x16, 0xbb,
    0xba, 0x9d, 0x24, 0xbd, 0xef, 0x22, 0x48, 0x3a, 0x85, 0x28,
    0x88, 0xbc, 0x3d, 0xc9, 0xab, 0xbd, 0x19, 0xa8, 0xb0, 0xbd,
    0xf7, 0xfb, 0x4f, 0x3c, 0xde, 0x2c, 0xc6, 0x3c, 0x22, 0x78,
    0x03, 0x3d, 0x8b, 0x8d, 0xca, 0xbd, 0x99, 0x73, 0xfc, 0xbd,
    0xd7, 0x74, 0xea, 0x3d, 0x2c, 0x1f, 0x2f, 0x3d, 0x38, 0xac,
    0x03, 0x3d, 0xdc, 0xb9, 0xb7, 0x3d, 0x05, 0xcf, 0xf9, 0xbc,
    0xee, 0x25, 0xa6, 0xbd, 0x58, 0x15, 0x08, 0xbe, 0x1d, 0xfb,
    0x9a, 0x3d, 0x8a, 0xf6, 0x92, 0x3d, 0xdc, 0xdf, 0xd9, 0xbd,
    0xdb, 0x7d, 0x4b, 0xbd, 0x36, 0xe5, 0xca, 0xbd, 0x62, 0x29,
    0x15, 0x3d, 0xfb, 0x52, 0x04, 0x3e, 0x6d, 0x8d, 0x31, 0xba,
    0xbd, 0x0d, 0xc4, 0x3d, 0x11, 0x39, 0xbf, 0x3d, 0x21, 0xec,
    0xb5, 0x3d, 0x4e, 0x7c, 0xcb, 0x3d, 0x86, 0x12, 0x9d, 0xbd,
    0x1a, 0x91, 0x31, 0xbd, 0x92, 0x2d, 0xb9, 0x3d, 0x3b, 0x21,
    0x33, 0x3c, 0x04, 0xe6, 0x0f, 0xbc, 0x4a, 0xa8, 0x6a, 0x3b,
    0x51, 0xd4, 0xdd, 0xbd, 0x23, 0x7d, 0x06, 0xbd, 0x22, 0xed,
    0x54, 0xbd, 0xc3, 0x78, 0x05, 0x3e, 0x03, 0x73, 0xe7, 0x3d,
    0x28, 0x4b, 0xf2, 0x3d, 0xc2, 0x75, 0x70, 0xbd, 0x61, 0xf0,
    0x2b, 0xbd, 0x2b, 0x29, 0xb4, 0x3d, 0x6f, 0x01, 0xdb, 0xbc,
    0x4e, 0xa0, 0x13, 0xbd, 0x11, 0x82, 0xbd, 0x3c, 0x25, 0xb6,
    0xa6, 0x3d, 0xef, 0x0c, 0xca, 0x3d, 0xf2, 0x27, 0x4e, 0x3d,
    0x2a, 0x71, 0xf9, 0x3c, 0x37, 0x08, 0xe1, 0x3d, 0xab, 0xee,
    0x9c, 0xbd, 0x05, 0xdd, 0x29, 0x3d, 0xf5, 0x07, 0xe9, 0x3d,
    0xeb, 0x51, 0x32, 0xbc, 0x6a, 0x55, 0xa1, 0xbd, 0xe1, 0x06,
    0xae, 0x3d, 0xf0, 0x54, 0xbf, 0x3d, 0x54, 0x2e, 0x6f, 0xbd,
    0x4a, 0x65, 0x68, 0xba, 0x6a, 0xbd, 0xea, 0xbd, 0x44, 0xf0,
    0xb0, 0x3d, 0x90, 0x08, 0xab, 0x3d, 0x1b, 0x35, 0x88, 0x3d,
    0x38, 0xe4, 0x34, 0xbc, 0x2e, 0x9b, 0xed, 0xbd, 0xf8, 0xab,
    0x8d, 0x3c, 0x44, 0xcf, 0xbe, 0xbd, 0x6b, 0xed, 0x9c, 0xbc,
    0x67, 0x55, 0x2e, 0xbb, 0x5d, 0x30, 0x60, 0xbd, 0x14, 0x98,
    0x10, 0x3d, 0xfd, 0xcc, 0x9e, 0xbd, 0x15, 0x15, 0xdb, 0xbd,
    0x71, 0xe4, 0xdb, 0xbd, 0xec, 0x70, 0x1f, 0xbd, 0xeb, 0x51,
    0x18, 0xbe, 0xe2, 0xb6, 0xa2, 0x3d, 0xf3, 0x92, 0x38, 0x3d,
    0x61, 0x9b, 0x75, 0xba, 0xb9, 0xbf, 0x5a, 0xbd, 0x93, 0x1b,
    0xdf, 0xbd, 0x99, 0xdf, 0x8c, 0x3d, 0x9e, 0xb1, 0x1a, 0x3d,
    0xd8, 0x2a, 0x49, 0xbd, 0x8e, 0x1b, 0x92, 0xbd, 0x6e, 0xde,
    0x81, 0x3d, 0x5a, 0x69, 0xd9, 0x3d, 0xb2, 0xa7, 0x48, 0x3d,
    0xcf, 0x5e, 0x9c, 0x3d, 0x2e, 0x4f, 0x42, 0xbd, 0x75, 0x4d,
    0xb3, 0xbc, 0x6a, 0xbd, 0xf4, 0x3d, 0xf7, 0xb9, 0x7e, 0x3d,
    0x0d, 0xd7, 0xea, 0xbd, 0x5b, 0x93, 0xe3, 0x3c, 0xb4, 0x22,
    0x0c, 0x3d, 0x48, 0x98, 0xd0, 0x3a, 0xa9, 0x8a, 0xbc, 0x3d,
    0x01, 0xfa, 0xd9, 0xbd, 0xbf, 0x61, 0x39, 0xbd, 0xcc, 0x7c,
    0x8e, 0xbd, 0xd0, 0x3d, 0xcb, 0xbc, 0x7c, 0x50, 0x04, 0x3e,
    0x57, 0x28, 0xc3, 0x3c, 0xc4, 0x01, 0xc0, 0xbd, 0xf9, 0x07,
    0xb5, 0x3d, 0xbe, 0x1d, 0xde, 0xbc, 0xd9, 0xde, 0x75, 0x3d,
    0xff, 0x2e, 0x6f, 0x3d, 0x68, 0xa6, 0xf1, 0x3c, 0x7f, 0xce,
    0x02, 0xbe, 0x50, 0x68, 0x4d, 0xbd, 0xfe, 0x18, 0x37, 0x3d,
    0x51, 0x90, 0xc7, 0xbd, 0xbe, 0x46, 0x9b, 0xbd, 0x59, 0x0a,
    0xd6, 0xbd, 0x99, 0x62, 0xfc, 0xbc, 0x45, 0x92, 0x06, 0xbd,
    0x64, 0x5a, 0xe1, 0xbd, 0x38, 0x6a, 0xff, 0x3d, 0x7b, 0xee,
    0xc4, 0xbd, 0x09, 0x86, 0x3e, 0xbd, 0x25, 0xb5, 0x7d, 0x3d,
    0x9f, 0xb7, 0xb8, 0x3c, 0x0e, 0xba, 0xb9, 0x3c, 0x0b, 0xdb,
    0xfa, 0x3c, 0xb5, 0x33, 0xd3, 0xbd, 0xc1, 0xa6, 0xde, 0x3c,
    0x4b, 0x3e, 0x9d, 0x3c, 0x79, 0xbd, 0xe2, 0x3d, 0x3e, 0xa2,
    0x92, 0xbd, 0x29, 0xc3, 0x88, 0xbc, 0xfe, 0x2f, 0x12, 0x3a,
    0xce, 0x5e, 0x2e, 0xbe, 0xa2, 0x6f, 0xe8, 0x3b, 0x5c, 0x0f,
    0xd3, 0xbd, 0x93, 0x7f, 0xf6, 0xbd, 0xcc, 0x55, 0xc7, 0xbd,
    0x43, 0x27, 0x07, 0xbc, 0xee, 0x69, 0x64, 0xbd, 0x88, 0x07,
    0xa6, 0xbc, 0x6a, 0x31, 0xf8, 0xbd, 0x40, 0xe9, 0x9f, 0xbc,
    0x33, 0xc0, 0xbd, 0x3c, 0x3f, 0x5d, 0x85, 0x3d, 0x0a, 0xd3,
    0x08, 0x3c, 0xb0, 0x40, 0x4a, 0x3d, 0x6a, 0x8f, 0x2c, 0xbd,
    0x90, 0x13, 0xc7, 0xbd, 0x9f, 0x8a, 0x83, 0xbd, 0xf0, 0x0c,
    0x9c, 0x3c, 0x94, 0x88, 0xc7, 0xbd, 0xee, 0x92, 0x01, 0xbe,
    0x03, 0x9c, 0x9a, 0x3d, 0x3b, 0xd1, 0x0c, 0xbb, 0xe7, 0xe5,
    0xeb, 0xbc, 0xa8, 0x2b, 0x1f, 0xbd, 0x3c, 0xf4, 0xb8, 0x3c,
    0x79, 0x9b, 0xaf, 0x3d, 0xc9, 0x3a, 0x6f, 0x3d, 0x6f, 0x39,
    0x21, 0xbe, 0x33, 0xdc, 0x37, 0xbd, 0x0f, 0x19, 0x20, 0x3d,
    0xf7, 0xdc, 0xf3, 0x3b, 0x38, 0x13, 0x8b, 0x3d, 0x2e, 0xf8,
    0x04, 0xbe, 0xc3, 0xcb, 0xa5, 0x3d, 0x27, 0xe9, 0xa5, 0xbc,
    0x99, 0x80, 0x4c, 0xbd, 0x72, 0xb4, 0x37, 0x3c, 0xbb, 0xe7,
    0xf5, 0xbd, 0x8b, 0x43, 0xbf, 0xbd, 0x17, 0x3c, 0x8f, 0xbd,
    0xe3, 0x63, 0x51, 0xbd, 0x7f, 0x75, 0x1a, 0xbd, 0xe6, 0x8b,
    0x80, 0xbd, 0x94, 0x70, 0x56, 0x3c, 0xb6, 0x54, 0xbd, 0x3c,
    0xd6, 0x51, 0xd1, 0x3d, 0x31, 0x3c, 0xdb, 0xbd, 0xba, 0x4f,
    0xe3, 0xbd, 0xcc, 0x8c, 0x0d, 0xbd, 0xd8, 0xac, 0x1b, 0xbd,
    0x8e, 0x5c, 0xb8, 0x3b, 0x43, 0xa3, 0xca, 0xbd, 0x0b, 0x59,
    0x9e, 0xbd, 0x06, 0xf3, 0xcd, 0x3d, 0x02, 0xc7, 0xa6, 0x3d,
    0xa3, 0x09, 0xa6, 0xbc, 0xd1, 0x48, 0x32, 0xbc, 0x18, 0x42,
    0xde, 0xbd, 0x25, 0x8b, 0x88, 0xbd, 0xa6, 0x8b, 0x74, 0x3d,
    0x96, 0x50, 0xf7, 0x3c, 0x10, 0x7b, 0xb7, 0xbd, 0x87, 0x0c,
    0xf0, 0xbd, 0x86, 0xe1, 0x8f, 0x39, 0x66, 0xa2, 0x88, 0x3d,
    0xce, 0x76, 0x93, 0x3d, 0xe7, 0x1e, 0x58, 0x3a, 0xe4, 0x39,
    0xd8, 0x3d, 0x4f, 0xdd, 0xa6, 0xbd, 0x91, 0x9a, 0xe1, 0x3c,
    0x83, 0x98, 0x8e, 0x3c, 0x43, 0x61, 0xee, 0xbd, 0xd0, 0x5b,
    0xb3, 0xbd, 0x21, 0xc9, 0x6a, 0x3d, 0xe9, 0xc9, 0x97, 0x3b,
    0x26, 0x30, 0x12, 0xbe, 0x70, 0x6e, 0x54, 0x3d, 0x82, 0x72,
    0xc9, 0x3c, 0x55, 0x70, 0x09, 0xbd, 0x9f, 0xaf, 0x44, 0xbb,
    0x10, 0xee, 0x8f, 0xbd, 0xf2, 0xf5, 0xaf, 0x3d, 0xa7, 0xf2,
    0xce, 0xbd, 0xe9, 0xc9, 0x50, 0xbd, 0x67, 0xb1, 0x55, 0x3d,
    0x42, 0x2f, 0xc3, 0x3d, 0x80, 0x96, 0xc7, 0xbd, 0xae, 0x79,
    0x8e, 0xbc, 0x2f, 0xd7, 0xb7, 0x3c, 0x71, 0x8b, 0x4a, 0x3b,
    0x53, 0xab, 0x0d, 0xbe, 0x48, 0xe7, 0xca, 0x3d, 0x18, 0x5d,
    0xcb, 0xbb, 0x71, 0x84, 0xb7, 0xbd, 0x95, 0x44, 0x19, 0xbd,
    0x3e, 0xb0, 0xce, 0x3c, 0x99, 0x07, 0xf9, 0x3c, 0x79, 0x90,
    0xc6, 0xbc, 0x0e, 0xc9, 0x51, 0x3d, 0x2e, 0xd5, 0xf5, 0xbc,
    0xf8, 0x8c, 0xc0, 0x3d, 0x2a, 0x26, 0x4f, 0xbd, 0x27, 0x62,
    0xd6, 0xbd, 0x9a, 0x22, 0xd5, 0xbd, 0x6d, 0x5b, 0x14, 0xbd,
    0xd6, 0x25, 0x7f, 0xbc, 0x89, 0xe4, 0xc4, 0x3c, 0x8b, 0xce,
    0xac, 0xbb, 0x57, 0x9e, 0xb5, 0xbc, 0xbb, 0x90, 0x24, 0x3c,
    0x0a, 0x6d, 0x5f, 0x3b, 0xe9, 0xa1, 0xd1, 0x3d, 0x97, 0x86,
    0x60, 0xbd, 0x66, 0x67, 0x3e, 0x3d, 0x68, 0xf0, 0x00, 0xbe,
    0x85, 0x17, 0x9f, 0x3c, 0x43, 0x6a, 0x91, 0xbd, 0x3f, 0x43,
    0x19, 0xbb, 0x30, 0xb3, 0x8f, 0x3d, 0x9d, 0x1d, 0x54, 0x3d,
    0x34, 0x2f, 0xb5, 0xbc, 0x17, 0xa0, 0x0c, 0x3d, 0x79, 0xbf,
    0xb8, 0xbd, 0xa7, 0xea, 0x60, 0x3d, 0x79, 0x20, 0x8e, 0xbd,
    0x2e, 0x51, 0x94, 0x3d, 0xdb, 0x18, 0x8a, 0xbd, 0x39, 0x1a,
    0x80, 0x3d, 0x66, 0x1f, 0x86, 0x3d, 0x5d, 0x7d, 0xb4, 0x3d,
    0x22, 0x51, 0x08, 0xbe, 0xe9, 0x5d, 0xbb, 0xbd, 0xfc, 0xab,
    0x36, 0xbd, 0x9f, 0xb9, 0x55, 0x3d, 0x33, 0xee, 0xd6, 0x3c,
    0xaf, 0xdc, 0x59, 0x3d, 0x43, 0x63, 0xa1, 0xbd, 0x1b, 0x0b,
    0x75, 0xbc, 0x80, 0x25, 0x61, 0x3c, 0x2d, 0xfe, 0x7e, 0xbc,
    0xaf, 0x1f, 0x89, 0x3d, 0xb9, 0x8b, 0x31, 0x3d, 0x71, 0x3f,
    0x80, 0xbd, 0xd7, 0xfc, 0xdd, 0x3c, 0x3c, 0xe7, 0xe5, 0xbd,
    0x3c, 0xb9, 0x9c, 0xbd, 0xe9, 0x4f, 0xf6, 0x3d, 0x98, 0x6d,
    0xf5, 0xbd, 0x66, 0x78, 0x45, 0xbd, 0xa8, 0xd6, 0x5b, 0x3d,
    0x48, 0xfe, 0x7f, 0x3c, 0x7b, 0x57, 0x0e, 0x3d, 0x2d, 0x29,
    0x86, 0xbd, 0x13, 0x3f, 0x28, 0x3c, 0x3c, 0xac, 0x38, 0xbc,
    0x61, 0x3b, 0xa1, 0xbd, 0x2a, 0xd5, 0x74, 0x3d, 0x89, 0x0c,
    0x01, 0x3e, 0x5f, 0x1f, 0xdd, 0xbb, 0xc3, 0x06, 0x3b, 0x3c,
    0xa6, 0x62, 0xe3, 0xbd, 0x89, 0x28, 0x19, 0x3d, 0x69, 0xd6,
    0xa1, 0x3d, 0xf3, 0x1d, 0xbe, 0x3d, 0x55, 0x90, 0xf4, 0xbd,
    0xa7, 0xd3, 0x74, 0x3d, 0xf5, 0xca, 0xbb, 0xbb, 0xbb, 0x2b,
    0xf4, 0xbd, 0xcc, 0x0a, 0x89, 0x3b, 0xa4, 0x3e, 0xa0, 0xbd,
    0x1a, 0xee, 0xd3, 0x3d, 0x43, 0xc7, 0xce, 0xbd, 0x50, 0x55,
    0x14, 0xbd, 0x59, 0x92, 0xc6, 0x3d, 0x03, 0xc5, 0x94, 0xbd,
    0xbb, 0x36, 0x01, 0xbe, 0xf0, 0x4f, 0x2f, 0x3d, 0xbb, 0x23,
    0xd3, 0xbd, 0x65, 0xcf, 0xcd, 0x3d, 0x45, 0x7e, 0x32, 0xbd,
    0x8a, 0xce, 0xb4, 0xbd, 0xce, 0x36, 0xce, 0x3d, 0x20, 0xb6,
    0x24, 0xbd, 0xed, 0x01, 0xb0, 0x3c, 0xc2, 0xf2, 0xfb, 0xbd,
    0x8c, 0xc4, 0x28, 0x3d, 0xfc, 0x1b, 0x8f, 0xbc, 0x3c, 0x67,
    0xfe, 0xbd, 0x60, 0x06, 0xd3, 0x3d, 0x0b, 0x82, 0xd7, 0x3d,
    0x2c, 0x54, 0x8e, 0x3d, 0x30, 0xe8, 0xd6, 0xbd, 0xd4, 0x06,
    0xc4, 0x3d, 0x6f, 0xd0, 0xdb, 0xbd, 0x07, 0xb2, 0x0d, 0xbd,
    0x47, 0x5d, 0xcd, 0xbd, 0x24, 0xa2, 0x2c, 0xbb, 0x74, 0x50,
    0xaa, 0x3d, 0x7a, 0xc6, 0x87, 0xbc, 0x3d, 0x9b, 0xff, 0xbd,
    0xad, 0x89, 0xa1, 0x3d, 0x16, 0xe1, 0x03, 0x3d, 0x5c, 0xdf,
    0x6b, 0x3d, 0xa0, 0x0b, 0x39, 0xbd, 0xf1, 0x82, 0x9e, 0xbd,
    0x38, 0x63, 0x9c, 0x3d, 0xae, 0x14, 0x4e, 0x3d, 0x0b, 0x9a,
    0x40, 0x3c, 0xc1, 0xbd, 0xc9, 0x3d, 0xad, 0xd8, 0x3b, 0xbd,
    0xad, 0xf4, 0x3f, 0xbd, 0x9b, 0x4c, 0x5a, 0x3d, 0x3a, 0x4d,
    0xb5, 0xbd, 0xb0, 0xb6, 0xd3, 0xbd, 0xad, 0x06, 0x83, 0xbd,
    0xdd, 0xcb, 0x9a, 0xbd, 0xde, 0x37, 0x9e, 0xbd, 0x50, 0xda,
    0x4d, 0xbd, 0x57, 0xd2, 0x93, 0xbd, 0x7c, 0xd2, 0x28, 0x3d,
    0xe6, 0x8b, 0x43, 0xbd, 0xf1, 0xb2, 0xbf, 0xbd, 0x2d, 0x58,
    0x18, 0xbd, 0x0d, 0x98, 0xca, 0xbc, 0x8b, 0xf0, 0xf7, 0xbc,
    0x37, 0x72, 0x1e, 0x3b, 0x78, 0x65, 0x08, 0x3b, 0x26, 0x59,
    0x1f, 0xbc, 0xf1, 0x19, 0x07, 0xbc, 0xd1, 0x3f, 0xe3, 0x3c,
    0x47, 0x85, 0x3f, 0x3d, 0x47, 0x20, 0x65, 0xbd, 0xae, 0xe2,
    0x01, 0xbd, 0xb1, 0xb3, 0xa2, 0xbd, 0x94, 0x90, 0x37, 0x3d,
    0x08, 0x64, 0x9a, 0x3d, 0x87, 0x38, 0x92, 0xbd, 0x11, 0xdc,
    0xe0, 0x3c, 0xd4, 0x09, 0x62, 0x3c, 0x94, 0xa9, 0x86, 0x3d,
    0x75, 0x1f, 0x72, 0xbd, 0x75, 0xe3, 0xbe, 0xbd, 0x71, 0x92,
    0xdf, 0xbc, 0x1f, 0x5e, 0x5f, 0x3d, 0x63, 0x2f, 0x96, 0xbd,
    0xc7, 0x1c, 0x42, 0x3d, 0x5c, 0x2f, 0x3c, 0x3d, 0xac, 0x61,
    0x9d, 0x3d, 0x89, 0xae, 0xc0, 0x3d, 0xbc, 0xc8, 0x75, 0x3d,
    0x7c, 0x49, 0xb1, 0x3b, 0xe9, 0x78, 0x6b, 0xbc, 0xb1, 0xa8,
    0x14, 0x3b, 0x0a, 0x67, 0xd1, 0x3d, 0xc0, 0x3a, 0x5a, 0xbc,
    0xa0, 0x38, 0xc5, 0x3d, 0xa8, 0x61, 0x9b, 0x3d, 0x24, 0xf7,
    0x46, 0x3d, 0x05, 0xba, 0x93, 0xbd, 0xbc, 0x6f, 0x02, 0xbd,
    0xba, 0xff, 0x44, 0xbd, 0xbf, 0x39, 0xb2, 0xbc, 0xcb, 0x48,
    0x15, 0x3d, 0x3c, 0xd9, 0xb7, 0xbd, 0x99, 0x54, 0xbf, 0x3d,
    0x2d, 0x02, 0x70, 0xbd, 0x5f, 0xc2, 0x38, 0xbc, 0x64, 0xcc,
    0x89, 0x3c, 0xce, 0x98, 0x2c, 0xbc, 0x00, 0x6a, 0x20, 0xbe,
    0x0e, 0xe8, 0xde, 0x3c, 0xe5, 0x19, 0x1a, 0xbd, 0xb0, 0x83,
    0xcb, 0x3d, 0xff, 0x60, 0x29, 0x3c, 0x41, 0x6c, 0xb2, 0x3d,
    0x50, 0x5a, 0x97, 0xbd, 0x2a, 0x7e, 0x2c, 0xbd, 0x6a, 0x36,
    0x88, 0xbb, 0x1e, 0x92, 0x99, 0x3d, 0xc2, 0x49, 0xcb, 0xbc,
    0xb9, 0x34, 0x72, 0xbd, 0x08, 0x58, 0xd9, 0x3d, 0xe7, 0xe6,
    0x51, 0x3c, 0x79, 0xeb, 0x4a, 0xbd, 0x65, 0x98, 0xa0, 0xbd,
    0x5f, 0x9d, 0x85, 0xbd, 0xba, 0x7a, 0xef, 0xbd, 0x34, 0x4b,
    0x21, 0xbd, 0xf5, 0xcb, 0xc5, 0xbd, 0x81, 0x89, 0x11, 0x3d,
    0xc7, 0x00, 0xbb, 0xbb, 0x4b, 0x9b, 0xc3, 0x3d, 0x6a, 0xca,
    0xc8, 0x3d, 0xfc, 0x60, 0x88, 0x3d, 0x8d, 0xaa, 0xc1, 0xbd,
    0xa9, 0x65, 0xa2, 0x3d, 0x9b, 0xed, 0x99, 0xbd, 0xfb, 0xd5,
    0xda, 0xbd, 0xeb, 0xf8, 0xca, 0x3d, 0xbb, 0x30, 0xef, 0xbd,
    0xc1, 0xca, 0x00, 0xbe, 0xeb, 0x11, 0xdc, 0x3c, 0xac, 0x68,
    0x20, 0xbc, 0x81, 0x2c, 0xd3, 0x3d, 0x29, 0xe6, 0xa1, 0x3c,
    0x22, 0x54, 0xc5, 0x3d, 0x53, 0x1c, 0x9a, 0xbd, 0xb8, 0x32,
    0x50, 0x3c, 0x0f, 0x33, 0x4a, 0x3d, 0x20, 0x60, 0xaf, 0xbd,
    0x7e, 0x89, 0xea, 0xbd, 0x2e, 0xc3, 0xf5, 0xbd, 0x8b, 0x92,
    0x3f, 0xbd, 0x99, 0xd3, 0xbf, 0xbb, 0xc1, 0x33, 0x7c, 0xbd,
    0xc9, 0x06, 0xef, 0xbd, 0xc6, 0xc2, 0x94, 0xbb, 0x3c, 0x0c,
    0xa9, 0xbd, 0x5f, 0xe0, 0x19, 0x3d, 0xba, 0x41, 0xb0, 0xbc,
    0x98, 0xf8, 0xf5, 0x3b, 0x41, 0x15, 0xc2, 0xbd, 0x96, 0xa9,
    0x2c, 0x3d, 0x09, 0x27, 0xd3, 0x3c, 0x9d, 0x48, 0x9e, 0xbd,
    0xe9, 0x0e, 0x48, 0x3d, 0x1a, 0xa0, 0xaa, 0x3d, 0xd4, 0x92,
    0xd2, 0xbb, 0x18, 0x0b, 0x6b, 0x3d, 0xeb, 0x5f, 0x8c, 0xbc,
    0x27, 0x42, 0x0f, 0xbd, 0x2b, 0xd5, 0x82, 0x3c, 0xb5, 0xbf,
    0x99, 0x3d, 0x1b, 0x79, 0x6d, 0x3d, 0xbc, 0x92, 0x5a, 0x3c,
    0x04, 0x77, 0x9d, 0x38, 0xbc, 0xb3, 0x9b, 0xbb, 0x62, 0x73,
    0xc9, 0x3d, 0x27, 0x7c, 0xa0, 0x3d, 0xdd, 0x48, 0x14, 0xbd,
    0xbb, 0x85, 0xd9, 0xbd, 0x17, 0x50, 0xad, 0xbd, 0x11, 0xaa,
    0xc5, 0xbd, 0x15, 0x24, 0xf0, 0xbd, 0x5c, 0xbe, 0x83, 0xbd,
    0xdc, 0x60, 0xc6, 0x3d, 0xe5, 0x12, 0x82, 0xbd, 0xa4, 0x0f,
    0x98, 0xba, 0x8c, 0xcf, 0x79, 0xbd, 0xed, 0xbe, 0x83, 0x3d,
    0x48, 0x99, 0x9c, 0xbc, 0x21, 0x24, 0x4f, 0xbd, 0x37, 0xe4,
    0x3b, 0x3d, 0x88, 0xde, 0x08, 0xbc, 0x3e, 0x46, 0xc2, 0xbc,
    0x17, 0xa4, 0xa5, 0x3d, 0x6c, 0x83, 0x38, 0x3d, 0x96, 0x96,
    0x61, 0xbd, 0xe0, 0xee, 0x27, 0xba, 0x94, 0x76, 0x54, 0xbd,
    0xf1, 0xf4, 0x02, 0xbe, 0x6d, 0x7b, 0x90, 0xbd, 0x0f, 0xd2,
    0x3e, 0x3d, 0x75, 0xe9, 0x9c, 0xbd, 0xe5, 0xdc, 0x9e, 0x3c,
    0x0a, 0xab, 0x83, 0x3d, 0x0b, 0xcd, 0x6d, 0xbd, 0xfe, 0x77,
    0x70, 0x3d, 0x37, 0xcc, 0xa3, 0xbd, 0xa3, 0x33, 0x87, 0xbd,
    0x04, 0xbd, 0x98, 0x3d, 0x79, 0x01, 0x6c, 0xbd, 0xac, 0xfb,
    0x52, 0xbd, 0x6c, 0x57, 0xe8, 0xbd, 0xef, 0xc4, 0x2a, 0x3d,
    0x8e, 0x7e, 0x64, 0x3d, 0xfb, 0xd6, 0xf9, 0x3c, 0x3f, 0x67,
    0x82, 0x3d, 0x0b, 0x53, 0xd1, 0x3d, 0x5f, 0x4b, 0xcc, 0xbc,
    0xc4, 0x32, 0x34, 0x3d, 0x87, 0x4b, 0x59, 0xbd, 0x08, 0x6f,
    0x9f, 0xbd, 0x2b, 0x7d, 0x8a, 0x3d, 0x6a, 0xde, 0x1f, 0x3c,
    0x73, 0x18, 0x63, 0xbd, 0xda, 0xe3, 0xdb, 0x3c, 0xcf, 0x79,
    0x00, 0x3d, 0xb6, 0x31, 0x1c, 0xbd, 0x13, 0xf7, 0x0c, 0xbd,
    0xb9, 0xf7, 0x6e, 0x3a, 0x11, 0x78, 0xf2, 0xbd, 0x5a, 0xd7,
    0x48, 0xbd, 0x37, 0x7c, 0xe2, 0x3d, 0xed, 0x82, 0xe2, 0xbc,
    0xc4, 0x85, 0xaa, 0x3d, 0x34, 0x69, 0xda, 0x3c, 0xbf, 0x1e,
    0xa5, 0x3d, 0x49, 0xa8, 0xb5, 0x3d, 0xb5, 0xc3, 0xd2, 0xbc,
    0x2a, 0xa5, 0xd8, 0xbc, 0x69, 0x71, 0x49, 0x3d, 0x2e, 0xf4,
    0xa9, 0x3c, 0xb5, 0x40, 0xd4, 0xbd, 0x9a, 0xa7, 0x3c, 0xbd,
    0xf5, 0x7b, 0xca, 0x3b, 0x85, 0x00, 0x4a, 0x3d, 0x0a, 0x78,
    0xad, 0x3d, 0x04, 0xdc, 0xee, 0xbd, 0x9f, 0x9b, 0xec, 0xbd,
    0xf8, 0x16, 0x4f, 0x3d, 0x15, 0x9c, 0x00, 0xbd, 0xfb, 0xf8,
    0x29, 0x3d, 0xd7, 0xde, 0xbc, 0x3d, 0x92, 0x00, 0x4a, 0x3c,
    0xe0, 0x2c, 0x65, 0xbd, 0xa8, 0xcc, 0x0c, 0xbd, 0x8d, 0x04,
    0xd9, 0xbc, 0x12, 0xd9, 0x74, 0x3d, 0x09, 0xe9, 0xe3, 0x3d,
    0x81, 0x84, 0xa8, 0xbd, 0x44, 0x7e, 0x9b, 0xbc, 0x31, 0x90,
    0xc9, 0xbd, 0x9d, 0xbd, 0xf7, 0xbc, 0xfa, 0x02, 0x3b, 0x3d,
    0x87, 0x56, 0xe3, 0xbc, 0x7d, 0x41, 0xb9, 0xbb, 0xc2, 0x4d,
    0xcc, 0xbc, 0xaa, 0x4d, 0xc1, 0xbd, 0x11, 0x1d, 0x3c, 0x3c,
    0xe4, 0x27, 0x02, 0xbe, 0x02, 0x2a, 0xba, 0x3d, 0x56, 0x89,
    0xed, 0xbd, 0x8c, 0xc1, 0xa0, 0x3d, 0x63, 0x87, 0x6a, 0x3d,
    0x0b, 0x2c, 0x8b, 0xbd, 0xe9, 0xe8, 0x08, 0xbd, 0x2d, 0x27,
    0x45, 0xbd, 0x5c, 0xa9, 0x89, 0x3d, 0x07, 0x07, 0xf3, 0xbd,
    0x47, 0x68, 0x40, 0x3c, 0xd9, 0x8e, 0x03, 0xbe, 0x9e, 0x61,
    0x21, 0xbd, 0xa6, 0xf1, 0x5a, 0x3c, 0x1e, 0xe3, 0xe3, 0x3b,
    0x2b, 0x02, 0x28, 0xbc, 0x8c, 0x6b, 0x4c, 0xbd, 0x75, 0xf0,
    0x56, 0xbd, 0x8c, 0x63, 0x66, 0x3d, 0xf0, 0x99, 0xcd, 0xbd,
    0x5c, 0xd9, 0xa0, 0xbd, 0x26, 0xe0, 0x7a, 0x3d, 0x21, 0xa3,
    0xf3, 0xbd, 0x5b, 0x74, 0xb1, 0xbd, 0xef, 0xd5, 0xd8, 0xbd,
    0xc5, 0xbe, 0xe2, 0xbd, 0x76, 0x93, 0x52, 0xbc, 0x46, 0x34,
    0x89, 0x3d, 0xee, 0x00, 0xe9, 0xbc, 0xc1, 0x11, 0x15, 0xbd,
    0xc1, 0x85, 0x8d, 0xbc, 0x7b, 0xdc, 0x5b, 0x3c, 0x4e, 0x94,
    0x30, 0x3c, 0x02, 0x64, 0xa6, 0xbc, 0xcc, 0x3c, 0x80, 0xbc,
    0xd9, 0x73, 0xf1, 0xbd, 0x45, 0x94, 0xe1, 0xbd, 0xa8, 0x69,
    0xe3, 0xbd, 0x06, 0x11, 0xf5, 0xbc, 0x28, 0x2e, 0x48, 0xbd,
    0xaf, 0x66, 0xc5, 0xbd, 0xa2, 0x54, 0x83, 0xbb, 0xf6, 0x37,
    0x83, 0x3d, 0x5a, 0x8c, 0xc2, 0xbd, 0x61, 0x5a, 0x32, 0x3d,
    0x17, 0x0d, 0xa6, 0xbc, 0x36, 0x61, 0x83, 0x3d, 0xd0, 0xdb,
    0x90, 0x3d, 0x08, 0xea, 0x9a, 0xbc, 0x78, 0x9f, 0xd6, 0x3d,
    0xb6, 0x3e, 0x7d, 0x3d, 0x75, 0xd9, 0xd9, 0xbb, 0xab, 0xed,
    0x34, 0x3d, 0x73, 0x54, 0xf3, 0xbd, 0x80, 0xcf, 0xcc, 0x3c,
    0x0d, 0x0f, 0xc2, 0xbd, 0x76, 0x68, 0x92, 0x3d, 0x40, 0x9b,
    0xa1, 0xbc, 0x14, 0x47, 0xc8, 0x3c, 0x4c, 0x6e, 0xa0, 0x3d,
    0xd8, 0x21, 0x3b, 0xbc, 0x64, 0x27, 0x04, 0xbd, 0x54, 0x9e,
    0x6c, 0xbd, 0x69, 0xed, 0xad, 0x3c, 0x68, 0x9f, 0x2a, 0xba,
    0xc2, 0xf7, 0x11, 0xbd, 0xef, 0x23, 0x86, 0x3d, 0xcb, 0x37,
    0xb4, 0x3d, 0x97, 0x7d, 0x94, 0xbd, 0xc4, 0xfc, 0xb4, 0x3c,
    0x43, 0x05, 0xd9, 0xbc, 0x21, 0x36, 0x91, 0x3d, 0xd9, 0x81,
    0x2f, 0xbd, 0xe0, 0x90, 0x46, 0x3d, 0x22, 0x19, 0xfa, 0x3b,
    0xa2, 0x63, 0x80, 0x3d, 0x0d, 0xd1, 0xfa, 0xbd, 0x89, 0xa1,
    0x9e, 0x3d, 0xf4, 0x1c, 0x36, 0x3c, 0x6a, 0x5b, 0xdf, 0x3c,
    0xd9, 0x6a, 0x64, 0xbd, 0x4d, 0xd5, 0x3b, 0x3d, 0x8d, 0xa5,
    0xaa, 0x3d, 0x67, 0x34, 0xcd, 0xbb, 0x58, 0xd5, 0xdb, 0xbd,
    0x0a, 0xdf, 0xb7, 0xbb, 0xdc, 0x9b, 0xe3, 0x3d, 0xe0, 0x26,
    0x59, 0x3c, 0xbf, 0xb1, 0x58, 0xbd, 0x2a, 0xde, 0x1c, 0x3c,
    0x13, 0xe1, 0x88, 0xbd, 0x91, 0x4b, 0x76, 0xba, 0xc6, 0x49,
    0x89, 0xba, 0x32, 0xc6, 0xcf, 0xbd, 0x31, 0x6c, 0x9a, 0xbd,
    0xab, 0x86, 0xd7, 0x3b, 0x4c, 0x58, 0x89, 0x3d, 0x27, 0xaa,
    0xa6, 0xbd, 0x16, 0x63, 0x6a, 0x3d, 0xc8, 0x91, 0xde, 0x3b,
    0xb3, 0x6a, 0xfa, 0xbd, 0xe1, 0xff, 0xce, 0xbd, 0xd7, 0x77,
    0x50, 0x3d, 0x9e, 0x1e, 0x96, 0xbd, 0xf8, 0x57, 0x86, 0xbb,
    0x0b, 0xf8, 0x4b, 0x3c, 0x34, 0x95, 0x70, 0x3d, 0xf4, 0xaf,
    0x8c, 0x3d, 0x51, 0x5b, 0xfe, 0x3c, 0xce, 0xfe, 0x2f, 0x3d,
    0xf5, 0xc1, 0x37, 0xbd, 0x80, 0xaa, 0x4b, 0x3d, 0x9c, 0x1a,
    0x2b, 0xbd, 0x0d, 0xc8, 0xe6, 0xbd, 0xe7, 0xc4, 0xb4, 0xbd,
    0xb5, 0xd4, 0xda, 0x3c, 0x68, 0x7f, 0x89, 0x3d, 0x59, 0x01,
    0xd8, 0x3d, 0x4a, 0x0f, 0x46, 0xbd, 0xff, 0x44, 0x40, 0x3d,
    0x02, 0x8f, 0x76, 0xbd, 0xe9, 0xdb, 0x5a, 0x3d, 0xd1, 0x20,
    0xb2, 0x3d, 0xa7, 0x03, 0x10, 0xbd, 0x2e, 0xab, 0x30, 0x3d,
    0xb0, 0xe2, 0x6e, 0x3d, 0xc1, 0x65, 0xa9, 0x3d, 0x32, 0x64,
    0x95, 0xbd, 0xf8, 0xb0, 0x7b, 0xbd, 0x6e, 0x78, 0xb9, 0x3b,
    0x90, 0xcf, 0x94, 0xbd, 0x5b, 0xe0, 0x63, 0xbb, 0x4c, 0x62,
    0x3d, 0x3d, 0x2e, 0x81, 0x86, 0xbd, 0xca, 0xd9, 0x8a, 0xbd,
    0x38, 0xf5, 0x2d, 0x3d, 0xe5, 0x44, 0x35, 0xbd, 0x6f, 0xc9,
    0x72, 0xbd, 0xb6, 0x76, 0x81, 0xbd, 0x81, 0x6c, 0x50, 0x3d,
    0x5a, 0x8f, 0xd5, 0xbd, 0xbe, 0xb0, 0x5c, 0xbd, 0xba, 0x5b,
    0xcb, 0xbb, 0x60, 0x20, 0x4c, 0xbc, 0x5b, 0x66, 0x13, 0xbd,
    0x3f, 0x48, 0x06, 0x3c, 0x02, 0xbc, 0x52, 0xbd, 0xcb, 0xde,
    0x8b, 0x3d, 0x9f, 0x4b, 0xf7, 0x3d, 0xa0, 0xae, 0x18, 0xbd,
    0x91, 0x8b, 0xde, 0xbd, 0xc5, 0xaf, 0xd6, 0xbc, 0x8d, 0xab,
    0x0e, 0xbe, 0xb0, 0x59, 0x9a, 0xbd, 0x94, 0xaf, 0xf9, 0x3c,
    0x8a, 0xac, 0xb1, 0xbd, 0xc4, 0x24, 0x8e, 0x3d, 0x8a, 0x93,
    0x9b, 0xbc, 0xc5, 0xca, 0xfe, 0xbc, 0x8d, 0xfa, 0xce, 0x3d,
    0x16, 0x5d, 0x8e, 0xbd, 0x90, 0x71, 0x1d, 0x3d, 0x3e, 0xb9,
    0x91, 0xbd, 0x61, 0x1f, 0x00, 0x3d, 0x1f, 0x61, 0x4a, 0x3d,
    0x36, 0xf9, 0x38, 0xbd, 0x2a, 0xd0, 0xb6, 0xbd, 0x06, 0xa3,
    0x9d, 0xbd, 0x24, 0x53, 0x85, 0xbc, 0xc5, 0x01, 0x8b, 0x3d,
    0x9b, 0xd1, 0xca, 0x3c, 0x45, 0xdd, 0xbe, 0x3d, 0x8b, 0x6d,
    0x9d, 0x3d, 0x2e, 0xc0, 0xe0, 0xbb, 0xad, 0x35, 0xfa, 0xbd,
    0xc2, 0x2a, 0xd6, 0xbd, 0x0d, 0x43, 0xb7, 0x3d, 0x50, 0x28,
    0xeb, 0xbd, 0xc5, 0x8f, 0xe2, 0x3b, 0x24, 0xba, 0xed, 0xbc,
    0xa2, 0x43, 0xaf, 0x3d, 0x53, 0x28, 0xd0, 0x3d, 0xa6, 0xf8,
    0x34, 0x3d, 0x26, 0xbb, 0xa5, 0xbb, 0x4f, 0x2d, 0xbf, 0xbd,
    0xd9, 0x50, 0x3e, 0x3d, 0xab, 0xfa, 0x4a, 0x3d, 0x59, 0xa5,
    0x1a, 0xbc, 0xab, 0xb0, 0x91, 0x3d, 0xb8, 0xc5, 0x0e, 0xbd,
    0xb2, 0x4e, 0xd9, 0xbc, 0xdb, 0x56, 0xf5, 0xbd, 0x8a, 0x34,
    0xaf, 0xbd, 0xbc, 0xb7, 0x8b, 0xbd, 0xb2, 0x90, 0x12, 0x3b,
    0xc2, 0x78, 0x75, 0x3d, 0xa5, 0x87, 0x94, 0x3c, 0x02, 0x99,
    0x03, 0xbe, 0x0c, 0xd0, 0x9c, 0xbd, 0x83, 0x7a, 0x58, 0x3d,
    0xca, 0xb8, 0x1c, 0x3d, 0xe1, 0x4a, 0x76, 0xbd, 0x64, 0x0c,
    0x6e, 0xbd, 0xc4, 0x2a, 0xf6, 0xbd, 0x51, 0xbb, 0x90, 0x3d,
    0xe8, 0xd3, 0x13, 0xbe, 0x5e, 0x54, 0x0e, 0x3d, 0xfe, 0xd1,
    0x84, 0xbc, 0x5a, 0x64, 0x67, 0x3d, 0x00, 0x23, 0xa5, 0xbc,
    0x7b, 0x87, 0x69, 0x3d, 0x85, 0x41, 0xa7, 0xbd, 0x63, 0xe4,
    0xd4, 0x3d, 0xc0, 0xb0, 0xcf, 0xbd, 0xda, 0x8a, 0xc3, 0x3d,
    0xd1, 0x31, 0xd5, 0x3d, 0xad, 0xf0, 0x4b, 0x3d, 0x65, 0xf1,
    0x2f, 0x3d, 0x36, 0x77, 0x5f, 0xbd, 0xc5, 0x5e, 0x9a, 0x3d,
    0x36, 0x64, 0xcd, 0xbd, 0x4d, 0xe9, 0xc3, 0xbc, 0x2c, 0x3f,
    0xa3, 0x3c, 0xad, 0x3c, 0x55, 0xbd, 0x9a, 0x20, 0xdc, 0xbd,
    0x7d, 0x8c, 0xec, 0x3c, 0x4b, 0x04, 0x0c, 0x3d, 0x00, 0x94,
    0x71, 0x3c, 0x39, 0xf4, 0xea, 0x3d, 0xa8, 0xe1, 0x8b, 0xbb,
    0x81, 0xc4, 0x52, 0x3d, 0xa6, 0x19, 0x92, 0xbd, 0xfb, 0xc2,
    0x16, 0xbc, 0xd0, 0x78, 0xac, 0xbd, 0x56, 0x41, 0x2d, 0xbd,
    0x0a, 0x88, 0xaf, 0x3d, 0xfe, 0xe4, 0x64, 0x3d, 0xda, 0x99,
    0xb0, 0xbb, 0x65, 0xb6, 0x63, 0xbc, 0xb3, 0x59, 0xc2, 0xbd,
    0xc1, 0x96, 0x96, 0x3d, 0x7e, 0x24, 0x95, 0x3d, 0xe0, 0x83,
    0x21, 0xbd, 0x2d, 0xe3, 0x8b, 0xbd, 0x50, 0x33, 0x70, 0xbd,
    0xd6, 0x1e, 0xf3, 0xbb, 0xb3, 0x2a, 0xa0, 0xbd, 0x7b, 0x76,
    0x9e, 0x3d, 0xff, 0x71, 0x87, 0xbd, 0x30, 0xe8, 0xf4, 0xbd,
    0x15, 0xe3, 0x8c, 0x3d, 0xf5, 0x99, 0x8b, 0x3d, 0xbf, 0x79,
    0x74, 0xbc, 0x2f, 0x1d, 0x96, 0x3d, 0xfe, 0x9a, 0x83, 0x3d,
    0x8d, 0x06, 0x39, 0x3d, 0x04, 0xf6, 0xca, 0x3c, 0xe0, 0x8d,
    0x2c, 0xbd, 0xc3, 0x46, 0x9e, 0x3d, 0x46, 0xe5, 0x42, 0xbd,
    0xd3, 0x62, 0xc1, 0xbc, 0xb0, 0x98, 0x34, 0xbd, 0xdf, 0x62,
    0x5c, 0x3d, 0x13, 0x6c, 0x2d, 0xbd, 0x9a, 0x50, 0xc5, 0x3c,
    0x0b, 0x08, 0x20, 0x3d, 0xdb, 0xd6, 0x08, 0x3c, 0xf1, 0x14,
    0xa2, 0x3d, 0xe3, 0xc4, 0x85, 0x3d, 0x71, 0x90, 0x82, 0xbb,
    0x5c, 0x99, 0x95, 0x3d, 0xb8, 0x9b, 0x9c, 0xbd, 0x3d, 0xf3,
    0xb4, 0xbc, 0xf7, 0x03, 0x07, 0xbe, 0x0c, 0xc4, 0x07, 0x3e,
    0xf6, 0xba, 0x60, 0xbd, 0x3d, 0xd8, 0x4b, 0xbc, 0xd1, 0x75,
    0x10, 0xbd, 0xdd, 0x32, 0xae, 0x3d, 0x8e, 0xa2, 0xf4, 0x3d,
    0x6c, 0x60, 0x20, 0xbd, 0x6c, 0x29, 0xb3, 0xbd, 0x71, 0x72,
    0x46, 0xbc, 0x19, 0x1e, 0xa0, 0x3d, 0x87, 0x53, 0x6c, 0xbb,
    0xbf, 0x24, 0x33, 0xbd, 0xa8, 0x15, 0xa0, 0xbd, 0x6d, 0x2e,
    0x0f, 0xbe, 0xc2, 0x8c, 0xd5, 0x3d, 0xb2, 0x7e, 0x14, 0xbd,
    0xc1, 0xef, 0x9d, 0x3d, 0x97, 0xd7, 0x84, 0xbd, 0x9b, 0xeb,
    0xaa, 0x3d, 0xee, 0xe9, 0xf1, 0x3b, 0x54, 0xda, 0x79, 0x3d,
    0x15, 0xf1, 0x52, 0xbd, 0xcd, 0x4e, 0x00, 0x3d, 0x44, 0xa5,
    0x32, 0xbc, 0xff, 0xd4, 0x45, 0xbd, 0x16, 0xb0, 0x78, 0x3a,
    0xac, 0x0d, 0xc1, 0xbd, 0x27, 0x4c, 0x9d, 0x3b, 0xfb, 0xb7,
    0x4e, 0x3c, 0xee, 0x06, 0x04, 0xbe, 0x56, 0xbb, 0xeb, 0x3c,
    0x19, 0x3a, 0x8d, 0xbd, 0xcf, 0xf7, 0x8a, 0x3d, 0xb2, 0x0e,
    0x13, 0xbe, 0x8c, 0xfe, 0xb6, 0xbd, 0x93, 0xed, 0x79, 0x3d,
    0x1e, 0xb1, 0xc9, 0x3d, 0x3c, 0xbf, 0x86, 0x3a, 0xbc, 0xdc,
    0xb5, 0xba, 0x75, 0xe0, 0xc0, 0xbd, 0x07, 0xd0, 0x1c, 0x3d,
    0x6c, 0x5e, 0xba, 0xbd, 0x8d, 0xdb, 0x0c, 0x3d, 0x6a, 0xfb,
    0xec, 0x3d, 0xce, 0x64, 0xa4, 0x3d, 0x68, 0x23, 0x88, 0xbc,
    0xd4, 0x8a, 0x59, 0x3d, 0xc6, 0xf9, 0xe5, 0x3c, 0x0a, 0x2c,
    0xdd, 0x3c, 0xea, 0x80, 0xb6, 0xbd, 0x4c, 0xaa, 0xc6, 0x3d,
    0xf9, 0x38, 0x6d, 0x3c, 0x7d, 0x5d, 0x0c, 0xbe, 0xee, 0xfb,
    0x1e, 0xbd, 0xeb, 0x3e, 0x05, 0x3d, 0x7d, 0x95, 0xcf, 0x3a,
    0x8a, 0xf4, 0x2c, 0x3d, 0x5c, 0x11, 0x9d, 0xbd, 0xb3, 0xe8,
    0xc7, 0xbd, 0x5e, 0x03, 0xf1, 0x3d, 0x75, 0xfc, 0x0b, 0x3e,
    0x8a, 0x72, 0x81, 0x3d, 0x89, 0xef, 0x90, 0x3d, 0x3b, 0x59,
    0x76, 0x3d, 0x1b, 0x77, 0x91, 0xbb, 0xe6, 0xcc, 0x1a, 0xbe,
    0xa1, 0xff, 0xaf, 0x3d, 0x12, 0x77, 0xe1, 0xbd, 0xf0, 0x53,
    0x59, 0x3c, 0x5b, 0xfb, 0x4f, 0x3d, 0x2f, 0xff, 0x87, 0x3d,
    0x7b, 0x10, 0x7f, 0xbc, 0x6b, 0x54, 0xa7, 0x3d, 0xa1, 0xac,
    0xf7, 0xbc, 0x54, 0x2c, 0x48, 0x3d, 0xed, 0xce, 0xb0, 0x3d,
    0xa0, 0x48, 0x81, 0xbc, 0x04, 0xd3, 0xf9, 0x3c, 0x6d, 0x40,
    0x91, 0x3c, 0xf3, 0xa6, 0x03, 0x3d, 0x4c, 0x80, 0xa4, 0x3d,
    0x7a, 0x15, 0x9e, 0xbd, 0x14, 0xef, 0x6a, 0x3c, 0xf5, 0x60,
    0x62, 0xbd, 0xb0, 0xeb, 0x21, 0x3d, 0xd9, 0xe1, 0xb3, 0x3d,
    0x55, 0xce, 0xca, 0xbd, 0x85, 0x84, 0xc7, 0xbd, 0x33, 0x9d,
    0x94, 0xbc, 0x94, 0xa0, 0x16, 0x3c, 0x5e, 0xce, 0x81, 0xbd,
    0x61, 0x20, 0x53, 0x3d, 0xf8, 0x42, 0x8a, 0x3d, 0x0b, 0x02,
    0xcc, 0xbc, 0xce, 0x18, 0x24, 0xbd, 0x54, 0xe9, 0x78, 0x3d,
    0xb8, 0xe2, 0x2d, 0xbd, 0xd4, 0x8b, 0x3e, 0xbd, 0x2e, 0x64,
    0xb4, 0xbc, 0xe4, 0xce, 0x9e, 0xbc, 0xe5, 0x97, 0xa8, 0x3d,
    0xbd, 0xcb, 0xcf, 0x3d, 0x5a, 0x97, 0xd9, 0x3c, 0x74, 0x8e,
    0xaf, 0xbd, 0xe3, 0xe9, 0x6b, 0xbc, 0x56, 0x54, 0xda, 0x3d,
    0x14, 0x4a, 0x4f, 0xbd, 0x8f, 0x59, 0x63, 0xbb, 0x91, 0x5b,
    0x97, 0x3d, 0xf6, 0x3e, 0x82, 0x3b, 0xea, 0x36, 0xfc, 0xbd,
    0x1c, 0x38, 0xdb, 0x3d, 0xf3, 0x46, 0x2d, 0x3c, 0x56, 0x8f,
    0x2b, 0xbd, 0xcc, 0xa1, 0xa1, 0x3d, 0x4e, 0x66, 0x0b, 0xbd,
    0x33, 0xff, 0xcb, 0x3d, 0x7e, 0x1e, 0xa9, 0x3d, 0x60, 0x26,
    0x9b, 0xbd, 0x38, 0x43, 0x1a, 0xbd, 0xe3, 0x1b, 0x9a, 0xbd,
    0x61, 0xd8, 0x92, 0xbc, 0x2f, 0xe4, 0x8c, 0xbd, 0x1e, 0xd5,
    0x03, 0xbe, 0x93, 0x45, 0x09, 0x3c, 0x6a, 0x26, 0x77, 0xbc,
    0xbc, 0x44, 0x7e, 0xbd, 0x15, 0x5d, 0xc7, 0x3d, 0x49, 0xf0,
    0xb4, 0xbc, 0x8a, 0x0f, 0x4f, 0x3d, 0x29, 0x54, 0x62, 0xbd,
    0x06, 0x2c, 0x19, 0x3d, 0x44, 0xae, 0xd4, 0x3d, 0xdd, 0x4b,
    0x30, 0x3d, 0x61, 0x8f, 0xac, 0x3c, 0xea, 0xb5, 0x5b, 0xbd,
    0x9d, 0x59, 0xb6, 0x3d, 0xba, 0xd2, 0x38, 0xbd, 0x8c, 0xd1,
    0xb7, 0xbd, 0x64, 0xd0, 0xfb, 0xbd, 0x34, 0x2f, 0x52, 0xbd,
    0xe9, 0x51, 0x20, 0xbd, 0x7e, 0x0a, 0x31, 0xbd, 0xe0, 0x91,
    0x8f, 0xbd, 0x61, 0x14, 0x09, 0x3e, 0x8f, 0x1b, 0x49, 0x3d,
    0x18, 0xff, 0xec, 0x3d, 0x37, 0xd9, 0xd0, 0x3d, 0x88, 0xe9,
    0x6c, 0x3d, 0xb8, 0x60, 0xd3, 0xbd, 0xf1, 0x4d, 0xd1, 0xbc,
    0x4f, 0x42, 0x45, 0x3d, 0x78, 0x2b, 0x8c, 0xbd, 0x10, 0x15,
    0x8b, 0xbd, 0x73, 0xc9, 0xb4, 0x3d, 0xde, 0x84, 0x2a, 0x3d,
    0x6c, 0xb0, 0xac, 0xbd, 0xd8, 0x11, 0x12, 0xbb, 0x7c, 0x61,
    0xd6, 0x3c, 0x34, 0x0e, 0x99, 0x3d, 0x87, 0xad, 0x51, 0xbc,
    0x8a, 0x52, 0x92, 0x3a, 0xe3, 0x7e, 0xb7, 0xbd, 0x06, 0x10,
    0x0b, 0xbd, 0x21, 0x61, 0xc2, 0x3d, 0x58, 0xcf, 0x91, 0xbd,
    0xfd, 0x41, 0xa4, 0x3d, 0x8a, 0x64, 0xde, 0xbd, 0xaa, 0xd5,
    0x54, 0x3d, 0xea, 0x62, 0xaa, 0xbd, 0x7f, 0x80, 0xd7, 0xbd,
    0xa6, 0xbb, 0xe0, 0x3d, 0x7a, 0x6f, 0xdb, 0xbb, 0xbb, 0x40,
    0xbc, 0xbd, 0xc7, 0x22, 0x90, 0xbd, 0x11, 0x7e, 0xdb, 0xbd,
    0x9f, 0xe7, 0x1c, 0xbb, 0x9a, 0x15, 0xeb, 0x3c, 0x53, 0x1b,
    0x2f, 0xbd, 0x58, 0x94, 0x58, 0xbd, 0x30, 0x17, 0x13, 0xbe,
    0xa4, 0x46, 0xc0, 0x3d, 0x03, 0xf9, 0xd5, 0x3d, 0xdc, 0x31,
    0xa8, 0x3d, 0x1a, 0xc6, 0x01, 0x3e, 0x2a, 0x7f, 0x6f, 0x3d,
    0x6f, 0xeb, 0xa0, 0x3d, 0xd3, 0xb8, 0xc2, 0xbd, 0x97, 0x74,
    0xd4, 0xbd, 0x10, 0x6e, 0xb8, 0xbd, 0xae, 0xd0, 0x3f, 0x3d,
    0x99, 0xdd, 0xce, 0x3d, 0xe2, 0xe3, 0x56, 0xbd, 0xa7, 0x02,
    0x14, 0x3d, 0xf6, 0x91, 0x9a, 0xbd, 0x2e, 0xb0, 0x1e, 0xbe,
    0xd2, 0xc1, 0x26, 0xbd, 0xf6, 0x29, 0x26, 0xbe, 0xc6, 0x55,
    0x94, 0x3d, 0x3f, 0x76, 0xbe, 0x3d, 0x91, 0x59, 0x06, 0xbc,
    0x2e, 0x6f, 0x89, 0x3d, 0x7e, 0x3e, 0xa0, 0x3d, 0x18, 0xf0,
    0x06, 0xbd, 0x47, 0x35, 0x6b, 0xbd, 0x70, 0xa6, 0x24, 0x3d,
    0x49, 0x18, 0xe3, 0xbd, 0x99, 0xce, 0x8b, 0x3d, 0x92, 0xbe,
    0x24, 0x3d, 0x1e, 0x61, 0x3f, 0xbd, 0x87, 0xa0, 0xf9, 0x3d,
    0x4e, 0x68, 0x8c, 0x3c, 0x98, 0xcc, 0xe0, 0xbd, 0x48, 0x0e,
    0xde, 0xbc, 0x3f, 0x87, 0xf3, 0xbd, 0x00, 0xeb, 0x39, 0xbd,
    0xf8, 0x36, 0x97, 0x3d, 0x21, 0x82, 0x9b, 0xbd, 0xa2, 0x16,
    0xaf, 0x3d, 0xe4, 0xa3, 0xa0, 0xbd, 0xdb, 0x20, 0xd6, 0xbd,
    0xb7, 0xf2, 0xc7, 0xbd, 0x2f, 0xc5, 0xa7, 0x3d, 0x04, 0x90,
    0xb9, 0x3c, 0x33, 0x27, 0x83, 0x3d, 0xf1, 0x5a, 0xf4, 0xbd,
    0x44, 0xfd, 0x11, 0x3e, 0x79, 0x2a, 0xe0, 0xbd, 0xb1, 0x76,
    0x44, 0xbd, 0xa0, 0x0a, 0x96, 0x3d, 0x9e, 0x7d, 0xb5, 0xbd,
    0x76, 0x91, 0x8a, 0x3d, 0xe6, 0xd4, 0x99, 0x3d, 0x38, 0x18,
    0xf1, 0xbd, 0x31, 0x54, 0xba, 0x3d, 0x13, 0x5b, 0x6b, 0xbd,
    0xb9, 0xf7, 0x19, 0xbd, 0xf3, 0x06, 0x1d, 0xbe, 0x03, 0x9f,
    0x88, 0xbd, 0xca, 0x07, 0x5b, 0xbd, 0x57, 0x48, 0xde, 0xbd,
    0x2e, 0xca, 0xe3, 0xbd, 0x2e, 0x2e, 0x03, 0x3e, 0x62, 0xa9,
    0x2a, 0x3c, 0x37, 0x4e, 0xd8, 0xbd, 0x72, 0xa5, 0x4a, 0x3c,
    0xb2, 0xba, 0x20, 0xbc, 0x8a, 0x9d, 0xec, 0xbd, 0x92, 0x13,
    0x80, 0x3b, 0x79, 0x28, 0x09, 0x3d, 0x2b, 0x9b, 0xbd, 0xbd,
    0x6d, 0x61, 0x40, 0xbc, 0x9e, 0x93, 0xd4, 0x3d, 0x2d, 0x23,
    0xa2, 0xbc, 0x78, 0x12, 0x13, 0xbd, 0x5e, 0xf1, 0x4d, 0x3d,
    0xa0, 0x08, 0x2b, 0xbd, 0x3e, 0x70, 0x39, 0x3c, 0x14, 0x27,
    0xfe, 0xbc, 0xb1, 0x07, 0xe1, 0xbd, 0x4b, 0xd5, 0xe7, 0xb9,
    0x35, 0xcf, 0xa3, 0xbc, 0x19, 0x9d, 0xda, 0xbb, 0x1c, 0xc3,
    0x69, 0x3d, 0xa9, 0x34, 0xe3, 0xbd, 0xc5, 0x5f, 0x27, 0xbd,
    0x77, 0xc3, 0x3e, 0xbd, 0xc5, 0xe0, 0xc6, 0xbc, 0x19, 0x72,
    0x18, 0x3d, 0x2a, 0x52, 0x4a, 0xbd, 0xbd, 0x62, 0x22, 0x3d,
    0x2b, 0xd0, 0xb4, 0x3d, 0xe5, 0x6e, 0xfa, 0xbd, 0x06, 0x41,
    0x57, 0xbd, 0xfa, 0xa4, 0xaa, 0x3d, 0x37, 0xbb, 0xbb, 0x3d,
    0x47, 0xbc, 0x96, 0xbd, 0x56, 0x32, 0x8b, 0xbd, 0xab, 0x9d,
    0x1c, 0xbd, 0x8e, 0x74, 0xa1, 0xbb, 0xf4, 0x9f, 0x19, 0x3c,
    0x4c, 0xcf, 0x0c, 0x3d, 0xc6, 0x78, 0xa0, 0x3d, 0xc6, 0x1f,
    0xaf, 0xbd, 0x39, 0xa3, 0xe8, 0xba, 0x16, 0x48, 0x5b, 0xbd,
    0x6a, 0xc5, 0xab, 0xbd, 0x9b, 0x31, 0xc8, 0x3d, 0x1c, 0xc0,
    0xb0, 0xbc, 0xff, 0x9e, 0x04, 0xbd, 0xea, 0xf7, 0x82, 0x3b,
    0x10, 0x81, 0x96, 0x3d, 0xf6, 0xb1, 0x86, 0xbd, 0x24, 0xe9,
    0xac, 0xbd, 0x5c, 0x92, 0x48, 0xbd, 0x5c, 0x9e, 0xdc, 0x3d,
    0xfa, 0x8e, 0x5d, 0x3d, 0x8c, 0x42, 0xc1, 0x3d, 0x3d, 0x89,
    0x4e, 0x3d, 0x61, 0xb1, 0xa4, 0xbc, 0x0c, 0x9a, 0xd4, 0x3b,
    0x19, 0xdd, 0xda, 0x3d, 0x37, 0xa4, 0x8f, 0xba, 0x5d, 0x81,
    0x87, 0xba, 0x7b, 0x0c, 0x72, 0x3c, 0x8c, 0x54, 0x0e, 0x3d,
    0x33, 0x8b, 0x9d, 0xbc, 0x0c, 0xc2, 0x39, 0xbd, 0xfb, 0x7d,
    0x52, 0xbd, 0x0d, 0x8a, 0x8c, 0x3c, 0x7b, 0x21, 0x7b, 0x3d,
    0x55, 0x9b, 0x02, 0x3e, 0x83, 0x6d, 0x52, 0x3d, 0x6b, 0x03,
    0x77, 0xbd, 0xd7, 0xfc, 0x24, 0xbd, 0xd2, 0x9b, 0x06, 0xbe,
    0xfb, 0x20, 0xc3, 0xbd, 0x11, 0xa8, 0x09, 0xbd, 0x61, 0x3c,
    0x07, 0xbb, 0x63, 0x52, 0x97, 0x3d, 0x44, 0x7b, 0x3f, 0xbd,
    0x95, 0x35, 0xd4, 0xbd, 0x62, 0xa9, 0xfc, 0xbd, 0xb3, 0x5d,
    0x82, 0xbd, 0x39, 0x27, 0x5f, 0x3d, 0x30, 0x97, 0x76, 0x3d,
    0x94, 0xe9, 0xdc, 0x3d, 0x45, 0x2f, 0xf4, 0x3d, 0xf4, 0x0b,
    0xac, 0xbd, 0x0c, 0x74, 0xb3, 0x3c, 0x10, 0xdc, 0xfa, 0xbc,
    0x13, 0x68, 0xec, 0xbb, 0x9e, 0x88, 0xa8, 0x3d, 0x57, 0x68,
    0xb1, 0x3d, 0xee, 0x7a, 0x76, 0x3d, 0xb1, 0x6b, 0xb3, 0xbc,
    0xde, 0x79, 0xf1, 0x3d, 0x15, 0x8c, 0x6d, 0xbd, 0xe7, 0x7d,
    0xab, 0xbd, 0xe1, 0x0d, 0xf4, 0xbc, 0x67, 0xf3, 0xa4, 0xbd,
    0x37, 0x66, 0x7d, 0x3d, 0xaf, 0xc0, 0x05, 0x3d, 0x54, 0xb8,
    0x3a, 0xbd, 0x07, 0xdc, 0xb5, 0xbc, 0x2f, 0xa2, 0x39, 0x3d,
    0x2b, 0xdc, 0x47, 0x3d, 0x75, 0xca, 0xab, 0xbd, 0x06, 0x9f,
    0xbf, 0xbd, 0xa5, 0x0a, 0x2f, 0xbd, 0x4c, 0xf4, 0x11, 0x3c,
    0x25, 0x85, 0xaf, 0x3c, 0x84, 0x4e, 0x01, 0x3e, 0x55, 0x24,
    0xca, 0xbb, 0x03, 0x1c, 0xd3, 0x3d, 0xea, 0xff, 0xb4, 0xbd,
    0xe1, 0x7d, 0xac, 0x3d, 0xf2, 0x45, 0x62, 0x3d, 0x7c, 0x49,
    0xe3, 0xbd, 0xe6, 0x57, 0x49, 0x3d, 0x96, 0x21, 0x78, 0x3d,
    0xb9, 0x5a, 0x11, 0xbd, 0x52, 0x05, 0x86, 0xbd, 0x81, 0x67,
    0xb7, 0xbd, 0xc6, 0xb9, 0xb4, 0x3d, 0xef, 0x5a, 0xe6, 0xbd,
    0xa2, 0x43, 0x52, 0x3c, 0x63, 0xde, 0xd5, 0xbc, 0x71, 0x9d,
    0x14, 0xbd, 0x8f, 0xd2, 0x37, 0xbd, 0x74, 0x10, 0x2e, 0xbc,
    0xfc, 0xd9, 0xd5, 0xbd, 0x0a, 0x51, 0xe7, 0xbd, 0xef, 0xb5,
    0x08, 0xbe, 0x60, 0xcc, 0xb4, 0x3d, 0x10, 0x56, 0xd4, 0x3d,
    0x07, 0x7d, 0x80, 0xbd, 0xfb, 0xe3, 0xca, 0xba, 0x4f, 0x8e,
    0xc3, 0xbd, 0x49, 0x29, 0x26, 0x3d, 0x8e, 0x19, 0x3d, 0x3c,
    0xcf, 0x89, 0xaa, 0x3d, 0x4b, 0xce, 0x34, 0xbd, 0xba, 0xc1,
    0x95, 0xbd, 0x43, 0x84, 0xdf, 0xbc, 0x09, 0xd1, 0x85, 0xbd,
    0x52, 0xe8, 0x3e, 0xbd, 0x54, 0xb2, 0x3b, 0x3d, 0x20, 0xb3,
    0x9c, 0x3d, 0xca, 0x71, 0xb2, 0xbd, 0x43, 0x98, 0x0c, 0xbe,
    0x52, 0x5e, 0xc0, 0xbd, 0x53, 0x11, 0xc0, 0x3d, 0x8c, 0x31,
    0x10, 0x3d, 0x22, 0x97, 0x03, 0x3d, 0x7b, 0x64, 0xb7, 0x3d,
    0x96, 0x05, 0xc9, 0x3d, 0x33, 0x16, 0x94, 0x3d, 0x2b, 0xfa,
    0x3c, 0x3d, 0xa9, 0xde, 0x9d, 0xbd, 0xca, 0xa8, 0xef, 0x3d,
    0x85, 0xcf, 0xa1, 0xbd, 0x9c, 0xd0, 0x7f, 0xbd, 0x82, 0xd0,
    0x45, 0x3d, 0x2a, 0xb6, 0x9d, 0xbd, 0x9f, 0x43, 0x0c, 0x3d,
    0x4d, 0x6d, 0x43, 0x3d, 0x72, 0x23, 0x61, 0x3d, 0x13, 0x62,
    0x0b, 0xbd, 0x0b, 0x41, 0xa3, 0xbc, 0x8d, 0x0d, 0xaf, 0x3d,
    0x11, 0xf9, 0xc0, 0xbc, 0x2e, 0x1a, 0x55, 0x3d, 0xd8, 0x82,
    0x68, 0xbd, 0x81, 0x15, 0xe3, 0xbd, 0xcb, 0xe5, 0x68, 0xbd,
    0x21, 0xa5, 0x8b, 0x3d, 0x0f, 0xd5, 0xa1, 0x3d, 0xcd, 0x38,
    0x31, 0xbd, 0x74, 0x37, 0xe2, 0x3d, 0x48, 0xc7, 0x85, 0xbb,
    0xb0, 0x35, 0xf2, 0x3c, 0x55, 0xa9, 0xb6, 0x3c, 0x09, 0xf0,
    0x1c, 0xbd, 0xaa, 0xfd, 0xba, 0x3a, 0x63, 0xa1, 0x03, 0xbe,
    0xcb, 0x3f, 0xcd, 0x3d, 0xbb, 0x00, 0x5e, 0x3d, 0x78, 0x0d,
    0xff, 0x3d, 0xb0, 0x38, 0xb0, 0x3d, 0x0a, 0x93, 0xc5, 0xbd,
    0x0b, 0x4a, 0xe7, 0xbd, 0x1d, 0x45, 0x13, 0xbe, 0x3a, 0x01,
    0x9a, 0x3d, 0xb9, 0x46, 0xd6, 0xbd, 0xe0, 0x9e, 0xc2, 0x3c,
    0x3a, 0x93, 0x86, 0x3b, 0x63, 0xc5, 0x00, 0xbd, 0x26, 0xed,
    0xc5, 0xbd, 0x14, 0x52, 0xa3, 0xbd, 0x83, 0xf3, 0x20, 0x3d,
    0x30, 0x2d, 0x5e, 0x3d, 0xeb, 0xed, 0x73, 0xbd, 0x81, 0xf3,
    0xe6, 0xbd, 0x8d, 0x5c, 0xb4, 0x3c, 0x94, 0x36, 0x33, 0xbd,
    0x08, 0x95, 0xa4, 0xbc, 0xf9, 0x5a, 0x0a, 0x3d, 0x7d, 0x36,
    0x9d, 0x3d, 0x19, 0x0e, 0xbc, 0xbd, 0x80, 0x00, 0x97, 0x3d,
    0xa2, 0xc7, 0x95, 0x3d, 0x11, 0x72, 0xe5, 0x3d, 0x5c, 0x7d,
    0x92, 0x3d, 0x83, 0xeb, 0x8b, 0x3c, 0xf3, 0x66, 0x73, 0x3c,
    0x34, 0x3f, 0x39, 0xbc, 0x0b, 0x55, 0x98, 0xbd, 0xa7, 0x6c,
    0x98, 0x3d, 0xb3, 0xf8, 0x29, 0x3d, 0x10, 0x7c, 0x4e, 0x3c,
    0x51, 0x10, 0x1e, 0x3c, 0x3d, 0xad, 0x5d, 0xbd, 0x95, 0x20,
    0xd2, 0x3b, 0x4f, 0x26, 0xcb, 0x3d, 0x37, 0xad, 0xbc, 0xbd,
    0x55, 0x70, 0x87, 0x3b, 0xe2, 0x47, 0xde, 0xbd, 0x7a, 0x97,
    0xdc, 0x3d, 0x46, 0xfb, 0xf1, 0x3c, 0x30, 0x67, 0x71, 0xbd,
    0xe9, 0xc6, 0x49, 0x3d, 0x5c, 0xe7, 0xa2, 0x3b, 0x08, 0x37,
    0x96, 0x3d, 0xda, 0x70, 0x96, 0xbd, 0x98, 0xd4, 0xb1, 0xbb,
    0x52, 0xd0, 0xad, 0xbd, 0x08, 0x91, 0xdf, 0xbd, 0x1e, 0x24,
    0x8f, 0x39, 0x57, 0x4e, 0x91, 0x3d, 0x4f, 0x5e, 0x03, 0x3e,
    0x4a, 0x29, 0x2d, 0x3d, 0x2e, 0x56, 0xd0, 0x3d, 0xb0, 0x53,
    0xb0, 0x3d, 0x7c, 0x3d, 0xa4, 0xbd, 0xf8, 0x84, 0xb3, 0x3b,
    0xfd, 0x31, 0x59, 0xbc, 0x95, 0x35, 0x9e, 0xbc, 0xca, 0x62,
    0x04, 0x3d, 0x92, 0x69, 0xe2, 0x3d, 0x43, 0x1c, 0x8d, 0xbc,
    0x40, 0x85, 0xe0, 0x3d, 0x73, 0x64, 0x98, 0xb8, 0x7b, 0xec,
    0x21, 0x3c, 0xeb, 0x84, 0xd4, 0x3d, 0x20, 0x19, 0xb6, 0xbd,
    0xbb, 0x2e, 0x6d, 0x3d, 0x85, 0x5b, 0x82, 0xbd, 0x21, 0x65,
    0xf5, 0xbc, 0xc6, 0xaf, 0x42, 0x3d, 0x57, 0xcc, 0xcc, 0xbd,
    0x53, 0x5a, 0xe9, 0xbd, 0xf6, 0xd8, 0x75, 0x3c, 0x2e, 0x05,
    0xeb, 0x3b, 0x2d, 0x84, 0x98, 0x3d, 0xe3, 0xe5, 0x74, 0xbd,
    0x9a, 0xa5, 0xde, 0x3d, 0x62, 0x3e, 0xc8, 0xbd, 0x25, 0xb9,
    0x7d, 0x3d, 0xc1, 0xd3, 0x1d, 0xbd, 0x36, 0x96, 0xbd, 0xbd,
    0x08, 0xf0, 0xad, 0x3c, 0xb4, 0xbe, 0x76, 0xbd, 0xaf, 0x12,
    0x1a, 0xbe, 0x55, 0xd5, 0xab, 0x3c, 0xbd, 0xf9, 0xd0, 0x3c,
    0xb7, 0xf1, 0x21, 0xbd, 0x87, 0xf9, 0xc9, 0xbd, 0xc8, 0xee,
    0xdd, 0x3a, 0x95, 0x44, 0x11, 0xbe, 0x20, 0x64, 0xd8, 0xbc,
    0x35, 0xfc, 0x16, 0xbd, 0x63, 0x26, 0xa9, 0x3d, 0xc4, 0xad,
    0x72, 0xbc, 0xd0, 0xeb, 0x27, 0xbc, 0x06, 0xa3, 0xf2, 0xbd,
    0xa8, 0x50, 0xb7, 0xbd, 0xf2, 0xdf, 0xe7, 0x3d, 0x6d, 0xc1,
    0x1e, 0xbd, 0x1b, 0x74, 0x27, 0x3c, 0x61, 0xcc, 0xe0, 0xbc,
    0xa2, 0xcf, 0x50, 0x3b, 0x91, 0xd8, 0xe7, 0xbd, 0x04, 0xdd,
    0xf8, 0xbd, 0xe3, 0x6f, 0x5c, 0x3d, 0x3c, 0xdc, 0x41, 0x3d,
    0x6c, 0x61, 0xc7, 0x3d, 0xe8, 0x94, 0xce, 0xbd, 0x93, 0x3d,
    0x0b, 0xbc, 0xc2, 0xd1, 0xf0, 0x3d, 0x71, 0x0f, 0x6b, 0xbd,
    0xdb, 0x1b, 0x0c, 0xbd, 0xf6, 0xd3, 0xc7, 0x3c, 0xc8, 0x35,
    0xc7, 0xbd, 0xb5, 0x04, 0x9b, 0xbd, 0x86, 0x80, 0x77, 0xbd,
    0xdd, 0x8f, 0xf9, 0xbb, 0x1b, 0xf5, 0x9e, 0xbd, 0x63, 0xdc,
    0xa7, 0x3d, 0x46, 0x2f, 0x82, 0x3d, 0xad, 0x43, 0xc9, 0x3d,
    0xa6, 0xc1, 0xaf, 0xbd, 0xf6, 0x79, 0x9e, 0xbd, 0x8c, 0xef,
    0x03, 0xbd, 0x6d, 0x36, 0x15, 0xbd, 0x76, 0x89, 0xf5, 0x3d,
    0xbd, 0xdc, 0x4f, 0x3d, 0xe8, 0xaa, 0x26, 0x3d, 0x40, 0x86,
    0xcd, 0x3d, 0xfe, 0xe9, 0x42, 0x3d, 0x70, 0x91, 0x06, 0xbd,
    0xf2, 0x85, 0x90, 0x3d, 0xf2, 0x9d, 0xa0, 0xbd, 0x59, 0xb4,
    0x07, 0x3e, 0xb8, 0x82, 0x82, 0xbd, 0x4c, 0x4b, 0xe5, 0x3c,
    0x2c, 0xc2, 0xde, 0x3c, 0x77, 0x70, 0xc4, 0x3c, 0xba, 0x38,
    0xa7, 0x3d, 0x0b, 0x2e, 0xe0, 0xbd, 0xc7, 0x17, 0x57, 0x3d,
    0xae, 0x9e, 0xeb, 0x3d, 0x0c, 0xa5, 0x09, 0xbe, 0x1e, 0x25,
    0xc2, 0xbd, 0x2e, 0x8f, 0xcf, 0xbd, 0x81, 0x51, 0xf4, 0x3d,
    0x86, 0xbe, 0x72, 0x3d, 0xa9, 0x82, 0x29, 0x3d, 0xe9, 0xd1,
    0x90, 0x3d, 0x83, 0xf2, 0x3e, 0x3c, 0xbb, 0x77, 0x84, 0xbd,
    0x3f, 0xe3, 0x7a, 0xbd, 0x29, 0x36, 0x8f, 0x3d, 0x2d, 0x96,
    0x2a, 0xbc, 0x6e, 0xa9, 0xd0, 0xbd, 0xdf, 0x8c, 0xdd, 0xbd,
    0x85, 0x87, 0xc3, 0xbd, 0xf0, 0x84, 0xd3, 0xbd, 0xbb, 0x9c,
    0xc2, 0x3d, 0x05, 0xcc, 0xcc, 0xbc, 0xbd, 0xb3, 0xf3, 0xbc,
    0x20, 0x5c, 0xb4, 0xbc, 0xdd, 0x9e, 0x30, 0xbd, 0x88, 0xd0,
    0xcf, 0x3d, 0xab, 0x97, 0xa1, 0x3d, 0x54, 0x60, 0xb0, 0xbc,
    0x86, 0x0c, 0x8d, 0xbd, 0x95, 0xc3, 0x96, 0x3d, 0x26, 0x3a,
    0x10, 0x3d, 0xd0, 0xfd, 0x98, 0x3c, 0x5b, 0xc4, 0x11, 0xbd,
    0x5a, 0x89, 0xc5, 0x3d, 0xad, 0x9a, 0xaf, 0xbd, 0x34, 0x63,
    0x14, 0x3d, 0x5c, 0xe7, 0x81, 0x3d, 0x65, 0x27, 0x3b, 0xbd,
    0x75, 0x98, 0xf9, 0x3c, 0xef, 0x4d, 0x2a, 0xbd, 0xc2, 0x6d,
    0x88, 0xbc, 0xf3, 0xb8, 0xc4, 0x3c, 0x0e, 0xf4, 0x84, 0xbc,
    0x21, 0xee, 0x8e, 0x3b, 0xd4, 0x61, 0x52, 0x3c, 0x99, 0x0b,
    0x33, 0xbd, 0x95, 0x66, 0xf7, 0x3d, 0x69, 0x22, 0x63, 0xbd,
    0xae, 0x36, 0xb6, 0xbd, 0xd7, 0x11, 0x30, 0xbd, 0xdc, 0xd8,
    0x0c, 0xbd, 0x09, 0x1f, 0xc6, 0x3c, 0xf6, 0xa8, 0x3a, 0x3d,
    0xc4, 0xe8, 0x84, 0x3d, 0x50, 0x3e, 0xbd, 0xbd, 0x48, 0xbb,
    0xd5, 0xbd, 0x42, 0x9f, 0x59, 0xbd, 0x8c, 0x05, 0x5c, 0xbb,
    0x4a, 0x3d, 0x07, 0xbe, 0x99, 0x37, 0x79, 0xbd, 0x67, 0x86,
    0x93, 0x3d, 0x31, 0x51, 0x53, 0xbd, 0xf2, 0x01, 0xb8, 0x3c,
    0xb2, 0x88, 0x3a, 0xbd, 0xb6, 0x8b, 0xfc, 0xbb, 0xba, 0x6a,
    0x58, 0xbd, 0x8c, 0x1e, 0xaf, 0xbd, 0x46, 0x8b, 0x50, 0x3d,
    0x6c, 0x7c, 0xa8, 0x3c, 0x4f, 0x63, 0xb8, 0xbb, 0x2c, 0xac,
    0xdb, 0x3d, 0xf7, 0xc1, 0xcb, 0x3d, 0xcf, 0x7a, 0x5a, 0xbc,
    0x90, 0x15, 0xe9, 0xbd, 0xee, 0xc8, 0xde, 0xbd, 0xe9, 0x99,
    0x89, 0xbb, 0x19, 0x71, 0x7b, 0xbd, 0x38, 0x8e, 0xcf, 0xbc,
    0x17, 0x18, 0xc5, 0x3d, 0x84, 0xde, 0xb0, 0x3d, 0x74, 0x1e,
    0x12, 0xbd, 0x2e, 0x11, 0xf2, 0x3c, 0xde, 0xb0, 0x8f, 0xbd,
    0xf8, 0x0c, 0x58, 0x3d, 0x8e, 0x5a, 0x93, 0xbd, 0x15, 0x0d,
    0x56, 0xbc, 0x1c, 0x1f, 0xaf, 0x3d, 0xdc, 0x7e, 0xa8, 0x3d,
    0x61, 0xc2, 0x0c, 0x3d, 0x2e, 0x59, 0xe2, 0xbc, 0xff, 0x36,
    0xa9, 0x3c, 0x1c, 0x35, 0xb2, 0xbd, 0xc5, 0x07, 0xc7, 0xbc,
    0x2f, 0xa5, 0x20, 0xbd, 0x0a, 0xf5, 0xab, 0x3d, 0x97, 0x85,
    0xcc, 0x3d, 0xa2, 0xa5, 0xd2, 0xbd, 0x8f, 0xbd, 0x71, 0xbd,
    0x0d, 0xe8, 0xc5, 0xbd, 0x4a, 0xa6, 0x17, 0x3c, 0x2f, 0x1b,
    0xaf, 0xbc, 0x2d, 0x30, 0x9f, 0x3d, 0xe9, 0x4d, 0xc7, 0x3d,
    0x55, 0xd1, 0x83, 0x3c, 0x45, 0xf1, 0xa6, 0xbc, 0xd4, 0x8e,
    0xbf, 0x3c, 0xc2, 0x6e, 0x9d, 0x3d, 0x8c, 0x5b, 0xab, 0x3d,
    0x40, 0xf5, 0xb1, 0x3d, 0x9e, 0xa5, 0xc2, 0xbd, 0x88, 0xea,
    0xcc, 0x3d, 0x67, 0x70, 0x75, 0x3d, 0xcc, 0x89, 0xae, 0xbd,
    0x29, 0x6f, 0xdd, 0xbd, 0x5d, 0x3c, 0x8c, 0x3c, 0x87, 0xa6,
    0x44, 0xbd, 0xe2, 0x44, 0x19, 0x3c, 0x97, 0x66, 0x92, 0x3d,
    0x1e, 0x4c, 0x37, 0xbd, 0x8e, 0xd8, 0x2b, 0x3d, 0x97, 0x1e,
    0xe5, 0xbd, 0xb3, 0x54, 0xa3, 0xbb, 0x70, 0x9c, 0xd3, 0x3d,
    0x3f, 0xa0, 0x4d, 0x3d, 0x52, 0x2c, 0x9a, 0x3d, 0xe7, 0xe6,
    0xda, 0x3c, 0xe6, 0x52, 0xbe, 0xbd, 0xc0, 0x64, 0x98, 0xbd,
    0x60, 0xba, 0x23, 0x3d, 0x31, 0x7f, 0x53, 0x3d, 0xe6, 0xbf,
    0xf0, 0xbd, 0x4a, 0xe3, 0x8b, 0x3d, 0x85, 0x72, 0x77, 0xbd,
    0xb8, 0x72, 0x95, 0xbc, 0x74, 0x62, 0xb3, 0x3d, 0x6c, 0x7a,
    0xcb, 0xbd, 0x2f, 0x2a, 0x10, 0x3c, 0x02, 0xff, 0x65, 0xbd,
    0x75, 0x1e, 0xe8, 0x3d, 0xd7, 0xc1, 0x76, 0x3d, 0x71, 0x95,
    0x8f, 0xbd, 0x97, 0xff, 0x7b, 0xbc, 0xbf, 0xdc, 0xe1, 0xbd,
    0x2f, 0x21, 0x8c, 0x3d, 0x0a, 0xce, 0xbb, 0xbd, 0xd7, 0x74,
    0x82, 0xbd, 0xee, 0x12, 0x7d, 0xbd, 0xd9, 0x1b, 0xc5, 0xbd,
    0xb2, 0x8d, 0x0f, 0xbd, 0x82, 0x44, 0xe6, 0x3c, 0x1e, 0x3a,
    0xd8, 0x3c, 0x79, 0x37, 0x95, 0x3d, 0xe7, 0x1b, 0xa8, 0xbb,
    0x4c, 0xf6, 0x5d, 0xbc, 0x00, 0xb8, 0x81, 0x3b, 0x4a, 0x57,
    0xb5, 0x3c, 0x18, 0xdf, 0x56, 0xbd, 0x59, 0x58, 0xbb, 0x3c,
    0xf7, 0x63, 0x75, 0xba, 0x9c, 0x63, 0x32, 0xbd, 0xa6, 0x29,
    0x2a, 0xbd, 0xfe, 0x04, 0x81, 0x3d, 0xc4, 0x75, 0xef, 0xbd,
    0xf8, 0xbb, 0xbb, 0x3c, 0x34, 0xe1, 0xe0, 0xbd, 0x66, 0xf1,
    0xad, 0x3c, 0xce, 0x5a, 0xb0, 0xbd, 0xf5, 0x21, 0x00, 0x3d,
    0x28, 0x9c, 0x9c, 0x3d, 0x6e, 0x21, 0xcc, 0xbd, 0x19, 0x8d,
    0x3e, 0x3d, 0xd4, 0x94, 0xa1, 0xbd, 0x09, 0x68, 0xdb, 0x3d,
    0x07, 0x04, 0xb7, 0x3d, 0x27, 0xf8, 0x48, 0x3d, 0x25, 0x3b,
    0xbf, 0x3d, 0x0e, 0xb8, 0xda, 0x3c, 0x33, 0x16, 0x3e, 0x3d,
    0xe7, 0x02, 0x50, 0x3d, 0xa5, 0xf7, 0x80, 0x3d, 0x58, 0x06,
    0xaa, 0xbd, 0x4d, 0x64, 0x87, 0x3d, 0xb0, 0x30, 0x66, 0x3d,
    0x1b, 0xbc, 0x12, 0xbd, 0x2b, 0x06, 0x6d, 0x3c, 0x72, 0x0c,
    0x67, 0xbd, 0xdd, 0xcc, 0x5d, 0x3c, 0x35, 0x62, 0xf2, 0xbc,
    0x31, 0xa4, 0x9a, 0x3b, 0x26, 0x53, 0xf5, 0xbd, 0x25, 0xf8,
    0x72, 0xbd, 0x7e, 0x02, 0x34, 0x3d, 0x6f, 0xb5, 0x96, 0x3c,
    0x9b, 0x07, 0x81, 0xbd, 0x36, 0x8e, 0x60, 0x3d, 0xdb, 0xa4,
    0xa6, 0x3d, 0x4f, 0x77, 0x10, 0xbd, 0xde, 0x17, 0xd4, 0xbc,
    0x0f, 0xca, 0x91, 0x3c, 0xe0, 0x24, 0xac, 0xbd, 0x89, 0x47,
    0xb4, 0x3d, 0xb4, 0xbe, 0x82, 0x3d, 0x1f, 0xcf, 0xd9, 0xbc,
    0xb9, 0xd8, 0x5d, 0x3d, 0xf6, 0x30, 0x53, 0x3d, 0xca, 0xc1,
    0xc0, 0x3c, 0xf0, 0x28, 0xf5, 0xbc, 0x53, 0x86, 0xbb, 0x3d,
    0x8d, 0xb6, 0x7e, 0x3c, 0xa6, 0x7c, 0xcd, 0xbd, 0x07, 0xb7,
    0x60, 0xbd, 0xcf, 0xbe, 0xc6, 0x3d, 0x22, 0x4a, 0x82, 0x3d,
    0x31, 0xcc, 0xb2, 0x3d, 0x3b, 0x74, 0xf4, 0xbd, 0x30, 0xf6,
    0xe3, 0xbc, 0xf0, 0x62, 0xe7, 0x3d, 0x4b, 0x0b, 0x83, 0xbd,
    0xf1, 0x4a, 0x30, 0xbd, 0x99, 0xc5, 0xc0, 0xbd, 0x90, 0xd4,
    0xdd, 0x3d, 0x9f, 0x2d, 0x72, 0xba, 0xee, 0xdf, 0xa6, 0xbd,
    0x8e, 0x77, 0x5f, 0xbd, 0xff, 0x54, 0x3c, 0x3d, 0xd1, 0x38,
    0x95, 0x3d, 0xb1, 0x00, 0xdf, 0x3c, 0x55, 0x91, 0xc6, 0xbd,
    0x27, 0xa9, 0xf5, 0xbd, 0x9a, 0x7f, 0xfc, 0xbd, 0x83, 0x4c,
    0xc0, 0xbd, 0xc6, 0x95, 0x4a, 0x3d, 0x64, 0xca, 0x4b, 0x3d,
    0xf2, 0x53, 0xa4, 0xbd, 0xcc, 0x83, 0xf1, 0xbd, 0x55, 0x18,
    0xd7, 0xbd, 0x40, 0x3a, 0x9b, 0x3d, 0x62, 0x0e, 0x10, 0xbd,
    0xb6, 0x32, 0xe3, 0xbc, 0x9f, 0xbe, 0x7d, 0xbd, 0x61, 0x13,
    0x80, 0xbd, 0xc7, 0x91, 0x84, 0xbd, 0xcd, 0x7d, 0xc8, 0xbb,
    0x2c, 0xb9, 0xce, 0x3c, 0xb7, 0x16, 0x22, 0xbd, 0xf5, 0xea,
    0x41, 0x3d, 0xcb, 0xb2, 0xad, 0x3c, 0xf4, 0xf2, 0x93, 0xbb,
    0x9c, 0xef, 0x8d, 0xbd, 0x91, 0x6f, 0xf5, 0xbd, 0xa3, 0xff,
    0xac, 0x3d, 0xac, 0x44, 0xc6, 0xbc, 0xaf, 0x20, 0x9d, 0x3d,
    0x82, 0x46, 0x6e, 0x3d, 0xc5, 0x55, 0xc8, 0xbd, 0x46, 0x10,
    0xd1, 0x3b, 0x71, 0x55, 0x99, 0x3d, 0x16, 0x5d, 0x7f, 0xba,
    0xed, 0x58, 0xcb, 0xbd, 0x7c, 0x9d, 0xdb, 0x3d, 0xf7, 0x6a,
    0xb6, 0x3d, 0xec, 0x0c, 0x20, 0xbd, 0x2b, 0xc8, 0xa4, 0xbc,
    0x0a, 0xba, 0x77, 0xbd, 0xc9, 0x65, 0xa2, 0x3d, 0xd7, 0x6c,
    0xc9, 0xbc, 0xaf, 0xc9, 0x6d, 0xbc, 0x3a, 0x8f, 0x8b, 0xbd,
    0x40, 0xf4, 0x72, 0xbc, 0xde, 0xd4, 0x07, 0x3d, 0x95, 0xe6,
    0xed, 0xbd, 0x62, 0x21, 0xf3, 0x3c, 0xe9, 0x12, 0xa4, 0x3d,
    0xe9, 0x21, 0x9f, 0x3c, 0x65, 0xde, 0x91, 0x3c, 0xc2, 0x28,
    0x1c, 0x3d, 0x61, 0x23, 0x20, 0xbe, 0x7b, 0x96, 0xb5, 0xbd,
    0xfa, 0x8a, 0xb8, 0x3c, 0xce, 0x50, 0x74, 0xb9, 0x27, 0x19,
    0x89, 0x3d, 0x1b, 0x5f, 0xde, 0xbd, 0x9d, 0x3d, 0x2d, 0xbd,
    0xa7, 0x9d, 0x5a, 0xbd, 0xa3, 0x2a, 0xd8, 0xbd, 0xa8, 0xe3,
    0x94, 0x3d, 0xaf, 0x13, 0x55, 0x3d, 0x3e, 0xc6, 0xca, 0x3c,
    0x14, 0x03, 0xcf, 0x3d, 0xb9, 0x0a, 0x88, 0xbc, 0x3e, 0xca,
    0x65, 0xbd, 0x3c, 0xae, 0x09, 0xbd, 0xd3, 0xd9, 0x0f, 0xbd,
    0xc5, 0xdd, 0xa6, 0xbd, 0x6a, 0xf9, 0x92, 0x3c, 0xd5, 0x47,
    0xe1, 0xbd, 0x71, 0xff, 0xa9, 0xbd, 0x09, 0x59, 0xfa, 0xbd,
    0x49, 0x01, 0x98, 0x3b, 0x5b, 0xb6, 0x4f, 0x3d, 0x39, 0x38,
    0x83, 0xbc, 0x21, 0xec, 0x37, 0xbd, 0x5d, 0xf3, 0x6f, 0x3d,
    0x45, 0x39, 0x91, 0xbd, 0x48, 0x65, 0x4c, 0xbb, 0x69, 0xc6,
    0x62, 0xbd, 0xbb, 0x86, 0xb9, 0x3c, 0xa6, 0x9c, 0xbe, 0xbd,
    0xc8, 0x1b, 0x67, 0xbc, 0xc4, 0x89, 0x3c, 0xbd, 0xe4, 0x2d,
    0x86, 0x3d, 0x19, 0x20, 0xbb, 0xbd, 0x0a, 0x5a, 0x85, 0xbd,
    0x82, 0x2c, 0x18, 0xbd, 0x83, 0x79, 0xf9, 0xbc, 0x7a, 0x0f,
    0x9b, 0xbd, 0xc5, 0xc2, 0x91, 0xbd, 0xef, 0x08, 0x51, 0x3c,
    0x85, 0xda, 0x24, 0x3d, 0x19, 0x9a, 0x97, 0x3d, 0xbf, 0x86,
    0xba, 0xbd, 0x18, 0x22, 0xcf, 0xbd, 0x58, 0x6f, 0xc1, 0x3d,
    0xb0, 0x0f, 0xbb, 0x3d, 0x1c, 0xfd, 0x30, 0xbc, 0x4a, 0xd6,
    0x54, 0x3d, 0x65, 0x44, 0xc3, 0xbd, 0xbd, 0x42, 0xc4, 0x3d,
    0xcc, 0x00, 0x0f, 0xbc, 0x8b, 0xfa, 0xa5, 0xbd, 0x44, 0x9f,
    0xdc, 0x3d, 0x49, 0x7b, 0x8b, 0x3d, 0x81, 0x0b, 0x64, 0x3d,
    0x13, 0xe9, 0x35, 0xbd, 0x61, 0x9e, 0xb3, 0xbd, 0x88, 0xab,
    0xd0, 0x3d, 0x98, 0x9d, 0xae, 0x3c, 0x05, 0xb5, 0x11, 0x3d,
    0x39, 0xe6, 0xde, 0xbd, 0x17, 0xce, 0x98, 0xbd, 0xff, 0xc1,
    0x05, 0x3e, 0x5d, 0x44, 0xb4, 0xbc, 0x8f, 0xf2, 0x06, 0xbd,
    0xdd, 0xc7, 0xa6, 0x3d, 0x5b, 0xec, 0x58, 0x3c, 0x87, 0xc1,
    0x66, 0xbd, 0xa0, 0x79, 0xc4, 0xbc, 0x0a, 0x60, 0x83, 0xbd,
    0xec, 0xa0, 0x5a, 0x3d, 0x87, 0xf3, 0x0e, 0xbd, 0xd5, 0xfc,
    0xc4, 0xbd, 0x24, 0x82, 0x7c, 0x3c, 0x79, 0x4c, 0x0f, 0xbd,
    0x1f, 0xb0, 0x9e, 0x3c, 0x62, 0x50, 0xd4, 0xbc, 0xf3, 0x5a,
    0x48, 0xbd, 0x32, 0xf0, 0x2b, 0xbd, 0x49, 0xd2, 0x81, 0x3d,
    0xe6, 0xdc, 0xb7, 0xbd, 0x19, 0xd6, 0x3a, 0xbc, 0xf3, 0x11,
    0xd7, 0xbd, 0xc7, 0x73, 0x14, 0x3c, 0x28, 0x7e, 0xbd, 0xbd,
    0x20, 0xc6, 0xa9, 0xbd, 0x08, 0x1b, 0x09, 0x3d, 0xef, 0xae,
    0x64, 0xbd, 0xa6, 0x62, 0x9c, 0xbd, 0xf2, 0x69, 0x32, 0x3d,
    0x8b, 0x53, 0xf0, 0xbd, 0xa2, 0x9f, 0xa0, 0xbd, 0xe9, 0xb9,
    0xa8, 0x3d, 0x19, 0x56, 0x94, 0x3d, 0xc9, 0x45, 0x28, 0x3d,
    0xa2, 0x55, 0xdf, 0x3d, 0x06, 0x95, 0xb0, 0xbd, 0x32, 0xb4,
    0x1e, 0x3d, 0xd4, 0xcb, 0x26, 0xbd, 0x61, 0xe4, 0xda, 0x3d,
    0x58, 0xd2, 0x0d, 0xbd, 0xf3, 0xbf, 0xbb, 0x3d, 0x03, 0x55,
    0x18, 0xbd, 0x3d, 0x4c, 0xb2, 0x3d, 0x42, 0x13, 0xf4, 0x3c,
    0x73, 0x7e, 0x34, 0xbd, 0x85, 0x9b, 0x1a, 0xbc, 0x69, 0x61,
    0x7a, 0x3d, 0x9d, 0x40, 0x61, 0xbc, 0x48, 0x8d, 0x31, 0xbd,
    0xf0, 0x7a, 0xd4, 0x3d, 0xc2, 0x64, 0xed, 0x3c, 0x81, 0x27,
    0xc0, 0xbc, 0x64, 0xea, 0x8d, 0x3c, 0x27, 0x91, 0x9f, 0x3c,
    0x0f, 0xed, 0xc0, 0xbb, 0x60, 0x95, 0x38, 0x3d, 0xfa, 0x26,
    0x71, 0x3d, 0xd9, 0x54, 0x0b, 0x3d, 0xb6, 0x31, 0x03, 0x3d,
    0xb5, 0x1b, 0x02, 0xbd, 0x17, 0x95, 0x03, 0x3d, 0xea, 0xd7,
    0xe4, 0xbb, 0x1a, 0x7c, 0xce, 0x3d, 0x5c, 0xe3, 0x91, 0xbc,
    0xdc, 0x2a, 0x27, 0x3d, 0x03, 0x29, 0x0d, 0x3d, 0x14, 0xc8,
    0xc6, 0xbd, 0x68, 0x48, 0x82, 0x3d, 0xcd, 0x90, 0x38, 0xbd,
    0xba, 0x80, 0xcb, 0xbc, 0x73, 0xcb, 0x28, 0xbe, 0xb9, 0xb7,
    0x19, 0xbd, 0x3f, 0x80, 0x87, 0x3b, 0x75, 0x94, 0x5c, 0x3d,
    0xa0, 0xc7, 0x92, 0xbd, 0x90, 0xdb, 0xb1, 0x3b, 0x11, 0xb3,
    0x9c, 0x3c, 0x28, 0xdb, 0xcb, 0x3d, 0x05, 0x56, 0x0c, 0x3c,
    0x9d, 0x12, 0x68, 0x3d, 0xec, 0x43, 0xab, 0x3d, 0x6a, 0xac,
    0xac, 0xbd, 0x9e, 0xb1, 0xaa, 0x3d, 0x59, 0x6b, 0x01, 0x3d,
    0xf4, 0xde, 0x1a, 0x3d, 0x63, 0x8a, 0x0b, 0x3e, 0x2e, 0x7e,
    0x16, 0xbe, 0x0b, 0x45, 0x8c, 0x3d, 0xf5, 0x7f, 0x23, 0xbd,
    0xea, 0x07, 0x85, 0x3d, 0xf0, 0x51, 0xc1, 0xbd, 0x63, 0x0b,
    0x6f, 0xbd, 0x94, 0x30, 0x95, 0x3d, 0x17, 0x06, 0xbe, 0x3c,
    0x29, 0x9d, 0xac, 0x3d, 0x24, 0x00, 0x50, 0xbd, 0x36, 0xdd,
    0x98, 0x3d, 0x05, 0x8c, 0xf4, 0x3c, 0xb7, 0xe8, 0xd5, 0xbd,
    0xd4, 0x3f, 0xb8, 0x3d, 0xa2, 0x9a, 0x93, 0xbd, 0xec, 0xfd,
    0xde, 0x3d, 0x19, 0xad, 0x02, 0xbe, 0x65, 0xd9, 0xf3, 0xbc,
    0x04, 0xb2, 0x16, 0x3d, 0xc4, 0xb3, 0xa3, 0x3d, 0x1c, 0x20,
    0xbc, 0xbd, 0x4a, 0x09, 0xe5, 0x3d, 0x37, 0xfd, 0xbd, 0x3c,
    0xcc, 0xa4, 0xa5, 0x3d, 0xe1, 0x36, 0xa8, 0xbd, 0x31, 0xa0,
    0x0d, 0x3d, 0x08, 0x51, 0xe0, 0xbd, 0x80, 0x14, 0x9a, 0x3d,
    0xe9, 0xf9, 0xee, 0xbd, 0xb7, 0x6c, 0xdb, 0xbd, 0xa7, 0xa8,
    0xef, 0x3d, 0x16, 0x1d, 0xe3, 0xbb, 0x5c, 0x80, 0x13, 0xbe,
    0x97, 0xa9, 0x05, 0x3e, 0xa4, 0xde, 0xe8, 0xbd, 0xee, 0xdb,
    0xa8, 0xbc, 0x4a, 0x72, 0xf4, 0xbd, 0x35, 0x58, 0x86, 0x3d,
    0xeb, 0x34, 0x77, 0x3d, 0x19, 0x71, 0x93, 0xbc, 0x0a, 0xa1,
    0x84, 0x3d, 0x55, 0x84, 0x48, 0xbc, 0xae, 0x98, 0xa3, 0x3b,
    0x34, 0xb9, 0x49, 0x3b, 0x67, 0x1f, 0x1d, 0xbd, 0x6a, 0x07,
    0xcb, 0x3d, 0x68, 0x9d, 0x96, 0xbc, 0x1a, 0xde, 0x48, 0xbc,
    0x49, 0x11, 0xc8, 0x3d, 0xe9, 0x25, 0x00, 0x3e, 0x6f, 0x83,
    0x07, 0x3d, 0x14, 0x25, 0xac, 0x3c, 0x4e, 0xe0, 0x24, 0x3c,
    0xa7, 0x96, 0x91, 0x3d, 0xe7, 0xb9, 0xac, 0x3d, 0xa4, 0xd9,
    0xe2, 0x3d, 0xb2, 0x6a, 0xc1, 0xbc, 0x65, 0x88, 0xd9, 0xbd,
    0xa6, 0xc7, 0x32, 0x3b, 0xe6, 0xd2, 0x80, 0x3c, 0xe7, 0x47,
    0x8e, 0xbc, 0x49, 0xb8, 0xf3, 0x3c, 0x4a, 0x83, 0x56, 0x3d,
    0x2e, 0xfd, 0x93, 0x3d, 0xea, 0x97, 0x8c, 0x3d, 0x25, 0xdc,
    0x65, 0x3d, 0xdc, 0x52, 0xc3, 0x3d, 0x2f, 0x9e, 0x9c, 0x3d,
    0x4d, 0x47, 0xb0, 0x3b, 0x66, 0xd1, 0x43, 0xbd, 0x41, 0x97,
    0xf0, 0xbd, 0xe6, 0x39, 0xa4, 0x3d, 0x24, 0x92, 0x7d, 0x3d,
    0x6d, 0x35, 0x9e, 0xbd, 0x64, 0x0d, 0x9d, 0xbd, 0x19, 0x45,
    0x1b, 0xbd, 0xb6, 0x65, 0x6f, 0x3d, 0xa8, 0x93, 0xdc, 0xbd,
    0x6c, 0x52, 0xdc, 0xbd, 0x96, 0x57, 0xb3, 0x3d, 0x41, 0x6c,
    0xe0, 0x3a, 0xc6, 0xc0, 0xac, 0xbd, 0x74, 0x1d, 0xc2, 0x3c,
    0xbf, 0x74, 0x53, 0x3d, 0xe4, 0x91, 0x35, 0x3d, 0x8a, 0x9e,
    0x1f, 0xbc, 0xad, 0x68, 0x96, 0xbd, 0x86, 0xed, 0x98, 0xbd,
    0xb8, 0xc5, 0x32, 0xbd, 0xb0, 0x06, 0xba, 0xbd, 0x80, 0x54,
    0x70, 0xbc, 0x3a, 0xf2, 0xbf, 0xbd, 0x0c, 0x08, 0xe2, 0xbd,
    0x5e, 0x47, 0x82, 0xbd, 0x5c, 0x8e, 0x63, 0xbd, 0xeb, 0x81,
    0x80, 0x3c, 0x0e, 0xb2, 0xf8, 0x3c, 0xe2, 0x9c, 0xf9, 0x3c,
    0xe6, 0x6f, 0x3e, 0x3d, 0x6a, 0x19, 0x0c, 0x3d, 0x94, 0x00,
    0x62, 0x3d, 0xeb, 0xaa, 0xba, 0xbd, 0xe1, 0xf3, 0x68, 0xbb,
    0xc5, 0x63, 0xfc, 0xbc, 0xa9, 0x39, 0x0b, 0xbc, 0x0b, 0xb2,
    0xa4, 0x3d, 0x03, 0xb5, 0x66, 0xbd, 0xfe, 0xda, 0xe0, 0x3d,
    0x5d, 0x93, 0xed, 0xba, 0xf3, 0x09, 0xbd, 0xbc, 0x43, 0xdf,
    0xb7, 0x3a, 0xc5, 0xf2, 0x7c, 0x3b, 0xa7, 0x2b, 0xf5, 0xbc,
    0x56, 0xd7, 0xea, 0x3c, 0xca, 0x37, 0x8c, 0x3d, 0xa8, 0xaf,
    0x86, 0x3d, 0x60, 0x2d, 0x1d, 0xbd, 0x93, 0xff, 0xe9, 0xbd,
    0xda, 0x4e, 0xb6, 0x3d, 0x7f, 0x1d, 0xc0, 0x3d, 0xd9, 0xee,
    0xda, 0xbd, 0xa4, 0x31, 0x8c, 0x3d, 0xb4, 0xde, 0x66, 0xbd,
    0x78, 0xed, 0xe4, 0x3c, 0x01, 0x4c, 0xa0, 0x3d, 0xd3, 0x29,
    0x10, 0xbe, 0x2d, 0x19, 0x86, 0xbd, 0x6e, 0xfd, 0xaf, 0x3d,
    0x5d, 0x24, 0xfe, 0x3c, 0x50, 0xc9, 0x52, 0xbd, 0x24, 0x16,
    0xbd, 0xbd, 0xd6, 0xdf, 0x0e, 0xbc, 0xbe, 0x76, 0xe5, 0x3c,
    0x86, 0x83, 0xbd, 0x3d, 0x97, 0x99, 0xa9, 0xbd, 0xdd, 0x58,
    0xe2, 0xbd, 0xc3, 0x77, 0xf2, 0xbd, 0x10, 0xd0, 0x52, 0x3d,
    0x51, 0xfc, 0x91, 0x3d, 0x0e, 0x1a, 0xfb, 0xbc, 0xdf, 0xe6,
    0x51, 0xbd, 0x80, 0x4f, 0xd6, 0x3b, 0xce, 0xca, 0xfa, 0xbd,
    0x7d, 0x6c, 0xf7, 0x3d, 0x3f, 0x97, 0xdd, 0xbd, 0x65, 0xa6,
    0x82, 0x3d, 0x5d, 0xeb, 0x3c, 0xbd, 0xc1, 0x81, 0x4e, 0xbd,
    0x95, 0xe2, 0xd7, 0xbd, 0x7e, 0x7f, 0x8e, 0xbd, 0x8b, 0x3d,
    0x6f, 0xbc, 0x6a, 0x44, 0xc6, 0x3b, 0xae, 0xba, 0xd3, 0x3d,
    0xfd, 0x66, 0x0a, 0xbe, 0xdd, 0x61, 0x64, 0xbd, 0x38, 0x51,
    0x03, 0x3d, 0xe7, 0x20, 0x52, 0xbc, 0x5c, 0x7e, 0x92, 0x3d,
    0x7a, 0x76, 0xb9, 0x3d, 0x5a, 0x08, 0x93, 0xbd, 0xf8, 0x05,
    0x81, 0xbc, 0x5a, 0x43, 0xa0, 0x3d, 0xe1, 0x5e, 0x8c, 0x3d,
    0x04, 0x31, 0x3a, 0xbd, 0xdf, 0x9c, 0x27, 0xbd, 0xfe, 0x7d,
    0x17, 0xbd, 0x68, 0xd3, 0xcb, 0xbd, 0x01, 0x32, 0x92, 0x3d,
    0xb0, 0xb6, 0x01, 0x3e, 0xb9, 0x8e, 0x12, 0xbd, 0xdd, 0xa6,
    0xd3, 0xbd, 0x9c, 0xdf, 0x8f, 0x3d, 0xf3, 0x65, 0x73, 0x3d,
    0x9b, 0x08, 0x46, 0x3b, 0xb6, 0xad, 0x87, 0xbd, 0x91, 0x60,
    0xa5, 0xbd, 0x3f, 0xd3, 0xc6, 0x3d, 0xdc, 0x02, 0xf9, 0xbd,
    0xba, 0x59, 0xe8, 0x3d, 0x4b, 0xf1, 0xc1, 0xbd, 0x10, 0x5b,
    0x47, 0x3d, 0xfa, 0xd7, 0x8f, 0xbd, 0x52, 0xde, 0x0b, 0xbd,
    0x65, 0x3e, 0xdc, 0xbd, 0x13, 0x16, 0x85, 0x3d, 0x92, 0x0a,
    0xa9, 0xbd, 0x15, 0x9a, 0xee, 0xbd, 0x74, 0x15, 0xfc, 0x3a,
    0xfe, 0x6d, 0x07, 0x3e, 0x7e, 0x3e, 0xa4, 0x3d, 0xf7, 0x4a,
    0xcb, 0xbd, 0x4f, 0x2b, 0x7b, 0xbd, 0x31, 0x7e, 0x87, 0x3d,
    0x8f, 0x2e, 0xe9, 0x3c, 0x5f, 0xb3, 0xd5, 0xbc, 0xeb, 0xad,
    0x09, 0x3d, 0x70, 0xf4, 0xa2, 0x3d, 0x0e, 0x45, 0x9b, 0x3d,
    0xb5, 0xc6, 0x62, 0xbc, 0xe5, 0x10, 0x59, 0x3d, 0x33, 0x06,
    0xad, 0x3d, 0xf0, 0xdb, 0x38, 0xbd, 0x89, 0x6d, 0x84, 0x3d,
    0x39, 0x47, 0x74, 0x3d, 0x50, 0x94, 0x28, 0xbc, 0xa6, 0x37,
    0x43, 0xbd, 0xdb, 0x27, 0x99, 0x3c, 0x80, 0x07, 0x45, 0xbd,
    0x14, 0xa6, 0x7a, 0xbd, 0x57, 0x56, 0x11, 0x3d, 0xb3, 0x2a,
    0x8f, 0xbc, 0x27, 0x34, 0xaa, 0x3c, 0x36, 0xfd, 0x7b, 0xbc,
    0x2e, 0x60, 0x21, 0x3c, 0xa4, 0x5d, 0x37, 0xbd, 0xe1, 0xa1,
    0x8e, 0xbc, 0x3e, 0x46, 0xb1, 0x3d, 0xc7, 0xce, 0x2f, 0x3d,
    0xe2, 0x11, 0x21, 0x3d, 0x00, 0xcb, 0x14, 0xbd, 0x09, 0xf6,
    0xf2, 0xbd, 0x65, 0x6d, 0x67, 0x3d, 0x2d, 0x55, 0xa4, 0x3b,
    0x93, 0x27, 0x61, 0x3d, 0x79, 0x30, 0xa4, 0xbb, 0xa1, 0xd1,
    0x61, 0x3c, 0x3e, 0x91, 0xdb, 0xbd, 0x9c, 0x46, 0xc6, 0xbd,
    0xe8, 0x61, 0xb6, 0x3d, 0xd9, 0x77, 0x8a, 0x3d, 0x94, 0xa4,
    0x0b, 0x3d, 0x40, 0x05, 0xc4, 0xbc, 0xc7, 0x53, 0x4e, 0xbd,
    0xee, 0xb8, 0x11, 0xbe, 0x3c, 0x12, 0x4b, 0xbd, 0x27, 0xcd,
    0x24, 0xbc, 0xe4, 0x7a, 0x27, 0xbd, 0xba, 0x7b, 0x0c, 0x3d,
    0x66, 0x06, 0xd8, 0x3c, 0x40, 0x53, 0xe8, 0xbc, 0xa6, 0x8b,
    0x3b, 0x3d, 0x29, 0x73, 0x0c, 0xbe, 0x6f, 0x58, 0x28, 0xbe,
    0xce, 0x74, 0x9f, 0x3d, 0x91, 0x71, 0x14, 0xbe, 0xfd, 0xf8,
    0xbd, 0xbb, 0x71, 0x3e, 0x64, 0xbc, 0xbf, 0xb1, 0xc4, 0xbc,
    0xa9, 0x99, 0x94, 0x3c, 0x7b, 0xfb, 0x32, 0xbd, 0xd0, 0x11,
    0x07, 0xbe, 0x42, 0xee, 0xba, 0xbd, 0x97, 0x7f, 0xa2, 0xbd,
    0xa1, 0x0f, 0x92, 0xbc, 0x73, 0xa9, 0x6e, 0x3d, 0xd8, 0xa8,
    0x7c, 0x3c, 0x3c, 0x10, 0xb9, 0xbb, 0x98, 0xc3, 0xbd, 0xbc,
    0xfa, 0x6e, 0xb8, 0xbc, 0x61, 0x70, 0xe2, 0xbc, 0xa9, 0xa8,
    0x91, 0xbd, 0xdb, 0x9a, 0x2a, 0x3d, 0x9c, 0xb7, 0xc3, 0x3d,
    0xa1, 0x4b, 0xf6, 0xbd, 0x32, 0xad, 0xb7, 0x3d, 0xca, 0x3b,
    0x78, 0xbd, 0xdb, 0x10, 0xb4, 0x3d, 0x99, 0x92, 0x9e, 0xbb,
    0x96, 0x20, 0xfe, 0xbd, 0x55, 0x5f, 0x8b, 0x3d, 0x91, 0xbb,
    0xd2, 0xbd, 0x2f, 0xeb, 0xfd, 0xbd, 0x13, 0x71, 0x8a, 0xbd,
    0xea, 0x81, 0x43, 0xbd, 0x7e, 0x51, 0xe4, 0xbd, 0x98, 0xdc,
    0x2c, 0x3b, 0x78, 0x96, 0xac, 0xbd, 0x0e, 0x62, 0x18, 0xbd,
    0x23, 0xbd, 0xf8, 0xbd, 0xa4, 0x68, 0x48, 0xbd, 0xf2, 0xe9,
    0xa7, 0xbd, 0x44, 0x4d, 0xa3, 0x3d, 0xa9, 0x0f, 0x50, 0x3d,
    0xfb, 0x42, 0x8e, 0xbb, 0xc5, 0x8f, 0x9a, 0x3d, 0xb3, 0x71,
    0x97, 0xbd, 0xd6, 0x35, 0x24, 0x3d, 0x3d, 0x89, 0xaa, 0xbd,
    0xcf, 0x5e, 0xa7, 0xbc, 0xd8, 0x56, 0x01, 0xbe, 0xd4, 0x98,
    0x9b, 0xbd, 0x3f, 0xfd, 0x9b, 0xbd, 0xe6, 0xba, 0xe4, 0x3c,
    0xbd, 0x95, 0xd2, 0xbc, 0x35, 0x43, 0x12, 0xbe, 0x16, 0xd0,
    0xb8, 0x3d, 0x24, 0xaa, 0x94, 0x3d, 0x85, 0xbd, 0x2e, 0xbd,
    0x24, 0xd4, 0xd5, 0xbd, 0x7c, 0x44, 0x3d, 0xbe, 0xd6, 0xba,
    0xc8, 0xbd, 0x90, 0x90, 0x69, 0x3d, 0xdb, 0x6f, 0xb2, 0x3d,
    0xc7, 0x4b, 0x6a, 0xbc, 0xa1, 0xf0, 0x9b, 0xbd, 0x6b, 0xb0,
    0xbf, 0xbb, 0x5d, 0x09, 0xb9, 0x3a, 0x4c, 0xc0, 0x46, 0xbe,
    0x9f, 0x6f, 0x0d, 0x3d, 0xd7, 0x77, 0x2c, 0x3d, 0x9b, 0x42,
    0x0d, 0x3b, 0xcb, 0xc9, 0x7c, 0xbd, 0xa0, 0x23, 0x9e, 0xbd,
    0x46, 0x3e, 0xa8, 0x3d, 0xc7, 0x78, 0x0e, 0x3d, 0x45, 0xc4,
    0x8c, 0x3d, 0x32, 0xc5, 0x04, 0x3d, 0x4c, 0xca, 0x63, 0x3c,
    0xcd, 0x48, 0xce, 0x3b, 0x91, 0x12, 0x9e, 0x3b, 0xd1, 0x3c,
    0xb5, 0xbd, 0x82, 0x23, 0x9c, 0x3d, 0x4f, 0xbf, 0x86, 0x3d,
    0xb3, 0x84, 0x8e, 0xbd, 0xa5, 0xd3, 0x74, 0xbd, 0xe9, 0xf1,
    0x4b, 0xbd, 0x04, 0x66, 0x5d, 0x3d, 0xf8, 0x0f, 0xac, 0xbc,
    0xfb, 0xc6, 0x1a, 0xbd, 0x1f, 0xbd, 0xb5, 0x3b, 0x5b, 0xae,
    0xb4, 0x3d, 0xc8, 0x8b, 0x71, 0xbd, 0x91, 0x23, 0x91, 0xbd,
    0x03, 0x61, 0xe0, 0xbc, 0x66, 0x44, 0x57, 0x3d, 0x31, 0x6d,
    0xe9, 0x3c, 0x05, 0x8d, 0xc4, 0xbd, 0x0f, 0xe3, 0xc1, 0xbd,
    0x48, 0xf2, 0xbf, 0xb8, 0xa3, 0x21, 0xb8, 0x3d, 0xc6, 0x1f,
    0x1a, 0xbd, 0xf0, 0x85, 0xb8, 0x3d, 0x18, 0x4d, 0x94, 0xbc,
    0x00, 0x09, 0xae, 0xbd, 0x51, 0x69, 0xe3, 0xbd, 0x46, 0x74,
    0x36, 0xbd, 0x7a, 0x0f, 0x78, 0x3d, 0xe3, 0xa1, 0xd0, 0x3d,
    0x3f, 0x3c, 0xad, 0xbd, 0xd0, 0x42, 0xb6, 0x3d, 0xb3, 0x1a,
    0xac, 0xbd, 0x5d, 0xb8, 0xb4, 0xbd, 0xec, 0x6b, 0xc7, 0xbd,
    0x47, 0xda, 0x6b, 0x3c, 0x1d, 0x5f, 0xef, 0xbd, 0xd7, 0xa0,
    0x04, 0x3c, 0x30, 0x83, 0x12, 0xbd, 0xeb, 0xcd, 0xb3, 0xbd,
    0xaf, 0xf7, 0xaf, 0xbd, 0xa8, 0xef, 0xea, 0xbc, 0x4e, 0x14,
    0xb4, 0xbb, 0x7c, 0xda, 0x02, 0xbc, 0x93, 0xe4, 0x31, 0x3c,
    0x41, 0x89, 0xcb, 0xbd, 0x11, 0xc3, 0x90, 0x3d, 0x21, 0xc1,
    0xcc, 0x3d, 0x2f, 0xda, 0xe5, 0xbd, 0x5a, 0xea, 0xc1, 0xbd,
    0xd6, 0x49, 0xd2, 0xbd, 0x83, 0x4d, 0x7d, 0x3d, 0xb7, 0x7f,
    0x7b, 0x3d, 0x0e, 0x6d, 0x64, 0x3d, 0x4e, 0x3c, 0x90, 0x3c,
    0xe7, 0xb5, 0x0e, 0x3a, 0xc8, 0x6d, 0x3d, 0x3d, 0x36, 0x0a,
    0x75, 0xbd, 0x3d, 0xbd, 0x78, 0x3d, 0x7d, 0xce, 0x24, 0xbd,
    0x4e, 0x65, 0x6e, 0xbc, 0x06, 0x35, 0x91, 0x3d, 0xe0, 0x5a,
    0xae, 0xbd, 0x3c, 0xe3, 0xad, 0xbd, 0x4e, 0x6f, 0x97, 0x3d,
    0xd7, 0x24, 0x23, 0x3d, 0x9b, 0x78, 0xa4, 0x3c, 0xc4, 0x02,
    0x51, 0x3d, 0xa2, 0xc8, 0xdd, 0xbd, 0xfe, 0x78, 0xa6, 0xbd,
    0xce, 0x0f, 0xe3, 0x3d, 0xe2, 0x16, 0xea, 0xbd, 0x5d, 0x6b,
    0xe9, 0xbc, 0x91, 0xa7, 0x47, 0x3d, 0x80, 0x3c, 0xa9, 0x3d,
    0x29, 0xfd, 0xa1, 0x3d, 0xdf, 0x5c, 0x19, 0xbd, 0x26, 0x85,
    0x84, 0x3d, 0xb4, 0x77, 0x79, 0x3c, 0xe5, 0x39, 0x37, 0xbd,
    0x0d, 0xee, 0x77, 0x3d, 0x81, 0x5f, 0x8f, 0xbc, 0x3c, 0x6d,
    0xc6, 0x3d, 0xa8, 0x32, 0xdc, 0x3d, 0xfc, 0x21, 0x7a, 0x3d,
    0xe3, 0xa1, 0x25, 0x3d, 0x1b, 0x7e, 0x8f, 0x3d, 0x89, 0xe2,
    0x05, 0xbd, 0xb3, 0xe2, 0xa5, 0x3c, 0x2c, 0x93, 0x01, 0x3d,
    0xb9, 0x00, 0xf6, 0x3c, 0xd5, 0x89, 0x88, 0x3d, 0xc2, 0x6c,
    0xb5, 0x3d, 0x88, 0x97, 0xe0, 0xbb, 0xf4, 0x5f, 0x6d, 0xbd,
    0xc8, 0xf6, 0x7e, 0x3d, 0x58, 0xf7, 0xc6, 0x3d, 0xd2, 0x74,
    0xc7, 0xbd, 0xf9, 0xc6, 0x52, 0x3d, 0x17, 0x0a, 0x6d, 0x3c,
    0x9d, 0xef, 0x6d, 0x3d, 0xed, 0xe6, 0xcf, 0x3c, 0xfe, 0xea,
    0xd8, 0x3d, 0x37, 0xb8, 0x31, 0xbc, 0x97, 0x65, 0xc8, 0x3d,
    0xbc, 0xa3, 0x42, 0xbd, 0x72, 0x84, 0xf1, 0xbd, 0xea, 0xdd,
    0xc1, 0xbc, 0xc5, 0x37, 0x06, 0x3d, 0x5d, 0x4f, 0x5c, 0x3d,
    0xa5, 0x65, 0xbe, 0x3d, 0xd7, 0x0f, 0xdc, 0x3a, 0xad, 0x42,
    0xe7, 0xbd, 0x8e, 0xe5, 0x15, 0x3d, 0xd4, 0xbb, 0x99, 0xbd,
    0xa7, 0xaa, 0x5d, 0xbd, 0x29, 0x83, 0xd6, 0x3d, 0xbf, 0x37,
    0xa5, 0x3a, 0x60, 0x1c, 0xf1, 0x3d, 0x62, 0x36, 0xbb, 0x3d,
    0xe4, 0xd7, 0xc9, 0x3b, 0x8e, 0x7d, 0xa9, 0xbd, 0x69, 0x6a,
    0xfc, 0xbd, 0x0e, 0x1d, 0x17, 0x3c, 0x02, 0xb8, 0x4f, 0xbd,
    0x37, 0x56, 0x29, 0xbd, 0xf5, 0x3b, 0x01, 0x3d, 0x3c, 0x66,
    0x5f, 0x3d, 0xe4, 0x9b, 0xad, 0x3d, 0xd9, 0x1e, 0x61, 0xbd,
    0x38, 0x3e, 0x8e, 0xbc, 0x0c, 0x7f, 0xd4, 0x3d, 0x08, 0x70,
    0xde, 0xbd, 0x7e, 0x86, 0xa7, 0x3d, 0x9e, 0xdc, 0x8b, 0xbd,
    0xb9, 0xcc, 0x7f, 0xba, 0x4f, 0x8d, 0x47, 0xbd, 0x16, 0x42,
    0xba, 0xbd, 0x73, 0x31, 0xab, 0xbc, 0xed, 0x60, 0xbd, 0x3d,
    0x1c, 0xfb, 0xa7, 0xbd, 0x97, 0x90, 0x93, 0x3d, 0xa8, 0x79,
    0x3a, 0xbd, 0x84, 0x10, 0x7f, 0xbd, 0x79, 0x30, 0x99, 0xbd,
    0xf8, 0x62, 0xf7, 0x3b, 0x5a, 0xea, 0x92, 0x3d, 0x31, 0xc2,
    0xd0, 0x3d, 0x22, 0x96, 0xfb, 0xbd, 0x90, 0xc4, 0x0f, 0xbd,
    0x0c, 0xd2, 0xc7, 0xbd, 0xd8, 0xe0, 0x7e, 0xbd, 0x6a, 0x4b,
    0x25, 0xbc, 0xae, 0x6c, 0x8c, 0x3c, 0x4f, 0x6d, 0x8c, 0x3d,
    0xc5, 0xd3, 0x67, 0x3c, 0x53, 0xb8, 0xe3, 0xbd, 0xd8, 0x2f,
    0xd7, 0x3d, 0xac, 0x32, 0xc8, 0xbd, 0x6a, 0x4c, 0xcd, 0x3d,
    0xae, 0x3f, 0xa4, 0x3d, 0x8c, 0x11, 0xb4, 0xbc, 0x3e, 0x44,
    0xf1, 0xbd, 0x5b, 0xa3, 0x52, 0x3d, 0xb8, 0xf3, 0x9b, 0xbb,
    0x9a, 0xca, 0x3c, 0xbd, 0xa5, 0x1f, 0x98, 0x3d, 0x9f, 0xf8,
    0x66, 0xbd, 0xf1, 0xbf, 0x50, 0x3d, 0x3a, 0xef, 0xda, 0x3d,
    0xca, 0xf9, 0xad, 0xbd, 0xeb, 0x92, 0xe0, 0x3d, 0x25, 0x00,
    0xd0, 0xbc, 0x71, 0x14, 0x35, 0x3a, 0x83, 0x6a, 0x96, 0xbc,
    0x6a, 0x5e, 0xba, 0xbc, 0xd7, 0xb7, 0x23, 0xbd, 0x3e, 0x39,
    0x95, 0x3c, 0xae, 0xff, 0xed, 0x3d, 0x5b, 0xb4, 0x1b, 0x3d,
    0x99, 0xb0, 0xa8, 0x3c, 0x85, 0xfd, 0x72, 0x3d, 0x3e, 0x82,
    0xd0, 0x3d, 0xba, 0x64, 0xe7, 0xbd, 0xa9, 0xaf, 0x98, 0x3c,
    0x8c, 0x69, 0xb5, 0x3c, 0xc7, 0xfa, 0x6b, 0xbd, 0x3f, 0xef,
    0x17, 0xbd, 0x14, 0x7b, 0xa3, 0x3d, 0x06, 0xd1, 0xb2, 0xbd,
    0xa4, 0x2c, 0x26, 0x3d, 0xc2, 0x51, 0xda, 0xbc, 0x29, 0xd6,
    0x3f, 0xbd, 0x12, 0x29, 0x78, 0x3d, 0x46, 0xff, 0x13, 0xbd,
    0x2b, 0xff, 0x9c, 0xbd, 0xf3, 0x03, 0xb2, 0xbd, 0xcc, 0xf2,
    0x5d, 0x3d, 0x3a, 0x58, 0xe8, 0x3a, 0x02, 0x83, 0x4e, 0x3c,
    0xf8, 0x5f, 0xe5, 0x3d, 0x1e, 0x84, 0xcc, 0xbc, 0x8c, 0x9b,
    0x05, 0xbe, 0x8c, 0x5d, 0xfe, 0xbd, 0x63, 0x77, 0xa9, 0x3d,
    0x32, 0x48, 0x24, 0x3d, 0xdf, 0x0a, 0xb0, 0xbb, 0x67, 0x8d,
    0x11, 0x3d, 0xb6, 0x7e, 0x7c, 0x3d, 0x9e, 0xea, 0x3e, 0x3d,
    0x3f, 0xf6, 0xfc, 0xbd, 0x85, 0x0f, 0xbc, 0xbd, 0x2b, 0x04,
    0x64, 0x3c, 0xd4, 0xd4, 0xa7, 0xbc, 0x68, 0xb9, 0x9a, 0xbd,
    0xd4, 0x78, 0x32, 0xbd, 0xf2, 0xdf, 0x86, 0xbd, 0xb5, 0xa4,
    0x76, 0x3b, 0x71, 0xff, 0xb9, 0xbc, 0xb7, 0x83, 0x23, 0x3d,
    0x5e, 0x8d, 0xb6, 0xbc, 0x46, 0x60, 0xdd, 0x3d, 0x0a, 0x4f,
    0x51, 0x3d, 0x17, 0x95, 0x31, 0x3d, 0xf5, 0x50, 0xe6, 0xbc,
    0xb4, 0x3f, 0x54, 0x3d, 0x5a, 0x7b, 0xb6, 0x3d, 0x81, 0x51,
    0xad, 0x3b, 0x18, 0xaa, 0x28, 0x3d, 0xb1, 0xe2, 0x83, 0xbb,
    0x62, 0xbe, 0xc0, 0xbc, 0x26, 0xb5, 0xda, 0xbc, 0xb3, 0xc3,
    0xdc, 0x3c, 0x01, 0xea, 0x8c, 0x3c, 0x00, 0x27, 0xe1, 0xbd,
    0x71, 0xb0, 0x97, 0xbd, 0xac, 0xbe, 0x14, 0xbd, 0x15, 0x5d,
    0xbc, 0xbd, 0x75, 0x0f, 0xde, 0xbd, 0x8a, 0xc6, 0xe0, 0xbd,
    0xdf, 0xf5, 0x55, 0x3c, 0xd6, 0xc1, 0x25, 0xbc, 0x55, 0x48,
    0x83, 0xbd, 0x8c, 0xfb, 0xa8, 0xbd, 0xd2, 0xdd, 0xcd, 0xbd,
    0x43, 0x5f, 0x03, 0x3e, 0xd4, 0xa0, 0x80, 0x3d, 0x3a, 0x58,
    0x99, 0x3d, 0x61, 0xff, 0xc9, 0x3d, 0xc9, 0x3b, 0x92, 0xbd,
    0x7c, 0x1d, 0x80, 0x3c, 0x34, 0xd8, 0xd5, 0xbd, 0x62, 0x9b,
    0x08, 0xbe, 0xf4, 0xc4, 0x5e, 0x3c, 0xbc, 0xcf, 0xa5, 0x3d,
    0x4f, 0x86, 0x99, 0xbd, 0xd7, 0x8e, 0x20, 0x3d, 0x2f, 0x9c,
    0xdb, 0xbd, 0xe4, 0xa2, 0xc7, 0x3d, 0x08, 0xfb, 0xb3, 0x3b,
    0x40, 0xf1, 0x13, 0x3d, 0x22, 0xa4, 0x01, 0xbe, 0xe3, 0xec,
    0x92, 0xbd, 0x93, 0x80, 0xcc, 0x3d, 0x6b, 0xaa, 0xda, 0xbc,
    0xb9, 0x32, 0xb9, 0x3d, 0xbd, 0xbc, 0x8b, 0xbd, 0x58, 0xa6,
    0x94, 0x3c, 0x07, 0x8b, 0x01, 0x3d, 0x1d, 0xfc, 0x13, 0x3d,
    0x4a, 0x23, 0x6c, 0xbd, 0x91, 0xb7, 0xca, 0xbd, 0x35, 0x12,
    0xa1, 0x3c, 0x4d, 0x49, 0xbb, 0x3d, 0xa5, 0x2a, 0x0d, 0xbc,
    0x85, 0xcf, 0xca, 0x3c, 0x1a, 0x52, 0xd3, 0xbd, 0x4a, 0xf4,
    0x6d, 0x3c, 0xb7, 0x23, 0x3a, 0xbd, 0xbc, 0x4e, 0xc7, 0xbc,
    0x07, 0x2f, 0x48, 0x3d, 0x65, 0x52, 0x76, 0xbb, 0x89, 0x2a,
    0x79, 0xbd, 0x9d, 0x3e, 0x1e, 0xbd, 0x3e, 0xaa, 0x73, 0x3d,
    0x6c, 0x0f, 0xe0, 0xbd, 0x3d, 0x88, 0x41, 0x3d, 0xf1, 0x5f,
    0xf6, 0x3d, 0x74, 0x67, 0x15, 0x3b, 0xa0, 0xed, 0x9c, 0x3d,
    0xfc, 0x6f, 0x8f, 0x3d, 0x40, 0x27, 0xe2, 0x3d, 0x56, 0xff,
    0x8b, 0xbd, 0xd2, 0x7a, 0xfa, 0x3c, 0x78, 0x1e, 0x4b, 0x3d,
    0xda, 0xf4, 0x1f, 0xbc, 0x45, 0x8c, 0xa9, 0xbc, 0x02, 0x9e,
    0x09, 0xbd, 0x5c, 0x84, 0x6a, 0x3d, 0xb9, 0x97, 0x72, 0x3d,
    0xd4, 0xaf, 0x9c, 0xbc, 0x8b, 0xa3, 0xd6, 0xbd, 0xbd, 0x8d,
    0xa7, 0x3d, 0xbe, 0xee, 0xae, 0x3d, 0x18, 0x92, 0x6a, 0xbd,
    0xea, 0xf8, 0xb4, 0xbd, 0x46, 0x04, 0x05, 0xbe, 0xfd, 0x52,
    0xc7, 0xbd, 0xa6, 0x12, 0xc6, 0x3d, 0xbd, 0x6c, 0x7b, 0x3d,
    0xbf, 0x4b, 0xc5, 0x3d, 0xdf, 0xa5, 0x2d, 0xbd, 0x16, 0x57,
    0xa1, 0x3d, 0x0e, 0x54, 0xce, 0xbd, 0x41, 0xd6, 0x7c, 0x3d,
    0x07, 0x0f, 0x74, 0xbc, 0xbf, 0x0e, 0x1c, 0xbd, 0xdc, 0x9e,
    0x97, 0xbd, 0xc1, 0xe7, 0x9b, 0x3d, 0x20, 0x77, 0xd4, 0xbd,
    0x5b, 0xcb, 0xd9, 0x3d, 0x3a, 0x3e, 0x0a, 0x3a, 0x5c, 0x44,
    0xd7, 0xbc, 0x57, 0xcd, 0x87, 0xbd, 0xf8, 0x15, 0xda, 0x3d,
    0x48, 0x90, 0xeb, 0xbc, 0x55, 0x3c, 0x92, 0xbd, 0x1a, 0xb0,
    0x90, 0xbc, 0xdf, 0xcf, 0xe9, 0x3c, 0x1b, 0x71, 0x8b, 0x3d,
    0xea, 0x1f, 0xdc, 0x3d, 0xb9, 0x7e, 0xbf, 0x3c, 0xc2, 0xad,
    0x48, 0xbd, 0x3c, 0x3e, 0x80, 0xbc, 0x5d, 0xf2, 0xb7, 0xbd,
    0xac, 0xc2, 0xd3, 0x3d, 0xa7, 0x79, 0xfd, 0x3d, 0x32, 0x9b,
    0xbf, 0x3c, 0x95, 0x75, 0x78, 0x3c, 0xcf, 0x88, 0xe6, 0xbd,
    0xba, 0x01, 0xf0, 0x3c, 0xf5, 0x02, 0xe3, 0xbd, 0x55, 0xea,
    0x75, 0xbc, 0x9c, 0x39, 0x8d, 0xbd, 0x6d, 0xb8, 0x72, 0xbd,
    0x1f, 0x0b, 0x12, 0xbd, 0x6d, 0x3a, 0x7e, 0xbd, 0x43, 0xac,
    0xb3, 0xbd, 0xf5, 0xf9, 0xb3, 0xbd, 0xd3, 0x0b, 0xd3, 0xba,
    0xa2, 0x71, 0x0e, 0xbc, 0xf0, 0x3a, 0x64, 0x3c, 0x68, 0xaf,
    0xc5, 0x3d, 0x71, 0x6d, 0x6f, 0x3d, 0xfc, 0xf5, 0x8d, 0x3c,
    0x12, 0xe9, 0x0b, 0xbd, 0xcb, 0x58, 0x99, 0x3c, 0x6b, 0x81,
    0xcc, 0xbd, 0x0c, 0xb2, 0xb9, 0xba, 0x13, 0xa4, 0x2a, 0xbc,
    0xcb, 0x49, 0x20, 0x3b, 0xc4, 0x45, 0xa5, 0xbd, 0xaa, 0xdd,
    0xce, 0xbd, 0x37, 0x42, 0xef, 0xbd, 0xb0, 0xea, 0x0c, 0xbe,
    0x32, 0x73, 0x30, 0x3d, 0xc5, 0x8d, 0x6b, 0xbd, 0xc9, 0xff,
    0x99, 0x3d, 0xbd, 0xa0, 0x93, 0x3d, 0x66, 0x0d, 0x56, 0xbd,
    0x40, 0xde, 0x99, 0xbd, 0x5d, 0x2e, 0x2a, 0x3d, 0x9b, 0xb4,
    0xe1, 0x3d, 0x1b, 0x15, 0xc7, 0xbc, 0xe5, 0x94, 0x33, 0x3d,
    0x19, 0x2e, 0xec, 0x3b, 0x42, 0x74, 0xf2, 0x3a, 0xc4, 0x3b,
    0x51, 0xbd, 0x3d, 0x86, 0xa6, 0xbd, 0x67, 0x87, 0x97, 0xbd,
    0x21, 0x66, 0xd9, 0x3d, 0x6c, 0x51, 0x2a, 0xbd, 0xdf, 0xfa,
    0x95, 0x3c, 0x92, 0xf6, 0xae, 0xbd, 0x64, 0x65, 0x22, 0xba,
    0xc6, 0xd4, 0xbc, 0xbc, 0xfd, 0x8e, 0x24, 0x3d, 0x36, 0x80,
    0x80, 0xbb, 0x89, 0xa8, 0xa6, 0x3d, 0xf6, 0x55, 0xb6, 0x3d,
    0xe3, 0x53, 0x0b, 0xbe, 0xf4, 0xfc, 0xba, 0x3d, 0x3e, 0x71,
    0xd7, 0xbd, 0x0f, 0x81, 0xb3, 0xbd, 0xed, 0x72, 0xbe, 0xbd,
    0xb2, 0x1a, 0x95, 0xbb, 0x9f, 0xce, 0x9c, 0x3d, 0xae, 0x84,
    0xaa, 0xbd, 0x93, 0x2e, 0x8f, 0x3d, 0xd7, 0xde, 0xe0, 0x3c,
    0x70, 0xd2, 0xb4, 0x3c, 0xa0, 0xd2, 0xc1, 0xbc, 0x97, 0x2c,
    0xfa, 0xbd, 0xbc, 0x8b, 0x1e, 0xbe, 0xa9, 0xc8, 0xa9, 0x3d,
    0x1b, 0x2e, 0xba, 0x3d, 0xf5, 0xb1, 0x50, 0xbd, 0xfa, 0xee,
    0x6b, 0x3d, 0xc3, 0x84, 0x02, 0xbe, 0xac, 0x16, 0x6e, 0xbd,
    0x60, 0xc6, 0x03, 0x3d, 0x13, 0xc8, 0xca, 0x3d, 0x54, 0x49,
    0x28, 0xbd, 0x9e, 0x23, 0x48, 0x3d, 0x58, 0x18, 0x9a, 0xbd,
    0x7b, 0xfb, 0x25, 0xbd, 0xad, 0x61, 0xfb, 0xbc, 0xfd, 0x1a,
    0x90, 0xbd, 0x35, 0x63, 0x8e, 0x3d, 0xb5, 0x2d, 0x02, 0xbc,
    0x0d, 0x77, 0x89, 0x3d, 0x1a, 0x75, 0xea, 0xbc, 0x5c, 0xec,
    0xd2, 0xbd, 0x4f, 0xef, 0xe0, 0x3d, 0x77, 0x41, 0x64, 0xbc,
